the 138448
, 112654
. 93307
of 71653
in 59643
and 54065
<BT> 49833
is 48239
a 43611
was 27192
to 25635
as 15945
by 15427
it 15084
on 12619
with 11493
united 11237
he 11130
city 10831
from 10550
for 10412
states 10211
at 9965
airport 9661
&quot; 9446
an 9177
- 9047
s 8665
country 8070
has 8040
county 8014
new 7815
&apos; 7814
which 7533
name 6834
&apos;s 6743
are 6734
leader 6636
its 6237
) 6062
club 6019
( 5626
located 5174
that 5075
his 4947
university 4885
part 4762
location 4695
c 4498
international 4450
first 4418
language 4399
re@@ 4281
were 4213
also 4212
one 4038
or 4035
area 4029
– 3986
e 3963
: 3961
state 3851
s@@ 3734
0 3695
i 3658
texas 3514
k@@ 3499
number 3480
region 3467
-@@ 3409
alan 3409
where 3356
after 3345
league 3270
1 3253
capital 3225
served 3225
group 3222
d@@ 3205
o 3161
be 3155
d 3150
runway 3141
football 3101
school 3091
they 3083
known 3061
e@@ 3003
this 2943
u 2943
de 2922
national 2911
ing 2893
; 2884
air 2869
al 2852
american 2813
who 2775
season 2751
had 2695
n@@ 2683
t 2640
/ 2638
ethnic 2594
place 2591
born 2589
york 2567
t@@ 2543
team 2542
l 2541
o@@ 2506
b 2497
north 2489
apollo 2426
member 2419
bacon 2413
st 2411
ingredient 2409
r 2397
their 2388
g@@ 2380
di 2359
two 2357
p@@ 2351
main 2341
al@@ 2306
english 2305
south 2302
population 2294
c@@ 2287
er 2284
es 2284
in@@ 2257
dish 2250
y@@ 2244
m@@ 2229
i@@ 2208
en@@ 2187
m 2173
f 2167
west 2152
3 2134
established 2106
john 2100
r@@ 2084
institute 2083
but 2077
india 2051
monument 2051
most 2037
played 2036
n 2015
u@@ 2013
made 2011
time 2008
b@@ 2005
been 1989
z@@ 1980
during 1979
jersey 1978
ed 1966
technology 1949
have 1946
years 1936
f@@ 1933
aarhus 1923
y 1920
l@@ 1917
de@@ 1909
an@@ 1908
h@@ 1890
war 1886
ro@@ 1878
based 1871
length 1864
used 1863
named 1861
became 1849
ation 1836
sea 1828
acharya 1821
ground 1821
town 1821
william 1804
world 1804
founded 1801
v@@ 1799
us 1782
% 1779
ar@@ 1771
2 1763
force 1760
character 1755
level 1753
birth 1741
le@@ 1739
square 1737
indonesia 1732
into 1726
se@@ 1725
people 1722
pilot 1703
k 1699
company 1698
above 1692
am@@ 1686
g 1686
w@@ 1677
building 1673
there 1671
president 1666
year 1656
co@@ 1655
8 1654
ch@@ 1650
other 1635
land 1632
man 1630
italy 1629
ingredients 1624
found 1619
business 1617
ers 1612
published 1608
spain 1605
members 1598
census 1597
j@@ 1591
11 1587
see 1583
12 1568
journal 1565
madrid 1563
metres 1556
east 1541
infantry 1530
nasa 1529
home 1526
including 1520
sauce 1517
americans 1509
4 1507
long 1499
california 1491
bean 1489
date 1489
li@@ 1482
shepard 1478
crew 1473
ted 1473
music 1469
er@@ 1461
ab@@ 1460
when 1442
elliot 1439
aldrin 1432
p 1431
called 1430
second 1423
ti@@ 1422
all 1420
fc 1420
1634 1417
un@@ 1415
ad@@ 1405
ts 1403
st@@ 1400
austin 1391
public 1385
built 1380
largest 1380
anders 1378
division 1374
a@@ 1373
6 1369
service 1365
asteroid 1359
army 1357
hall 1356
between 1355
mo@@ 1352
on@@ 1333
buzz 1332
being 1329
or@@ 1329
serie 1329
ated 1328
ar 1327
college 1324
18@@ 1323
house 1321
won 1319
mendrisio 1317
led 1316
con@@ 1312
di@@ 1308
under 1303
ia 1301
district 1296
5 1292
ate 1291
series 1278
le 1276
denmark 1272
later 1271
township 1271
not 1270
more 1263
street 1262
then 1261
miles 1260
until 1260
river 1252
mar@@ 1247
regional 1240
created 1239
as@@ 1235
well 1231
manager 1230
spoken 1227
ne@@ 1225
three 1223
2010 1220
san 1218
social 1217
can 1216
is@@ 1212
may 1208
sh@@ 1208
family 1207
pennsylvania 1204
lo@@ 1197
over 1188
ri@@ 1183
center 1181
age 1178
la 1178
high 1176
at@@ 1175
she 1167
book 1166
el@@ 1162
sciences 1159
province 1152
kingdom 1151
british 1150
following 1147
type 1145
while 1145
both 1142
7 1139
title 1138
operating 1130
designed 1129
comics 1126
son 1121
9 1118
central 1113
ac@@ 1110
20 1101
space 1098
such 1096
since 1094
before 1092
w 1092
10 1091
washington 1091
2014 1088
century 1088
be@@ 1085
mississippi 1085
white 1080
h 1077
virginia 1076
rock 1075
up 1074
per@@ 1073
v 1072
began 1071
union 1071
only 1069
july 1064
11th 1062
general 1052
si@@ 1052
su@@ 1051
tr@@ 1051
european 1045
way 1043
early 1041
po@@ 1039
te@@ 1039
accademia 1034
pe@@ 1033
ting 1033
philippines 1032
15 1031
ii 1031
road 1030
association 1029
atlantic 1028
operated 1019
&amp; 1014
variation 1014
akita 1013
architettura 1012
malaysia 1011
mexico 1010
bo@@ 1009
organisation 1006
many 999
5@@ 992
france 992
ton 990
end 987
system 986
ag@@ 980
mw-parser-output 976
lu@@ 973
singapore 973
pakistan 969
sandwich 969
ter 968
mc 963
ac 962
test 961
her 956
plays 956
architect 951
great 951
ly 948
government 946
el 941
out 941
th@@ 941
3@@ 936
ic@@ 936
play 936
band 931
es@@ 931
2000 930
dis@@ 930
battle 926
formed 924
major 922
aircraft 921
x 920
23 919
written 919
beef 914
do@@ 914
ayam 911
wisconsin 906
march 904
to@@ 904
ex@@ 903
italian 903
london 900
it@@ 898
en 896
man@@ 896
ice 894
through 894
4@@ 893
me@@ 887
june 886
launch 885
four 884
some 883
7@@ 877
than 877
car@@ 876
he@@ 876
sri 875
ur@@ 874
athens 873
ic 872
gr@@ 871
party 870
turkey 870
include 867
island 867
seat 866
lake 863
red 861
professional 860
qu@@ 859
bar@@ 858
adams 856
switzerland 856
17 853
september 849
comes 848
greece 848
january 848
ohio 842
creator 841
england 841
several 841
cup 840
6@@ 839
ak@@ 838
art 835
along 833
br@@ 831
1963 828
bi@@ 827
academic 826
ap@@ 826
paisa 826
october 825
penyet 824
fried 822
arem 820
dessert 820
ho@@ 819
april 816
gen 816
conference 814
pre@@ 814
gu@@ 812
december 810
spanish 809
released 806
serves 804
elevation 802
crisis 801
would 801
14 797
pi@@ 796
18 795
no@@ 794
community 792
pro@@ 792
metropolitan 791
bionico 789
ge@@ 789
binignit 787
il@@ 786
former 783
au@@ 782
chicken 781
bakewell 780
du@@ 780
har@@ 780
side 780
ste@@ 780
students 779
native 774
author 772
ir@@ 772
line 772
selected 771
2@@ 770
azerbaijan 770
science 770
go@@ 769
included 766
louis 766
java 765
so@@ 765
baku 763
august 762
hotel 761
park 760
2009 759
department 758
gi@@ 757
now 757
flight 756
barajas 752
romania 752
however 750
9@@ 749
ajax 749
alma 748
indian 748
historic 747
mater 747
ol@@ 742
bandeja 741
king 740
completed 737
about 736
ma@@ 736
mary 736
november 735
adolfo 734
engineering 733
moved 733
use 731
calcio 729
retired 729
ds 727
ations 726
navy 726
popular 726
civil 724
th 722
day 721
x@@ 720
groups 719
office 719
ru@@ 719
bavarian 718
17@@ 716
britain 716
ship 716
ver@@ 716
engine 714
les 714
ram 714
0@@ 711
chicago 711
owned 710
bu@@ 708
explosion 708
° 708
1@@ 707
sp@@ 707
death 706
history 706
ad 705
ates 705
der 704
total 704
baked 703
lanka 703
left 703
album 702
vi@@ 702
base 700
ed@@ 700
publisher 700
avenue 699
cleveland 699
republic 699
work 698
february 697
these 695
back 693
big 693
followed 692
row 692
teams 692
order 691
ter@@ 691
ous 689
appleton 687
museum 687
orbit 687
career 685
within 685
2011 684
ci@@ 684
station 683
we@@ 683
8@@ 682
no 681
stadium 681
te 681
akron 678
includes 678
inter@@ 678
nationality 677
flint 676
third 675
ment 672
los 671
authority 670
eric 670
joined 670
ni@@ 670
addis 669
rice 669
ating 668
dallas 668
eastern 668
her@@ 667
produced 667
acta 666
ireland 666
j 666
for@@ 664
mon@@ 660
mer@@ 659
se 658
suárez 658
head 657
minister 657
airbase 656
champions 656
top 656
z 655
can@@ 654
mission 654
press 654
cu@@ 653
same 652
tion 652
als 650
am 650
ten@@ 650
chinese 649
ley 649
ababa 648
birmingham 648
currently 645
pudding 645
records 644
arena 642
comic 642
ks 642
staff 642
au 640
um 640
course 638
playing 638
georgia 637
discovered 634
development 632
28 631
ally 631
2008 629
able 629
construction 628
french 628
site 628
da 627
graduated 627
started 626
ajoblanco 625
fe@@ 625
par@@ 624
16 623
av@@ 623
im@@ 623
indiana 621
ine 621
21 620
port 620
alaska 619
alpena 619
em@@ 619
turkish 619
asian 618
250 617
johnson 617
period 617
style 617
fighter 615
lee 615
southern 614
size 609
abilene 608
powys 607
tions 607
memorial 606
federal 604
northern 604
30 603
making 602
took 602
van 602
asad 600
hampshire 598
robert 597
law 596
mi@@ 596
ans 595
aviation 595
cities 595
sportiva 595
07 594
200 594
centre 594
against 593
status 593
council 591
died 591
hu@@ 590
iraq 590
25 589
sch@@ 589
according 588
occupation 588
tu@@ 588
village 588
hong 587
floor 586
him 586
maryland 585
ve 585
allama 584
ings 584
iqbal 584
aw@@ 583
due 583
film 582
james 582
min@@ 582
rebellion 582
ber@@ 581
afc 580
car 580
german 580
egg 578
ps 578
cor@@ 577
around 576
japan 576
record 575
novel 574
medal 573
27 572
become 572
design 572
kong 572
late 572
populous 570
antwerp 568
bakso 567
million 567
tri@@ 567
bangalore 566
official 566
george 565
ke@@ 565
pl@@ 565
copenhagen 564
municipality 564
military 563
africa 562
cuisine 562
stage 562
michigan 561
sky 561
ta 561
agra 560
large 560
near 560
southeast 560
western 559
blackpool 558
kway 557
2012 556
poaceae 556
form 555
16@@ 554
13 552
asilomar 552
times 552
opened 551
teow 551
premier 550
african 549
black 549
ford 548
os 548
cl@@ 547
ridge 547
surface 544
ana 543
cr@@ 542
serving 542
small 542
ang@@ 541
round 541
2007 540
although 540
america 540
amsterdam 540
mor@@ 540
received 540
per 539
signed 539
ve@@ 539
zealand 539
2015 536
ors 536
ph@@ 536
originally 535
developed 534
media 534
ant 533
22 532
mu@@ 531
water 531
set 530
sub@@ 530
men 529
elected 527
15@@ 526
body 526
bella 525
ce@@ 525
rome 525
affiliated 522
ju@@ 522
current 521
ent 521
versus 521
asam 519
alcatraz 518
oil 518
aids 516
food 516
km 516
best 515
contains 515
pu@@ 515
technological 515
alternative 513
and@@ 513
den 513
miller 513
pacific 513
1996 512
manhattan 512
com@@ 511
final 511
launched 511
old 511
ments 509
often 509
ard 508
delaware 508
evil 508
ni 508
ary 507
grounds 507
karnataka 507
awh 506
five 506
visvesvaraya 506
batchoy 505
isbn 505
hockey 504
referred 504
dr@@ 503
them 503
preceded 502
14th 501
alderney 501
do 501
indonesian 501
local 501
bbc 500
ding 500
2019 499
al- 499
class 499
dr 499
point 499
held 498
bananaman 497
pedas 497
currency 496
footballer 494
over@@ 494
term 494
,000 493
earth 493
europe 493
ing@@ 493
300 492
af@@ 492
az@@ 492
colmore 492
field 492
uk 492
2013 491
us@@ 491
sports 490
using 490
games 489
debut 488
ian 487
negre 486
ai@@ 485
roma 485
ma 484
ke 483
librarians 482
ati@@ 481
pena 479
pr@@ 479
ters 478
issn 477
education 476
whose 476
100 475
andrews 474
feet 474
administrative 472
angola 472
having 472
like 472
places 472
air@@ 471
ashgabat 471
ko@@ 471
é@@ 471
1,@@ 470
added 470
fr@@ 470
harbor 470
1932 469
last 469
str@@ 469
1st 468
among 468
another 468
der@@ 468
ty 468
den@@ 467
volunteer 467
,@@ 466
chief 466
chievo 466
leaders 466
01 465
hi@@ 465
live 465
six 465
bay 464
loyal 464
clubs 463
adare 462
amatriciana 462
az 462
counties 462
power 462
romance 462
2017 461
derbyshire 461
election 460
jo@@ 460
ked 460
verona 460
out@@ 459
ay@@ 458
ity 458
mars 458
ons 458
19 457
david 457
politician 456
dancer 455
championship 454
moon 454
lin@@ 451
lies 450
2006 449
ch 449
original 448
worked 448
martyrs 447
morgan 447
la@@ 446
project 446
asser 445
books 445
sa 445
des 443
song 443
forces 442
sk@@ 442
airlines 441
ms 441
obama 441
affiliation 440
gh@@ 440
governor 440
levy 440
meat 440
ville 440
1918 439
barack 439
war@@ 439
came 438
fort 438
glastonbury 438
mathematics 438
once 438
tur@@ 438
vegetables 438
available 436
church 436
command 436
cre@@ 436
lead 436
owner 435
col@@ 434
story 434
so 433
atatürk 432
each 432
24 431
marriott 431
char@@ 430
compete 430
peter 430
sold 430
model 429
̇ 429
ardmore 428
batagor 428
campus 428
completion 428
afonso 427
fin@@ 427
observatory 427
ven@@ 426
version 426
atlanta 425
ou@@ 425
ance 424
fi@@ 424
the@@ 424
2005 423
ah@@ 423
bhajji 423
own 423
property 423
academy 422
blues 422
months 422
castle 421
dublin 421
fortress 421
50 420
bl@@ 420
est 420
lunar 420
mb@@ 420
ow@@ 420
count 419
considered 418
2016 417
any 417
commercial 417
mis@@ 417
03 416
attended 415
full 415
research 415
summit 414
sur@@ 414
103 412
14@@ 412
1969 412
ded 412
frank 412
thomas 412
wizard 412
1962 411
ah 411
bre@@ 411
systems 411
arapiraquense 410
ig@@ 409
life 409
baths 407
charlie 407
mal@@ 407
severed 407
wasp 407
men@@ 406
bur@@ 405
coconut 405
grey 405
headquarters 405
manor 405
sweet 405
because 404
belgium 404
went 403
zmir 403
ali@@ 402
production 402
2001 400
greenville 400
russian 400
— 399
10@@ 397
ampara 397
ari@@ 397
arròs 397
bal@@ 397
cap@@ 397
kerala 397
ra 397
} 397
father 396
lan@@ 396
returned 396
sc 396
ties 396
coast 395
hospital 395
illinois 395
northeast 395
situated 395
gen@@ 394
1998 393
off 393
abbreviation 391
banana 391
introduced 391
pal@@ 391
32 390
award 390
ben@@ 390
peninsula 390
cal@@ 389
inhabitants 389
nor@@ 389
ny 389
astronomer 388
me 388
print 387
á@@ 387
2004 386
ist 386
control 385
fu@@ 385
islands 385
originates 385
will 385
1957 384
artists 384
hill 384
parker 384
position 384
sen@@ 384
winning 384
ak 383
category 383
seasons 383
sun 383
tes 383
works 383
political 382
ano 381
appointed 381
germany 381
flights 380
traditional 380
val@@ 380
26 379
et@@ 379
nation 379
ban@@ 378
parts 378
pietro 378
tic 378
adisham 377
areas 377
nu@@ 377
ck 376
mir 376
2003 374
appeared 374
hero 374
mel@@ 374
20@@ 373
agremiação 373
commonly 373
kilometres 373
milk 373
siomay 373
southwest 373
very 373
{ 373
1955 372
40 372
code 372
julia 372
bureau 371
pages 371
pat@@ 371
wh@@ 371
2,@@ 370
buildings 370
replaced 370
dutch 369
similar 369
super@@ 369
decembrie 368
distinguished 368
pri@@ 368
register 368
co 367
corps 367
spe@@ 367
tower 367
amdavad 366
promoted 366
600 365
gufa 365
ka 365
label 365
program 365
ten 365
list 364
pen@@ 364
pradesh 364
sal@@ 364
usually 364
ot@@ 363
promotion 363
stuart 363
various 363
wood 363
2018 362
ang 362
estimated 362
just 362
northwest 362
wi@@ 362
34 361
36 361
bor@@ 361
era 361
ker 361
renamed 361
are@@ 360
make 360
assault 359
diameter 359
languages 359
significant 359
ya 359
ethiopia 358
gubbio 358
aip 357
brazil 357
lahore 356
writer 356
1910 355
paul 355
young 355
spent 354
addition 353
fish 353
jr 353
route 353
33 352
assembly 352
cooked 352
different 352
go 352
officially 352
ships 352
single 352
vincent 352
vo@@ 352
approximately 351
bel@@ 351
density 351
iii 351
player 351
quarterly 351
still 351
cakes 350
pan@@ 350
royal 350
wheeler 350
co-@@ 349
35 348
did 348
killed 348
maj 348
mat@@ 348
module 348
baymax 347
ca 347
ne 347
ram@@ 347
t-@@ 347
territory 347
addiction 346
ku@@ 346
prime 346
wal@@ 346
blt 345
game 345
gar@@ 345
ge 345
win 345
11@@ 344
fylde 344
glen 344
ren@@ 342
run 341
uttar 341
working 341
1980s 340
confederate 340
days 340
valley 340
et 339
je@@ 339
ner 339
﻿ 339
ce 338
awarded 337
director 337
aid 336
all@@ 336
che@@ 336
contributing 336
living 336
livorno 336
charles 335
constructed 335
discipline 335
hy@@ 335
ina 335
kh@@ 335
operations 335
commander 334
hol@@ 334
netherlands 334
santa 334
ves 334
cas@@ 333
dc 333
del@@ 333
pop 333
culture 332
operator 332
architecture 331
ariane 331
ie 331
regions 331
sti@@ 331
tor@@ 331
again 330
cornell 330
finished 330
fo@@ 330
oclc 330
parliament 330
ver 330
ay 329
belt 329
chi@@ 329
ned 329
services 329
success 329
# 328
campaign 328
engines 328
punjab 328
relegated 328
features 327
management 327
technical 327
youth 327
ative 326
demonym 326
salle 326
1930 325
leading 325
battlefield 324
given 324
statistical 324
today 324
uefa 324
ath@@ 323
potato 323
ct 322
loc@@ 322
support 322
31 321
becoming 321
madin 321
1974 320
bat@@ 320
empire 320
grantville 320
important 320
lost 320
seven 320
titles 320
tive 320
bas@@ 319
cesena 319
hal@@ 319
advances 318
frederick 318
na 318
right 318
show 318
tw@@ 318
win@@ 318
ens 317
pork 317
29 316
attack 316
floors 316
sts 316
sy@@ 316
board 315
bro@@ 315
corporation 315
ell 315
summer 315
vi 315
mile 314
ns 314
ut 314
cri@@ 313
dales 313
ocean 313
together 313
1970s 312
cen@@ 312
half 312
pres@@ 312
ended 311
francisco 311
hardcover 311
majority 311
por@@ 311
society 311
under@@ 311
0s 310
act 310
adirondack 310
astronaut 310
beginning 310
brown 310
changed 310
lower 310
nhl 310
1927 309
1983 309
border 309
competition 309
fourth 309
hours 309
recorded 309
stor@@ 309
02 308
fl@@ 308
polonica 308
trans@@ 308
3rd 307
ass@@ 307
fer@@ 307
forms 307
palaeontologica 307
result 307
ry 307
short 307
2002 306
3,@@ 306
countries 306
d-@@ 306
mid-@@ 306
modern 306
successful 306
training 306
barny 305
delta 305
gal@@ 305
greek 305
lccn 305
ler 305
í@@ 305
$ 304
downtown 304
grant 304
jens 304
key 304
ran@@ 304
1933 303
she@@ 303
williams 303
24@@ 302
bands 302
malay 302
sl@@ 302
vehicle 302
bordered 301
gettysburg 301
less 301
green 300
what 300
buffalo 299
christian 299
des@@ 299
ence 299
flemish 299
grand 299
parent 299
ra@@ 299
sed 299
turkmenistan 299
common 298
ies 298
ll@@ 298
malaysian 298
remained 298
sar@@ 298
saranac 298
ast@@ 297
fire 297
gold 297
incorporated 297
marvel 297
operation 297
pe 297
post 297
uses 297
09 296
austria 296
down 296
editor 296
ese 296
height 296
ses 296
garlic 295
stories 295
battles 294
bill 294
ft 294
re-@@ 294
start 294
1990s 293
ator 293
id 293
ise 293
ob@@ 293
portion 293
veil 293
continued 292
minutes 292
previously 292
artist 291
consists 291
eng@@ 291
low 291
lumezzane 291
sing 291
1960s 290
1990 290
backup 290
johann 290
ning 290
paris 290
serve 290
1966 289
court 289
identifier 289
joe 289
michael 289
richard 289
width 289
ain@@ 288
ben 288
industry 288
orbits 288
s-@@ 288
light 287
stone 287
marine 286
res 286
tirstrup 286
ul@@ 286
urban 286
announced 285
fre@@ 285
oregon 285
placed 285
range 285
reached 285
schiphol 285
sumatra 285
complex 284
e-@@ 284
ón 284
bank 283
dimitra 283
ff@@ 283
gl@@ 283
dead 282
grove 282
information 282
ling 282
mad@@ 282
metal 282
plant 282
settlement 282
transport 282
units 282
worth 282
coach 281
dedicated 281
efxeinoupolis 281
mag@@ 281
railroad 281
sometimes 281
china 280
cream 280
hot 280
kilometers 280
prior 280
aenir 279
arts 279
cars 279
citation 279
degree 279
ess@@ 279
ff 279
monocacy 279
oc@@ 279
tenant 279
trade 279
1923 278
gujarat 278
retirement 278
fullname 277
genre 277
om@@ 277
up@@ 277
committee 276
dan 276
dean 276
greater 276
härtel 276
influenced 276
much 276
star@@ 276
1994 275
ake 275
covers 275
next 275
star 275
1999 274
alba 274
re 274
ach@@ 273
contract 273
entertainment 273
managed 273
match 273
residents 273
scott 273
wor@@ 273
′ 273
1928 272
bridge 272
democratic 272
ical 272
throughout 272
almond 271
cape 271
meters 271
op@@ 271
polish 271
ton@@ 271
connecticut 270
cur@@ 270
higher 270
26@@ 269
azal 269
il 269
ili@@ 269
martin 269
mas@@ 269
45 268
congress 268
del 268
highest 268
moscow 268
naval 268
railway 268
ser@@ 268
tart 268
1995 267
argentina 267
awards 267
cam@@ 267
din@@ 267
divided 267
ines 267
middle 267
sw@@ 267
ying 267
acquired 266
leaf 266
campeonato 265
catalonia 265
door 265
elizabeth 265
market 265
taking 265
borders 264
designated 264
gave 264
material 264
ney 264
1980 263
ai 263
beach 263
financial 263
jackson 263
math 263
ss 263
standard 263
tal@@ 263
vic@@ 263
08 262
across 262
andalusia 262
eccentricity 262
associazione 261
borough 261
chairman 261
entered 261
ics 261
passenger 261
sausage 261
188@@ 260
1986 260
cruise 260
independent 260
ker@@ 260
low@@ 260
mark 260
pol@@ 260
taylor 260
1959 259
representatives 259
tier 259
angeles 258
associated 258
ev@@ 258
ham 258
involved 258
landing 258
rocket 258
um@@ 258
listed 257
500 256
could 256
fifth 256
ger@@ 256
hand@@ 256
isidro 256
previous 256
sion 256
soldiers 256
though 256
airline 255
bread 255
cro@@ 255
designation 255
em 255
housing 255
ino 255
ins 255
liga 255
limited 255
sa@@ 255
19@@ 254
cultural 254
legislature 254
master 254
sin@@ 254
é 254
brussels 253
children 253
diagonal 253
hor@@ 253
acm 252
alcobendas 252
arrabbiata 252
ash@@ 252
bri@@ 252
creek 252
take 252
cer@@ 251
cheese 251
fought 251
front 251
radio 251
ty@@ 251
wil@@ 251
1988 250
ade 250
aek 250
architectural 250
cul@@ 250
ken@@ 250
land@@ 250
marcolini 250
punk 250
und@@ 250
districts 249
don 249
enti@@ 249
jones 249
lis@@ 249
milan 249
schneider 249
30@@ 248
chancellor 248
dor@@ 248
soviet 248
stars 248
série 248
taken 248
39 247
ite 247
1997 246
ammann 246
brother 246
ered 246
ind@@ 246
michele 246
organization 246
shumai 246
ur 246
29@@ 245
ents 245
free 245
mayor 245
movement 245
prefecture 245
1987 244
initially 244
married 244
massachusetts 244
means 244
que 244
ric@@ 244
secretary 244
tre@@ 244
wife 244
37@@ 243
brasileiro 243
marce 243
q 243
roman 243
studied 243
00@@ 242
48 242
lemon 242
plan 242
tic@@ 242
cowper 241
joseph 241
magdeburg 241
names 241
ranked 241
economic 240
ering 240
latin 240
min-width 240
pro 240
reg@@ 240
release 240
stöger 240
wa 240
88 239
away 239
every 239
irish 239
matches 239
nasi 239
section 239
electric 238
felipe 238
geo@@ 238
invasion 238
lancashire 238
ran 238
tomato 238
und 238
upper 238
via 238
beans 237
larger 237
players 237
starring 237
&apos;@@ 236
20th 236
ba 236
brom 236
ele@@ 236
lived 236
metapán 236
performed 236
rotation 236
vis@@ 236
by@@ 235
officer 235
ving 235
you 235
zed 235
active 234
bs 234
canada 234
featured 234
fenchurch 234
id@@ 234
passed 234
q@@ 234
grasso 233
josé 233
lines 233
originated 233
reference 233
settled 233
word 233
capacity 232
carolina 232
don@@ 232
franklin 232
log@@ 232
mother 232
ring 232
saw 232
wilson 232
ga 231
operates 231
187@@ 230
fifa 230
non-@@ 230
185@@ 229
60 229
ale 229
brought 229
canadian 229
companies 229
independence 229
provided 229
table 229
va 229
variety 229
″ 229
captain 228
cat@@ 228
comm@@ 228
ly@@ 228
nwc 228
organized 228
represented 228
stu@@ 228
ta@@ 228
ther@@ 228
weymouth 228
few 227
fran@@ 227
super 227
borman 226
fac@@ 226
songs 226
ster 226
sto@@ 226
gener@@ 225
hub 225
my 225
present 225
ahmet 224
upon 224
cy@@ 223
elements 223
ham@@ 223
javanese 223
little 223
olive 223
person 223
philippine 223
points 223
senate 223
those 223
1976 222
ages 222
cruises 222
even 222
events 222
hessarghatta 222
os@@ 222
role 222
turn 222
vice 222
560090 221
ble 221
dos 221
fiat 221
gro@@ 221
houston 221
lands 221
others 221
planet 221
radhakrishnan 221
reyes 221
soldevanahalli 221
1862 220
ate@@ 220
distance 220
end@@ 220
get 220
manchester 220
my@@ 220
primary 220
sarvapalli 220
tan 220
wing 220
wrote 220
ó@@ 220
700 219
90 219
administration 219
anaheim 219
asia 219
ast 219
avocado 219
eggs 219
enaire 219
ically 219
minor 219
television 219
terms 219
04 218
att@@ 218
kar@@ 218
merger 218
pp@@ 218
singer 218
tar@@ 218
airports 217
average 217
ick 217
iraqi 217
mil@@ 217
nickname 217
offered 217
plack 217
amateurs 216
juventus 216
reserve 216
soho 216
tun@@ 216
universities 216
36@@ 215
close 215
models 215
wall 215
abbreviated 214
colombian 214
executive 214
rank 214
a-@@ 213
antioquia 213
eg@@ 213
kennedy 213
1991 212
arabic 212
columbia 212
eu@@ 212
facility 212
mur@@ 212
ori@@ 212
real 212
regular 212
spacecraft 212
tro@@ 212
1993 211
cake 211
coun@@ 211
famous 211
hop 211
ised 211
numerous 211
teen 211
economy 210
ism 210
nationwide 210
od@@ 210
son@@ 210
cumberland 209
defined 209
derived 209
eight 209
est@@ 209
guard 209
mac@@ 209
25@@ 208
37 208
blue 208
ces 208
els 208
ent@@ 208
kansas 208
rest 208
ska 208
carried 207
dy 207
ear@@ 207
euro 207
flowering 207
honda 207
schools 207
acy 206
eventually 206
ica 206
provinces 206
vin@@ 206
combined 205
moving 205
novels 205
sands 205
sound 205
alkmaar 204
ell@@ 204
ever 204
honor 204
ill@@ 204
madison 204
merged 204
orbital 204
peanut 204
ple 204
2nd 203
ability 203
boston 203
designer 203
dishes 203
iz@@ 203
lars 203
mes@@ 203
new@@ 203
open 203
senior 203
1968 202
1989 202
28@@ 202
ction 202
ot 202
tru@@ 202
19th 201
ants 201
ats 201
bb@@ 201
bolt 201
ching 201
franchise 201
governing 201
impact 201
mid@@ 201
stre@@ 201
1961 200
1981 200
assigned 200
burg 200
defen@@ 200
founding 200
ger 200
gre@@ 200
observations 200
pic@@ 200
sions 200
sive 200
uni@@ 200
ado 199
bengo 199
crewed 199
further 199
growing 199
med 199
missions 199
move 199
oo@@ 199
related 199
return 199
sk 199
38 198
45@@ 198
action 198
amp@@ 198
ars 198
asteroids 198
edition 198
houses 198
ington 198
lippincott 198
shi@@ 198
sol@@ 198
130 197
4,@@ 197
aston 197
expansion 197
goal 197
rou@@ 197
soon 197
1971 196
27@@ 196
characters 196
night 196
special 196
1982 195
ab 195
commerce 195
disney 195
dro@@ 195
ign@@ 195
neighborhood 195
passengers 195
roman@@ 195
two-@@ 195
cabinet 194
lockheed 194
tan@@ 194
basketball 193
dre@@ 193
fly 193
foundation 193
ine@@ 193
jarama 193
noodles 193
starting 193
ut@@ 193
wilkins 193
1907 192
1931 192
alfred 192
botta 192
draft 192
ini 192
tim 192
47@@ 191
anderson 191
ant@@ 191
bak@@ 191
biden 191
boeing 191
ches 191
hopkins 191
richardson 191
settlers 191
shrimp 191
tem@@ 191
tics 191
tournament 191
ways 191
za 191
competed 190
harrietstown 190
issue 190
planned 190
spo@@ 190
trav@@ 190
vehicles 190
1964 189
aired 189
auburn 189
curitiba 189
founder 189
heavy 189
hip 189
industrial 189
inhabited 189
orange 189
purchased 189
tered 189
terminal 189
1985 188
52 188
ck@@ 188
eaten 188
sarawak 188
track 188
transportation 188
wolf 188
come 187
cost 187
decided 187
described 187
entry 187
fall 187
fiction 187
les@@ 187
origin 187
paracuellos 187
publishing 187
sburg 187
shares 187
sour 187
spaniards 187
1960 186
chrysler 186
ctive 186
cut 186
earned 186
ely 186
garden 186
gate 186
ici@@ 186
ire 186
johns 186
juan 186
nfl 186
noodle 186
structure 186
usa 186
y-@@ 186
41 185
cover 185
defeated 185
len 185
platform 185
pos@@ 185
1950s 184
appearance 184
core 184
ct@@ 184
flour 184
hel@@ 184
ill 184
mexican 184
mountain 184
notable 184
ore 184
pas@@ 184
transferred 184
ved 184
af 183
bar 183
defense 183
firm 183
grew 183
if 183
leipzig 183
mario 183
mason 183
postgraduate 183
rights 183
tennis 183
transactions 183
1977 182
1992 182
chosen 182
consisting 182
flying 182
headquartered 182
ish 182
ryan 182
san@@ 182
1967 181
1979 181
commanded 181
engineer 181
ha@@ 181
henry 181
jack 181
junior 181
lieutenant 181
mostly 181
secret 181
sent 181
tt@@ 181
46 180
asher 180
atlas 180
bac@@ 180
clear 180
cold 180
deceased 180
formation 180
gor@@ 180
inclination 180
jorge 180
practice 180
primarily 180
thre@@ 180
ung 180
communities 179
cour@@ 179
dan@@ 179
emb@@ 179
families 179
going 179
hon@@ 179
let@@ 179
our 179
pfk 179
without 179
1973 178
44 178
80 178
alabama 178
fighting 178
finishing 178
rouleau 178
water@@ 178
aya 177
background 177
branch 177
buenos 177
dark 177
duncan 177
ful 177
sebastián 177
stadio 177
tin 177
widodo 177
acc@@ 176
alfa 176
antonio 176
belongs 176
joko 176
nam@@ 176
rap@@ 176
speci@@ 176
ward 176
737 175
ara 175
berg 175
dave 175
instead 175
maran 175
pinhais 175
1965 174
84 174
ack@@ 174
ahmedabad 174
bus 174
cher 174
drafted 174
ona 174
ory 174
ston 174
studio 174
1950 173
2020 173
ata 173
bon@@ 173
build 173
federation 173
fle@@ 173
losing 173
ming 173
mit@@ 173
nations 173
rasmussen 173
rolando 173
satellite 173
surrounding 173
var@@ 173
aires 172
bronze 172
ched 172
gin@@ 172
hood 172
kir@@ 172
may@@ 172
sergio 172
tim@@ 172
tony 172
tt 172
’ 172
1970 171
56@@ 171
arrived 171
costa 171
ders 171
ek 171
icao 171
leg@@ 171
mercury 171
mus@@ 171
oldest 171
try 171
ze 171
ail 170
changes 170
expanded 170
formerly 170
hi 170
mah@@ 170
meaning 170
nas@@ 170
said 170
sco@@ 170
sen 170
sister 170
unit 170
uruguay 170
winners 170
yo@@ 170
ł@@ 170
ain 169
cs1-@@ 169
ged 169
gh 169
gri@@ 169
guitar 169
ha 169
mp@@ 169
ness 169
squadron 169
sv 169
são 169
th-largest 169
000 168
1975 168
adi@@ 168
cle@@ 168
cted 168
fair@@ 168
itself 168
kin 168
labour 168
never 168
ottoman 168
pol 168
ze@@ 168
ag 167
blockbuster 167
chili 167
colle@@ 167
commissioned 167
ght 167
kin@@ 167
massimo 167
municipal 167
ok 167
running 167
streets 167
taqaddum 167
12@@ 166
annual 166
boy 166
detroit 166
ery 166
fleet 166
nearby 166
opening 166
ris@@ 166
room 166
separate 166
sil@@ 166
sportpark 166
ther 166
viking 166
ö@@ 166
aged 165
ans@@ 165
cit@@ 165
daughter 165
especially 165
highway 165
households 165
met@@ 165
mumbai 165
ora 165
performance 165
ski 165
student 165
submarine 165
sun@@ 165
thir@@ 165
ícolo 165
aj@@ 164
cru@@ 164
neighboring 164
occupied 164
shared 164
th-@@ 164
tical 164
57@@ 163
acts 163
adopted 163
ani 163
ankara 163
arr@@ 163
block 163
classified 163
covered 163
create 163
despite 163
dodge 163
drago 163
enc@@ 163
ep@@ 163
flo@@ 163
ita 163
lia 163
met 163
mountains 163
petersburg 163
piece 163
scheduled 163
tv 163
versions 163
1946 162
ave 162
ere 162
falls 162
fiorentina 162
han@@ 162
hiv 162
isabelle 162
lar@@ 162
producer 162
recording 162
ys 162
ane 161
camp 161
douglas 161
either 161
human 161
jun@@ 161
max 161
outside 161
pap@@ 161
populated 161
prominent 161
sambal 161
seen 161
sel@@ 161
speed 161
study 161
subsequently 161
tin@@ 161
toekomst 161
1949 160
35@@ 160
aci@@ 160
acres 160
al-@@ 160
ancient 160
argentine 160
ase 160
butter 160
dance 160
fallujah 160
festival 160
jusuf 160
kalla 160
ki 160
ki@@ 160
km2 160
mathematica 160
ol 160
sing@@ 160
sugar 160
tional 160
1984 159
ace@@ 159
ada 159
austrian 159
bo 159
bul@@ 159
celebr@@ 159
dic@@ 159
ep 159
flew 159
fri@@ 159
inten@@ 159
iulia 159
mixture 159
obtained 159
od 159
overall 159
smo@@ 159
sons 159
sport 159
writing 159
1972 158
47 158
francis 158
generally 158
goals 158
good 158
maiden 158
monterey 158
refers 158
suburban 158
ure 158
we 158
97 157
australia 157
ays 157
behind 157
charter 157
comprises 157
creation 157
dou@@ 157
feature 157
four-@@ 157
ist@@ 157
manuel 157
motor 157
off@@ 157
plan@@ 157
private 157
remaining 157
russia 157
smaller 157
tom 157
201 156
70 156
88@@ 156
ari 156
audi 156
brothers 156
dun@@ 156
ero 156
fied 156
freedom 156
interest 156
karl 156
king@@ 156
kuttikkattoor 156
manages 156
mass 156
metro 156
missouri 156
ria 156
submarines 156
albany 155
ales 155
avi@@ 155
carroll 155
emerged 155
latter 155
lo 155
magnitude 155
paraguay 155
potomac 155
px 155
st-@@ 155
strip 155
strong 155
v8 155
zz@@ 155
42 154
alized 154
entire 154
fa 154
hungarica 154
increased 154
ones 154
regiment 154
slo@@ 154
terrace 154
thus 154
vir@@ 154
ə@@ 154
3500 153
apo@@ 153
championships 153
channel 153
clellan 153
historical 153
infraero 153
mul@@ 153
rel@@ 153
stri@@ 153
styles 153
tly 153
towns 153
00 152
afit 152
ap 152
appro@@ 152
cir@@ 152
colon@@ 152
ee 152
fal@@ 152
finland 152
gemini 152
iron 152
lou@@ 152
mand@@ 152
mattarella 152
municipalities 152
participated 152
police 152
pul@@ 152
scored 152
sho@@ 152
studies 152
transfer 152
1958 151
admitted 151
ational 151
covering 151
cross 151
cylinder 151
hamburg 151
joining 151
mir@@ 151
nine 151
north@@ 151
roger 151
simply 151
susana 151
wide 151
agency 150
black@@ 150
brand 150
does 150
finals 150
fk 150
gram 150
high@@ 150
hilmi 150
himself 150
let 150
luanda 150
mes 150
rise 150
sam@@ 150
wards 150
zi@@ 150
1904 149
additional 149
amateur 149
diesel 149
discovery 149
fron@@ 149
hen@@ 149
launches 149
lin 149
montevideo 149
scottish 149
separated 149
squ@@ 149
va@@ 149
warren 149
-2 148
1913 148
atic 148
aus 148
centuries 148
cli@@ 148
coden 148
cros@@ 148
divisions 148
down@@ 148
florida 148
hit 148
klaus 148
limerick 148
logy 148
natural 148
species 148
vel@@ 148
view 148
439 147
bc 147
cau@@ 147
caused 147
cho@@ 147
drive 147
dru@@ 147
failed 147
far 147
sav@@ 147
sm@@ 147
smith 147
victory 147
43 146
armed 146
ators 146
bis@@ 146
growth 146
jam 146
main-belt 146
network 146
older 146
tenants 146
&apos;t 145
automobile 145
concept 145
constitution 145
continental 145
deal 145
earlier 145
gained 145
garth 145
granted 145
issues 145
jazz 145
lincoln 145
manufacturer 145
mi 145
olympic 145
pa 145
post-@@ 145
provide 145
put 145
republican 145
standing 145
tallest 145
three-@@ 145
tor 145
valls 145
walk 145
zo 145
38@@ 144
83 144
asphalt 144
assi@@ 144
aver@@ 144
clo@@ 144
cou@@ 144
cting 144
duc@@ 144
establishment 144
granite 144
host 144
jacob 144
jalisco 144
kl@@ 144
las 144
musical 144
nix 144
poland 144
powered 144
principal 144
rooms 144
whom 144
1956 143
address 143
almost 143
atio 143
chan@@ 143
dar@@ 143
fulton 143
georges 143
link 143
nat@@ 143
ously 143
particularly 143
revival 143
rules 143
soci@@ 143
ye@@ 143
4th 142
anc@@ 142
ao 142
app@@ 142
ato 142
bought 142
collection 142
división 142
flown 142
forced 142
gazettes 142
ille 142
product 142
romeo 142
thing 142
van@@ 142
87@@ 141
94 141
airfield 141
ality 141
bin@@ 141
conservative 141
ey 141
fun@@ 141
generation 141
green@@ 141
inaugurated 141
lewis 141
marble 141
ordered 141
panucci 141
port@@ 141
raised 141
ro 141
runs 141
spir@@ 141
stock 141
traffic 141
wat@@ 141
108 140
18th 140
1954 140
assistant 140
ba@@ 140
ball 140
bucharest 140
daniel 140
farm@@ 140
future 140
global 140
high-@@ 140
hills 140
inner 140
ished 140
ists 140
lega 140
modi 140
narendra 140
ranil 140
rio 140
sixth 140
supported 140
well@@ 140
1929 139
4-@@ 139
coming 139
constitu@@ 139
er-@@ 139
gazette 139
haputale 139
hard 139
hun@@ 139
ily 139
larcher 139
loo@@ 139
palace 139
qualified 139
wickremesinghe 139
writers 139
án 139
4165 138
58 138
eredivisie 138
example 138
friends 138
germans 138
ight 138
jo 138
justice 138
makes 138
peri@@ 138
qui@@ 138
ranks 138
reach 138
reports 138
roll 138
sab@@ 138
sandesh 138
sir 138
soup 138
sta 138
suburb 138
thakur 138
variations 138
vermont 138
ys@@ 138
189@@ 137
a- 137
collabor@@ 137
consisted 137
facilities 137
gas 137
genus 137
ir 137
jakarta 137
joint 137
lam@@ 137
nearly 137
recently 137
thy 137
all- 136
child 136
electronic 136
instru@@ 136
join 136
leaves 136
pa@@ 136
rather 136
remains 136
salvador 136
shor@@ 136
stru@@ 136
venue 136
vol@@ 136
ads 135
ae 135
albums 135
bol@@ 135
bot@@ 135
bounded 135
categorized 135
clu@@ 135
composed 135
dem 135
far@@ 135
onal 135
rail 135
separ@@ 135
speak 135
territories 135
trac@@ 135
06 134
anthem 134
auth@@ 134
ax@@ 134
burbank 134
carnival 134
cuyahoga 134
eagle 134
find 134
kil@@ 134
least 134
med@@ 134
required 134
spar@@ 134
steven 134
swedish 134
swiss 134
twice 134
urs 134
wiley 134
appearances 133
attached 133
auron 133
bottom 133
but@@ 133
combat 133
coordinates 133
corner 133
edward 133
forest 133
full-@@ 133
heritage 133
historically 133
kn@@ 133
kno@@ 133
largely 133
oli@@ 133
origins 133
solent 133
stony 133
successor 133
takes 133
vil@@ 133
75 132
albuquerque 132
bil@@ 132
claimed 132
containing 132
convention 132
dried 132
edge 132
eds 132
ences 132
fication 132
fif@@ 132
format 132
help 132
here 132
italians 132
ken 132
ong 132
perón 132
pt 132
ranking 132
religion 132
sey 132
survey 132
vessel 132
wit@@ 132
ae@@ 131
allowed 131
ending 131
fa@@ 131
jam@@ 131
jan 131
kesel 131
lt 131
mainly 131
occurred 131
race 131
relegation 131
scripture 131
shar@@ 131
spring 131
studios 131
superman 131
walt 131
wes@@ 131
! 130
23rd 130
aches 130
alist 130
arm@@ 130
c-@@ 130
catholic 130
change 130
colony 130
commission 130
drew 130
extending 130
fe 130
four@@ 130
granola 130
hudson 130
iber@@ 130
provincial 130
rear 130
seagle 130
seminar 130
sou@@ 130
valencian 130
05 129
17th 129
210 129
320 129
5px 129
ained 129
belgaum 129
brooklyn 129
ess 129
fuel 129
influence 129
mainstream 129
measures 129
operate 129
publication 129
ri 129
ry@@ 129
shipyard 129
ú@@ 129
1948 128
bru@@ 128
chopped 128
closed 128
corn@@ 128
dates 128
deputy 128
dri@@ 128
dy@@ 128
fictional 128
lane 128
lazio 128
leaving 128
magazine 128
minotaur 128
pepper 128
pin@@ 128
prabhukumar 128
residence 128
richmond 128
run@@ 128
shore 128
tho@@ 128
uk@@ 128
widely 128
1945 127
99 127
abhandlungen 127
anti@@ 127
barcelona 127
coppa 127
davutoğlu 127
extended 127
jim 127
mathematischen 127
observation 127
patrick 127
sh 127
speaking 127
steel 127
steve 127
survi@@ 127
train 127
agu@@ 126
boat 126
break@@ 126
chart 126
graduate 126
hotels 126
humberto 126
inauguration 126
japanese 126
kol@@ 126
mar 126
mixed 126
ond@@ 126
purpose 126
recipe 126
satellites 126
sim@@ 126
ture 126
winter 126
5,@@ 125
alexis 125
bun@@ 125
cab@@ 125
canonica 125
chris 125
christmas 125
complete 125
erie 125
finnish 125
golden 125
ide 125
jose 125
lla 125
m-@@ 125
manufactured 125
midfielder 125
nes 125
rivers 125
ron 125
shows 125
superleague 125
tex@@ 125
then@@ 125
tomatoes 125
1978 124
aste@@ 124
authors 124
bachelor 124
che 124
combination 124
deep 124
fruit 124
impro@@ 124
integrated 124
io 124
jer@@ 124
ong@@ 124
pain@@ 124
palaeontol 124
prin@@ 124
pris@@ 124
provisional 124
saint 124
ty-@@ 124
urich 124
wo@@ 124
women 124
yn 124
1952 123
better 123
boundary 123
celery 123
defender 123
emplo@@ 123
gam@@ 123
ich 123
ila 123
mie 123
restaurants 123
roberts 123
sr 123
tel 123
thor@@ 123
ü@@ 123
aa 122
achieved 122
ack 122
break 122
command@@ 122
condensed 122
declared 122
domestic 122
friend 122
genres 122
goo@@ 122
inv@@ 122
judge 122
kk@@ 122
net 122
oklahoma 122
onist 122
past 122
placid 122
rer 122
respect 122
sig@@ 122
simon 122
tou@@ 122
uruguayan 122
with@@ 122
1908 121
1947 121
73 121
eli@@ 121
head@@ 121
library 121
maple 121
mer 121
nation@@ 121
outer 121
perth 121
rodríguez 121
roots 121
sau@@ 121
silvano 121
stan 121
starred 121
subsequent 121
surrounded 121
unds 121
15th 120
acf 120
alongside 120
astronauts 120
ath 120
attorney 120
aw 120
competing 120
edit@@ 120
ently 120
equ@@ 120
hosts 120
inf@@ 120
kel@@ 120
lay@@ 120
offices 120
plants 120
prokopis 120
ras@@ 120
recent 120
responsible 120
sage 120
split 120
turned 120
150 119
andrew 119
ann 119
ard@@ 119
aves 119
berlin 119
bert 119
broadcasted 119
chute 119
estate 119
hamilton 119
hard@@ 119
health 119
helped 119
journals 119
mental 119
moder@@ 119
respectively 119
rich 119
ries 119
roads 119
self-@@ 119
sher@@ 119
solanales 119
universität 119
ym@@ 119
-based 118
55 118
access 118
beat 118
chi 118
cks 118
comp@@ 118
cooking 118
cy 118
dist@@ 118
ena 118
halimah 118
identified 118
increase 118
inspired 118
ish@@ 118
lic@@ 118
news 118
rca 118
roc@@ 118
specific 118
swe@@ 118
types 118
0px 117
40@@ 117
51 117
_ 117
activities 117
adjacent 117
alexander 117
aur@@ 117
canal 117
connected 117
consecutive 117
cos 117
experience 117
folk 117
hp 117
longer 117
love 117
manufacturing 117
mont@@ 117
nicknamed 117
ola 117
paulo 117
portions 117
pped 117
races 117
rm 117
sc@@ 117
seats 117
share 117
stations 117
subsidiary 117
suffered 117
val 117
yacob 117
“ 117
ace 116
arch@@ 116
architects 116
aureoles 116
autonomous 116
brig 116
cia 116
conejo 116
continu@@ 116
foreign 116
gran@@ 116
hungarian 116
indic@@ 116
leagues 116
motors 116
newly 116
o-@@ 116
onia 116
recognized 116
rule 116
sor@@ 116
sponge 116
theater 116
tourist 116
typically 116
wagon 116
ws 116
16000 115
1953 115
610 115
aff@@ 115
ale@@ 115
back@@ 115
colonel 115
connection 115
ef 115
featuring 115
finally 115
globemaster 115
got 115
igh@@ 115
inc 115
interior 115
jac@@ 115
kings 115
kr@@ 115
løkke 115
medical 115
nikos 115
plans 115
refle@@ 115
representing 115
rotterdam 115
sg 115
si 115
stands 115
stanley 115
stern 115
taro 115
ti 115
titled 115
torino 115
tsipras 115
under-@@ 115
visayas 115
92 114
aco@@ 114
baltic 114
bury 114
congre@@ 114
cts 114
dam@@ 114
donald 114
drawn 114
exp@@ 114
loss 114
ls 114
maine 114
nar@@ 114
noted 114
oddie 114
one-@@ 114
posed 114
prepared 114
process 114
seven@@ 114
sides 114
sul@@ 114
titan 114
variant 114
warm 114
1936 113
8,@@ 113
86 113
anbar 113
arlington 113
asi@@ 113
blackwell 113
color 113
ctions 113
direct 113
docu@@ 113
ec@@ 113
exclu@@ 113
gil@@ 113
helicopter 113
inside 113
ized 113
kes 113
ketchup 113
lira 113
mented 113
offers 113
p-@@ 113
positions 113
rapid 113
schol@@ 113
six@@ 113
wayne 113
ø@@ 113
17000 112
ago 112
albedo 112
ama 112
boo@@ 112
columbus 112
db@@ 112
defence 112
equipment 112
form@@ 112
headquarter 112
hosted 112
incorpor@@ 112
iohannis 112
lag@@ 112
lot 112
luxury 112
mahajan 112
mart@@ 112
method 112
mp 112
pavlopoulos 112
red@@ 112
reported 112
salt 112
sliced 112
spaceflight 112
spread 112
ticino 112
7,@@ 111
aar@@ 111
advanced 111
after@@ 111
ately 111
ber 111
centr@@ 111
daily 111
ea 111
f-@@ 111
fans 111
govern@@ 111
gun@@ 111
hin@@ 111
kochi 111
köln 111
mix@@ 111
nia 111
parents 111
ph 111
s- 111
smashed 111
sty@@ 111
sumitra 111
sville 111
tch 111
trinidad 111
wave 111
west@@ 111
1919 110
1940 110
78 110
ach 110
arabian 110
audi@@ 110
aviator 110
bio@@ 110
bird 110
chor@@ 110
cs 110
factor 110
finish 110
gordon 110
harvard 110
husband 110
kal@@ 110
kor@@ 110
ky 110
limits 110
peppers 110
publishes 110
reddy 110
refer@@ 110
representative 110
resulting 110
ruled 110
seattle 110
town@@ 110
video 110
vision 110
voutsis 110
wheel 110
1909 109
1920 109
72 109
ater@@ 109
brazilian 109
camp@@ 109
class@@ 109
climate 109
conducted 109
ctor 109
diverse 109
equipped 109
euro@@ 109
highly 109
initi@@ 109
isi@@ 109
jes@@ 109
korean 109
ord 109
paperback 109
rein@@ 109
runners-up 109
shredded 109
stages 109
th-most 109
theatre 109
travel 109
winner 109
yl@@ 109
81 108
artur 108
ato@@ 108
banks 108
brigade 108
broad@@ 108
candidate 108
challinor 108
clube 108
compared 108
contrac@@ 108
ecliptic 108
existence 108
flor@@ 108
focus 108
heinlein 108
ile 108
israeli 108
iting 108
kur@@ 108
liber@@ 108
meyer 108
mo 108
mont 108
paraná 108
pit@@ 108
post@@ 108
predecessor 108
professor 108
pur 108
rasizade 108
ros@@ 108
rot@@ 108
sago 108
sand@@ 108
soto 108
sting 108
tically 108
tour 108
victoria 108
49@@ 107
acted 107
ards 107
creating 107
dar 107
educated 107
eigh@@ 107
gs 107
gulf 107
ico 107
itan 107
lem@@ 107
lie 107
lion 107
mr 107
officers 107
pes 107
pione@@ 107
playoff 107
quality 107
recordings 107
sesame 107
soccer 107
tele@@ 107
una 107
vely 107
vienna 107
” 107
1500 106
2000s 106
46@@ 106
albert 106
appearing 106
asa 106
broadcast 106
corn 106
dated 106
edwin 106
engle 106
explor@@ 106
fox 106
governed 106
grass 106
ills 106
in-@@ 106
initial 106
istanbul 106
itali@@ 106
ith 106
jet 106
ll 106
mari@@ 106
oper@@ 106
rem@@ 106
revolutionary 106
rupee 106
sandwiches 106
seventh 106
solo 106
squeezed 106
stra@@ 106
sum@@ 106
universitas 106
ˈ@@ 106
400 105
arms 105
augh@@ 105
b-@@ 105
basis 105
capable 105
competes 105
dale 105
defeat 105
dick 105
estimate 105
eth@@ 105
gan 105
hand 105
intended 105
laura 105
mendoza 105
mic@@ 105
ner@@ 105
observed 105
oni 105
pers 105
physics 105
puerto 105
queen 105
roll@@ 105
skyscraper 105
supply 105
volkswagen 105
wounded 105
xon 105
approved 104
bad@@ 104
bowl 104
burn 104
domin@@ 104
dynamics 104
flags 104
gang 104
ging 104
gradu@@ 104
graduating 104
ink 104
lun@@ 104
mac 104
object 104
ow 104
page 104
resulted 104
safety 104
scene 104
sn@@ 104
spalletti 104
ths 104
tives 104
tran@@ 104
5th 103
65 103
85 103
asherton 103
balder 103
below 103
bern@@ 103
boiled 103
cargo 103
case 103
chorizo 103
colombia 103
cu 103
cullins 103
exchange 103
farm 103
german@@ 103
graphic 103
guadalajara 103
individuals 103
institutions 103
jayawardenepura 103
kon@@ 103
lawyer 103
mill 103
mit 103
payload 103
programme 103
rated 103
reaching 103
ref@@ 103
sci@@ 103
shire 103
torpedo 103
vari@@ 103
± 103
agent 102
ail@@ 102
astronom@@ 102
ca@@ 102
colonial 102
confectionery 102
confederates 102
counter@@ 102
essex 102
ges 102
guiana 102
ko 102
labels 102
luciano 102
makeup 102
mix 102
nomin@@ 102
pain 102
parties 102
pick@@ 102
pier@@ 102
plat@@ 102
plaza 102
produce 102
raj@@ 102
rasher 102
regi@@ 102
reli@@ 102
resi@@ 102
rural 102
scri@@ 102
second-@@ 102
sele@@ 102
sequel 102
shortly 102
spices 102
squad 102
state@@ 102
succeeded 102
third-@@ 102
uss 102
wy@@ 102
yards 102
è@@ 102
-up 101
affairs 101
almonds 101
ams 101
arti@@ 101
background-image 101
bow@@ 101
broth 101
cel@@ 101
chester 101
decades 101
det@@ 101
dj 101
elections 101
fellow 101
invol@@ 101
jus@@ 101
kotte 101
locomotive 101
mill@@ 101
mond 101
mun@@ 101
ownership 101
pad 101
part@@ 101
peoples 101
politics 101
presence 101
publications 101
rand@@ 101
security 101
ser 101
soy 101
swit@@ 101
too 101
tual 101
url 101
vac@@ 101
walter 101
wer 101
53 100
89 100
agreement 100
agriculture 100
alls 100
an- 100
attrac@@ 100
bes 100
boundaries 100
brandon 100
chevrolet 100
contemporary 100
conven@@ 100
eric@@ 100
extre@@ 100
holland 100
hou@@ 100
hur@@ 100
joh@@ 100
liberty 100
naming 100
ov 100
possible 100
promo@@ 100
residential 100
selling 100
shape 100
tam@@ 100
1934 99
39@@ 99
98 99
advisor 99
ati 99
attacks 99
bab@@ 99
bir@@ 99
blu@@ 99
bundelkhand 99
cameron 99
carrier 99
characterized 99
charge 99
concer@@ 99
contr@@ 99
coup 99
cyril 99
destroyed 99
diego 99
doctor 99
dol@@ 99
eligibility 99
grad@@ 99
guitarist 99
ison 99
le-@@ 99
maccabi 99
mol@@ 99
muffin 99
orbiting 99
organs 99
qualifying 99
raisins 99
replace 99
resort 99
rup@@ 99
speaker 99
stand 99
stret@@ 99
suarez 99
taining 99
tennessee 99
top@@ 99
wolfman 99
77 98
aco 98
all-@@ 98
arabs 98
arros 98
captured 98
constituency 98
controlled 98
coupe 98
discover@@ 98
draw 98
establish 98
fare 98
fernando 98
fit@@ 98
fountain 98
gus 98
holds 98
ingham 98
inter 98
laid 98
main@@ 98
maritime 98
mentioned 98
minced 98
nova 98
ows 98
playoffs 98
roy 98
rus@@ 98
scale 98
scor@@ 98
senator 98
shu@@ 98
stay 98
transmission 98
woo@@ 98
zh@@ 98
100305 97
186@@ 97
1911 97
1926 97
adam 97
ame 97
amount 97
aries 97
asunción 97
belly 97
boer 97
care@@ 97
cin@@ 97
classic 97
dav@@ 97
defensive 97
dia 97
dic 97
dynamo 97
ella 97
expe@@ 97
georgian 97
hau@@ 97
how@@ 97
ick@@ 97
lic 97
ling@@ 97
ny@@ 97
onally 97
particip@@ 97
pastry 97
performing 97
pot 97
pur@@ 97
sarnie 97
scientific 97
source 97
south@@ 97
stan@@ 97
to-@@ 97
tra 97
voted 97
walker 97
worldwide 97
1942 96
978 96
ali 96
arri@@ 96
attempt 96
beyond 96
butty 96
claim 96
clar@@ 96
cob 96
cop@@ 96
indigenous 96
kers 96
klasse 96
knight 96
mini@@ 96
primera 96
prote@@ 96
provides 96
ques 96
religious 96
riverside 96
scoring 96
sure 96
towards 96
tradition 96
ts@@ 96
typical 96
vicenza 96
wall@@ 96
whole 96
159 95
3800 95
93 95
ayton 95
barm 95
brightness 95
busiest 95
ces@@ 95
cho 95
clear@@ 95
drawing 95
elect@@ 95
filled 95
frit@@ 95
get@@ 95
give 95
haw@@ 95
illustr@@ 95
industries 95
kenny 95
landed 95
legislative 95
line-@@ 95
ministry 95
multi-@@ 95
nav@@ 95
onion 95
pac@@ 95
parti@@ 95
passing 95
presented 95
renaissance 95
sanger 95
sia 95
spider- 95
360 94
affiliations 94
an-@@ 94
approach 94
arthur 94
articles 94
aurakles 94
awadh 94
brooke 94
bütüner 94
carry 94
coastal 94
concentr@@ 94
cook 94
copa 94
curr@@ 94
energy 94
ern@@ 94
eva 94
falcon 94
fillings 94
foot 94
forward 94
gérard 94
güner 94
headed 94
hüseyin 94
ide@@ 94
ids 94
illa 94
lakes 94
literature 94
luis 94
north-@@ 94
philadelphia 94
poales 94
poet 94
producing 94
proposed 94
providing 94
rap 94
relocated 94
review 94
sas@@ 94
scen@@ 94
stanford 94
tap@@ 94
tapioca 94
tures 94
week 94
wood@@ 94
zone 94
alu@@ 93
ced 93
chin@@ 93
cun@@ 93
die 93
existing 93
grav@@ 93
iled 93
im 93
interstate 93
k-@@ 93
ligh@@ 93
mann 93
mber 93
multi@@ 93
non@@ 93
ories 93
philip 93
psy@@ 93
qatar 93
relationship 93
relatively 93
requ@@ 93
ris 93
roughly 93
sup@@ 93
sweden 93
á 93
1861 92
1865 92
6,@@ 92
aba 92
ago@@ 92
blo@@ 92
chamber 92
conqu@@ 92
consis@@ 92
democrat 92
earliest 92
enter 92
event 92
fol@@ 92
font-size 92
grown 92
hab@@ 92
ils 92
introduction 92
kh 92
lightcurve 92
loan 92
mechan@@ 92
minis@@ 92
novelist 92
ple@@ 92
pon@@ 92
projects 92
refer 92
rockets 92
sales 92
samuel 92
supreme 92
tel@@ 92
tudor 92
visi@@ 92
zer 92
1924 91
accoun@@ 91
akh@@ 91
anth@@ 91
aqu@@ 91
bhai 91
billion 91
bundesliga 91
call 91
casti@@ 91
chain 91
cing 91
comple@@ 91
coupé 91
def@@ 91
duty 91
enrique 91
fell 91
filling 91
grand@@ 91
grap@@ 91
humans 91
ited 91
jud@@ 91
lafayette 91
leads 91
marketed 91
mb 91
norman 91
oned 91
plane 91
produc@@ 91
sandy 91
sci 91
sden 91
sex 91
spl@@ 91
tation 91
temperature 91
transl@@ 91
turbo@@ 91
tus@@ 91
urn@@ 91
well-@@ 91
06@@ 90
49 90
95 90
affair 90
ala 90
baghdad 90
bec@@ 90
bed 90
begins 90
brow@@ 90
cast@@ 90
continent 90
davis 90
differ@@ 90
dition 90
ernie 90
fight 90
forming 90
gas@@ 90
immediately 90
ja 90
job 90
lock 90
note 90
pieces 90
properties 90
seafood 90
seconds 90
semi-@@ 90
sites 90
songwriter 90
stephen 90
tit@@ 90
transit 90
wis@@ 90
1900 89
1940s 89
54 89
76@@ 89
accident 89
acu@@ 89
advance 89
analysis 89
animated 89
anne 89
appears 89
bell 89
bes@@ 89
call@@ 89
carlos 89
custom 89
córdoba 89
decade 89
decline 89
dly 89
evans 89
fel@@ 89
fortune 89
giving 89
heart 89
junction 89
loughlin 89
marked 89
multiple 89
panthers 89
quickly 89
removed 89
renov@@ 89
rever@@ 89
rey 89
runways 89
singles 89
sof@@ 89
stown 89
supp@@ 89
termin@@ 89
tion@@ 89
umb@@ 89
variants 89
vila 89
wel@@ 89
wings 89
2-@@ 88
bel 88
bright 88
contested 88
cornish 88
dollars 88
double 88
duke 88
every@@ 88
extensive 88
fications 88
fully 88
gau@@ 88
gg@@ 88
glass 88
influences 88
kilometre 88
kuala 88
lancia 88
mata 88
migr@@ 88
motor@@ 88
ners 88
nominated 88
oyster 88
pan 88
parliamentary 88
pav@@ 88
payloads 88
plantain 88
pping 88
products 88
regarded 88
registered 88
rose 88
sat@@ 88
sche 88
should 88
shuttle 88
t- 88
voice 88
waters 88
wick 88
ye 88
1925 87
200@@ 87
ains 87
already 87
arc 87
ash 87
australian 87
broo@@ 87
com 87
crime 87
depor@@ 87
emi 87
fact 87
feder@@ 87
flank 87
futebol 87
gram@@ 87
hogao 87
ians 87
illing 87
indu@@ 87
ira 87
italia 87
ket@@ 87
leadership 87
letter 87
lions 87
lumpur 87
ment@@ 87
monarchy 87
month 87
musicians 87
pass 87
personal 87
pittsburgh 87
portland 87
purchase 87
ramaphosa 87
random 87
revolution 87
rhythm 87
ron@@ 87
seas@@ 87
seri@@ 87
session 87
show@@ 87
sively 87
tech 87
tened 87
troops 87
yer 87
ñ@@ 87
100@@ 86
1632 86
50@@ 86
91 86
96 86
aaron 86
actions 86
africans 86
arrival 86
ball@@ 86
bin 86
budget 86
categorised 86
citizens 86
commelinids 86
designs 86
eding 86
extends 86
ganges 86
guanciale 86
how 86
inity 86
malay@@ 86
meringue 86
monocotyledon 86
mouth 86
na@@ 86
neighbouring 86
originating 86
pak@@ 86
planning 86
prof@@ 86
programs 86
r-@@ 86
radar 86
rang@@ 86
replacement 86
rol 86
sovereign 86
spot 86
suff@@ 86
ura 86
wise 86
xi@@ 86
yu@@ 86
1930s 85
1935 85
900 85
911 85
add@@ 85
adi 85
admin 85
ahn 85
ajo 85
amo@@ 85
ataturk 85
budapest 85
businessman 85
clin@@ 85
display 85
donnell 85
eerste 85
expected 85
exten@@ 85
gene 85
gue 85
industri@@ 85
jan@@ 85
mean 85
neu@@ 85
ology 85
photometric 85
rock@@ 85
romanian 85
silver 85
some@@ 85
teri@@ 85
tobago 85
tone 85
top-@@ 85
trading 85
traditionally 85
treaty 85
turner 85
vá@@ 85
wind@@ 85
worden 85
í 85
+ 84
ably 84
article 84
awa 84
benjamin 84
boris 84
broadcasting 84
characteris@@ 84
cum@@ 84
decision 84
develop 84
dur@@ 84
eda 84
effort 84
ela 84
eld 84
experi@@ 84
fantasy 84
ferry 84
fields 84
inger 84
iv 84
jack@@ 84
lives 84
long@@ 84
markets 84
monthly 84
onto 84
palm 84
phone 84
pot@@ 84
pper 84
receiving 84
residing 84
sierra 84
signing 84
sit@@ 84
sousa 84
southeastern 84
steamed 84
successfully 84
tokyo 84
tors 84
vement 84
vocals 84
volume 84
wien 84
zamboangans 84
16th 83
1873 83
1905 83
1921 83
1951 83
211 83
accepted 83
apart@@ 83
applied 83
arc@@ 83
attacked 83
auto 83
brian 83
cent 83
conclu@@ 83
consul@@ 83
contribu@@ 83
crossing 83
dal@@ 83
decor@@ 83
emphas@@ 83
fir@@ 83
formally 83
fruits 83
galileo 83
gros@@ 83
helsinki 83
ingly 83
iti 83
izmir 83
lab@@ 83
lack 83
lif@@ 83
lor@@ 83
nature 83
ontario 83
opposition 83
pass@@ 83
pun@@ 83
recipes 83
rep@@ 83
replacing 83
roof 83
rop 83
shaped 83
snack 83
ste 83
swi@@ 83
syn@@ 83
tad@@ 83
tarrant 83
tia 83
tofu 83
vegetable 83
vers 83
viag 83
wan 83
wars 83
words 83
aca 82
acqu@@ 82
ardo 82
borg 82
boy@@ 82
care 82
cast 82
cher@@ 82
chy 82
collaboration 82
contain 82
dating 82
defeating 82
filipino 82
frequently 82
glo@@ 82
grade 82
hometown 82
howard 82
inherit 82
lear@@ 82
legends 82
lon@@ 82
mike 82
musician 82
naik 82
nes@@ 82
popularity 82
powerful 82
prepar@@ 82
probably 82
public@@ 82
quarter@@ 82
subscription 82
sud@@ 82
tie 82
tland 82
tur 82
always 81
applic@@ 81
ava 81
beau@@ 81
begin 81
bomb@@ 81
cavalry 81
chap@@ 81
cle 81
competitions 81
compressed 81
comprising 81
confeder@@ 81
conn@@ 81
cons@@ 81
continue 81
continues 81
crow@@ 81
cruz 81
cups 81
dent 81
depic@@ 81
elite 81
employees 81
express 81
fat 81
fav@@ 81
fil@@ 81
flat 81
follows 81
gt 81
hap@@ 81
ini@@ 81
kind 81
lat@@ 81
manual 81
melo@@ 81
percent 81
potatoes 81
prince 81
prize 81
problems 81
proper 81
que@@ 81
rad@@ 81
results 81
soyuz 81
tant 81
ven 81
vers@@ 81
wed 81
werft 81
workers 81
1938 80
546 80
56 80
66 80
82 80
abdul 80
aded 80
arian 80
augu@@ 80
azi@@ 80
berkeley 80
bras@@ 80
braz@@ 80
bure@@ 80
caf@@ 80
colan 80
constitutional 80
contro@@ 80
dane 80
danish 80
deb@@ 80
dence 80
diplo@@ 80
distinct 80
distributed 80
eling 80
enlisted 80
ense 80
except 80
female 80
holding 80
horse@@ 80
ial 80
inte@@ 80
johnston 80
legal 80
mathematical 80
needed 80
operational 80
parks 80
personnel 80
petro@@ 80
plate 80
publishers 80
raf@@ 80
rag@@ 80
read 80
second-largest 80
sis@@ 80
strugg@@ 80
techni@@ 80
unique 80
varieties 80
vessels 80
visited 80
voc@@ 80
wa@@ 80
wheel@@ 80
whitman 80
án@@ 80
ō 80
10000 79
120 79
agon 79
alone 79
bai@@ 79
bit 79
box 79
carmel 79
cd 79
cemetery 79
colours 79
commit@@ 79
communications 79
contest 79
describe 79
dh@@ 79
diff@@ 79
dispu@@ 79
ef@@ 79
electro@@ 79
giu@@ 79
graphy 79
hill@@ 79
indianapolis 79
jurisdiction 79
lawrence 79
leave 79
legend 79
leton 79
looking 79
margrethe 79
meet 79
meter 79
mount 79
nearest 79
occasi@@ 79
oni@@ 79
plains 79
pope 79
posi@@ 79
prece@@ 79
rac@@ 79
ras 79
ray@@ 79
rison 79
saf@@ 79
shed 79
tracks 79
turning 79
ul 79
underground 79
victor@@ 79
vill@@ 79
vote 79
wrapped 79
ín 79
activ@@ 78
actually 78
aida 78
alism 78
archi@@ 78
arepa 78
bass 78
borne 78
breakfast 78
caribbean 78
cement 78
chil@@ 78
concert 78
conver@@ 78
crafts 78
cris@@ 78
doctoral 78
enda 78
estadio 78
exhibi@@ 78
failure 78
fast 78
fishing 78
focused 78
hop@@ 78
ilocano 78
indicate 78
jected 78
kets 78
len@@ 78
ligue 78
meeting 78
notably 78
postal 78
remain 78
response 78
serv@@ 78
superhero 78
tea 78
tourism 78
ue 78
warsaw 78
zo@@ 78
13@@ 77
1896 77
1943 77
280 77
79@@ 77
advan@@ 77
aleksand@@ 77
ame@@ 77
atory 77
autom@@ 77
bakar 77
beano 77
bishop 77
casualties 77
centers 77
chem@@ 77
condiment 77
derives 77
describes 77
direction 77
earl 77
eis@@ 77
electr@@ 77
elevated 77
europa 77
fútbol 77
gan@@ 77
hardcore 77
hartford 77
heli@@ 77
hold 77
iata 77
indie 77
intersection 77
jerry 77
kalb 77
lift 77
ltd 77
mid- 77
navig@@ 77
newspaper 77
nic@@ 77
northeastern 77
organ@@ 77
owen 77
padding 77
peer-reviewed 77
pression 77
ribbon 77
sedan 77
sel 77
shot 77
siena 77
sporting 77
squid 77
things 77
tons 77
trans 77
unesco 77
vie@@ 77
wine 77
à 77
-- 76
1-@@ 76
1800 76
1820 76
1863 76
3180 76
8th 76
9th 76
activity 76
adsit 76
affe@@ 76
alists 76
arion 76
arizona 76
atives 76
augustus 76
carbonaceous 76
chilli 76
coaracy 76
contributed 76
data 76
denton 76
developing 76
earning 76
ellington 76
expendable 76
figure 76
flav@@ 76
fonseca 76
fy 76
guar@@ 76
hart 76
heavily 76
hired 76
lam 76
lufthavn 76
mainland 76
medi@@ 76
need 76
nieto 76
norway 76
on-@@ 76
orders 76
parking 76
paste 76
proce@@ 76
ption 76
resemb@@ 76
resignation 76
rick 76
roo@@ 76
sear@@ 76
seminary 76
siege 76
stro@@ 76
tigr@@ 76
ures 76
usaf 76
veter@@ 76
viet@@ 76
y- 76
ym 76
zuma 76
1922 75
3528 75
9,@@ 75
96@@ 75
ails 75
ance@@ 75
anglia 75
archipelago 75
automo@@ 75
baen 75
bay@@ 75
berry 75
brit@@ 75
cap 75
classification 75
comedy 75
compu@@ 75
consider@@ 75
descent 75
dge 75
difference 75
directly 75
diver@@ 75
effe@@ 75
encoun@@ 75
fire@@ 75
fusion 75
gio 75
graeme 75
grenada 75
hilton 75
imperial 75
inn@@ 75
investigation 75
kun@@ 75
lem 75
look 75
mid 75
motto 75
nan 75
present-day 75
repe@@ 75
retail 75
saturn 75
shirley 75
sto 75
structures 75
tamil 75
teaching 75
value 75
woman 75
zu@@ 75
ć 75
ș@@ 75
1912 74
1917 74
1939 74
1944 74
5-@@ 74
ailed 74
andy 74
ares 74
arianespace 74
bra 74
brand@@ 74
canton 74
composition 74
counted 74
curve 74
cut@@ 74
e- 74
edited 74
elled 74
emperor 74
enough 74
ented 74
gy 74
income 74
ined 74
jk 74
keep 74
kept 74
kins 74
launcher 74
mei@@ 74
montreal 74
none 74
numbers 74
offer 74
owners 74
palermo 74
pes@@ 74
rams 74
reading 74
returning 74
rev@@ 74
rix 74
rpm 74
sale 74
sett@@ 74
shop 74
slightly 74
span 74
strips 74
surve@@ 74
taste 74
til@@ 74
tis 74
trophy 74
twin 74
x- 74
101 73
2060 73
3-@@ 73
4000 73
acting 73
ald 73
ano@@ 73
appoin@@ 73
assumed 73
baltimore 73
bombing 73
borneo 73
cer 73
closely 73
collapse 73
dam 73
democracy 73
desmond 73
destination 73
existed 73
first-@@ 73
frank@@ 73
freshly 73
girl 73
hiro 73
igorot 73
indians 73
ises 73
issued 73
kaz@@ 73
lac@@ 73
lio 73
longest 73
not@@ 73
occul@@ 73
olympiacos 73
opo@@ 73
partner 73
play@@ 73
policy 73
poly@@ 73
rh@@ 73
sign 73
sq 73
tak@@ 73
tender 73
tulsa 73
u-@@ 73
universe 73
vantage 73
voting 73
william@@ 73
wri@@ 73
zen 73
ño 73
20px 72
67 72
andre@@ 72
ania 72
arab 72
athletic 72
att 72
bakwan 72
blanco 72
broke 72
computer 72
crown 72
davutoglu 72
du 72
ealdorman 72
eman 72
enjoyed 72
eno@@ 72
evolved 72
explorer 72
gardens 72
gateway 72
gur@@ 72
hang@@ 72
idea 72
importance 72
inf 72
infrastructure 72
inn 72
innov@@ 72
key@@ 72
kit@@ 72
lad@@ 72
landmarks 72
marv 72
mentation 72
midtown 72
nine@@ 72
numbered 72
observ@@ 72
organiz@@ 72
pal 72
panama 72
person@@ 72
postcode 72
poyet 72
pron@@ 72
pé@@ 72
quarter 72
rit@@ 72
set@@ 72
sli@@ 72
sport@@ 72
stance 72
stand@@ 72
ston@@ 72
strait 72
subject 72
sunday 72
syst 72
thought 72
titans 72
ua 72
ves@@ 72
villa 72
vocalist 72
warner 72
was@@ 72
week@@ 72
wild 72
wild@@ 72
1899 71
60040714 71
800 71
87 71
abandoned 71
acura 71
ahead 71
aka 71
ander@@ 71
ased 71
atlético 71
bach 71
bal 71
baron 71
blvd 71
bran@@ 71
c1 71
carrying 71
certain 71
certi@@ 71
concrete 71
cont@@ 71
cookie 71
deck 71
demo@@ 71
demonstr@@ 71
dropped 71
ends 71
eur@@ 71
excellence 71
experienced 71
five-@@ 71
gabri@@ 71
gir@@ 71
hardy 71
hungary 71
ib@@ 71
jupiter 71
kad@@ 71
landmark 71
literary 71
lots 71
mad 71
mythology 71
neighborhoods 71
of@@ 71
owns 71
pre-@@ 71
presidential 71
racial 71
ranging 71
ray 71
river@@ 71
sac@@ 71
scho@@ 71
shel@@ 71
sisters 71
sor 71
sources 71
succes@@ 71
syl@@ 71
thro@@ 71
toward 71
utrecht 71
uts 71
white@@ 71
will@@ 71
zation 71
ür@@ 71
497 70
80@@ 70
actor 70
aerospace 70
ahe@@ 70
aire 70
associ@@ 70
bertone 70
billy 70
bordering 70
cc@@ 70
ceded 70
civilian 70
conflict 70
correspon@@ 70
densely 70
deplo@@ 70
drummer 70
elli@@ 70
elling 70
escape 70
funk 70
gers 70
gow@@ 70
gul@@ 70
gy@@ 70
hollande 70
hull 70
ithaca 70
jor@@ 70
kevin 70
las@@ 70
light@@ 70
mani@@ 70
manufac@@ 70
missile 70
pallesen 70
past@@ 70
program@@ 70
racing 70
rs-@@ 70
semi-finals 70
sheldon 70
shield 70
space@@ 70
stat@@ 70
suppor@@ 70
universal 70
vor@@ 70
ó 70
176@@ 69
1864 69
1898 69
1941 69
6th 69
76 69
ador 69
agricultural 69
airways 69
ancy 69
ann@@ 69
antioch 69
bali 69
bh@@ 69
biggest 69
bound 69
cad@@ 69
centres 69
commonwealth 69
compar@@ 69
contained 69
cs1-lock-@@ 69
cs@@ 69
engaged 69
eth 69
evidence 69
fab@@ 69
faste@@ 69
fee 69
fis@@ 69
g-@@ 69
gives 69
hat@@ 69
hus@@ 69
ich@@ 69
indexed 69
kirby 69
lec@@ 69
lef@@ 69
lights 69
maintained 69
marion 69
mau@@ 69
meant 69
mesa 69
michel 69
moore 69
ninth 69
oberliga 69
oral 69
ots 69
output 69
oxford 69
pursu@@ 69
pursue 69
ques@@ 69
retreat 69
salted 69
secondary 69
segunda 69
shipbuilding 69
sity 69
six-@@ 69
sounds 69
ssi@@ 69
store 69
sund@@ 69
teacher 69
tte 69
twelve 69
unincorporated 69
vin 69
vitesse 69
weight 69
westminster 69
12th 68
68 68
70634 68
80002709 68
adding 68
additionally 68
aktieselskab 68
alco 68
amharic 68
appear 68
arro@@ 68
attempts 68
behalf 68
c-type 68
carpi 68
cent@@ 68
coalition 68
components 68
de-@@ 68
debuted 68
delivered 68
desalegn 68
eas@@ 68
educational 68
eleven 68
emd 68
ene 68
eni@@ 68
eu 68
eugene 68
exterior 68
face 68
found@@ 68
geor@@ 68
goreng 68
hour 68
instruments 68
intelligence 68
isis 68
kat@@ 68
kath@@ 68
law@@ 68
liberal 68
long-@@ 68
lovell 68
meal 68
mills 68
oce@@ 68
om 68
pack@@ 68
pay@@ 68
peak 68
ports 68
preparation 68
resigned 68
scre@@ 68
span@@ 68
spicy 68
strategic 68
styling 68
tab@@ 68
telangana 68
teshome 68
texans 68
tip 68
toyota 68
tta 68
xim@@ 68
yment 68
ː@@ 68
-use 67
140 67
21st 67
abraham 67
adult 67
allowing 67
ases 67
ban 67
bears 67
bles 67
cancel@@ 67
cere@@ 67
chic@@ 67
cock 67
constru@@ 67
dez 67
directed 67
disbanded 67
dissolved 67
entirely 67
exist 67
expensive 67
fashion 67
gardner 67
hailemariam 67
iced 67
ip@@ 67
knowledge 67
li 67
lokomotive 67
mentary 67
metapan 67
moss 67
non 67
old@@ 67
parish 67
poor 67
psalm 67
rie 67
sch 67
socialist 67
tall 67
tank 67
taught 67
tinkham 67
torque 67
tree 67
twen@@ 67
vas@@ 67
0-@@ 66
4253 66
86@@ 66
973 66
ades 66
anced 66
arbor 66
asterix 66
attracted 66
avia 66
billboard 66
brigh@@ 66
buscema 66
carrol 66
cattle 66
changing 66
charged 66
circle 66
coastline 66
col 66
credited 66
cubanelle 66
cultiv@@ 66
daw@@ 66
dire@@ 66
dit@@ 66
emer@@ 66
esa 66
giles 66
gle 66
guy 66
harbour 66
hed 66
infan@@ 66
karachi 66
lasted 66
leon@@ 66
limb@@ 66
loin 66
lord 66
losses 66
might 66
morcilla 66
nam 66
nati@@ 66
orleans 66
patacones 66
pictures 66
pir@@ 66
pson 66
qatari 66
read@@ 66
rid 66
routemap 66
saloon 66
scu@@ 66
seg@@ 66
shaft 66
shir@@ 66
shown 66
springs 66
synthes@@ 66
tain 66
tenure 66
text-align 66
thr@@ 66
trail 66
trum@@ 66
tube 66
ultimately 66
unded 66
younger 66
ā@@ 66
167 65
1854 65
1878 65
195 65
amarillo 65
annu@@ 65
atalanta 65
ballistic 65
basin 65
blan@@ 65
bud@@ 65
butler 65
carriers 65
chron@@ 65
commun@@ 65
cs1-registration 65
denver 65
deriv@@ 65
destro@@ 65
ency 65
enduring 65
extension 65
festiv@@ 65
foods 65
fro@@ 65
gp@@ 65
graphical 65
holy 65
hungar 65
institution 65
isi 65
killing 65
likely 65
lists 65
mondelez 65
monroe 65
northwestern 65
ok@@ 65
oth 65
penc@@ 65
penguins 65
permanent 65
plant@@ 65
plot 65
plus 65
pool 65
power@@ 65
requi@@ 65
responsibility 65
restaurant 65
revealed 65
rovers 65
setting 65
shif@@ 65
sky@@ 65
ss@@ 65
symb@@ 65
thes@@ 65
tribes 65
twenty-@@ 65
vermicelli 65
villa@@ 65
watson 65
weather 65
wolters 65
yan 65
zi 65
zia 65
â@@ 65
44@@ 64
7th 64
97@@ 64
adop@@ 64
amaz@@ 64
ass 64
attention 64
banyumasan 64
birthplace 64
border-@@ 64
carrarese 64
cath@@ 64
chicharon 64
christi@@ 64
cky 64
classical 64
commenced 64
component 64
copies 64
cultures 64
dd@@ 64
democrats 64
digital 64
dry 64
duce 64
eled 64
ements 64
fan 64
gain 64
hapoel 64
householder 64
ilities 64
iro 64
isation 64
itable 64
kes@@ 64
kluwer 64
logical 64
mat 64
mili@@ 64
moldoff 64
pher 64
plata 64
py@@ 64
reduced 64
registration 64
releases 64
resources 64
roswell 64
routes 64
s-type 64
salem 64
sap@@ 64
sever@@ 64
sony 64
sp 64
stockport 64
th-century 64
tos 64
tr 64
turkmen@@ 64
underwent 64
unlike 64
unsuccessful 64
vicky 64
woods 64
ä@@ 64
-speaking 63
61 63
abu 63
airbus 63
allow 63
ander 63
anna 63
aspects 63
aé@@ 63
bau@@ 63
bob 63
buc@@ 63
c2 63
capita 63
civic 63
claims 63
claude 63
colón 63
dec@@ 63
descen@@ 63
desig@@ 63
dissolution 63
doc@@ 63
dor 63
else@@ 63
entitled 63
experimental 63
fic@@ 63
garrett 63
genoa 63
hal 63
hamlet 63
household 63
individual 63
institu@@ 63
integr@@ 63
jets 63
lan 63
lets 63
levels 63
lie@@ 63
louisiana 63
maria 63
mass@@ 63
n-@@ 63
nautical 63
oilers 63
oma 63
ored 63
ough@@ 63
peachtree 63
performances 63
phoenix 63
printed 63
professi@@ 63
pus 63
qiu 63
rate 63
rival@@ 63
scienti@@ 63
search 63
seasoned 63
sebastian 63
shallots 63
shipping 63
sian 63
south-@@ 63
stein 63
suspended 63
terminus 63
thor 63
tioned 63
udinese 63
ug@@ 63
vo 63
von 63
ë@@ 63
,6@@ 62
,9@@ 62
201@@ 62
3000 62
abstr@@ 62
alty 62
assemb@@ 62
attend 62
b- 62
babelsberg 62
bah@@ 62
capitals 62
cess@@ 62
ches@@ 62
coaching 62
colorado 62
covery 62
dominated 62
done 62
enburg 62
erine 62
error 62
faber 62
factory 62
flu@@ 62
funds 62
goddess 62
handle 62
horn 62
kenzie 62
knvb 62
labor 62
laur@@ 62
loon 62
lyrics 62
minute 62
missi@@ 62
money 62
muslim 62
negoti@@ 62
nep@@ 62
night@@ 62
obje@@ 62
officials 62
online 62
oppo@@ 62
parma 62
pel@@ 62
peters 62
phi@@ 62
rahm 62
railroads 62
sanderson 62
seas 62
simil@@ 62
southernmost 62
sted 62
straus 62
tadashi 62
tal 62
teenth 62
thin 62
trad@@ 62
weeks 62
zing 62
ă@@ 62
ə 62
110 61
156 61
accompanied 61
affiliate 61
aggre@@ 61
aria 61
arnhem 61
aten 61
berliner 61
bet@@ 61
boats 61
brad@@ 61
briefly 61
brook 61
bu 61
burger 61
chelsea 61
completely 61
con 61
ctors 61
ddr- 61
delegate 61
delivery 61
dwin 61
enjo@@ 61
environment 61
erected 61
fas@@ 61
flagship 61
flows 61
free@@ 61
g- 61
gary 61
haven 61
hay@@ 61
hes 61
illo 61
index 61
jefferson 61
kent 61
larry 61
laws 61
lev@@ 61
marri@@ 61
mascot 61
maximum 61
modi@@ 61
mony 61
moro 61
must 61
opport@@ 61
placing 61
po 61
popul@@ 61
price 61
progressive 61
rangers 61
receive 61
report 61
represent 61
rim 61
road@@ 61
robin 61
semin 61
spaceport 61
stra 61
stream 61
struc@@ 61
supporting 61
tains 61
td 61
tiger 61
tom@@ 61
towers 61
v6 61
wanted 61
wn 61
yers 61
-3 60
000@@ 60
1920s 60
2777 60
57 60
63 60
abh 60
abi 60
administered 60
admir@@ 60
aft 60
airman 60
alf@@ 60
alid 60
ando 60
arch 60
associate 60
believed 60
belonging 60
benef@@ 60
bibbo 60
booster 60
boys 60
brigadier 60
burn@@ 60
cabb@@ 60
casino 60
caterpillar 60
cathedral 60
cel 60
charlo@@ 60
charts 60
chile 60
comb@@ 60
conditions 60
confirmed 60
controll@@ 60
converted 60
cottage 60
crater 60
cuttlefish 60
dat@@ 60
dem@@ 60
departure 60
depending 60
deployed 60
draw@@ 60
driven 60
economics 60
glend@@ 60
gn@@ 60
gold@@ 60
gregory 60
gula 60
hambg 60
heads 60
hil@@ 60
ican 60
icient 60
iga 60
influential 60
isa 60
jur@@ 60
lady 60
ler@@ 60
lomb@@ 60
mise 60
moody 60
o- 60
olo 60
partners 60
ped 60
plac@@ 60
planets 60
positioned 60
potter 60
pressure 60
proved 60
reduc@@ 60
rest@@ 60
reviews 60
ros 60
seaso 60
spending 60
tejano 60
ter-@@ 60
trains 60
tti 60
univ 60
vens 60
venues 60
volcan@@ 60
xiaolong 60
− 60
131 59
1903 59
1914 59
194 59
2776 59
agr 59
agreed 59
ambassador 59
americas 59
anese 59
attica 59
aven@@ 59
background-position 59
background-repeat 59
background-size 59
band@@ 59
bankruptcy 59
bb 59
boar@@ 59
buil@@ 59
bur 59
centaur 59
cephalopod 59
cherokee 59
collected 59
connecting 59
cook@@ 59
cowboys 59
craftsman 59
crossed 59
cus 59
dad 59
dge@@ 59
distribution 59
dying 59
efforts 59
emanuel 59
ems 59
encompass@@ 59
espo@@ 59
ethn@@ 59
evening 59
exer@@ 59
glomer@@ 59
grande 59
hc 59
horiz@@ 59
injury 59
install@@ 59
iran 59
istan 59
jama@@ 59
jong 59
maintenance 59
mam@@ 59
maneu@@ 59
meade 59
miner@@ 59
motion 59
mt@@ 59
nal 59
newark 59
no-repeat 59
occasions 59
organizations 59
orial 59
orities 59
oxygen 59
pate@@ 59
photo@@ 59
plateau 59
porter 59
princess 59
prise 59
pugin 59
quite 59
rais@@ 59
respe@@ 59
rival 59
russell 59
scal@@ 59
shopping 59
soul 59
stood 59
sust@@ 59
tage 59
temporary 59
titude 59
topped 59
vand@@ 59
virtus 59
where@@ 59
yellow 59
&gt; 58
,5@@ 58
1906 58
93645978 58
aging 58
akes 58
alber@@ 58
allen 58
antly 58
ater 58
aul@@ 58
ault 58
axis 58
basic 58
boom 58
bronx 58
burned 58
businesses 58
chinatown 58
citizen 58
conce@@ 58
conclusion 58
content 58
cotton 58
ctural 58
deci@@ 58
definition 58
depen@@ 58
devil 58
dialect 58
ech 58
ench 58
encompasses 58
encour@@ 58
eries 58
essed 58
ferr@@ 58
finance 58
flag 58
gap 58
gar 58
gates 58
goes 58
grandfather 58
heights 58
heroes 58
ig 58
kov 58
lands@@ 58
lankan 58
lock@@ 58
manitoba 58
mols 58
napoli 58
partnership 58
peace 58
pel 58
pie 58
pow@@ 58
process@@ 58
propulsion 58
putrajaya 58
quali@@ 58
rector 58
regul@@ 58
restored 58
salvadoran 58
say 58
scr@@ 58
sculp@@ 58
sell 58
senators 58
serge@@ 58
singing 58
solu@@ 58
steering 58
tackles 58
temper@@ 58
testing 58
texture 58
there@@ 58
thousands 58
tile 58
tment 58
villages 58
vised 58
website 58
wig@@ 58
work@@ 58
1889 57
abdu@@ 57
acre 57
assaul@@ 57
atmosphere 57
becomes 57
bmw 57
brief 57
capitol 57
capture 57
choice 57
closest 57
colleges 57
consum@@ 57
curtis 57
cze@@ 57
dete@@ 57
divisie 57
duane 57
emp@@ 57
encies 57
ento 57
entr@@ 57
equivalent 57
estádio 57
ez 57
facil@@ 57
fix@@ 57
flow@@ 57
fm 57
folded 57
fresh 57
herald 57
hig@@ 57
hind@@ 57
hl 57
inches 57
indepen@@ 57
ingen 57
ink@@ 57
internal 57
investig@@ 57
iring 57
israel 57
iya 57
juice 57
ka@@ 57
kam@@ 57
kan@@ 57
kap@@ 57
keeping 57
lauraceae 57
lineup 57
low-@@ 57
makassar 57
managing 57
margin 57
mechelen 57
medieval 57
mounted 57
naw@@ 57
near@@ 57
now@@ 57
oak 57
ole 57
ord@@ 57
participate 57
passes 57
plain 57
practic@@ 57
priv@@ 57
rav@@ 57
raw@@ 57
real@@ 57
recru@@ 57
rich@@ 57
rolling 57
ross 57
rutland 57
sections 57
self 57
sharif 57
shi 57
ske@@ 57
sterling 57
tag@@ 57
tec 57
territorial 57
tha 57
themselves 57
third-largest 57
ticket 57
traded 57
tribe 57
tropical 57
tura 57
turk@@ 57
ulysses 57
vegas 57
victor 57
viol@@ 57
votes 57
whe@@ 57
yd 57
13th 56
1885 56
192 56
1937 56
1em 56
27th 56
30843 56
448 56
abo@@ 56
add 56
administr@@ 56
ais 56
aling 56
alpharetta 56
alternate 56
aman 56
angle 56
anim@@ 56
annexed 56
any@@ 56
ared 56
armstrong 56
astr@@ 56
attending 56
bari 56
big@@ 56
bling 56
boldrini 56
bolivia 56
bone 56
boosters 56
buckhead 56
bull 56
buried 56
cabin 56
celtic 56
coloured 56
columbian 56
compact 56
cousin 56
ctively 56
dal 56
demon@@ 56
desert 56
determined 56
dg@@ 56
disco 56
driving 56
effects 56
elli 56
entering 56
eri 56
figures 56
fili@@ 56
films 56
ford@@ 56
forti@@ 56
gel 56
horrigan 56
iaf 56
ization 56
kimb@@ 56
kollam 56
kri@@ 56
ksburg 56
lor 56
machinery 56
mediterranean 56
meride 56
micro@@ 56
mitchell 56
modified 56
nag@@ 56
onic 56
orche@@ 56
particular 56
phil@@ 56
pho@@ 56
picked 56
portuguese 56
prob@@ 56
produces 56
ranch 56
ready 56
restor@@ 56
rivals 56
sain@@ 56
sam 56
sao 56
sche@@ 56
sely 56
stal@@ 56
standards 56
stated 56
stin@@ 56
striker 56
tall@@ 56
thunderbird 56
tro 56
trou@@ 56
turk 56
ual 56
urb@@ 56
verse 56
vig@@ 56
vit@@ 56
wacker 56
wan@@ 56
wer@@ 56
won@@ 56
ía 56
1850 55
670 55
8-@@ 55
ached 55
adapted 55
adv 55
aker 55
anthony 55
arab@@ 55
armies 55
ble@@ 55
bou@@ 55
canadi@@ 55
ceased 55
chesterfield 55
chiefs 55
clark 55
colonies 55
concep@@ 55
creators 55
decre@@ 55
dra 55
effect 55
ells 55
ental 55
faced 55
fill 55
fred 55
fred@@ 55
friendly 55
gdp 55
gence 55
gust@@ 55
heat 55
hire 55
hit@@ 55
inking 55
installed 55
ion 55
jar@@ 55
jects 55
jonathan 55
kedah 55
legion 55
luc@@ 55
lying 55
max@@ 55
memor@@ 55
mining 55
minority 55
naz@@ 55
nese 55
nis@@ 55
non- 55
nurturing 55
paid 55
paleontology 55
paper 55
pecorino 55
penguin 55
peña 55
philosophy 55
phon@@ 55
phr@@ 55
pirate 55
premi@@ 55
preserves 55
promote 55
pue@@ 55
put@@ 55
radi@@ 55
rell 55
renowned 55
reputation 55
see@@ 55
ship@@ 55
showed 55
simon@@ 55
smi@@ 55
somal@@ 55
somewhat 55
sonville 55
sr@@ 55
sunda 55
sz@@ 55
tac@@ 55
tat@@ 55
treas@@ 55
vene@@ 55
vern 55
views 55
watch 55
weston 55
windsor 55
zon 55
æthelwald 55
ña 55
19238 54
71 54
74 54
87000823 54
admiral 54
aer@@ 54
aeronautical 54
alliance 54
ange@@ 54
animation 54
applying 54
apulensis 54
armen@@ 54
aviv 54
avoid 54
bang@@ 54
bases 54
bear@@ 54
bridges 54
bruins 54
butuner 54
cali@@ 54
catal@@ 54
cha@@ 54
chassis 54
chris@@ 54
chu@@ 54
coal 54
conduct 54
consumed 54
crab 54
demolished 54
duo 54
east@@ 54
eca 54
edi@@ 54
ement 54
enemy 54
eo 54
erk 54
examin@@ 54
examples 54
fame 54
fli@@ 54
fore@@ 54
frequ@@ 54
fur@@ 54
gerard 54
gonz@@ 54
greg@@ 54
guner 54
haz@@ 54
historian 54
homes 54
honour 54
hoofdklasse 54
huseyin 54
iel@@ 54
igh 54
imprint 54
increasingly 54
instrument 54
irvine 54
jesu@@ 54
kv 54
logies 54
lokke 54
magn@@ 54
mean@@ 54
miami 54
mon 54
ond 54
option 54
oth@@ 54
padding-@@ 54
pen 54
philli@@ 54
placement 54
poli@@ 54
pre- 54
predomin@@ 54
protected 54
prototype 54
proximity 54
psycho@@ 54
rico 54
robinson 54
scar@@ 54
sell@@ 54
semi@@ 54
shad@@ 54
spati@@ 54
stop 54
sumed 54
tampa 54
thick 54
till@@ 54
tiva 54
touring 54
trained 54
turing 54
turtles 54
ues 54
ury 54
vancouver 54
xn 54
1,000 53
1790 53
512 53
567 53
abbey 53
afgh@@ 53
alter@@ 53
amsterdamsche 53
anda 53
antietam 53
apping 53
brun@@ 53
cca 53
colour 53
competi@@ 53
confluence 53
contact 53
cow@@ 53
critical 53
cross@@ 53
diane 53
dies 53
difficulties 53
dillin 53
dis 53
discontinued 53
disneyland 53
doll@@ 53
dolph 53
eff@@ 53
eighth 53
empoli 53
entity 53
episode 53
etta 53
europe@@ 53
even@@ 53
expand 53
formal 53
ga@@ 53
greenwich 53
gwinnett 53
heidelberg 53
holi@@ 53
hooker 53
improved 53
inch 53
johnny 53
journalist 53
kem@@ 53
kit 53
ky@@ 53
lang@@ 53
lind@@ 53
magistrate 53
massive 53
measuring 53
medicine 53
memb@@ 53
metho@@ 53
mination 53
mitted 53
munster 53
naj@@ 53
neighbo@@ 53
nel 53
nov@@ 53
ols 53
omar 53
owski 53
prevent 53
prominence 53
propos@@ 53
qarab@@ 53
quar@@ 53
rad 53
ralph 53
rd-@@ 53
rear@@ 53
revi@@ 53
rug@@ 53
savannah 53
solid 53
something 53
soyuz@@ 53
spice 53
staf@@ 53
stati@@ 53
stonewall 53
superior 53
sylvania 53
temple 53
tent 53
therefore 53
tici@@ 53
tol@@ 53
tract 53
trees 53
türk 53
un 53
veikkausliiga 53
visitors 53
wiener 53
zaragoza 53
æ@@ 53
ɪ@@ 53
0001 52
1897 52
292 52
39371 52
7-@@ 52
89646863 52
aarhusiensis 52
aber@@ 52
ablu 52
achieve 52
adap@@ 52
aki 52
amar 52
ames 52
amo 52
anti-@@ 52
aro 52
ashed 52
assist 52
attempted 52
automaker 52
bam@@ 52
bber 52
boulevard 52
bra@@ 52
bring 52
brunei 52
chicharrón 52
cht 52
clade 52
coached 52
colors 52
composer 52
cover@@ 52
cska 52
develop@@ 52
distin@@ 52
dow 52
drum 52
earth@@ 52
ertegun 52
ested 52
ever@@ 52
exception 52
expl@@ 52
fam@@ 52
favor 52
fen@@ 52
follow 52
françois 52
furt 52
goalkeeper 52
guardian 52
guit@@ 52
honey 52
identity 52
imple@@ 52
inc@@ 52
inst@@ 52
instein 52
know 52
lengkuas 52
lers 52
lim@@ 52
lima 52
linear-gradient 52
liver@@ 52
maker 52
marietta 52
melaka 52
nig@@ 52
ninja 52
offering 52
og@@ 52
olimp@@ 52
ough 52
oy 52
pad@@ 52
peninsular 52
pescara 52
poul@@ 52
presidency 52
purple 52
reasons 52
recogni@@ 52
rhyth@@ 52
rian 52
ric 52
río 52
sheriff 52
shoot@@ 52
sis 52
slices 52
solar 52
som 52
soya 52
spartak 52
specializ@@ 52
spectrum 52
spelled 52
spi@@ 52
springfield 52
stor 52
tain@@ 52
tax@@ 52
tees 52
tella 52
tip@@ 52
toclimit@@ 52
trophies 52
ukrainian 52
valencia 52
vera 52
wabash 52
wag@@ 52
york@@ 52
1860 51
1876 51
1901 51
1902 51
4349 51
69 51
ahu@@ 51
alo@@ 51
amend@@ 51
ampton 51
angk@@ 51
arm 51
artillery 51
aster 51
astic 51
authorized 51
avengers 51
bav@@ 51
beli@@ 51
bhaji 51
bit@@ 51
board@@ 51
calgary 51
cc 51
cele@@ 51
ceo 51
chapel 51
christ@@ 51
cincinnati 51
colum@@ 51
consequ@@ 51
craig 51
crow 51
cyrus 51
deleg@@ 51
depu@@ 51
determin@@ 51
developments 51
dream 51
dynasty 51
enh@@ 51
entrepren@@ 51
exhi@@ 51
explo@@ 51
fail@@ 51
gaining 51
giant 51
granada 51
hague 51
highlands 51
holt 51
hundred 51
ind 51
intern@@ 51
internationally 51
investment 51
islamic 51
ites 51
jim@@ 51
kali@@ 51
kas@@ 51
keys 51
lance 51
lex@@ 51
loaned 51
mach@@ 51
marc 51
mark@@ 51
mate 51
median 51
meets 51
merri@@ 51
namesake 51
neustadt 51
olymp@@ 51
organ 51
ose 51
padang 51
pay 51
peaked 51
reason 51
recognition 51
remainder 51
respon@@ 51
restric@@ 51
retiring 51
sax@@ 51
sbury 51
servation 51
settlements 51
shops 51
shr@@ 51
single-@@ 51
spin@@ 51
stayed 51
sub-@@ 51
suburbs 51
taib 51
task 51
tenth 51
text 51
than@@ 51
tian 51
tivo 51
unt 51
utc 51
vocal 51
volunte@@ 51
wheat 51
winnipeg 51
year-old 51
-class 50
1,0@@ 50
130@@ 50
1533 50
1851 50
achie@@ 50
ahl 50
anga 50
anni@@ 50
ante 50
apers 50
aps 50
ashtra 50
atin@@ 50
avant@@ 50
aying 50
bandung 50
banking 50
barry 50
bartolone 50
bassist 50
begun 50
branded 50
bulk 50
carl 50
carto@@ 50
ceres 50
chancellorsville 50
collin 50
commuter 50
config@@ 50
connects 50
conserv@@ 50
cs1-kern-wl-@@ 50
declaration 50
ek@@ 50
ente 50
ets 50
falcons 50
flanders 50
focuses 50
fresh@@ 50
gone 50
grass@@ 50
grated 50
greatest 50
grou@@ 50
hali@@ 50
han 50
hear@@ 50
ho 50
huntington 50
i- 50
ideas 50
infr@@ 50
jagu@@ 50
join@@ 50
juni@@ 50
licen@@ 50
lo- 50
madeleine 50
mathemati@@ 50
metroplex 50
metropolis 50
milton 50
movements 50
movie 50
nice 50
nichol@@ 50
occupying 50
ous@@ 50
parallel 50
pat 50
phin 50
pine 50
ported 50
powers 50
rez 50
rist@@ 50
sachsen 50
sboro 50
scand@@ 50
ses@@ 50
sets 50
sfield 50
significantly 50
specifically 50
subgenre 50
suggested 50
sus 50
theory 50
tuc@@ 50
turn@@ 50
usl 50
vey 50
vine@@ 50
wen@@ 50
write 50
za@@ 50
zah@@ 50
zzi 50
05@@ 49
1174 49
140000 49
17684 49
1866 49
1893 49
57392246 49
59 49
adven@@ 49
ailing 49
alexandria 49
annon 49
anıtı 49
athan 49
autobiography 49
badu@@ 49
bajji 49
battery 49
beh@@ 49
breaking 49
bron@@ 49
catania 49
centered 49
cession 49
challeng@@ 49
chen 49
clustering 49
color@@ 49
combining 49
compo@@ 49
comprise 49
consolidated 49
continuing 49
corre@@ 49
craft 49
crash 49
cular 49
cursor 49
difficult 49
direct@@ 49
eastman 49
eing 49
eline 49
enter@@ 49
ethi@@ 49
ette 49
fair 49
fow@@ 49
gerald 49
gm 49
hok 49
hussain 49
igi 49
iloilo 49
immigrants 49
ional 49
isab@@ 49
itu@@ 49
kan 49
labor@@ 49
lander 49
launching 49
longstreet 49
luxembour@@ 49
male 49
maur@@ 49
mulatu 49
mö@@ 49
nez 49
nie 49
nised 49
paleobiology 49
principality 49
pub@@ 49
rain@@ 49
recog@@ 49
regime 49
rho@@ 49
secured 49
short-@@ 49
southwestern 49
substanti@@ 49
sul 49
sultanate 49
surf 49
suspension 49
thousand 49
thrust 49
unity 49
varied 49
venture 49
verti@@ 49
vorwärts 49
williamsburg 49
yale 49
yn@@ 49
å@@ 49
şehitleri 49
&#@@ 48
0002 48
03380 48
121 48
57059226 48
62 48
ables 48
aboard 48
accommodate 48
acquisition 48
aim 48
alam@@ 48
allow@@ 48
amc 48
américa 48
azerbaijan@@ 48
bars 48
bibbowski 48
blocks 48
bodies 48
bringing 48
cambridge 48
candi@@ 48
canoe 48
carol@@ 48
cerro 48
cham@@ 48
chee 48
chose 48
clair 48
concerts 48
condi@@ 48
cti@@ 48
delayed 48
deli@@ 48
dennis 48
dense 48
depar@@ 48
doing 48
dro 48
ential 48
entrance 48
establishing 48
flow 48
foot@@ 48
gon 48
guest 48
harris 48
harry 48
hellen@@ 48
helm 48
helping 48
hispan@@ 48
hits 48
immigration 48
inception 48
invented 48
itation 48
kailan 48
kö@@ 48
laird 48
latino 48
learning 48
lime 48
manner 48
matteo 48
membership 48
merchant 48
middle@@ 48
mig@@ 48
min 48
minnesota 48
monte 48
mou@@ 48
mé@@ 48
nap@@ 48
nigerian 48
oi 48
ological 48
onions 48
owning 48
penalty 48
perform 48
play-off 48
post-metal 48
presi@@ 48
propellan@@ 48
protein 48
quer@@ 48
radical 48
redevelopment 48
repres@@ 48
revenue 48
rosaceae 48
sati@@ 48
semb@@ 48
sible 48
signature 48
skir@@ 48
slaves 48
smallest 48
somer@@ 48
speakers 48
steyr 48
strong@@ 48
stv 48
succe@@ 48
taur@@ 48
taxi 48
techn@@ 48
teen@@ 48
terrain 48
thouse 48
trade@@ 48
transition 48
trip 48
true 48
tured 48
ulam 48
usu@@ 48
walls 48
weber 48
whit@@ 48
wol@@ 48
yan@@ 48
yet 48
youn@@ 48
£ 48
ç@@ 48
1916 47
199 47
3990 47
5,000 47
92550 47
achers 47
aero@@ 47
aerodrome 47
aga 47
alig@@ 47
alization 47
alpha 47
apart 47
arrested 47
auckland 47
ax 47
backing 47
beauti@@ 47
bengal 47
birds 47
bod@@ 47
brabant 47
bush 47
carles 47
carmine 47
cav@@ 47
cept 47
challenge 47
chambers 47
champion 47
cohn 47
cules 47
cá@@ 47
damage 47
departments 47
destinations 47
did@@ 47
dist 47
domes@@ 47
electrical 47
elongated 47
enrolled 47
faro@@ 47
fig@@ 47
fitted 47
god@@ 47
hawks 47
hence 47
hid@@ 47
home@@ 47
hook 47
insurance 47
intere@@ 47
interests 47
ite@@ 47
johan 47
lay 47
llo@@ 47
lontong 47
lyon 47
mall 47
marke@@ 47
medium 47
meer 47
mobility 47
moham@@ 47
notes 47
of-@@ 47
orb@@ 47
ottawa 47
ou 47
paz 47
peñarol 47
polis 47
por 47
pps 47
pric@@ 47
prosecu@@ 47
protag@@ 47
pure 47
quay 47
rain 47
releasing 47
ren 47
rene@@ 47
resident 47
retained 47
rising 47
rober@@ 47
rounds 47
sabah 47
saturday 47
sign@@ 47
slow 47
stry 47
surrender 47
tas@@ 47
tempor@@ 47
thom@@ 47
tour@@ 47
transformed 47
trim 47
uncle 47
vesta 47
vich 47
visit 47
visual 47
vl@@ 47
way@@ 47
,0@@ 46
10th 46
17685 46
1849 46
1868 46
1880 46
199@@ 46
2,000 46
3310 46
69618 46
8392 46
9327 46
9px 46
accord 46
adventures 46
ager 46
annie 46
appeal 46
apped 46
assassin@@ 46
assum@@ 46
aters 46
baan 46
belgian 46
best-@@ 46
bologna 46
bon 46
bt 46
cat 46
chau@@ 46
clave 46
collins 46
confused 46
crimean 46
dag@@ 46
defin@@ 46
demand 46
details 46
divisi@@ 46
divisione 46
dling 46
drag@@ 46
ei@@ 46
emergency 46
employed 46
engineers 46
evi@@ 46
experiences 46
factories 46
faculty 46
farming 46
fenves 46
flames 46
flower 46
forests 46
franc@@ 46
front@@ 46
gallery 46
geostationary 46
giovan@@ 46
golf 46
governorate 46
health@@ 46
hum@@ 46
icebreaker 46
icon 46
inum 46
invited 46
islamabad 46
jewish 46
lambien 46
lian 46
lip@@ 46
lit@@ 46
lyle 46
maj@@ 46
mamnoon 46
marin@@ 46
maría 46
mber@@ 46
mechanical 46
menasha 46
midwest 46
mot@@ 46
moun@@ 46
mrs 46
nashville 46
nev@@ 46
offensive 46
ony 46
opposed 46
pane 46
paraguayan 46
phar@@ 46
ples 46
pogson 46
populations 46
portugal 46
progres@@ 46
psv 46
publish 46
raine 46
rapper 46
rocky 46
rutaceae 46
scotland 46
second-most 46
sequ@@ 46
settle 46
shell 46
shores 46
shortcrust 46
sper@@ 46
stab@@ 46
substitute 46
sum 46
teenage 46
tells 46
tern 46
thur@@ 46
toledo 46
toured 46
tun 46
uc@@ 46
undergraduate 46
unione 46
vall@@ 46
vance 46
vista 46
welsh 46
willamette 46
yon 46
youngest 46
zag@@ 46
zam@@ 46
145 45
1818 45
1890 45
1895 45
2215 45
2744 45
abol@@ 45
accep@@ 45
addi@@ 45
ador@@ 45
african- 45
aj 45
ake@@ 45
alianza 45
allied 45
ando@@ 45
arctic 45
at-@@ 45
attacking 45
bend 45
beng@@ 45
bn 45
carro@@ 45
chilton 45
closer 45
cm 45
combustion 45
commissioner 45
communication 45
connect 45
conten@@ 45
convertible 45
cooper 45
coron@@ 45
corporate 45
custom@@ 45
declined 45
diaz 45
din 45
discus@@ 45
distribut@@ 45
doro@@ 45
dow@@ 45
editor-in-chief 45
electro 45
enne 45
episo@@ 45
fi 45
funding 45
gall@@ 45
gand@@ 45
garage 45
grilled 45
gui@@ 45
h-@@ 45
hardtop 45
hearst 45
heav@@ 45
icebreak@@ 45
icial 45
ida 45
iling 45
increasing 45
iness 45
ital 45
ital@@ 45
itude 45
je 45
jean 45
ji@@ 45
ks@@ 45
legisl@@ 45
leinster 45
libr@@ 45
lm 45
lug@@ 45
mahar@@ 45
mers 45
mindanao 45
mph 45
mud@@ 45
mut 45
nacional 45
newport 45
nfc 45
niagara 45
normally 45
ome@@ 45
open@@ 45
ov@@ 45
pall@@ 45
participating 45
pend@@ 45
philippe 45
planes 45
platted 45
pm 45
portrayed 45
possibly 45
premiered 45
progre@@ 45
regularly 45
relations 45
rochdale 45
rolled 45
rs 45
rupiah 45
seahawks 45
secure 45
skylab 45
sponsored 45
spot@@ 45
springer 45
sprink@@ 45
sses 45
stam@@ 45
stors 45
stroke 45
success@@ 45
synchron@@ 45
talent 45
telescope 45
tere@@ 45
tery 45
tied 45
tio 45
tradi@@ 45
ube 45
unge 45
unified 45
vements 45
webb 45
wheelbase 45
yard 45
1100 44
1915 44
23900 44
388 44
3992 44
60@@ 44
76798317 44
83646315 44
absorbed 44
accompl@@ 44
achi@@ 44
achieving 44
ancestry 44
animal 44
apgpac 44
arina 44
asing 44
ason 44
asturias 44
athena 44
atlan@@ 44
atlanta- 44
batt@@ 44
bia 44
bility 44
bloom@@ 44
campbell 44
carbohydr@@ 44
chargers 44
chel@@ 44
cittadella 44
clan@@ 44
commemor@@ 44
connections 44
conquest 44
dall@@ 44
dation 44
dock 44
dome 44
doom 44
dumpling 44
eliminated 44
elo 44
ender 44
enza 44
españ@@ 44
ev 44
excep@@ 44
farr@@ 44
favour@@ 44
fes@@ 44
fey@@ 44
flavor 44
function 44
functions 44
gang@@ 44
gath@@ 44
geology 44
girls 44
graaf@@ 44
greeks 44
grow 44
guid@@ 44
haider 44
handed 44
harlem 44
hav@@ 44
holder 44
hunt 44
id-@@ 44
ights 44
ign 44
ikan 44
inas 44
intake 44
iso 44
isted 44
itz 44
ius 44
jay 44
jill 44
keeper 44
lah@@ 44
lati@@ 44
lease 44
leeds 44
lett 44
linked 44
liquid 44
literally 44
litre 44
log 44
maintain 44
malays 44
mantan 44
margaret 44
marshal 44
materials 44
measurements 44
milwaukee 44
mm 44
monu@@ 44
narr@@ 44
oakland 44
ods 44
olympique 44
omo 44
opian 44
ores 44
pakora 44
pet 44
pf 44
phase 44
piano 44
pinos 44
pled 44
potential 44
pozuelo 44
prec@@ 44
pressed 44
protect 44
protection 44
puig@@ 44
pursued 44
quebec 44
reform 44
reith 44
resolution 44
robo@@ 44
roles 44
saddam 44
saints 44
santi@@ 44
schedu@@ 44
sector 44
simul@@ 44
solanaceae 44
spaces 44
statue 44
strength 44
tang@@ 44
tax 44
teries 44
tiv@@ 44
traced 44
unciation 44
utili@@ 44
vio 44
wallace 44
wester@@ 44
winger 44
és 44
š@@ 44
abor@@ 43
carri@@ 43
conflic@@ 43
ctor@@ 43
da@@ 43
ee@@ 43
establish@@ 43
exe@@ 43
follow@@ 43
fon@@ 43
franch@@ 43
graph 43
hosting 43
iden@@ 43
inny 43
itary 43
ived 43
jang 43
jon 43
jon@@ 43
kaiser 43
kg 43
lettuce 43
libya 43
load 43
locally 43
loway 43
machine 43
mas 43
matt 43
measured 43
milledgeville 43
millennium 43
minimum 43
monastery 43
muhammad 43
museums 43
mush@@ 43
negr@@ 43
neil 43
nel@@ 43
netherland 43
occupies 43
offs 43
padova 43
pallo@@ 43
pear@@ 43
penang 43
physical 43
pleasant 43
poe@@ 43
polici@@ 43
pper@@ 43
preserved 43
presidents 43
profile 43
purposes 43
qualification 43
qualify 43
raf 43
rah@@ 43
recovered 43
renzi 43
române 43
root 43
rosales 43
sacram@@ 43
schi@@ 43
schuster 43
sellers 43
shap@@ 43
sibility 43
sits 43
stable 43
stic 43
stoger 43
sy 43
thema 43
themes 43
theod@@ 43
threshold 43
tionally 43
tippe@@ 43
traces 43
traveled 43
triest@@ 43
urg 43
ursema 43
ux@@ 43
valu@@ 43
valve 43
virgin 43
vis 43
want 43
wiz@@ 43
yah 43
ymous 43
önen 43
ş@@ 43
șteaptă 43
93@@ 42
advis@@ 42
asy 42
bank@@ 42
brou@@ 42
cially 42
enni@@ 42
estim@@ 42
fer 42
image 42
inaugur@@ 42
ire@@ 42
ji 42
kilo@@ 42
lied 42
lock-@@ 42
manu@@ 42
model@@ 42
onda 42
ould 42
poli 42
princi@@ 42
reti@@ 42
shal@@ 42
sters 42
stock@@ 42
tbol 42
transi@@ 42
tre 42
ured 42
volu@@ 42
ö 42
ú 42
? 41
abil@@ 41
align 41
atest 41
bus@@ 41
cio 41
commission@@ 41
cott 41
cumb@@ 41
dered 41
doctor@@ 41
hic@@ 41
hydr@@ 41
identi@@ 41
intelli@@ 41
intro@@ 41
jav@@ 41
ket 41
llo 41
locomo@@ 41
michel@@ 41
prefe@@ 41
resor@@ 41
ribu@@ 41
secre@@ 41
spring@@ 41
stant 41
substitu@@ 41
tee 41
uri@@ 41
zar@@ 41
× 41
ér@@ 41
€ 41
aled 40
alle@@ 40
alph@@ 40
announ@@ 40
apol@@ 40
aro@@ 40
cell@@ 40
ciano 40
civ@@ 40
distribu@@ 40
divi@@ 40
dp 40
erly 40
ffin 40
figh@@ 40
footb@@ 40
fortun@@ 40
gian 40
hein@@ 40
hitleri 40
hol 40
iden 40
line@@ 40
lokomo@@ 40
marsh@@ 40
onso 40
regu@@ 40
sit 40
soldi@@ 40
stadi@@ 40
ster@@ 40
tica 40
ultim@@ 40
wick@@ 40
worl@@ 40
amed 39
anal@@ 39
atten@@ 39
ause 39
auto@@ 39
brus@@ 39
colo 39
cs1-kern-@@ 39
degre@@ 39
desser@@ 39
evo 39
guez 39
ices 39
indi@@ 39
leag@@ 39
leng@@ 39
origin@@ 39
pleas@@ 39
ply 39
profes@@ 39
ried 39
runner@@ 39
sib@@ 39
sumat@@ 39
tot@@ 39
tress 39
yes 39
ș 39
agre@@ 38
airs 38
aked 38
appe@@ 38
aska 38
bag@@ 38
bath@@ 38
commer@@ 38
danc@@ 38
dig@@ 38
econ@@ 38
ests 38
ful@@ 38
gun 38
ishing 38
modu@@ 38
numb@@ 38
occup@@ 38
rail@@ 38
ret@@ 38
skyscr@@ 38
sponsor@@ 38
subsidi@@ 38
tton 38
vide@@ 38
196@@ 37
americ@@ 37
anger 37
autonom@@ 37
cep@@ 37
clai@@ 37
consoli@@ 37
cust@@ 37
dings 37
discipl@@ 37
elev@@ 37
ere@@ 37
esel@@ 37
gra@@ 37
hamp@@ 37
hund@@ 37
ice@@ 37
icity 37
iss@@ 37
lington 37
magaz@@ 37
pau@@ 37
spor@@ 37
tow@@ 37
twork 37
ve-@@ 37
web@@ 37
wr@@ 37
č 37
= 36
abad 36
accor@@ 36
agremi@@ 36
alli@@ 36
ario 36
arn@@ 36
aspe@@ 36
belong@@ 36
cident 36
coo@@ 36
coordin@@ 36
eligi@@ 36
environ@@ 36
ferred 36
fu 36
gab@@ 36
hosp@@ 36
iff 36
lez 36
liter@@ 36
nett 36
niger@@ 36
oak@@ 36
oms 36
ota 36
pread 36
secon@@ 36
sep@@ 36
strate@@ 36
tus 36
uel 36
adel@@ 35
bm@@ 35
commu@@ 35
develo@@ 35
efxeinou@@ 35
fern@@ 35
illed 35
lein 35
lined 35
liner 35
mans 35
marks 35
nis 35
norm@@ 35
plo@@ 35
ree 35
sal 35
statisti@@ 35
wash@@ 35
ymouth 35
ō@@ 35
abs@@ 34
academ@@ 34
aissance 34
arap@@ 34
athle@@ 34
belie@@ 34
bile 34
birth@@ 34
califor@@ 34
chur@@ 34
cott@@ 34
ground@@ 34
l-@@ 34
meas@@ 34
mex@@ 34
noon 34
pi 34
portr@@ 34
reve@@ 34
scrip@@ 34
uring 34
xed 34
² 34
ğ 34
aero 33
brig@@ 33
citiz@@ 33
clevel@@ 33
compe@@ 33
corpor@@ 33
econom@@ 33
goal@@ 33
histor@@ 33
inde@@ 33
ing-@@ 33
landers 33
lit 33
migration 33
mini 33
nur@@ 33
opi@@ 33
our@@ 33
penn@@ 33
phili@@ 33
recei@@ 33
retur@@ 33
rior 33
ror 33
stric@@ 33
tell@@ 33
unding 33
ț@@ 33
-day 32
ather 32
australi@@ 32
battle@@ 32
cus@@ 32
deri@@ 32
dom 32
gency 32
hag@@ 32
in-chief 32
indian@@ 32
merch@@ 32
ordin@@ 32
ox@@ 32
play-@@ 32
rus 32
spec@@ 32
vent 32
year-@@ 32
ß@@ 32
ä 32
ž@@ 32
33@@ 31
accommo@@ 31
accompan@@ 31
achu@@ 31
aho@@ 31
alco@@ 31
apolis 31
dding 31
dumpl@@ 31
ener@@ 31
fant@@ 31
fru@@ 31
gol@@ 31
ilian 31
metre 31
midd@@ 31
oa 31
practi@@ 31
promot@@ 31
rece@@ 31
surro@@ 31
tau@@ 31
tice 31
tig@@ 31
tti@@ 31
är@@ 31
öne@@ 31
alan@@ 30
anno@@ 30
baj@@ 30
bbi@@ 30
categ@@ 30
citi@@ 30
coll@@ 30
come@@ 30
destin@@ 30
dum 30
dynam@@ 30
erson 30
ert 30
finan@@ 30
inve@@ 30
ister 30
kee@@ 30
laz@@ 30
min-@@ 30
ood 30
or-@@ 30
ority 30
phys@@ 30
signi@@ 30
them@@ 30
vine 30
ă 30
0000 29
aining 29
alexand@@ 29
alia 29
anded 29
apor@@ 29
aure@@ 29
awar@@ 29
ayan 29
broadcast@@ 29
colo@@ 29
consi@@ 29
cyl@@ 29
dents 29
flan@@ 29
ician 29
indones@@ 29
inher@@ 29
introduc@@ 29
invest@@ 29
klu@@ 29
knowle@@ 29
manag@@ 29
metric 29
minu@@ 29
one@@ 29
plate@@ 29
regar@@ 29
represent@@ 29
tionary 29
tournam@@ 29
ô@@ 29
⋅ 29
adis@@ 28
alth@@ 28
ange 28
arians 28
bers 28
cal 28
clas@@ 28
compris@@ 28
crust 28
draf@@ 28
employe@@ 28
eng 28
expan@@ 28
friend@@ 28
hell@@ 28
him@@ 28
hing 28
immedi@@ 28
imp@@ 28
lu 28
mine 28
nin@@ 28
olim@@ 28
oreg@@ 28
padd@@ 28
poin@@ 28
popu@@ 28
rele@@ 28
situ@@ 28
squad@@ 28
steph@@ 28
tack@@ 28
tai@@ 28
urugu@@ 28
vals 28
wid@@ 28
yel@@ 28
yland 28
‘ 28
ami 27
argent@@ 27
bago 27
diale@@ 27
drum@@ 27
dson 27
evol@@ 27
foc@@ 27
governor@@ 27
itt@@ 27
kot@@ 27
leo 27
map 27
nmost 27
previ@@ 27
rement 27
rett 27
rom@@ 27
spon@@ 27
stration 27
tes@@ 27
theat@@ 27
thernmost 27
universi@@ 27
ural 27
vel 27
akar@@ 26
aliz@@ 26
aller 26
alties 26
amples 26
anton@@ 26
cate@@ 26
decisi@@ 26
distinguis@@ 26
gon@@ 26
graph@@ 26
illu@@ 26
isco 26
larg@@ 26
luf@@ 26
monte@@ 26
ott 26
outh 26
paragu@@ 26
pean@@ 26
philoso@@ 26
prac@@ 26
proper@@ 26
quot@@ 26
solan@@ 26
soli@@ 26
sour@@ 26
spr@@ 26
tarr@@ 26
tested 26
thunder@@ 26
turt@@ 26
ure@@ 26
wealth 26
aband@@ 25
amar@@ 25
banan@@ 25
bill@@ 25
clim@@ 25
compan@@ 25
conduc@@ 25
dian 25
disting@@ 25
feli@@ 25
full@@ 25
hoo@@ 25
iel 25
influ@@ 25
journ@@ 25
lov@@ 25
matt@@ 25
minated 25
moldo@@ 25
movi@@ 25
nie@@ 25
occu@@ 25
oriz@@ 25
poto@@ 25
purch@@ 25
sover@@ 25
spac@@ 25
sugg@@ 25
thology 25
tually 25
tude 25
unities 25
visit@@ 25
wald 25
wich 25
22@@ 24
43@@ 24
acker 24
aeron@@ 24
alek@@ 24
austr@@ 24
categor@@ 24
combin@@ 24
deliver@@ 24
engine@@ 24
ewell 24
expen@@ 24
ference 24
hoc@@ 24
house@@ 24
iana 24
inhab@@ 24
jal@@ 24
john@@ 24
kham 24
kos 24
launch@@ 24
mies 24
nate 24
nd 24
para 24
peninsul@@ 24
pies 24
ping 24
reci@@ 24
revie@@ 24
revolu@@ 24
rish@@ 24
solution 24
streng@@ 24
summ@@ 24
techno@@ 24
ums 24
willi@@ 24
yor@@ 24
~ 24
ş 24
* 23
20s 23
226 23
acti@@ 23
alder@@ 23
alities 23
aving 23
business@@ 23
confir@@ 23
dary 23
efs 23
forts 23
ight@@ 23
igor@@ 23
inven@@ 23
io@@ 23
kee 23
larly 23
legen@@ 23
mate@@ 23
minot@@ 23
mono@@ 23
nei@@ 23
nell 23
pace 23
perman@@ 23
philipp@@ 23
pie@@ 23
politici@@ 23
provi@@ 23
provisi@@ 23
secret@@ 23
song@@ 23
tamp@@ 23
tech@@ 23
wolf@@ 23
ا@@ 23
190@@ 22
aerod@@ 22
akarta 22
alla 22
antville 22
ature 22
burgh 22
campa@@ 22
champion@@ 22
ego 22
esco 22
hak@@ 22
heed 22
incre@@ 22
internation@@ 22
inves@@ 22
jap@@ 22
jeff@@ 22
ld 22
legi@@ 22
nove@@ 22
octo@@ 22
olf@@ 22
ones@@ 22
present@@ 22
propel@@ 22
rebel@@ 22
secur@@ 22
short@@ 22
tsman 22
uis@@ 22
w-@@ 22
xe@@ 22
ɔ@@ 22
180 21
194@@ 21
achar@@ 21
anci@@ 21
annex@@ 21
character@@ 21
coali@@ 21
cous@@ 21
cruis@@ 21
cuis@@ 21
daugh@@ 21
dges 21
ean 21
eded 21
epis@@ 21
flin@@ 21
helicop@@ 21
invasi@@ 21
issu@@ 21
medic@@ 21
mercur@@ 21
oes 21
pitt@@ 21
predec@@ 21
scope 21
stadt 21
susp@@ 21
tence 21
ticip@@ 21
torpe@@ 21
universit@@ 21
wau@@ 21
ù 21
ś@@ 21
ceme@@ 20
cess 20
clau@@ 20
conne@@ 20
dency 20
descri@@ 20
eks 20
elle 20
emy 20
feat@@ 20
fior@@ 20
gare@@ 20
gic 20
hai@@ 20
hung@@ 20
kenne@@ 20
know@@ 20
lead@@ 20
lew@@ 20
marty@@ 20
migrants 20
muham@@ 20
novel@@ 20
ont@@ 20
peo@@ 20
phy 20
potenti@@ 20
poulos 20
sphere 20
stone@@ 20
sylvan@@ 20
tained 20
troo@@ 20
vd 20
veget@@ 20
ê@@ 20
ń@@ 20
adian 19
alk@@ 19
carbon@@ 19
centur@@ 19
denti@@ 19
diag@@ 19
distri@@ 19
eclip@@ 19
ership 19
excell@@ 19
fl 19
flori@@ 19
gaz@@ 19
gras@@ 19
idel@@ 19
ilo 19
ira@@ 19
iti@@ 19
liqu@@ 19
mak@@ 19
manit@@ 19
nick@@ 19
onary 19
ool 19
peter@@ 19
releg@@ 19
salv@@ 19
sey@@ 19
spectr@@ 19
tay@@ 19
turer 19
uary 19
ulia 19
virgin@@ 19
ɛ@@ 19
ˌ@@ 19
а@@ 19
197@@ 18
aching 18
adh 18
amsterdam@@ 18
arez 18
atmo@@ 18
aç@@ 18
biology 18
chev@@ 18
chichar@@ 18
cial 18
das 18
dest@@ 18
eli 18
erton 18
gren@@ 18
inclu@@ 18
jew@@ 18
locano 18
lond@@ 18
mah 18
mashed 18
musli@@ 18
naci@@ 18
nai@@ 18
pale@@ 18
poten@@ 18
promin@@ 18
scription 18
sie@@ 18
stly 18
thou@@ 18
tsi@@ 18
uti@@ 18
wido@@ 18
· 18
ão 18
ī@@ 18
⁄ 18
165 17
alo 17
amhar@@ 17
argen@@ 17
avail@@ 17
ayed 17
boro 17
classi@@ 17
colomb@@ 17
ction@@ 17
fic 17
gla@@ 17
gree@@ 17
grow@@ 17
heidel@@ 17
hungar@@ 17
icians 17
ied 17
istr@@ 17
litt@@ 17
lux@@ 17
metro@@ 17
redi@@ 17
relation@@ 17
rely 17
rí@@ 17
satur@@ 17
sist 17
surren@@ 17
sus@@ 17
ę@@ 17
alban@@ 16
alkma@@ 16
ances 16
attemp@@ 16
bloc@@ 16
buff@@ 16
buster 16
capit@@ 16
debu@@ 16
dedic@@ 16
defini@@ 16
elwald 16
font-@@ 16
hem 16
insur@@ 16
laf@@ 16
m2 16
mel 16
neo 16
ober@@ 16
progr@@ 16
recor@@ 16
semin@@ 16
solved 16
spart@@ 16
stad@@ 16
univer@@ 16
ì 16
ɡ@@ 16
ʊ@@ 16
253 15
adem@@ 15
anes@@ 15
aste 15
autobio@@ 15
bankrup@@ 15
broadcas@@ 15
buck@@ 15
cil 15
common@@ 15
communic@@ 15
craf@@ 15
famili@@ 15
fill@@ 15
gali@@ 15
guad@@ 15
gujar@@ 15
harv@@ 15
hel 15
iction 15
ilo@@ 15
karnat@@ 15
lag 15
logi@@ 15
lous 15
marines 15
neighbor@@ 15
nickn@@ 15
olympi@@ 15
pep@@ 15
provin@@ 15
resig@@ 15
retre@@ 15
româ@@ 15
subur@@ 15
ta- 15
utt@@ 15
wark 15
ń 15
œ@@ 15
ɑ@@ 15
ʃ@@ 15
₹ 15
198@@ 14
alli 14
aper 14
asha 14
atric@@ 14
avo@@ 14
buz@@ 14
coast@@ 14
conf@@ 14
crete 14
cull@@ 14
dill@@ 14
ei 14
enting 14
ghts 14
hart@@ 14
hoods 14
inste@@ 14
lando 14
lieu@@ 14
lightly 14
lough@@ 14
mendr@@ 14
own@@ 14
parliam@@ 14
prototy@@ 14
pulsion 14
religi@@ 14
rust 14
secu@@ 14
signific@@ 14
supre@@ 14
teap@@ 14
thur 14
tries 14
twel@@ 14
ucc@@ 14
volun@@ 14
winni@@ 14
year@@ 14
yed 14
å 14
​ 14
‎ 14
• 14
&@@ 13
03@@ 13
305 13
achi 13
addre@@ 13
adesh 13
affili@@ 13
aktiesel@@ 13
assis 13
aware 13
bolog@@ 13
ception 13
dable 13
een 13
encia 13
encomp@@ 13
eving 13
flag@@ 13
fore 13
hog@@ 13
iu 13
kyo 13
machin@@ 13
nash@@ 13
neigh@@ 13
newsp@@ 13
org@@ 13
paci@@ 13
pard 13
patric@@ 13
pers@@ 13
republic@@ 13
roe 13
rome@@ 13
sic 13
sier@@ 13
singapor@@ 13
sio@@ 13
sovi@@ 13
suc@@ 13
t; 13
treat@@ 13
vancou@@ 13
vehic@@ 13
velo@@ 13
vent@@ 13
ı 13
с@@ 13
193@@ 12
380 12
aceae 12
albe@@ 12
assin@@ 12
aveng@@ 12
begin@@ 12
blin 12
block@@ 12
conse@@ 12
contin@@ 12
converti@@ 12
dio 12
eal@@ 12
enced 12
entary 12
eping 12
fiel@@ 12
gover@@ 12
ground-@@ 12
icy 12
ilers 12
ith@@ 12
jury 12
langu@@ 12
lyric@@ 12
mw-@@ 12
ois 12
olym@@ 12
paran@@ 12
rica 12
roch@@ 12
salo@@ 12
sate@@ 12
thers 12
toy@@ 12
valent 12
vil 12
wär@@ 12
î@@ 12
đ@@ 12
ē@@ 12
ő@@ 12
ل@@ 12
َ@@ 12
adirond@@ 11
albu@@ 11
andalu@@ 11
august@@ 11
azer@@ 11
bass@@ 11
bec 11
bour 11
carr@@ 11
collap@@ 11
declar@@ 11
demol@@ 11
design@@ 11
dner 11
efly 11
envir@@ 11
espa@@ 11
fashi@@ 11
fection@@ 11
fier 11
gal 11
hio 11
humb@@ 11
istan@@ 11
jah 11
lab 11
legislat@@ 11
lum@@ 11
lé@@ 11
mai 11
materi@@ 11
mee@@ 11
mish 11
mississi@@ 11
onica 11
paralle@@ 11
popular@@ 11
pren@@ 11
ricul@@ 11
rom 11
rut@@ 11
shri@@ 11
speak@@ 11
syste@@ 11
tul@@ 11
twer@@ 11
volk@@ 11
³ 11
ë 11
č@@ 11
ł 11
š 11
absorb@@ 10
aig 10
archipel@@ 10
archite@@ 10
ariz@@ 10
asunci@@ 10
attor@@ 10
azione 10
boli@@ 10
bund@@ 10
casu@@ 10
coup@@ 10
democr@@ 10
depart@@ 10
detro@@ 10
imperi@@ 10
inclin@@ 10
islam@@ 10
jaz@@ 10
leip@@ 10
lipp@@ 10
lished 10
midfiel@@ 10
muse@@ 10
nex@@ 10
no-@@ 10
occur@@ 10
offen@@ 10
paper@@ 10
pical 10
ral@@ 10
rd 10
reas@@ 10
reco@@ 10
repeat 10
rough@@ 10
sach@@ 10
sburgh 10
stanti@@ 10
stoc@@ 10
ugu@@ 10
uto@@ 10
ß 10
ò 10
ʊ 10
ر@@ 10
843 9
` 9
activi@@ 9
aland 9
aned 9
anza 9
approxim@@ 9
arist 9
aza 9
ação 9
bande@@ 9
bey@@ 9
busi@@ 9
cano@@ 9
cutt@@ 9
der- 9
dyn@@ 9
galore 9
harri@@ 9
hn 9
inder 9
inh@@ 9
inhabit@@ 9
iraq@@ 9
isio 9
lufth@@ 9
magde@@ 9
maxi@@ 9
onato 9
plex 9
ppi 9
pura 9
repu@@ 9
slic@@ 9
stin 9
superi@@ 9
tish 9
traj@@ 9
vot@@ 9
ð@@ 9
ū 9
ŵ@@ 9
ż@@ 9
ɒ@@ 9
ʒ@@ 9
-belt 8
192@@ 8
317 8
371 8
adminis@@ 8
agle 8
analys@@ 8
antio@@ 8
atlé@@ 8
ayette 8
bor 8
brab@@ 8
cline 8
columb@@ 8
cture 8
defe@@ 8
dential 8
educ@@ 8
els@@ 8
enci@@ 8
equi@@ 8
foun@@ 8
herit@@ 8
hus 8
individu@@ 8
inging 8
lanc@@ 8
limi@@ 8
manhatt@@ 8
micha@@ 8
monarch@@ 8
nish 8
ocl@@ 8
olic 8
oto@@ 8
ova 8
pee 8
phal@@ 8
phas@@ 8
purpo@@ 8
qat@@ 8
reviewed 8
studi@@ 8
sultan@@ 8
tir@@ 8
transport@@ 8
trini@@ 8
º 8
ï@@ 8
ý 8
ğ@@ 8
г@@ 8
к@@ 8
н@@ 8
р@@ 8
у@@ 8
ي@@ 8
… 8
696@@ 7
714 7
abbrevi@@ 7
acher 7
acity 7
agen 7
agricul@@ 7
asty 7
atta 7
attac@@ 7
atto@@ 7
attoor 7
aur 7
austri@@ 7
balti@@ 7
bhaj@@ 7
busin@@ 7
chr@@ 7
coar@@ 7
commis@@ 7
dens 7
erland 7
esh 7
essar@@ 7
hunt@@ 7
illar 7
ilton 7
ior 7
kais@@ 7
lik@@ 7
llites 7
mille@@ 7
monoc@@ 7
mum 7
names@@ 7
ody 7
otto@@ 7
pog@@ 7
pou@@ 7
ppa 7
qad@@ 7
rested 7
sadd@@ 7
sandwic@@ 7
scot@@ 7
sema 7
shari@@ 7
swis@@ 7
tapi@@ 7
tels 7
thresh@@ 7
tico 7
world@@ 7
à@@ 7
árez 7
â 7
ät 7
ā 7
ą@@ 7
ő 7
ū@@ 7
ů@@ 7
ʿ@@ 7
μ@@ 7
ع@@ 7
‑ 7
195@@ 6
463@@ 6
836@@ 6
936@@ 6
@ 6
^ 6
ajo@@ 6
akti@@ 6
alab@@ 6
alex@@ 6
artill@@ 6
asse 6
bey 6
birm@@ 6
camer@@ 6
cari@@ 6
colu@@ 6
cot 6
dece@@ 6
disband@@ 6
disci@@ 6
doba 6
dougl@@ 6
dum@@ 6
editor-@@ 6
erto 6
esliga 6
espe@@ 6
establis@@ 6
ety 6
exam@@ 6
getty@@ 6
harriet@@ 6
holland@@ 6
infra@@ 6
isition 6
kara 6
kop@@ 6
kumar 6
legis@@ 6
lettu@@ 6
lincol@@ 6
lish 6
mech@@ 6
mera 6
metap@@ 6
millenni@@ 6
munici@@ 6
nego@@ 6
opia 6
oys@@ 6
palaeontolog@@ 6
philadel@@ 6
portu@@ 6
quia 6
richard@@ 6
roule@@ 6
shutt@@ 6
squee@@ 6
sé@@ 6
tended 6
teo 6
tesse 6
tory 6
uster 6
writ@@ 6
­ 6
ı@@ 6
ř@@ 6
е@@ 6
ա@@ 6
ْ@@ 6
ḥ@@ 6
ṃ@@ 6
ṭ@@ 6
`@@ 5
aen@@ 5
afric@@ 5
aldr@@ 5
astronau@@ 5
bagh@@ 5
belgi@@ 5
bol 5
boulev@@ 5
budap@@ 5
campe@@ 5
capital@@ 5
carni@@ 5
characteri@@ 5
dah 5
difficul@@ 5
elec@@ 5
enix 5
entertain@@ 5
eties 5
his@@ 5
indigen@@ 5
jay@@ 5
jurisdic@@ 5
kutti@@ 5
lein@@ 5
lib@@ 5
ln 5
miss@@ 5
missis@@ 5
nether@@ 5
numer@@ 5
offici@@ 5
onto@@ 5
ott@@ 5
paleonto@@ 5
performan@@ 5
pino 5
rhy@@ 5
ribb@@ 5
robin@@ 5
saraw@@ 5
schen 5
sebasti@@ 5
settle@@ 5
strup 5
subsi@@ 5
territ@@ 5
tomat@@ 5
tural 5
unda 5
vels 5
yr 5
zab@@ 5
zamboang@@ 5
½ 5
érica 5
ì@@ 5
ø 5
üt@@ 5
ē 5
ě@@ 5
ī 5
ź 5
ʌ@@ 5
η@@ 5
λ@@ 5
ς 5
τ@@ 5
м@@ 5
н 5
т@@ 5
я 5
ب@@ 5
ት@@ 5
ኢ@@ 5
ያ 5
ዮ@@ 5
ጵ@@ 5
ṣ@@ 5
239@@ 4
600@@ 4
863 4
\ 4
almon@@ 4
amster@@ 4
arella 4
astero@@ 4
atat@@ 4
attle 4
barcel@@ 4
bion@@ 4
brasile@@ 4
bul 4
caval@@ 4
charac@@ 4
cittad@@ 4
devan@@ 4
dral 4
earli@@ 4
elen 4
enna 4
essor 4
facul@@ 4
falcon@@ 4
forman@@ 4
gate@@ 4
illi 4
inspi@@ 4
juvent@@ 4
kans@@ 4
kke 4
klin 4
lest 4
listic 4
lufthav@@ 4
lume@@ 4
luxemb@@ 4
macc@@ 4
make@@ 4
napol@@ 4
offic@@ 4
oles 4
oper 4
orle@@ 4
ovan@@ 4
paleo@@ 4
palities 4
partner@@ 4
portugu@@ 4
rants 4
relati@@ 4
restaur@@ 4
ril 4
sest 4
shred@@ 4
sibly 4
simo 4
stationary 4
stering 4
sula 4
tely 4
terfield 4
through@@ 4
ucci 4
valenci@@ 4
wc 4
ô 4
û@@ 4
ü 4
ġ@@ 4
ţ@@ 4
ű@@ 4
ʲ@@ 4
ʼ@@ 4
ʾ 4
ε@@ 4
ο@@ 4
а 4
з@@ 4
к 4
ע@@ 4
ق 4
ن 4
و@@ 4
ِ@@ 4
व@@ 4
ṛ@@ 4
⁠ 4
官@@ 4
224@@ 3
925@@ 3
abbi@@ 3
aceous 3
ailan 3
ajan 3
alcoben@@ 3
amatric@@ 3
apalli 3
apoel 3
apos@@ 3
apul@@ 3
architet@@ 3
astron@@ 3
attem@@ 3
aurak@@ 3
bankrupt@@ 3
banyu@@ 3
bg 3
cara 3
cephal@@ 3
chancell@@ 3
chang@@ 3
cilla 3
cocon@@ 3
commel@@ 3
como@@ 3
desp@@ 3
dgeville 3
diame@@ 3
disne@@ 3
elkh@@ 3
ensis 3
equip@@ 3
erick 3
ermo 3
exis@@ 3
factor@@ 3
fically 3
georg@@ 3
glaston@@ 3
guadal@@ 3
hers 3
homet@@ 3
horri@@ 3
hosa 3
hü@@ 3
import@@ 3
inet 3
ingredi@@ 3
isra@@ 3
ketball 3
ledo 3
lems 3
magistr@@ 3
metropol@@ 3
mosco@@ 3
mumb@@ 3
oba 3
oca 3
occas@@ 3
occupi@@ 3
olfo 3
orig@@ 3
orized 3
palaeonto@@ 3
peg 3
pically 3
punj@@ 3
quick@@ 3
rotter@@ 3
rp@@ 3
rón 3
seaf@@ 3
seca 3
silvan@@ 3
skab 3
socc@@ 3
themati@@ 3
thern 3
tness 3
toge@@ 3
ukrain@@ 3
§ 3
« 3
» 3
ã@@ 3
ğlu 3
ǫ@@ 3
ț 3
ɬ@@ 3
̣ 3
ί@@ 3
α@@ 3
ν 3
ν@@ 3
и@@ 3
س@@ 3
ف@@ 3
ق@@ 3
ḍ@@ 3
392 2
abbre@@ 2
accadem@@ 2
adier 2
adio 2
ahaw@@ 2
ahmed@@ 2
aiss@@ 2
anahe@@ 2
annah 2
appl@@ 2
asile@@ 2
assar 2
astern 2
azerbai@@ 2
background-@@ 2
baraj@@ 2
bien 2
bound@@ 2
busce@@ 2
centricity 2
charest 2
chinat@@ 2
choy 2
chrys@@ 2
ckland 2
commissi@@ 2
conden@@ 2
decemb@@ 2
dimit@@ 2
elizab@@ 2
elong@@ 2
emper@@ 2
ener 2
enos 2
eval 2
febr@@ 2
gin 2
gradi@@ 2
huss@@ 2
ignit 2
inau@@ 2
invi@@ 2
itra 2
juris@@ 2
komo@@ 2
lont@@ 2
lour 2
manh@@ 2
massachu@@ 2
meth@@ 2
michig@@ 2
monocotyle@@ 2
orge 2
ork 2
ought 2
oxy@@ 2
paul@@ 2
penin@@ 2
querque 2
raham 2
rence 2
resul@@ 2
salvador@@ 2
scul@@ 2
septe@@ 2
ser-@@ 2
smal@@ 2
spani@@ 2
stitu@@ 2
suspen@@ 2
terran@@ 2
terranean 2
text-@@ 2
thly 2
vb 2
vermic@@ 2
visves@@ 2
zie 2
´ 2
ê 2
ñ 2
òs 2
öger 2
þ@@ 2
ň@@ 2
ŋ@@ 2
ś 2
ɜ@@ 2
ɟ@@ 2
ɪ 2
ʏ@@ 2
ʼ 2
ː 2
́ 2
έ@@ 2
ή@@ 2
β 2
θ@@ 2
ι@@ 2
κ@@ 2
χ@@ 2
б@@ 2
о 2
о@@ 2
ы@@ 2
ь 2
ј@@ 2
ү@@ 2
ҹ@@ 2
ә@@ 2
հ@@ 2
յ@@ 2
ն 2
ս@@ 2
տ@@ 2
ב@@ 2
ד@@ 2
י@@ 2
ן 2
צ@@ 2
ר@@ 2
ء 2
ئ@@ 2
ة 2
ت@@ 2
ح@@ 2
ر 2
ش@@ 2
غ@@ 2
م@@ 2
ي 2
ّ 2
پ@@ 2
ێ@@ 2
ܒ@@ 2
ܓ@@ 2
ܕ 2
ܕ@@ 2
क 2
ट 2
ड 2
प@@ 2
़ 2
् 2
க@@ 2
ச@@ 2
ஞ 2
ி 2
் 2
ರ@@ 2
ಸ 2
ಹ@@ 2
ು 2
ೆ@@ 2
್ 2
ა 2
დ@@ 2
ე@@ 2
ი@@ 2
ჭ@@ 2
ሪ@@ 2
ቀ@@ 2
ፍ@@ 2
ἀ@@ 2
† 2
‡ 2
№ 2
✦ 2
港 2
話 2
话 2
饘 2
香@@ 2
5600@@ 1
5739@@ 1
706@@ 1
823 1
aarhu@@ 1
acob 1
aird 1
akur 1
alcat@@ 1
alth 1
amate@@ 1
anac 1
aol@@ 1
aolong 1
arapiraqu@@ 1
arrabbi@@ 1
auton@@ 1
bache@@ 1
berke@@ 1
betw@@ 1
border@@ 1
brookl@@ 1
cathe@@ 1
ccn 1
chall@@ 1
chanc@@ 1
chevro@@ 1
cinc@@ 1
cincin@@ 1
cincinnat@@ 1
compon@@ 1
confl@@ 1
connecti@@ 1
copenh@@ 1
cuy@@ 1
có@@ 1
cór@@ 1
danao 1
davuto@@ 1
denepura 1
derby@@ 1
dren 1
ear-@@ 1
ejo 1
entina 1
exist@@ 1
fallu@@ 1
fute@@ 1
glu 1
goddes@@ 1
gradient 1
guadalaj@@ 1
gwin@@ 1
haile@@ 1
handlun@@ 1
ikk@@ 1
increas@@ 1
iohan@@ 1
itiba 1
jamin 1
jos@@ 1
kuttikk@@ 1
laun@@ 1
lesen 1
llan 1
lli@@ 1
lumezz@@ 1
marcol@@ 1
margre@@ 1
mariam 1
mering@@ 1
minnes@@ 1
missour@@ 1
mitch@@ 1
montre@@ 1
naren@@ 1
neider 1
ongs 1
parli@@ 1
particu@@ 1
passeng@@ 1
patac@@ 1
paylo@@ 1
penh@@ 1
philadelph@@ 1
pinh@@ 1
publis@@ 1
putraj@@ 1
qbal 1
quired 1
radhak@@ 1
ramap@@ 1
rasmus@@ 1
regis@@ 1
rique 1
rishnan 1
route@@ 1
sandw@@ 1
sels 1
selves 1
sliiga 1
spalle@@ 1
succ@@ 1
switz@@ 1
technolog@@ 1
tejan@@ 1
til 1
traff@@ 1
tsipr@@ 1
ult 1
utre@@ 1
varaya 1
veikk@@ 1
visay@@ 1
westmin@@ 1
wickre@@ 1
widel@@ 1
wiscons@@ 1
yal 1
zambo@@ 1
zig 1
¥ 1
¼ 1
ã 1
ð 1
õ@@ 1
ý@@ 1
ć@@ 1
ť 1
ž 1
ǎ@@ 1
ɡ 1
ʷ@@ 1
ά@@ 1
δ@@ 1
μ 1
π@@ 1
ρ@@ 1
σ@@ 1
ω 1
ό@@ 1
в@@ 1
л@@ 1
п@@ 1
ч@@ 1
щ@@ 1
ь@@ 1
أ@@ 1
ت 1
ج@@ 1
خ@@ 1
ز 1
ك@@ 1
ن@@ 1
ር@@ 1
ቃ 1
ኒ 1
ን@@ 1
አ@@ 1
ኣ@@ 1
ካ 1
የ@@ 1
ድ 1
₨ 1
⅔ 1
全@@ 1
澳@@ 1
糜 1
蛋@@ 1
酏 1
門 1
鬻 1
麵 1
madeupword0000 0
madeupword0001 0
madeupword0002 0
madeupword0003 0
madeupword0004 0
madeupword0005 0
