. 58565
the 38905
is 36204
, 33708
in 27164
of 26662
COUNTRY 23728
and 21068
was 13099
The 12483
a 12210
LOCATION 11453
ARTIST 10268
POLITICIAN 10039
FOOD 9666
country 9274
CITY 8905
MEANOFTRANSPORTATION 8517
BIRTHPLACE 8259
has 7398
ISPARTOF 7241
AIRPORT 6967
by 6909
ASTRONAUT 6539
WRITTENWORK 6435
LEADERNAME 6197
ATHLETE 6159
BUILDING 6048
which 5946
CELESTIALBODY 5632
( 5549
) 5543
_ 5527
GENRE 4914
club 4852
location 4783
from 4464
/ 4451
UNIVERSITY 4363
birthPlace 4280
CLUB 4160
an 4158
are 4138
isPartOf 4124
where 4105
leaderName 3934
located 3918
capital 3867
SPORTSTEAM 3768
born 3736
leader 3582
for 3422
to 3348
A 3284
DEATHPLACE 3263
genre 3217
REGION 3155
language 3153
ETHNICGROUP 3097
LANGUAGE 3097
city 3070
CAPITAL 3064
&apos; 3016
MANAGER 2959
with 2944
as 2880
GROUND 2803
s 2694
County 2659
ethnicGroup 2629
WAS 2561
its 2561
on 2561
INGREDIENT 2560
part 2555
who 2449
MONUMENT 2345
ingredient 2341
region 2308
ethnic 2224
He 2103
at 2049
ASSOCIATEDBAND 2035
ASSOCIATEDMUSICALARTIST 2035
MANUFACTURER 2029
S 2012
member 1997
ALMAMATER 1971
OF 1970
associatedBand 1969
associatedMusicalArtist 1969
NATIONALITY 1963
ground 1892
CITYSERVED 1841
It 1837
- 1799
plays 1744
music 1741
OPERATINGORGANISATION 1719
manager 1716
DISCOVERER 1709
MEMBER 1700
BATTLES 1696
CREW 1685
number 1647
COMICSCHARACTER 1637
NUMBER 1631
runway 1594
epoch 1567
deathPlace 1533
DEMONYM 1499
also 1479
SUCCESSOR 1427
C 1426
&quot; 1417
FC 1388
metres 1376
group 1364
U 1353
LEAGUE 1351
length 1350
played 1350
state 1343
died 1342
RUNWAYLENGTH 1339
COUNTRYORIGIN 1335
NASA 1319
spoken 1317
STATE 1309
IN 1308
one 1282
LEADERTITLE 1180
ELEVATIONABOVETHESEALEVEL 1168
PUBLISHER 1163
nationality 1149
almaMater 1145
apoapsis 1134
found 1134
AUTHOR 1110
0 1094
Native 1094
office 1092
AFFILIATION 1087
ESTABLISHED 1082
crew 1066
leaderTitle 1064
engine 1061
BUILDER 1049
established 1048
CREATOR 1044
LAUNCHSITE 1044
ARCHITECT 1041
dish 1039
Washington 1021
successor 1016
periapsis 995
English 988
Americans 982
led 974
ISBN 969
NUMBEROFMEMBERS 949
METRES 943
OPERATOR 937
whose 936
BACKGROUND 932
RUNWAYNAME 918
it 918
DISHVARIATION 909
ISSN 909
STYLISTICORIGIN 908
groups 906
MAININGREDIENTS 881
band 878
OWNER 877
runwayLength 871
stylisticOrigin 870
BIRTHDATE 866
EPOCH 866
New 865
battles 864
OFFICE 863
name 860
BY 859
United 856
his 853
PARTY 843
LEADER 841
league 838
RECORDLABEL 836
WORKEDAS 827
WORKEDAT 827
COMMANDER 824
national 812
ORBITALPERIOD 810
comes 806
birthDate 803
creator 800
PERIAPSIS 791
served 789
ASSEMBLY 780
cityServed 779
party 773
area 772
LARGESTCITY 769
ENGINE 766
mainIngredients 764
commander 763
team 761
US 738
airport 737
that 737
elevationAboveTheSeaLevel 736
level 734
sea 734
SELECTED 728
architect 717
operatingOrganisation 717
he 715
known 715
President 712
above 707
kilometres 707
POWERTYPE 697
pilot 690
D 688
made 686
Al 684
background 678
called 676
manufacturer 676
Texas 674
RUNWAY 673
TO 672
States 665
APOAPSIS 657
BIRTHYEAR 656
OCLC 655
date 655
COMPLETIONDATE 650
F 648
OCCUPATION 648
km 648
ALTERNATIVENAME 646
be 646
ACTIVEYEARSSTARTYEAR 644
workedAs 643
workedAt 643
ingredients 640
operated 639
DERIVATIVE 635
dishVariation 634
demonym 633
1 629
rock 626
main 625
LCCN 624
can 624
musical 624
football 623
period 623
currency 622
occupation 615
discoverer 610
author 609
bacon 606
builder 603
derivative 597
published 591
associated 590
RELATEDMEANOFTRANSPORTATION 585
home 583
orbitalPeriod 579
HAS 573
ITS 573
SPOKENIN 573
recordLabel 573
LOCATIONCITY 572
play 569
Township 566
succeeded 566
MUSICFUSIONGENRE 562
orbital 562
American 560
publisher 558
FLOORCOUNT 554
square 553
launchSite 552
SURFACETYPE 544
owner 544
Party 535
relatedMeanOfTransportation 535
written 535
ABBREVIATION 534
season 533
serves 531
largestCity 529
STATUS 525
affiliated 519
under 515
CURRENCY 512
origin 511
selected 508
originates 507
Indiana 506
blues 505
affiliation 503
built 502
members 496
discovered 495
largest 488
per 488
Its 486
musician 482
COURSE 480
SPOUSE 480
status 479
ACADEMICSTAFFSIZE 478
numberOfMembers 477
ORIGIN 476
SEASON 475
people 473
runwayName 471
California 467
MILITARYBRANCH 464
instrument 462
or 456
designed 455
there 454
worked 452
LENGTH 449
FULLNAME 447
DESIGNER 445
created 442
YOUTHCLUB 441
3 440
INSTRUMENT 433
operator 433
fought 431
Anderson 430
Records 430
managed 430
order 427
ISPARTOFMILITARYCONFLICT 425
FOUNDATIONPLACE 423
5 417
AREATOTAL 417
6 416
THE 416
FORMERTEAM 415
July 415
mass 414
book 413
graduated 412
March 411
leaders 411
course 410
areaTotal 408
originated 408
assembly 405
long 403
launched 402
based 398
MEDIATYPE 397
St 396
character 394
Alhambra 390
career 389
total 388
FOLLOWEDBY 387
abbreviation 385
8 384
Roma 384
alternativeName 384
National 380
TENANT 379
musicFusionGenre 379
STARRING 378
performs 378
: 377
PRECEDEDBY 376
Austin 375
NUMBEROFSTUDENTS 374
ORDER 369
RESIDENCE 368
champions 366
mediaType 366
DC 365
PARENTCOMPANY 363
York 363
retired 363
December 358
NUMBEROFPAGES 356
COMPARABLE 354
includes 354
Georgia 351
countryOrigin 351
have 350
their 348
B 347
Madison 346
completionDate 344
HEADQUARTER 343
ICAO 343
FORMERNAME 342
owned 342
1st 341
both 339
University 338
DEBUTTEAM 335
2006 334
fusion 334
related 334
birthYear 330
s@@ 330
density 326
City 322
activeYearsStartYear 321
S@@ 320
completed 319
signed 319
4 317
used 317
president 316
ESCAPEVELOCITY 315
ed 315
population 314
AWARD 312
POPULATIONDENSITY 312
M 308
comic 308
dessert 308
founded 308
anthem 306
students 306
ing 304
now 304
2 303
CHAMPIONS 301
CODEN 301
precededBy 300
populationDensity 299
manufactured 298
BROADCASTEDBY 296
In 295
while 295
began 294
EDITOR 293
inhabitants 293
artist 290
1ST 289
spokenIn 288
singer 287
D@@ 286
rocket 286
One 285
sandwich 285
3rd 283
rhythm 281
A@@ 280
company 280
flight 280
; 279
His 277
floorCount 277
class 276
powerType 276
test 276
Twilight 275
academic 275
body 275
m 274
sq 274
division 272
had 272
they 272
contains 271
code 270
origins 270
ACADEMICDISCIPLINE 269
SHIPBEAM 269
label 269
Historic 268
assembled 268
tenant 268
AREACODE 267
Felipe 267
Prime 267
foundationPlace 267
category 266
started 266
es 265
p@@ 265
Minister 263
spouse 263
Jwaydan 262
were 262
Finland 261
Register 260
INOFFICEWHILEVICEPRESIDENT 259
Places 259
t@@ 259
within 259
NRBQ 258
SC 258
9 256
House 256
full 255
place 255
Moscow 254
CLASS 253
belongs 253
but 253
3RD 250
CAMPUS 249
HISTORIC 249
NATIONAL 249
PLACES 249
REGISTER 249
CATEGORY 248
speed 248
Orange 247
mater 247
L@@ 244
White 244
Authority 243
Spanish 243
academicStaffSize 243
IDENTIFIER 242
been 242
food 242
INOFFICEWHILEPRIMEMINISTER 241
ship 241
1634 240
Born 240
DISTRICT 240
State 238
diameter 238
floors 238
fullname 238
Air 237
transmission 237
Antares 236
DEAN 236
K@@ 236
escape 236
escapeVelocity 236
Asian 235
INOFFICEWHILEPRESIDENT 235
style 235
velocity 235
c@@ 234
days 234
metal 234
backup 233
award 232
ANTHEM 231
P@@ 231
Representatives 231
VI 231
2014 230
B@@ 229
formerTeam 229
31 228
staff 228
DATEOFRETIREMENT 227
er 227
popular 227
designer 225
Adams 224
family 224
f@@ 223
DBS 222
languages 222
C@@ 221
R@@ 221
variation 221
7 219
SurfaceType 219
e 218
AWARDS 217
Club 217
KEYPERSON 217
uses 217
DIVISION 215
Milan 215
militaryBranch 215
Force 214
International 214
preceded 214
t 214
Atlantic 213
fighter 213
meters 213
first 212
millimetres 212
African 211
FINALFLIGHT 211
residence 211
17 210
Alan 210
BODYSTYLE 210
MASS 209
Road 209
YEAROFCONSTRUCTION 209
awarded 208
T 207
followedBy 207
include 207
numberOfStudents 206
record 206
Abilene 205
Moyine 205
Province 205
Virage 204
alma 204
g@@ 204
Samaras 203
COACH 202
Central 201
Italy 201
dean 201
16 200
Italian 200
all 200
locationCity 200
II 199
November 199
height 199
FAMILY 198
Federal 198
alternative 198
former 198
Albany 196
Auburn 195
UK 195
birthplace 195
d 195
bodyStyle 194
during 193
academicDiscipline 192
hop 192
Mexico 191
finalFlight 191
h@@ 191
o 191
INOFFICEWHILEMONARCH 190
aircraft 190
youth 190
youthclub 190
January 189
represented 189
4@@ 188
AC 188
dateOfRetirement 188
starring 188
Deram 187
currently 187
sauce 187
Eastern 186
M@@ 186
formerName 186
Kharaitiyat 185
i@@ 185
temperature 185
transport 184
ACTIVEYEARSSTARTDATE 183
Alligator 183
BACKUP 183
Louis 183
PILOT 183
SITE 183
TOPSPEED 183
SV 182
abbreviated 182
Antonis 180
PREDECESSOR 180
HEIGHT 179
2005 178
Lake 178
added 178
numberOfPages 178
ACTIVEYEARSENDDATE 177
USA 177
Democratic 176
Martin 176
Anaheim 174
Battle 174
June 174
campus 174
n@@ 174
Airport 172
Dales 172
H@@ 172
NUMBEROFPOSTGRADUATESTUDENTS 172
headquarters 172
live 172
this 172
CHAIRMAN 171
O 171
Rams 171
shipBeam 171
MATERIAL 170
beam 170
county 170
municipality 170
pop 170
southeast 170
1932 169
PRESIDENT 169
activeYearsStartDate 169
15 168
9@@ 168
BUILDINGSTARTDATE 168
Blues 168
October 168
chairman 168
type 168
AFC 167
John 167
Assembly 166
birth 166
headquarter 166
War 165
debutTeam 165
once 165
pages 165
site 165
Aldrin 164
F@@ 164
attended 164
i 164
later 164
Christian 163
TC 163
material 163
means 163
2009 162
Lee 162
They 162
formerly 162
north 162
N 161
School 161
Socialist 161
areaCode 161
in@@ 161
jazz 161
monument 161
Identifier 160
Location 160
inOfficeWhilePrimeMinister 160
Tarrant 159
chicken 159
2015 158
CODE 158
G@@ 158
W@@ 158
Wisconsin 158
This 157
activeYearsEndDate 157
coach 157
district 157
18 156
de 156
final 156
District 155
Jersey 155
disco 155
l@@ 155
predecessor 155
William 154
key 154
Amarillo 153
August 153
FOUNDEDBY 153
Madrid 153
became 153
west 153
Punjab 152
V@@ 152
isPartOfMilitaryConflict 152
operating 152
r@@ 152
title 152
wheelbase 152
England 151
Juan 150
REFERENCENUMBER 150
COMPETE 149
Chinese 149
Costa 149
DeSoto 149
footballer 149
27th 148
CURRENTCLUB 148
HOMETOWN 148
CURRENTTENANTS 147
al@@ 147
comparable 147
editor 147
000 146
Chancellor 146
Harrietstown 146
May 146
al 146
hip 146
Mary 145
print 145
stylistic 145
AS 144
Mark 144
TRANSPORTAIRCRAFT 143
followed 143
k@@ 143
o@@ 143
Burns 142
Siomay 142
Spain 142
Torpedo 142
married 142
parentCompany 142
31st 141
6@@ 141
DRAFTTEAM 141
Greece 141
Spartak 141
performer 141
DIAMETER 140
Harbor 140
September 140
being 140
le 140
BLT 139
Buzz 139
O@@ 139
WEST 139
Wolfsburg 139
organisation 139
&amp; 138
SOUTHEAST 138
Andra 137
Contra 137
Egg 137
black 137
ia 137
speak 137
CREWMEMBERS 136
named 136
vegetables 136
white 136
awards 135
leads 135
st@@ 135
27 134
Army 134
HEADQUARTERS 134
TRANSMISSION 134
en 134
powered 134
Civil 133
Custom 133
N@@ 133
R 133
previously 133
traditional 133
v@@ 133
y@@ 133
Armin 132
Buuren 132
Rock 132
T@@ 132
an@@ 132
fried 132
higher 132
18@@ 131
ARCHITECTURALSTYLE 131
GIVEN 131
TECHNICAL 131
ar@@ 131
involved 131
ATTACKAIRCRAFT 130
Dr 130
MUNICIPALITY 130
four 130
keyPerson 130
launch 130
d@@ 129
4th 128
MAIDENFLIGHT 128
beef 128
en@@ 128
novel 128
or@@ 128
parent 128
Akron 127
celestial 127
official 127
5@@ 126
DOCTORALSTUDENT 126
FLOORAREA 126
NORTHEAST 126
current 126
discipline 126
n 126
Albuquerque 125
DEATHDATE 125
ROTATIONPERIOD 125
maidenFlight 125
21 124
French 124
San 124
kilometre 124
same 124
w@@ 124
20 123
Terek 123
available 123
player 123
re@@ 123
Calcio 122
compete 122
it@@ 122
on@@ 122
Andrew 121
Big 121
With 121
manages 121
Arlington 119
Aviation 118
GOVERNINGBODY 118
IATA 118
guitar 118
ro@@ 118
second 118
SIGNIFICANTBUILDING 117
b@@ 117
hardcover 117
1957 116
April 116
Kovac 116
1@@ 115
Akita 115
Jr 115
NWC 115
Texans 115
situated 115
size 115
0@@ 114
Senate 114
nickname 114
performing 114
Appleton 113
Jonathan 113
MUSICSUBGENRE 113
Mendelsohn 113
VfL 113
e@@ 113
many 113
northeast 113
similar 113
Malaysian 112
Thakur 112
1000 111
AFFILIATIONS 111
Base 111
Bobina 111
Parker 111
artists 111
maiden 111
significantBuilding 111
space 111
speaking 111
AIRCRAFTFIGHTER 110
Abdul 110
Acharya 110
Adolfo 110
Aleksey 110
HIGHER 110
Hero 110
J 110
car 110
deathDate 110
floor 110
legislature 110
studied 110
surface 110
8@@ 109
Antioch 109
Barajas 109
MODELYEARS 109
P 109
Service 109
Stuart 109
am@@ 109
ch@@ 109
journal 109
sausage 109
Duncan 108
Olympique 108
Rouleau 108
Werder 108
director 108
floorArea 108
Chirikov 107
Germans 107
LATINNAME 107
Lyonnais 107
South 107
among 107
inOfficeWhilePresident 107
religion 107
14@@ 106
Abraham 106
Bremen 106
Placid 106
Sixma 106
airbase 106
h 106
student 106
Alexandria 105
INAUGURATIONDATE 105
funk 105
given 105
k 105
performed 105
person 105
well 105
yearOfConstruction 105
Church 104
College 104
Hessarghatta 104
Main 104
NORTH 104
Radhakrishnan 104
Sarvapalli 104
Soldevanahalli 104
Zahra 104
broadcastedBy 104
countySeat 104
dedicatedTo 104
icebreaker 104
sec 104
560090 103
Angola 103
Coupe 103
Ribicoff 103
SERIES 103
Vandenberg 103
Washtenaw 103
m@@ 103
u@@ 103
2004 102
2ND 102
Bhangra 102
DEDICATEDTO 102
DIRECTOR 102
POSITION 102
address 102
th 102
1927 101
1955 101
7@@ 101
Alaa 101
NICKNAME 101
Technical 101
debut 101
inOfficeWhileVicePresident 101
southwest 101
van 101
– 101
ADMINISTRATIVECOUNTY 100
Dawson 100
Fulton 100
GT 100
es@@ 100
subsidiary 100
system 100
1930 99
3@@ 99
ADDED 99
Asad 99
E@@ 99
TIMEINSPACE 99
dedicated 99
timeInSpace 99
Falcons 98
Johnson 98
Mr 98
Ram 98
Rebellion 98
Ridge 98
Vice 98
architecturalStyle 98
governingBody 98
seat 98
Ferencvárosi 97
Institute 97
LENGTHFEET 97
Port 97
elevation 97
minutes 97
topSpeed 97
us 97
11th 96
1969 96
An 96
Bavarian 96
E 96
Sidcup 96
buildingStartDate 96
inaugurationDate 96
top 96
26th 95
Alexandra 95
Football 95
Gottingen 95
Hip 95
OFFICIALLANGUAGE 95
Turkish 95
Vincent 95
ar 95
doctoral 95
kelvins 95
COUNTYSEAT 94
Crisis 94
I 94
Suarez 94
derived 94
flowering 94
kg 94
position 94
starred 94
2@@ 93
Hamilton 93
MTU 93
average 93
her 93
negre 93
took 93
16@@ 92
23 92
Abner 92
CYLINDERCOUNT 92
DeKalb 92
Lira 92
Monument 92
Peron 92
affiliations 92
building 92
cakes 92
der 92
governed 92
property 92
went 92
Los 91
Press 91
contributing 91
folk 91
l 91
man 91
Angeles 90
Gujarat 90
HASDEPUTY 90
High 90
I@@ 90
Ohio 90
along 90
er@@ 90
ian 90
id@@ 90
red 90
AVERAGESPEED 89
Agustin 89
Arros 89
Campus 89
February 89
Potter 89
Stanley 89
Tyrol 89
averageSpeed 89
before 89
produced 89
y 89
Academical 88
King 88
Labour 88
Paris 88
She 88
Zealand 88
ly 88
series 88
transportation 88
year 88
2013 87
Barboza 87
Canadian 87
Grantville 87
INFLUENCEDBY 87
Karpaty 87
Lviv 87
Navy 87
Ottoman 87
Regional 87
Suburban 87
Union 87
feet 87
23rd 86
Health 86
Indonesia 86
Legends 86
Ro@@ 86
ation 86
ers 86
including 86
latter 86
numberOfPostgraduateStudents 86
Albert 85
Denmark 85
Pierce 85
V 85
a@@ 85
ad@@ 85
asteroid 85
categorised 85
ic@@ 85
lives 85
milk 85
originally 85
straight 85
war 85
14 84
Distinguished 84
Hernandez 84
K 84
Medal 84
Pennsylvania 84
Uruguay 84
ended 84
ice 84
operates 84
sweet 84
wave 84
ADDRESS 83
Abarth 83
Castle 83
Connecticut 83
Malaysia 83
Netherlands 83
inaugurated 83
ol@@ 83
1923 82
Alpharetta 82
Ardmore 82
Barny 82
Cumberland 82
Gettysburg 82
Located 82
Singapore 82
12 81
Creek 81
Fall 81
Monroe 81
SUBSIDIARY 81
Secretary 81
cream 81
foundedBy 81
genus 81
si@@ 81
19 80
AL 80
Al@@ 80
RIVER 80
clubs 80
electric 80
film 80
identifier 80
northwest 80
1933 79
Chameleon 79
Indonesian 79
League 79
Magdeburg 79
Mississippi 79
Peter 79
Welfare 79
back 79
ic 79
killed 79
p 79
soldiers 79
won 79
Abel 78
Circuit 78
Man 78
Math 78
Robert 78
There 78
UT 78
constructed 78
inOfficeWhileMonarch 78
oc@@ 78
vehicle 78
03 77
11 77
AIDS 77
Aleksandra 77
Alexander 77
Charlie 77
ETHNICGROUPS 77
Jano 77
Popov 77
Steuben 77
UTCOFFSET 77
WHEELBASE 77
house 77
kilograms 77
oil 77
00 76
17068 76
Attica 76
Hotel 76
London 76
TEMPERATURE 76
plants 76
1962 75
Ahmet 75
Alexandre 75
Badoi 75
Bergheau 75
Caterpillar 75
Education 75
ReferenceNumber 75
Rose 75
Sylvia 75
Tosun 75
Yin 75
ate 75
ies 75
kgs 75
layout 75
mission 75
un@@ 75
AFIT 74
GENUS 74
Jonny 74
con@@ 74
draft 74
lies 74
new 74
resides 74
school 74
Chievo 73
Davutoglu 73
binignit 73
doctoralStudent 73
garlic 73
transportAircraft 73
Alma 72
Carlos 72
Cullins 72
Greenville 72
Inc 72
Saranac 72
Serie 72
coconut 72
service 72
town 72
tr@@ 72
18th 71
19@@ 71
Asuncion 71
Canada 71
Hall 71
Ilocano 71
J@@ 71
Kingdom 71
Larcher 71
active 71
ap@@ 71
away 71
competed 71
officialLanguage 71
ou@@ 71
rice 71
university 71
Aarhus 70
Ann 70
Arbor 70
G 70
attackAircraft 70
come 70
conflict 70
ed@@ 70
spent 70
Paraguay 69
Verona 69
Z@@ 69
codes 69
dis@@ 69
hails 69
kms 69
passed 69
th@@ 69
04 68
22nd 68
28 68
29 68
Alexis 68
Argentina 68
Cleveland 68
Croma 68
Fiat 68
Maiden 68
Michigan 68
Spaceport 68
Sports 68
Tsipras 68
at@@ 68
crewMembers 68
131 67
1989 67
2016 67
75 67
Ataturk 67
Athens 67
Bruins 67
Galicia 67
Greek 67
Infantry 67
Pietro 67
SERVINGTEMPERATURE 67
governing 67
memorial 67
punk 67
two 67
water 67
5th 66
Aaron 66
Benoit 66
Billy 66
DOCTORALADVISOR 66
Ferencvarosi 66
German 66
Gloom 66
Grasso 66
Iuso 66
Izmir 66
Manhattan 66
Maryland 66
Metapan 66
Old 66
SOUTHWEST 66
Tab 66
da 66
derives 66
eaten 66
el@@ 66
is@@ 66
last 66
litre 66
potato 66
r 66
such 66
17th 65
1966 65
NEARESTCITY 65
Region 65
UNIT 65
cost 65
covers 65
find 65
nationwide 65
olive 65
26 64
Ajax 64
Bolt 64
Congressional 64
Eaters 64
Francisco 64
Funk 64
Lotus 64
OWNINGORGANISATION 64
Petrotrin 64
Pinhais 64
Trance 64
arem 64
as@@ 64
banana 64
between 64
luxury 64
rotationPeriod 64
tall 64
than 64
ur@@ 64
Fort 63
Java 63
Mid 63
Nationwide 63
Their 63
ab@@ 63
ans 63
architectural 63
attached 63
bass 63
dos 63
grounds 63
ir@@ 63
measurement 63
per@@ 63
postgraduate 63
river 63
1974 62
253260 62
Awadh 62
Chief 62
FIRSTPUBLICATIONYEAR 62
Isidro 62
Khor 62
Polish 62
Rhythm 62
SPORTSOFFERED 62
broadcast 62
bronze 62
chosen 62
ma@@ 62
musicSubgenre 62
sequel 62
sp@@ 62
stars 62
u 62
07 61
Azin 61
France 61
Leipzig 61
STATEOFORIGIN 61
Steel 61
TITLE 61
Turkmenistan 61
aircraftFighter 61
ally 61
ard 61
av@@ 61
colour 61
considered 61
countries 61
native 61
other 61
pudding 61
reference 61
India 60
LANGUAGES 60
LOCATIONIDENTIFIER 60
Manuel 60
Valls 60
el 60
id 60
included 60
jam 60
sour 60
you 60
Allama 59
Co 59
Hungary 59
Iqbal 59
Newark 59
Rasmussen 59
Sc 59
Soviet 59
Worth 59
elevated 59
em@@ 59
form 59
il@@ 59
ine 59
ion 59
joined 59
politician 59
power 59
1950 58
30th 58
Bay 58
Bella 58
Gazette 58
HIV 58
Lars 58
Memorial 58
Miller 58
Roger 58
SPORTSGOVERNINGBODY 58
Van 58
came 58
currentTenants 58
f 58
la@@ 58
mid 58
more 58
sub 58
z@@ 58
200@@ 57
Alfred 57
Austria 57
Chute 57
FIRSTAIRED 57
Greater 57
Jorge 57
Jose 57
Plymouth 57
Sao 57
Science 57
Taylor 57
Un@@ 57
butter 57
cake 57
eggs 57
firstAired 57
influencedBy 57
out 57
pork 57
servingTemperature 57
writer 57
1983 56
25 56
30 56
55 56
Adare 56
Cape 56
Cuyahoga 56
LAYOUT 56
Sky 56
di 56
et@@ 56
granite 56
marble 56
rotation 56
stroke 56
when 56
15th 55
Canaveral 55
Congress 55
FOUNDER 55
Paisa 55
Pena 55
Pogson 55
Rodriguez 55
St@@ 55
bhangra 55
ese 55
exponent 55
front 55
j@@ 55
min@@ 55
modelYears 55
own 55
post 55
will 55
475426000 54
America 54
Butuner 54
CHRISTENINGDATE 54
Gran 54
Guner 54
Hilmi 54
Huseyin 54
Kaiser 54
Lokke 54
MOTTO 54
Martyrs 54
Monarch 54
Public 54
Star 54
Station 54
World 54
ac@@ 54
am 54
ant@@ 54
bands 54
coached 54
founder 54
latinName 54
motto 54
ow 54
poaceae 54
voyage 54
wheel 54
wrote 54
Above 53
Accord 53
Banner 53
Blackpool 53
Blockbuster 53
Chiefs 53
Clyde 53
Daggett 53
Erasmus 53
Fountain 53
Grenada 53
Juventus 53
LengthFeet 53
MIT 53
Malay 53
NATIVENAME 53
POSTALCODE 53
RHAM 53
Rotterdam 53
Spangled 53
Sy@@ 53
Veil 53
Williams 53
Williamson 53
almonds 53
euro 53
g 53
model 53
ra@@ 53
us@@ 53
wife 53
1998 52
AEK 52
Ahvaz 52
Ana 52
Aston 52
BUILDDATE 52
Ellington 52
Esteghlal 52
Flibbertigibbet 52
Franklin 52
Governor 52
NEIGHBORINGMUNICIPALITY 52
Oregon 52
Perm 52
Styria 52
Virginia 52
ev@@ 52
influenced 52
noodles 52
ob@@ 52
specific 52
Amkar 51
Car@@ 51
Dothan 51
Fernando 51
Flemish 51
Invasion 51
Karl 51
Kesel 51
Koln 51
LOCATIONCOUNTRY 51
SK 51
Sendic 51
Two 51
W 51
West 51
buildDate 51
coming 51
ds 51
plant 51
ship@@ 51
1907 50
1963 50
524 50
88 50
Bacon 50
Black 50
Burlington 50
Capitol 50
DEATHCAUSE 50
GENERALMANAGER 50
Grand 50
HUBAIRPORT 50
Hop 50
Iraq 50
That 50
ag@@ 50
bread 50
community 50
connected 50
currentclub 50
deathCause 50
ent@@ 50
government 50
granola 50
peritonitis 50
raisins 50
records 50
ri@@ 50
1905 49
1956 49
63800 49
6th 49
9000 49
AREAOFLAND 49
Ad@@ 49
Alabama 49
Atatürk 49
Brazil 49
COLOUR 49
Ch@@ 49
East 49
Mayor 49
Republican 49
Vietnamese 49
centre 49
draftTeam 49
falls 49
mm 49
mms 49
postalCode 49
significant 49
tenants 49
whilst 49
1979 48
ASSOCIATEDROCKET 48
British 48
Candle 48
Democracy 48
Dol 48
Hollande 48
Ireland 48
USAF 48
areaOfLand 48
barm 48
ea@@ 48
muffin 48
organization 48
resid@@ 48
sambal 48
sarnie 48
ted 48
up 48
weighs 48
100305 47
Baku 47
Bebi 47
Ernie 47
Frederick 47
Jacksonville 47
Jazz 47
Margrethe 47
Mellow 47
Penarol 47
SERVED 47
Seminary 47
Stern 47
Th@@ 47
Turkey 47
architecture 47
ay@@ 47
battle 47
butty 47
cob 47
death 47
di@@ 47
hometown 47
io@@ 47
ion@@ 47
nativeName 47
piece 47
rasher 47
sanger 47
turn 47
Carroll 46
DATEOFDEATH 46
Dolphins 46
Dona 46
Fylde 46
Garage 46
Gerard 46
Grozny 46
Hays 46
Imst 46
L 46
MA 46
POPULATIONTOTAL 46
Space 46
classed 46
cylinderCount 46
graduate 46
hasDeputy 46
kilometers 46
measures 46
military 46
ound 46
playing 46
received 46
reign 46
tart 46
time 46
13 45
1850 45
1986 45
27@@ 45
Jan 45
Jens 45
Launch 45
Lokomotive 45
Lumezzane 45
Ma@@ 45
Plaza 45
Pleasant 45
Pop 45
SHIPDISPLACEMENT 45
Saab 45
Solo 45
Sportiva 45
buildings 45
eg@@ 45
ep@@ 45
living 45
previous 45
shipDisplacement 45
smashed 45
south 45
0000 44
05 44
17@@ 44
2nd 44
Arem 44
Bakewell 44
China 44
DRAFTPICK 44
Korean 44
Kovač 44
Modi 44
Narendra 44
Pakistan 44
Palermo 44
People 44
Queen 44
Real 44
Stoger 44
UTCOffset 44
VCYLINDERCOUNT 44
Y@@ 44
Zamboangans 44
aired 44
and@@ 44
ating 44
condensed 44
contain 44
diesel 44
headquartered 44
offset 44
34 43
44 43
94 43
Accrington 43
Aleksander 43
Alpena 43
Barkov 43
Chesterfield 43
Dougherty 43
James 43
Jones 43
Southeast 43
UTC 43
almond 43
asphalt 43
count 43
ican 43
land 43
local 43
partly 43
ru@@ 43
then 43
ts 43
33 42
57 42
An@@ 42
Auron 42
Berliner 42
Cambridge 42
Cyril 42
DENSITY 42
Daniel 42
Fox 42
Gardner 42
Gr@@ 42
Magdalene 42
PRODUCTIONSTARTYEAR 42
Punk 42
RECTOR 42
Ramaphosa 42
Reyes 42
Territory 42
b 42
bakewell 42
christeningDate 42
cold 42
hot 42
indie 42
ot@@ 42
variations 42
01 41
14th 41
1996 41
22 41
28th 41
722 41
AK 41
Aniti 41
Apollo 41
Bangalore 41
Buffalo 41
Business 41
Com@@ 41
Coritiba 41
Country 41
Glen 41
MAIDENVOYAGE 41
Office 41
Parkersburg 41
Sciences 41
Sehitleri 41
ates 41
com@@ 41
ely 41
est@@ 41
flour 41
gram 41
hired 41
historic 41
int 41
los 41
maidenVoyage 41
organs 41
par@@ 41
potatoes 41
rector 41
representative 41
shrimp 41
states 41
teow 41
x 41
11@@ 40
1513 40
68 40
Acta 40
Airlines 40
Baade 40
Bo@@ 40
CHIEF 40
Kristina 40
Lansing 40
Peñarol 40
REGIONSERVED 40
TOTALPRODUCTION 40
ant 40
cheese 40
cm 40
der@@ 40
forms 40
fullName 40
having 40
makes 40
son 40
sponge 40
warm 40
09 39
1987 39
2011 39
610 39
AREAOFWATER 39
Chinatown 39
Journal 39
Mahé 39
McKenzie 39
Museum 39
Rodríguez 39
VOICE 39
after 39
c 39
commanders 39
deputy 39
ethnicGroups 39
gearbox 39
ics 39
ketchup 39
kway 39
sandwiches 39
serving 39
solo 39
stateOfOrigin 39
ster 39
10 38
26@@ 38
39@@ 38
43 38
47@@ 38
ABSOLUTEMAGNITUDE 38
Association 38
BBC 38
Copenhagen 38
Dean 38
Frank 38
GOVERNMENTTYPE 38
Hong 38
Humberto 38
Into 38
Kong 38
LEGISLATURE 38
Philippines 38
Poales 38
TV 38
U@@ 38
Vermont 38
ated 38
base 38
bu@@ 38
drum 38
east 38
fat 38
finished 38
games 38
inches 38
ist 38
itself 38
lan@@ 38
mascot 38
mayor 38
mon@@ 38
nearestCity 38
op@@ 38
ort@@ 38
os@@ 38
our 38
oy@@ 38
separate 38
sh@@ 38
uc@@ 38
weight 38
29@@ 37
Arapiraquense 37
Art 37
Birmingham 37
Con@@ 37
For@@ 37
Hamburger 37
Harbour 37
Maccabi 37
Menasha 37
Metal 37
Mon@@ 37
Re@@ 37
Rutte 37
Turk 37
Wh@@ 37
Whig 37
areaOfWater 37
attack 37
axle 37
bevel 37
brown 37
change 37
clutch 37
floating 37
fully 37
joints 37
lever 37
ong 37
open 37
ors 37
owns 37
plate 37
shaft 37
silent 37
single 37
spiral 37
stadium 37
syncromesh 37
tonnes 37
tubular 37
2160 36
846 36
Agremiacao 36
COST 36
Col@@ 36
Español 36
GARRISON 36
Isis 36
Javanese 36
Lippincott 36
Matchst@@ 36
Member 36
Motherwell 36
Number 36
Opel 36
PLACEOFBIRTH 36
Randall 36
Riverside 36
SENATORS 36
Sandesh 36
Sebastian 36
Steyr 36
Superleague 36
To 36
Tr@@ 36
Vectra 36
Wilkins 36
army 36
belonged 36
ch 36
containing 36
cubic 36
debuted 36
ean 36
ent 36
ero 36
explosion 36
following 36
me@@ 36
om@@ 36
peanut 36
production 36
propellor 36
sago 36
ut@@ 36
variant 36
523329000 35
ALTERNATIVENAMES 35
Africans 35
BIRTHNAME 35
Colombian 35
Council 35
Des@@ 35
Illinois 35
Logan 35
Olympic 35
Philippe 35
Richard 35
Sampdoria 35
Sh@@ 35
Torino 35
baked 35
battled 35
citizen 35
commanded 35
degree 35
drive 35
gh@@ 35
il 35
line 35
ok@@ 35
operate 35
our@@ 35
paperback 35
publishes 35
run 35
some 35
st 35
te 35
trance 35
ul@@ 35
w 35
1202 34
1901 34
20th 34
252000 34
37@@ 34
479343000 34
82 34
Alderney 34
Ar@@ 34
Bengo 34
Buscema 34
Castilla 34
Citta 34
Galactic 34
Mahe 34
Poland 34
Pr@@ 34
ROCKETSTAGES 34
Sauli 34
YEAR 34
cars 34
ce 34
coupe 34
ec@@ 34
ex@@ 34
executive 34
ey 34
generalManager 34
launchpad 34
les 34
medal 34
names 34
qu@@ 34
ry 34
shredded 34
station 34
unc@@ 34
v 34
wagon 34
z 34
107 33
77@@ 33
AIDA 33
Ab@@ 33
Admira 33
Andrews 33
Astronaut 33
BEDCOUNT 33
Both 33
Colombia 33
De@@ 33
FIRSTAPPEARANCEINFILM 33
Irish 33
Jack 33
Kirby 33
Krasnodar 33
Kuban 33
Lafayette 33
Ordon 33
Panama 33
Revival 33
Round 33
ST@@ 33
Shabab 33
Social 33
Sport 33
Tabaré 33
Technology 33
Tudor 33
WEIGHT 33
Wacker 33
Walter 33
ajoblanco 33
au@@ 33
batchoy 33
cooked 33
dateOfDeath 33
doctoralAdvisor 33
musicians 33
political 33
squeezed 33
str@@ 33
unit 33
125 32
252 32
25@@ 32
36@@ 32
3m 32
6603633000 32
911 32
Abadi 32
Another 32
At@@ 32
Au@@ 32
Delta 32
Diaz 32
Eng@@ 32
Enrique 32
Filipinos 32
Germany 32
Gonzalez 32
Haider 32
Indian 32
Indianapolis 32
KV 32
LEADERPARTY 32
Lanka 32
Legislature 32
Matteo 32
Mechelen 32
Nieto 32
North 32
PRODUCTIONENDYEAR 32
Prefecture 32
Renzi 32
Russia 32
San@@ 32
Sri 32
Susana 32
TOTALLAUNCHES 32
View 32
Vázquez 32
ak@@ 32
edited 32
end@@ 32
garage 32
garrison 32
genres 32
le@@ 32
owningOrganisation 32
parts 32
protein 32
raised 32
regional 32
su@@ 32
um 32
10th 31
21st 31
34@@ 31
360 31
441092000 31
605718000 31
99 31
AIRCRAFTHELICOPTER 31
Add@@ 31
As@@ 31
At 31
Brasileiro 31
Brazilians 31
Campeonato 31
Coaracy 31
Cross 31
Fl@@ 31
Fonseca 31
In@@ 31
Massachusetts 31
Mata 31
Municipal 31
SAINT 31
Stockport 31
Stöger 31
Taqaddum 31
Tony 31
Werft 31
abb@@ 31
ance 31
associatedRocket 31
become 31
comics 31
commonly 31
ell@@ 31
ene 31
firstPublicationYear 31
guitarist 31
hubAirport 31
ign 31
imp@@ 31
invasion 31
like 31
locationCountry 31
ment 31
she 31
sounds 31
tomatoes 31
ver@@ 31
voice 31
years 31
00@@ 30
1624470ESCAPEVELOCITY 30
197@@ 30
2000 30
23@@ 30
47055 30
Academy 30
Asilomar 30
Azerbaijan 30
Coliseum 30
Company 30
DeMarce 30
Digweed 30
Espanol 30
FK 30
Livorno 30
Maran 30
Mihajlovic 30
Nikos 30
Parana 30
Phillips 30
Q 30
REPRESENTATIVE 30
Rolando 30
Rovers 30
SIGNIFICANTPROJECT 30
Shumai 30
Sinisa 30
Sumatra 30
Tom@@ 30
UC 30
Voutsis 30
Wasp 30
acoustic 30
ay 30
chili 30
chopped 30
col@@ 30
construction 30
cylinders 30
def@@ 30
door 30
drafted 30
ement 30
ere 30
fish 30
hub 30
king 30
kn@@ 30
litres 30
lo@@ 30
locationIdentifier 30
ments 30
ov 30
ov@@ 30
severed 30
ska 30
sportsGoverningBody 30
é@@ 30
02 29
13th 29
259776702 29
500 29
523 29
8m 29
Agra 29
Area 29
Ayam 29
Baltic 29
Burbank 29
Colon 29
Conservative 29
Dick 29
Dillin 29
Duursema 29
FEET 29
Gazettes 29
H 29
Helsinki 29
Kornelije 29
Latin 29
Magik 29
Neptun 29
Paraná 29
Penyet 29
Pol@@ 29
Populous 29
Premier 29
Roy 29
SHIPLAUNCH 29
Sp@@ 29
Wil@@ 29
Year 29
air 29
amp@@ 29
another 29
bel@@ 29
biggest 29
bird 29
deploy 29
est 29
fail@@ 29
gu@@ 29
ib@@ 29
ill@@ 29
leaderParty 29
ne@@ 29
ower 29
penyet 29
roll 29
sen@@ 29
singing 29
sometimes 29
ta 29
ter 29
tion 29
typical 29
using 29
wh@@ 29
10@@ 28
1299 28
2991960000ESCAPEVELOCITY 28
2m 28
33@@ 28
347 28
3500 28
410777 28
490 28
511592000 28
65 28
Also 28
Am@@ 28
Aviv 28
Brom 28
Carles 28
Chicago 28
DISTRIBUTOR 28
Errata 28
FAILEDLAUNCHES 28
FD 28
Former 28
Icolo 28
Joko 28
Kids 28
Mater 28
Newmarket 28
Ontario 28
Polydor 28
Puigdemont 28
Reddy 28
Salem 28
Stev@@ 28
Tan 28
Tel 28
Vantage 28
Widodo 28
advisor 28
ayam 28
carriers 28
celery 28
comp@@ 28
ents 28
et 28
fruits 28
governmentType 28
held 28
him 28
ions 28
ked 28
lemon 28
man@@ 28
maxim@@ 28
neighbouring 28
postcode 28
pro@@ 28
rec@@ 28
shipLaunch 28
side 28
sport 28
sportsOffered 28
193@@ 27
194@@ 27
196@@ 27
3000 27
324 27
440756000 27
Amsterdam 27
Camp@@ 27
Contributing 27
Cornell 27
Cre@@ 27
Ef@@ 27
FAS 27
FAT 27
Gubbio 27
Halton 27
Herald 27
III 27
Imagine 27
Launches 27
Nation 27
Or@@ 27
Property 27
SHIPCLASS 27
Schiphol 27
Sea@@ 27
Town 27
Wakrah 27
age 27
ah@@ 27
air@@ 27
atives 27
cap@@ 27
categorized 27
co@@ 27
competing 27
compris@@ 27
creators 27
den 27
dollars 27
elements 27
ig@@ 27
ik@@ 27
io 27
judge 27
leaf 27
million 27
nearest 27
often 27
profession 27
ps 27
recording 27
res@@ 27
ron 27
squid 27
tennis 27
types 27
ually 27
ures 27
use 27
é 27
09@@ 26
125800 26
254989570 26
33968 26
373513000 26
520906000 26
60815 26
8388 26
90 26
973 26
Arabic 26
Arion 26
Belgium 26
Cat@@ 26
Cesena 26
Co@@ 26
François 26
Grove 26
Heinlein 26
Hull 26
Indie 26
Jackson 26
Led 26
MEANTEMPERATURE 26
Mar@@ 26
Marcolini 26
Michele 26
Min@@ 26
Ministry 26
NR 26
PROFESSION 26
Pacific 26
Prabhukumar 26
Ranil 26
Raúl 26
Republic 26
Sibal 26
Summit 26
Switzerland 26
TH 26
Vorwärts 26
Wickremesinghe 26
act@@ 26
alternativeNames 26
ate@@ 26
atriciana 26
bo@@ 26
conc@@ 26
department 26
ery 26
institute 26
lin@@ 26
mean 26
numberOf@@ 26
ord 26
part@@ 26
plan@@ 26
pre@@ 26
rapper 26
ret@@ 26
short 26
thpop 26
tomato 26
0455 25
162164091 25
1857 25
1908 25
1910 25
1980 25
437170000 25
73 25
AR@@ 25
ARCHITECTURE 25
Admin 25
Am 25
Associazione 25
Bachelor 25
Balder 25
Bari 25
CURRENTTEAM 25
Complex 25
Coronet 25
DEATHYEAR 25
Division 25
Essex 25
Estadio 25
Footballer 25
Guiana 25
Gérard 25
Har@@ 25
Jamaica 25
KY 25
Mer@@ 25
Per@@ 25
Raul 25
Roman@@ 25
Sci 25
Singer 25
Sumac 25
Warnem@@ 25
Watson 25
Wheeler 25
about 25
ano 25
avocado 25
bajji 25
blue 25
carbohydrate 25
des@@ 25
eap@@ 25
fact@@ 25
ference 25
ho@@ 25
ig 25
ings 25
inn@@ 25
ity 25
iv@@ 25
iz@@ 25
lan 25
lish 25
make 25
meanTemperature 25
neighboring 25
neighboringMunicipality 25
ner 25
ok 25
ould 25
ow@@ 25
pat@@ 25
populationTotal 25
so 25
ton 25
volume 25
án 25
1142 24
120 24
144 24
15@@ 24
199@@ 24
213 24
344 24
43@@ 24
523951582 24
992 24
Alfonso 24
Asterix 24
Australian 24
Babelsberg 24
Bar@@ 24
Bhaji 24
CARBOHYDRATE 24
CHANCELLOR 24
Challinor 24
Columbus 24
Cruise 24
Dallas 24
Dave 24
Defence 24
Drago 24
Du@@ 24
EISSN 24
Edwin 24
Elliot 24
Examiner 24
Fruits 24
Genoa 24
Greymachine 24
Haputale 24
Houston 24
Japan 24
Katowice 24
Mak 24
Marietta 24
Massimo 24
Moraes 24
Numa 24
Ow@@ 24
PART 24
Parliament 24
Plastik 24
Published 24
SHIPPOWER 24
Sc@@ 24
Tur@@ 24
Univers@@ 24
Vfl 24
XIII 24
able 24
actor 24
add@@ 24
architects 24
art 24
art@@ 24
ary 24
bionico 24
cities 24
dio 24
erts 24
eth@@ 24
ez 24
freshly 24
general 24
grams 24
iga 24
ined 24
ins 24
inted 24
latin 24
manufactur@@ 24
merce 24
mp@@ 24
od 24
ore 24
program 24
spec@@ 24
tor 24
way 24
! 23
127 23
15788 23
178 23
1993 23
24@@ 23
54 23
746 23
86 23
A9@@ 23
Afonso 23
Alcobendas 23
All 23
Antwerp 23
Av@@ 23
Benton 23
Blackwell 23
Bor@@ 23
Bury 23
CD 23
Cohn 23
DIS@@ 23
Dan 23
Douglas 23
FATE 23
Gary 23
Hartel 23
Ibiza 23
Knight 23
LASTAIRED 23
MUMTEMPERATURE 23
Monarchy 23
NOTABLEWORK 23
Pain 23
Puya 23
RO@@ 23
Romania 23
SB 23
SI@@ 23
Sandwich 23
Stamford 23
Suárez 23
Sweet 23
Trenton 23
Var@@ 23
We@@ 23
Wiley 23
Youth 23
aceae 23
ator 23
aw@@ 23
bas@@ 23
be@@ 23
bhajji 23
college 23
condiment 23
cuttlefish 23
draftPick 23
ena 23
eng@@ 23
governs 23
inhabit 23
ires 23
ish 23
labels 23
las@@ 23
lastAired 23
leadership 23
meat 23
meringue 23
metre 23
mo@@ 23
oci@@ 23
participated 23
pr@@ 23
ran@@ 23
tapioca 23
tion@@ 23
too 23
tra@@ 23
tri@@ 23
ub@@ 23
ure 23
0068 22
0473 22
108 22
1622 22
200 22
24 22
296521000 22
30843 22
52 22
74 22
77 22
945@@ 22
Accademia 22
Anders 22
Arnhem 22
Arthur 22
Asunción 22
BUILDINGTYPE 22
CHAIR@@ 22
Centre 22
Conference 22
DRAFTROUND 22
Department 22
Dodge 22
Dutch 22
Eindhoven 22
El 22
Fo@@ 22
Francois 22
Georges 22
Hung@@ 22
Härtel 22
IMPACTFACTOR 22
K2 22
Line 22
MAYOR 22
Man@@ 22
Mulatu 22
Mödling 22
Origin@@ 22
PROTEIN 22
PSV 22
Palaeontol 22
Paulo 22
Pol 22
Salvador 22
Sousa 22
Stars 22
TRAINERAIRCRAFT 22
Terrace 22
Teshome 22
Tranmere 22
Travis 22
Vitesse 22
associ@@ 22
authored 22
broth 22
buildingType 22
chancellor 22
ded 22
don 22
ear 22
ell 22
ency 22
found@@ 22
fruit 22
hardtop 22
hel@@ 22
helped 22
here 22
hr@@ 22
ian@@ 22
ie 22
ino 22
jo 22
jurisdiction 22
kailan 22
kilometer 22
ne 22
non 22
noodle 22
of@@ 22
om 22
paisa 22
pal@@ 22
pick 22
placeOfBirth 22
produc@@ 22
reality 22
saint 22
salted 22
shallots 22
since 22
stories 22
taro 22
ten@@ 22
umTemperature 22
vermicelli 22
work 22
İzmir 22
121 21
1516 21
1988 21
30@@ 21
419113394 21
55312 21
560937000 21
62@@ 21
6700000000003 21
744 21
8g 21
AL@@ 21
Airman 21
Arro@@ 21
Brazilian 21
Castrovillari 21
Compu@@ 21
DISCOVERED 21
Established 21
Goscinny 21
HQ 21
IL@@ 21
Igorot 21
Leg@@ 21
Martinez 21
Moldova 21
Morgan 21
Nashville 21
Nigerian 21
Part 21
Post 21
Primera 21
Pro@@ 21
Row 21
Russian 21
ais@@ 21
ale 21
alongside 21
ata 21
bandeja 21
birthName 21
cephalopod 21
christened 21
cottage 21
cubanelle 21
deceased 21
displacement 21
distributor 21
each 21
em 21
erected 21
feat@@ 21
ham 21
hea@@ 21
ington 21
ink 21
itra 21
ka 21
lett@@ 21
ling 21
lived 21
occup@@ 21
oms 21
onia 21
originating 21
oup 21
over 21
pepper 21
peppers 21
product 21
productionStartYear 21
provided 21
ranks 21
relative 21
rie 21
sings 21
so@@ 21
son@@ 21
stone 21
x@@ 21
za 21
’ 21
233 20
837080 20
Addiction 20
Affair 20
Africa 20
Arp 20
BC 20
Bern@@ 20
Chisinau 20
Christmas 20
Colmore 20
Crewe 20
Cur@@ 20
Dav@@ 20
ER 20
Elizabeth 20
GEMSTONE 20
Galileo 20
Giles 20
Guit@@ 20
JURISDICTION 20
Ja@@ 20
Jerry 20
Julia 20
Land 20
Mendoza 20
Moench 20
Oberhelman 20
Olympiacos 20
Ordway 20
Panucci 20
Puig 20
Qarabag 20
SURFACEAREA 20
Staff 20
Universities 20
Vazquez 20
Wi@@ 20
Ximo 20
aboard 20
act 20
aka 20
appeared 20
baan 20
bak@@ 20
ban@@ 20
de@@ 20
desserts 20
draft@@ 20
ender 20
high 20
iction 20
ile 20
im@@ 20
inhabited 20
keybo@@ 20
lit@@ 20
most 20
off 20
oli 20
po@@ 20
postal 20
rib@@ 20
secretary 20
senators 20
serv@@ 20
surfaceArea 20
third 20
totalProduction 20
una 20
ys 20
á@@ 20
04m 19
1856 19
198@@ 19
3997100000000 19
7715100000 19
783 19
8024 19
AZ 19
Alkmaar 19
Almonds 19
Art@@ 19
Asherton 19
Bas@@ 19
Brooke 19
Chapin 19
De 19
Def@@ 19
Disco 19
Discovered 19
Doug 19
Ethn@@ 19
Eva 19
Faversham 19
George 19
Ger@@ 19
Hook 19
Indians 19
Kent 19
MA@@ 19
MASCOT 19
MODELSTARTYEAR 19
Opelika 19
Pad 19
Parc 19
Quattro 19
Scotland 19
Shepard 19
Society 19
Str@@ 19
Study 19
Tabare 19
Te@@ 19
Tim 19
Volunteer 19
Wave 19
absolute 19
absoluteMagnitude 19
adi@@ 19
ag 19
ales 19
all@@ 19
alum 19
ations 19
behalf 19
chinese 19
competes 19
dance 19
dered 19
deriv@@ 19
employees 19
ending 19
field 19
firstAppearanceInFilm 19
grant 19
guanciale 19
ina 19
ital 19
ject 19
lefield 19
lin 19
magnitude 19
mber@@ 19
musically 19
od@@ 19
oks 19
ong@@ 19
orts 19
owever 19
ows 19
pen@@ 19
serve 19
shipClass 19
shumai 19
ster@@ 19
the@@ 19
ting 19
var@@ 19
000000 18
0112 18
1580 18
1953 18
349 18
4000 18
42 18
45@@ 18
84 18
88@@ 18
97 18
97@@ 18
AC@@ 18
Abh 18
Alternative 18
Alvinegro 18
Anderlecht 18
Antioquia 18
Arch@@ 18
Ash@@ 18
BIRD 18
Berlin 18
Carrie 18
Colón 18
Dunwoody 18
Dykes 18
Electr@@ 18
Govern@@ 18
Hambg 18
Independence 18
Jarmo 18
Juha 18
Karnataka 18
Kekalainen 18
Lam 18
Lea@@ 18
Loc@@ 18
Mah@@ 18
Malays 18
Marcos 18
Mart@@ 18
Marv 18
Mathemat@@ 18
Mishkin 18
Motors 18
NUMBEROFROOMS 18
Neustadt 18
No@@ 18
Of 18
Oldendorf 18
Operated 18
RELATED 18
Richland 18
Rosales 18
See 18
Semin 18
Sipila 18
Spring@@ 18
Stadium 18
Swiss 18
Tennant 18
Univ 18
Wiener 18
Wolfman 18
X@@ 18
affiliate 18
although 18
anish 18
atic 18
auth@@ 18
ba@@ 18
beans 18
bodhran 18
champ@@ 18
christening 18
cons@@ 18
cookie 18
cre@@ 18
dark 18
eb@@ 18
ess@@ 18
force 18
ft 18
gemstone 18
gold 18
gradu@@ 18
holds 18
ial 18
ient 18
igned 18
impressive 18
insula 18
itionally 18
ive 18
lar@@ 18
lea@@ 18
manag@@ 18
manual 18
mar@@ 18
onn@@ 18
ot 18
pastry 18
picked 18
powers 18
publication 18
recip@@ 18
reg@@ 18
rian 18
rise 18
roman@@ 18
sedan 18
several 18
shire 18
shortcrust 18
tained 18
ter@@ 18
therefore 18
these 18
ue 18
works 18
ón 18
0155 17
111484 17
130@@ 17
258 17
4TH 17
92 17
AWARDED 17
Ac@@ 17
Aircraft 17
Airports 17
Among 17
Anglia 17
Bertone 17
CA 17
COLLEGE 17
Chichar@@ 17
Cr@@ 17
During 17
Ealdorman 17
Georgetown 17
Gruppo 17
Hump@@ 17
Irlam 17
Jarama 17
Km 17
Libya 17
Niinisto 17
Niinistö 17
Paracuellos 17
Preussisch 17
Puerto 17
RE@@ 17
SEAT 17
Sil@@ 17
Ska 17
Teisaire 17
Tor@@ 17
Uruguayan 17
Valenc@@ 17
Veinticinco 17
WW@@ 17
Works 17
Y 17
administrativeCounty 17
aircraftHelicopter 17
ak 17
ane 17
arts 17
asam 17
autoharp 17
bedCount 17
ber@@ 17
bomb@@ 17
bon 17
centimetres 17
destination 17
either 17
electr@@ 17
elwald 17
ens 17
events 17
head 17
ick 17
icts 17
ility 17
ill 17
ilo@@ 17
international 17
ister 17
ition 17
ke 17
magistrate 17
manufactures 17
matches 17
natives 17
ned 17
notableWork 17
olf 17
ome 17
opped 17
ous@@ 17
pe 17
public 17
q 17
regions 17
rocketStages 17
sed 17
sol@@ 17
succeded 17
township 17
ture 17
ud@@ 17
ug@@ 17
varied 17
vis@@ 17
wan 17
20@@ 16
3800 16
AI@@ 16
Ah@@ 16
Air@@ 16
Akhigbe 16
Arms 16
Bal@@ 16
Band 16
Bat@@ 16
Batt@@ 16
Be@@ 16
Ber@@ 16
Buenos 16
By 16
Californ@@ 16
Charles 16
Cornish 16
Cov@@ 16
Cowper 16
Director 16
Ethiopia 16
Far@@ 16
Gmbh 16
Guarania 16
INOFFICEWHILEGOVERNOR 16
Inf@@ 16
Jusuf 16
Kalla 16
Linn 16
Locomotive 16
Manchester 16
Michel 16
Moro 16
Musician 16
NUMBEROFUNDERGRADUATESTUDENTS 16
NUMBEROFVOTESATTAINED 16
Oc@@ 16
PRODUCT 16
Pavlopoulos 16
Poaceae 16
Ponteareas 16
Powys 16
Prokopis 16
RB 16
RELIGION 16
Rutland 16
SHIPDRAFT 16
STADIUM 16
Salvadoran 16
Samtredia 16
Sol@@ 16
Sour 16
SqKm 16
Tam@@ 16
Tennessee 16
Wilson 16
ago 16
alist 16
amb@@ 16
americans 16
anc@@ 16
broadcas@@ 16
chaired 16
connections 16
different 16
duo 16
eat 16
eds 16
eed 16
eeded 16
ef 16
element 16
els 16
ence 16
engines 16
eo 16
esh 16
form@@ 16
frangipane 16
gre@@ 16
hi@@ 16
iced 16
into 16
isters 16
listic 16
me 16
mea@@ 16
medabad 16
minim@@ 16
mus@@ 16
notable 16
off@@ 16
omb@@ 16
ora 16
orbit 16
originate 16
ouro@@ 16
ped 16
pedas 16
piano 16
plac@@ 16
preserv@@ 16
productionEndYear 16
rafts 16
recorded 16
reet 16
requ@@ 16
rut@@ 16
stages 16
sub@@ 16
thr@@ 16
titled 16
to@@ 16
tourist 16
tro 16
vehicles 16
190@@ 15
53@@ 15
BAN@@ 15
Bras@@ 15
Cir@@ 15
Construction 15
Franc@@ 15
Georg@@ 15
Ju@@ 15
Lib@@ 15
Mc@@ 15
Mos@@ 15
PART@@ 15
Pal@@ 15
RAN@@ 15
Sa@@ 15
Type 15
YPE 15
anese 15
ast 15
att@@ 15
band@@ 15
bat@@ 15
belong@@ 15
bert@@ 15
centi@@ 15
coun@@ 15
cylin@@ 15
ders 15
dev@@ 15
ear@@ 15
ein@@ 15
erved 15
ethnic@@ 15
ffered 15
illo 15
ind@@ 15
inv@@ 15
iral 15
ku@@ 15
lab@@ 15
lay 15
oper@@ 15
osa 15
pol@@ 15
pos@@ 15
pu@@ 15
re 15
rit@@ 15
significant@@ 15
ther 15
though 15
total@@ 15
vis 15
yr@@ 15
í@@ 15
04@@ 14
129@@ 14
201@@ 14
44@@ 14
67@@ 14
Aar@@ 14
Adm@@ 14
Bran@@ 14
Bro@@ 14
Clas@@ 14
Coun@@ 14
DEATH 14
Death 14
Er@@ 14
Ke@@ 14
Ly@@ 14
MAN@@ 14
Mat@@ 14
Olymp@@ 14
PL@@ 14
PLACEOF@@ 14
Qu@@ 14
SER@@ 14
Sand@@ 14
VIC@@ 14
carbohydr@@ 14
cook@@ 14
curr@@ 14
death@@ 14
doctor@@ 14
eh@@ 14
hard@@ 14
ids 14
ing@@ 14
instr@@ 14
iou@@ 14
ise 14
lac@@ 14
li@@ 14
loc@@ 14
ly@@ 14
main@@ 14
ney 14
ority 14
other@@ 14
ous 14
prov@@ 14
ra 14
rep@@ 14
reviou@@ 14
ried 14
shi@@ 14
star@@ 14
ta@@ 14
work@@ 14
120@@ 13
AD@@ 13
ARY@@ 13
Ass@@ 13
CH@@ 13
Can@@ 13
EL@@ 13
Est@@ 13
German@@ 13
Kub@@ 13
MS 13
Me@@ 13
Met@@ 13
Sch@@ 13
StartYear 13
TI@@ 13
TRO@@ 13
Team 13
UN@@ 13
Val@@ 13
Vo@@ 13
ade 13
altern@@ 13
ame 13
ass@@ 13
ater 13
car@@ 13
count@@ 13
crew@@ 13
edan 13
ella 13
ern@@ 13
fin@@ 13
fir@@ 13
for@@ 13
fter 13
gar@@ 13
get@@ 13
igh@@ 13
ine@@ 13
ire 13
ired 13
ists 13
itiba 13
ium 13
ke@@ 13
lands 13
los@@ 13
ms 13
nu@@ 13
origin@@ 13
otel 13
profess@@ 13
ros@@ 13
them 13
uring 13
ü@@ 13
28@@ 12
660@@ 12
89@@ 12
AGE 12
Argent@@ 12
Atlan@@ 12
COMPANY 12
CR@@ 12
DE@@ 12
DISTRIBU@@ 12
DRAFT@@ 12
Democr@@ 12
Dy@@ 12
Hea@@ 12
ING 12
Kal@@ 12
La@@ 12
OP@@ 12
Philip@@ 12
Public@@ 12
Record@@ 12
Rom@@ 12
Sam@@ 12
Si@@ 12
Tran@@ 12
UT@@ 12
VE@@ 12
Vir@@ 12
ad 12
ail@@ 12
aj@@ 12
alter 12
amer@@ 12
ania 12
ativ@@ 12
az@@ 12
bed@@ 12
chair@@ 12
condi@@ 12
cour@@ 12
design@@ 12
ellow 12
ense 12
eral 12
fi@@ 12
fl@@ 12
ication 12
ilitar@@ 12
inese 12
ional 12
ip@@ 12
itec@@ 12
ited 12
ix 12
lar 12
lay@@ 12
mb@@ 12
med@@ 12
mer@@ 12
mouth 12
nam@@ 12
nd 12
ots 12
particip@@ 12
que 12
raft 12
redi@@ 12
resident 12
rez 12
riv@@ 12
sey 12
ten 12
urfac@@ 12
va 12
wal@@ 12
â@@ 12
# 11
ADMINISTR@@ 11
ATIV@@ 11
Almon@@ 11
BS 11
CTION 11
Dem@@ 11
Dep@@ 11
Dis@@ 11
EA@@ 11
Fin@@ 11
Gre@@ 11
Green@@ 11
Gren@@ 11
Kor@@ 11
LI@@ 11
MENT 11
Mad@@ 11
Mex@@ 11
Mod@@ 11
Niger@@ 11
OFFICIAL@@ 11
OL@@ 11
Ph@@ 11
Rib@@ 11
SCH@@ 11
Ser@@ 11
She@@ 11
South@@ 11
Sport@@ 11
acy 11
ain 11
ao 11
ative 11
ato 11
bs 11
buil@@ 11
buted 11
cil 11
citiz@@ 11
clas@@ 11
cob@@ 11
current@@ 11
densed 11
dic 11
dish@@ 11
dr@@ 11
du@@ 11
employ@@ 11
eum 11
exp@@ 11
fec@@ 11
fred 11
ical 11
ichar@@ 11
ik 11
ilk 11
inaugur@@ 11
ist@@ 11
jo@@ 11
ki 11
larg@@ 11
lines 11
lun@@ 11
model@@ 11
oconut 11
oes 11
olog@@ 11
orn 11
os 11
pe@@ 11
pub@@ 11
redded 11
represent@@ 11
rim@@ 11
ruise 11
se 11
secon@@ 11
self 11
yet 11
ă 11
ș@@ 11
155 10
195@@ 10
84@@ 10
ASS@@ 10
AT@@ 10
ATION 10
Alder@@ 10
Buil@@ 10
CL@@ 10
Cap@@ 10
Cas@@ 10
Centr@@ 10
Gu@@ 10
Hil@@ 10
Hun@@ 10
IFIC@@ 10
IN@@ 10
LL@@ 10
Lu@@ 10
MO@@ 10
Matt@@ 10
Mech@@ 10
OFCON@@ 10
Po@@ 10
Q@@ 10
RES@@ 10
Ran@@ 10
Rus@@ 10
Su@@ 10
Vorw@@ 10
ach@@ 10
ake 10
arch 10
atoes 10
ave 10
back@@ 10
chil@@ 10
comple@@ 10
diers 10
ding 10
eezed 10
eja 10
elery 10
eop@@ 10
ez@@ 10
ha@@ 10
hn@@ 10
ial@@ 10
iated 10
iations 10
iden 10
indi@@ 10
iner 10
ira 10
isl@@ 10
join@@ 10
land@@ 10
lead@@ 10
lue 10
mun@@ 10
no@@ 10
ology 10
ou 10
out@@ 10
quel 10
rol@@ 10
stu@@ 10
sty@@ 10
syn@@ 10
syst@@ 10
tain 10
tom@@ 10
tt@@ 10
vo@@ 10
we@@ 10
46 9
ARTI@@ 9
AW@@ 9
Aff@@ 9
And@@ 9
Bir@@ 9
Black@@ 9
Cit@@ 9
Corn@@ 9
EM@@ 9
ER@@ 9
FA@@ 9
FO@@ 9
Freder@@ 9
ITY@@ 9
Ir@@ 9
Kh@@ 9
Mi@@ 9
Ne@@ 9
Se@@ 9
TEAM 9
Techn@@ 9
UNIVER@@ 9
adu@@ 9
aight 9
ala@@ 9
ang@@ 9
aperback 9
appear@@ 9
az 9
beg@@ 9
body@@ 9
burg 9
burn 9
cat@@ 9
char@@ 9
cho@@ 9
ends 9
eont@@ 9
fer@@ 9
ght 9
graduateStudents 9
gue 9
ians 9
ich@@ 9
icipal 9
ick@@ 9
icopter 9
ilot 9
influ@@ 9
ingdom 9
iomay 9
ione 9
ities 9
lis@@ 9
ment@@ 9
milli@@ 9
mu@@ 9
ocado 9
official@@ 9
old 9
orn@@ 9
ris@@ 9
rum 9
sa@@ 9
sand@@ 9
sec@@ 9
sel@@ 9
sly 9
spea@@ 9
suc@@ 9
ti@@ 9
ve 9
ws 9
yr 9
35@@ 8
52@@ 8
54@@ 8
800 8
90@@ 8
AF@@ 8
AID@@ 8
Agu@@ 8
All@@ 8
Ander@@ 8
Apple@@ 8
Bak@@ 8
DER@@ 8
Deputy 8
Discipline 8
ED 8
ENCY 8
EP@@ 8
FOUND@@ 8
Filip@@ 8
Ham@@ 8
INGDATE 8
Jama@@ 8
MIL@@ 8
MINI@@ 8
Mold@@ 8
PERSON 8
POR@@ 8
QU@@ 8
Ra@@ 8
Reg@@ 8
Rov@@ 8
SHI@@ 8
SHIP@@ 8
Semin@@ 8
Tech@@ 8
Tenn@@ 8
Turkmen@@ 8
Ver@@ 8
academic@@ 8
ace 8
ack 8
aff@@ 8
ants 8
aster@@ 8
aul 8
bodhr@@ 8
bur@@ 8
colo 8
cu@@ 8
dea@@ 8
distribut@@ 8
efore 8
ele@@ 8
ema 8
enc@@ 8
entif@@ 8
giv@@ 8
gr@@ 8
ikov 8
ila 8
illa 8
inOfficeWhile@@ 8
influenc@@ 8
ith 8
ition@@ 8
iva 8
iy@@ 8
ky 8
lanco 8
leg@@ 8
mark 8
mbers 8
nov@@ 8
ose 8
ough 8
placeOf@@ 8
rap@@ 8
ress 8
sburg 8
sis 8
stylistic@@ 8
tre 8
ust 8
we 8
ze 8
Í@@ 8
à 8
ã@@ 8
1624@@ 7
185@@ 7
49@@ 7
Ant@@ 7
Austr@@ 7
Ba@@ 7
Bol@@ 7
CT 7
Cal@@ 7
Chi@@ 7
Cor@@ 7
Do@@ 7
EN@@ 7
Fal@@ 7
Fre@@ 7
Ge@@ 7
Hu@@ 7
Jack@@ 7
Language 7
Le@@ 7
Med@@ 7
Nor@@ 7
Ol@@ 7
On@@ 7
Pen@@ 7
Plac@@ 7
Place 7
Sum@@ 7
TE@@ 7
Tar@@ 7
Title 7
WE@@ 7
akes 7
any 7
arian 7
ast@@ 7
aw 7
birth@@ 7
cal@@ 7
co 7
con 7
cott@@ 7
cover 7
cup@@ 7
eral@@ 7
ff 7
fo@@ 7
fr@@ 7
gre 7
haj@@ 7
ia@@ 7
ico 7
igh 7
inc@@ 7
inguished 7
ique 7
irement 7
ital@@ 7
ivers@@ 7
last@@ 7
ler@@ 7
ley 7
mas@@ 7
meter 7
munity 7
nie 7
not@@ 7
ns 7
onaut 7
operat@@ 7
oun@@ 7
pi@@ 7
play@@ 7
q@@ 7
raft@@ 7
rotation@@ 7
runway@@ 7
sia 7
spon@@ 7
sta 7
tone 7
ur 7
uss@@ 7
wa@@ 7
13@@ 6
216@@ 6
78@@ 6
AIR@@ 6
ART@@ 6
AS@@ 6
Academ@@ 6
Aw@@ 6
Ay@@ 6
Ban@@ 6
Christ@@ 6
Comple@@ 6
Congress@@ 6
Cul@@ 6
Der@@ 6
EST@@ 6
Ethiop@@ 6
Foun@@ 6
Gos@@ 6
Hap@@ 6
LENGTH@@ 6
MB@@ 6
METR@@ 6
Mari@@ 6
Music@@ 6
Ni@@ 6
OWN 6
Production 6
Pu@@ 6
Rad@@ 6
Rocket 6
SHIPL@@ 6
Sar@@ 6
Sebas@@ 6
Serv@@ 6
Spart@@ 6
Stock@@ 6
Tab@@ 6
Transportation 6
X 6
abbrev@@ 6
administrative@@ 6
ages 6
agu@@ 6
ames 6
ange 6
arist 6
ars 6
batt@@ 6
ej@@ 6
ered 6
ert 6
etr@@ 6
flu@@ 6
foll@@ 6
govern@@ 6
hol@@ 6
ibb@@ 6
ict 6
ight 6
ingDate 6
ingue 6
ini 6
involv@@ 6
isco 6
iss@@ 6
ite 6
kilo@@ 6
kov 6
ks 6
lish@@ 6
may 6
mem@@ 6
neighbour@@ 6
oga 6
ol 6
ona 6
organiz@@ 6
oto 6
own@@ 6
oza 6
pad 6
peri@@ 6
popul@@ 6
publ@@ 6
publish@@ 6
ree 6
rocket@@ 6
se@@ 6
sha@@ 6
sil@@ 6
sy@@ 6
thin 6
tur@@ 6
ucc@@ 6
udy 6
use@@ 6
vince 6
ving 6
wide 6
ñ@@ 6
&@@ 5
80@@ 5
AE@@ 5
Andre@@ 5
Austral@@ 5
Brit@@ 5
Code 5
FI@@ 5
Fi@@ 5
Fighter 5
Gonz@@ 5
Gro@@ 5
Il@@ 5
Manu@@ 5
NAL@@ 5
Nav@@ 5
Nether@@ 5
PROFES@@ 5
Par@@ 5
Post@@ 5
Pot@@ 5
Rea@@ 5
Rec@@ 5
Sen@@ 5
Sub@@ 5
TS 5
Ta@@ 5
adian 5
administr@@ 5
app@@ 5
archy 5
ature 5
bec@@ 5
ble 5
ci@@ 5
cit@@ 5
compet@@ 5
conta@@ 5
cover@@ 5
deg@@ 5
diam@@ 5
do@@ 5
ebreaker 5
egetables 5
eld 5
elvins 5
ern 5
ett@@ 5
expon@@ 5
fus@@ 5
gran@@ 5
guit@@ 5
hy@@ 5
ific@@ 5
im 5
ining 5
inn 5
liament 5
men@@ 5
meric@@ 5
nation@@ 5
ones@@ 5
ph@@ 5
port 5
power@@ 5
pred@@ 5
pres@@ 5
ria 5
ritory 5
ro 5
run@@ 5
ston 5
un 5
urch 5
ustr@@ 5
ville 5
win 5
ö@@ 5
ø@@ 5
#@@ 4
ACTIVEYEARSEND@@ 4
Airp@@ 4
Artist 4
Assemb@@ 4
Associ@@ 4
Auth@@ 4
Az@@ 4
Bil@@ 4
Building 4
CREAT@@ 4
Char@@ 4
Class 4
Connec@@ 4
Dun@@ 4
Gard@@ 4
Guar@@ 4
HO@@ 4
Ira@@ 4
Joh@@ 4
Men@@ 4
OF@@ 4
OR@@ 4
Pi@@ 4
Popu@@ 4
Produc@@ 4
RUNWAY@@ 4
Sov@@ 4
Vor@@ 4
academ@@ 4
acter 4
agen 4
ailable 4
ani@@ 4
apo@@ 4
asp 4
aul@@ 4
ause 4
centr@@ 4
cod@@ 4
eam 4
edit@@ 4
een 4
emon@@ 4
ener 4
ersburg 4
ess 4
flo@@ 4
ge 4
haji 4
hus 4
ich 4
ife 4
ike 4
jar@@ 4
ket@@ 4
kins 4
las 4
launch@@ 4
lu@@ 4
mat@@ 4
mi 4
mod@@ 4
ny 4
offic@@ 4
og@@ 4
ored 4
ory 4
oustic 4
parent@@ 4
preced@@ 4
provi@@ 4
res 4
ressive 4
roc@@ 4
rosi 4
see 4
struc@@ 4
subsidi@@ 4
te@@ 4
ty 4
vari@@ 4
wor@@ 4
xury 4
är@@ 4
ù 4
ürk 4
Ş 4
100@@ 3
60@@ 3
Ak@@ 3
Body 3
Bu@@ 3
Chir@@ 3
Dec@@ 3
Fus@@ 3
GRO@@ 3
Gmb@@ 3
IT@@ 3
Jun@@ 3
Langu@@ 3
Length@@ 3
MILITARY@@ 3
Mag@@ 3
NA@@ 3
NORTH@@ 3
Of@@ 3
PLACE 3
Pak@@ 3
Period 3
Sq@@ 3
Sumat@@ 3
Ty@@ 3
UP 3
` 3
ai@@ 3
alls 3
aminer 3
antry 3
areas 3
arth 3
ash@@ 3
ators 3
atr@@ 3
bar@@ 3
ber 3
broadcast@@ 3
carri@@ 3
categor@@ 3
coac@@ 3
covered 3
craft 3
dep@@ 3
discover@@ 3
edic@@ 3
ef@@ 3
ek 3
ench 3
enzie 3
ethn@@ 3
ew 3
follow@@ 3
former@@ 3
fres@@ 3
gear@@ 3
ger 3
hab@@ 3
ica 3
ice@@ 3
ician 3
if@@ 3
ilitary 3
ils 3
iot 3
itled 3
itol 3
ivil 3
ji 3
key@@ 3
liam@@ 3
ma 3
mi@@ 3
military@@ 3
music@@ 3
ohn 3
ony 3
orb@@ 3
ost 3
oth@@ 3
ounds 3
polit@@ 3
predec@@ 3
ras@@ 3
read 3
sau@@ 3
sea@@ 3
set 3
sidered 3
transport@@ 3
trov@@ 3
urr@@ 3
weigh@@ 3
yl@@ 3
yrs 3
ò@@ 3
İ@@ 3
+ 2
305 2
57@@ 2
788 2
83@@ 2
AM 2
Alb@@ 2
Ale@@ 2
Aleks@@ 2
Aleksand@@ 2
Ap@@ 2
Aster@@ 2
Bus@@ 2
Chiev@@ 2
Clu@@ 2
Comp@@ 2
Count 2
ES@@ 2
En@@ 2
Fr@@ 2
Galic@@ 2
Genre 2
HE@@ 2
Helicopter 2
Ind@@ 2
Kn@@ 2
Lan@@ 2
Laun@@ 2
Manag@@ 2
Manager 2
Manhatt@@ 2
Mo@@ 2
Mot@@ 2
NR@@ 2
New@@ 2
PR@@ 2
Palaeont@@ 2
Part@@ 2
Pre@@ 2
Red@@ 2
Rid@@ 2
ST 2
Start@@ 2
Students 2
Zamboang@@ 2
ached 2
activeYearsEnd@@ 2
adc@@ 2
ais 2
aker 2
alt 2
alt@@ 2
ark 2
assemb@@ 2
ath 2
ation@@ 2
aver@@ 2
bet@@ 2
bro@@ 2
ca 2
cent@@ 2
che@@ 2
christ@@ 2
compar@@ 2
cr@@ 2
craft@@ 2
den@@ 2
dom 2
dquart@@ 2
ece 2
eded 2
ederal 2
eiv@@ 2
eland 2
eles 2
elev@@ 2
emb@@ 2
employe@@ 2
engo 2
erba@@ 2
essor 2
ety 2
ganis@@ 2
gen@@ 2
gs 2
ha 2
icans 2
icoff 2
icop@@ 2
ign@@ 2
ijan 2
ilip@@ 2
illi@@ 2
ina@@ 2
ince 2
inhab@@ 2
ip 2
ised 2
ision 2
ita 2
itants 2
ival 2
ize 2
ized 2
jec@@ 2
lace 2
lec@@ 2
len 2
mashed 2
mier 2
near@@ 2
number@@ 2
och 2
oll@@ 2
open@@ 2
ord@@ 2
otting@@ 2
ouis 2
ovic 2
pass@@ 2
pines 2
prop@@ 2
rel@@ 2
ridge 2
risis 2
saus@@ 2
short@@ 2
sta@@ 2
start@@ 2
stit@@ 2
stitute 2
succ@@ 2
tal@@ 2
tor@@ 2
tributing 2
try 2
ty@@ 2
um@@ 2
ute 2
utes 2
wo@@ 2
xim@@ 2
xur@@ 2
~ 2
011@@ 1
091 1
1114@@ 1
125@@ 1
25326@@ 1
473 1
5600@@ 1
80 1
Aja@@ 1
Ala@@ 1
Alhamb@@ 1
Americ@@ 1
Ang@@ 1
Antio@@ 1
Ath@@ 1
BN 1
BQ 1
Bangal@@ 1
Baraj@@ 1
Barbo@@ 1
Beb@@ 1
Bel@@ 1
Belg@@ 1
But@@ 1
CC@@ 1
Cater@@ 1
Chap@@ 1
Cust@@ 1
Ed@@ 1
Eg@@ 1
Eth@@ 1
Grass@@ 1
HU@@ 1
Hal@@ 1
Haput@@ 1
Hel@@ 1
IS@@ 1
IT 1
Indones@@ 1
Ingredients 1
Jav@@ 1
John@@ 1
Jul@@ 1
Karnat@@ 1
Kov@@ 1
LA@@ 1
LCC@@ 1
Label 1
Lat@@ 1
Liv@@ 1
Malay@@ 1
Mary@@ 1
Mean@@ 1
Members 1
Mic@@ 1
Michig@@ 1
Municipality 1
Nove@@ 1
Offic@@ 1
Oper@@ 1
Origin 1
Paragu@@ 1
Philli@@ 1
Popul@@ 1
Preuss@@ 1
Rep@@ 1
Represent@@ 1
Ret@@ 1
Rev@@ 1
Roc@@ 1
Rou@@ 1
SERVING@@ 1
SIZE 1
Schiph@@ 1
Singap@@ 1
Size 1
Stan@@ 1
Stu@@ 1
Sw@@ 1
TE 1
Tenants 1
Tex@@ 1
The@@ 1
Turk@@ 1
UD@@ 1
US@@ 1
Vand@@ 1
Velocity 1
Vi@@ 1
War@@ 1
Wer@@ 1
William@@ 1
Wolf@@ 1
Wor@@ 1
Work 1
ab 1
acc@@ 1
aceport 1
ack@@ 1
ada 1
aditional 1
agine 1
agon 1
alac@@ 1
alted 1
amil@@ 1
anger 1
aph@@ 1
apsis 1
architectur@@ 1
ares 1
asher 1
ater@@ 1
awar@@ 1
ayan 1
aylor 1
bank 1
berg 1
bhaj@@ 1
bir@@ 1
bor 1
care@@ 1
cele@@ 1
cep@@ 1
charya 1
cobend@@ 1
cobendas 1
comman@@ 1
connect@@ 1
cro@@ 1
cuit 1
cup 1
cylinder@@ 1
deburg 1
dec@@ 1
dedic@@ 1
dge 1
eez@@ 1
efs 1
egh@@ 1
egor@@ 1
ehic@@ 1
elv@@ 1
eptember 1
erbaijan 1
erto 1
esse 1
eter 1
eth 1
ewell 1
famil@@ 1
ff@@ 1
first@@ 1
foun@@ 1
garl@@ 1
gent@@ 1
gin@@ 1
han@@ 1
har@@ 1
high@@ 1
hio 1
hu@@ 1
iation 1
iba 1
icken 1
ier 1
igator 1
igbe 1
iles 1
illed 1
iller 1
ines 1
iness 1
inign@@ 1
inos 1
ir 1
ished 1
isinau 1
istan 1
istr@@ 1
ither 1
itional 1
itu@@ 1
itude 1
iver@@ 1
iversity 1
jur@@ 1
kar 1
kin 1
lam 1
lat@@ 1
latt@@ 1
leader@@ 1
leas@@ 1
lected 1
lem@@ 1
lev@@ 1
location@@ 1
loom 1
mach@@ 1
manu@@ 1
manufact@@ 1
mar 1
mash@@ 1
mater@@ 1
measu@@ 1
met@@ 1
miacao 1
mingham 1
miss@@ 1
mit 1
nat@@ 1
neigh@@ 1
neighb@@ 1
nis 1
octor@@ 1
oh@@ 1
oid 1
omot@@ 1
onau@@ 1
onis 1
osen 1
ott@@ 1
oug@@ 1
oups 1
ourn@@ 1
outh@@ 1
ove 1
oven 1
pedo 1
perature 1
perleague 1
pil@@ 1
pl@@ 1
pla@@ 1
post@@ 1
pp@@ 1
prec@@ 1
quia 1
receiv@@ 1
record@@ 1
reland 1
related@@ 1
reme@@ 1
ren 1
resent@@ 1
rev@@ 1
rid 1
rol 1
semb@@ 1
ser@@ 1
servative 1
serving@@ 1
sign@@ 1
signific@@ 1
sing 1
sing@@ 1
spok@@ 1
sport@@ 1
squ@@ 1
structed 1
themat@@ 1
ther@@ 1
tot@@ 1
tour@@ 1
typ@@ 1
ubb@@ 1
urk 1
uron 1
vil@@ 1
vision 1
war@@ 1
wer@@ 1
whe@@ 1
wheel@@ 1
wi@@ 1
wn 1
zm@@ 1
ú 1
madeupword0000 0
madeupword0001 0
madeupword0002 0
madeupword0003 0
madeupword0004 0
