the 140985
, 114759
. 94519
of 72694
in 59710
and 54870
is 47981
a 42068
was 27668
to 25945
by 15499
as 15342
it 14553
on 12018
with 11763
he 11139
united 11047
from 10746
for 10574
city 10383
states 9820
at 9794
&quot; 9696
airport 9275
&apos;s 8339
an 8290
has 8084
country 8019
- 7899
&apos; 7894
which 7636
new 7564
county 7306
are 6708
name 6694
s 6662
leader 6621
its 6211
) 6063
club 5734
( 5626
that 5188
located 5181
his 5046
university 4794
location 4664
part 4653
first 4509
language 4374
international 4333
were 4311
also 4267
: 4052
– 4050
c 3995
one 3848
area 3728
state 3665
0 3541
or 3456
after 3427
number 3418
texas 3368
region 3362
alan 3341
where 3330
served 3223
capital 3154
runway 3130
they 3123
group 3108
be 3092
known 3045
league 3019
this 2978
; 2959
school 2952
1 2877
football 2828
national 2822
who 2821
american 2750
had 2720
/ 2595
ethnic 2594
born 2567
place 2529
season 2512
air 2511
de 2463
their 2437
two 2427
member 2415
ingredient 2407
bacon 2404
apollo 2391
york 2382
team 2365
north 2363
main 2309
english 2261
population 2237
di 2231
south 2222
i 2195
dish 2192
but 2120
established 2106
u 2081
most 2077
st 2064
institute 2052
played 2046
monument 2042
been 2038
d 2027
made 2027
during 2022
india 2014
john 2004
have 1986
b 1948
west 1940
technology 1936
aarhus 1921
3 1910
jersey 1904
f 1898
named 1897
became 1894
based 1892
r 1839
length 1828
used 1826
acharya 1821
ground 1816
years 1802
e 1784
time 1784
sea 1766
founded 1765
into 1765
william 1765
character 1764
% 1741
birth 1737
indonesia 1712
level 1696
above 1693
world 1681
there 1680
other 1672
al 1670
square 1653
town 1642
people 1638
pilot 1628
published 1619
t 1618
war 1613
found 1612
ingredients 1612
italy 1601
see 1594
force 1592
re@@ 1591
company 1588
president 1582
business 1577
spain 1572
including 1570
members 1565
building 1553
l 1548
metres 1547
journal 1529
madrid 1525
infantry 1519
home 1517
long 1498
when 1497
americans 1494
nasa 1493
12 1492
m 1482
11 1476
sauce 1472
date 1471
shepard 1469
year 1466
bean 1462
census 1453
8 1445
crew 1445
east 1444
california 1440
second 1440
elliot 1436
2 1433
aldrin 1419
1634 1417
largest 1413
called 1389
between 1373
music 1363
public 1363
all 1356
being 1355
fc 1354
built 1353
austin 1346
won 1339
anders 1338
under 1335
buzz 1330
hall 1321
mendrisio 1317
o 1312
us 1308
later 1297
serie 1290
-@@ 1289
more 1288
asteroid 1283
division 1283
until 1283
college 1277
then 1276
not 1273
service 1260
denmark 1256
land 1255
three 1255
2010 1242
created 1227
spoken 1227
regional 1216
manager 1213
miles 1208
social 1202
can 1195
over 1192
4 1189
pennsylvania 1188
she 1186
army 1184
following 1184
house 1180
township 1174
both 1161
street 1161
may 1155
district 1153
s@@ 1153
series 1144
while 1144
sciences 1143
british 1141
operating 1126
since 1126
such 1124
k@@ 1116
before 1112
began 1111
6 1109
title 1107
d@@ 1102
designed 1099
san 1099
book 1098
comics 1098
only 1098
type 1097
family 1096
high 1093
kingdom 1091
province 1089
2014 1086
river 1086
center 1080
10 1078
mississippi 1074
well 1073
early 1069
11th 1064
man 1064
n 1063
5 1056
washington 1056
european 1053
led 1052
central 1043
15 1038
up 1035
accademia 1034
many 1029
july 1027
la 1027
operated 1027
white 1018
philippines 1015
atlantic 1014
akita 1013
architettura 1012
&amp; 1005
space 1005
general 997
association 987
organisation 985
century 984
malaysia 983
virginia 981
variation 975
france 970
union 969
singapore 966
20 960
g 956
plays 956
sandwich 954
her 953
rock 951
mexico 950
o@@ 948
2000 939
major 939
road 938
pakistan 936
architect 933
great 930
t@@ 927
e@@ 925
include 920
italian 909
beef 907
written 905
test 904
some 903
government 901
play 901
mw-parser-output 898
wisconsin 897
battle 896
four 896
london 896
formed 893
aircraft 892
system 891
ayam 889
band 889
out 885
mc 882
through 882
way 882
march 876
sri 875
g@@ 871
p 868
athens 864
june 861
7 859
c@@ 859
professional 859
than 857
p@@ 856
switzerland 855
turkey 855
comes 853
adams 852
several 850
along 849
ii 846
greece 844
ac 839
creator 838
de@@ 834
launch 834
un@@ 831
1963 830
academic 826
would 822
ice 821
paisa 820
ing 819
23 817
january 817
england 816
dessert 814
party 813
released 810
lake 808
penyet 808
fried 804
conference 800
elevation 800
n@@ 800
arem 797
cup 797
september 795
spanish 793
included 792
ohio 792
island 791
al@@ 789
bionico 789
metropolitan 789
binignit 787
crisis 787
october 787
in@@ 785
april 781
former 781
en@@ 779
selected 778
serves 778
end 775
native 773
2009 772
bakewell 772
however 772
author 771
community 767
december 767
students 765
about 761
baku 759
chicken 758
le@@ 758
18 756
louis 756
es 755
azerbaijan 754
i@@ 754
indian 750
9 749
science 748
alma 747
mater 747
romania 747
barajas 746
moved 746
14 744
now 743
completed 742
17 741
y 741
ed 740
er 736
bandeja 733
ajax 732
java 732
adolfo 731
art 731
retired 731
z@@ 731
k 730
popular 730
hotel 729
mary 728
historic 724
death 722
bavarian 718
august 717
department 717
m@@ 716
an@@ 712
chicago 708
u@@ 708
engineering 707
red 706
lanka 705
these 705
groups 704
baked 703
explosion 701
followed 701
° 701
november 700
2011 698
gen 698
ro@@ 698
includes 693
britain 692
publisher 692
w 692
civil 691
total 690
within 690
f@@ 689
big 685
third 683
v@@ 683
appleton 682
owned 682
navy 681
y@@ 680
ar@@ 679
history 679
flint 677
nationality 676
cleveland 675
v 675
work 675
produced 674
l@@ 671
calcio 669
ram 669
acta 668
akron 667
addis 666
career 666
february 666
same 666
order 665
use 664
seat 662
w@@ 662
flight 660
co@@ 659
stadium 658
album 657
eastern 657
no 657
b@@ 656
joined 656
avenue 655
line 655
museum 655
comic 654
suárez 653
dallas 651
park 651
eric 649
airbase 648
base 648
orbit 648
office 647
top 647
r@@ 645
age 644
chinese 644
authority 641
ireland 641
started 641
pudding 640
ababa 639
course 639
birmingham 638
champions 637
discovered 636
rice 636
2008 634
press 634
currently 633
side 633
teams 632
playing 630
arena 629
graduated 628
staff 626
ajoblanco 625
h@@ 625
french 623
left 622
ch@@ 619
official 619
turkish 619
asian 618
alpena 616
alaska 615
against 614
making 614
took 613
minister 610
according 609
republic 605
16 603
abilene 603
federal 603
johnson 603
fighter 601
died 599
development 598
asad 597
28 596
around 596
ti@@ 596
late 595
los 595
250 594
period 591
station 591
style 591
southern 590
become 589
body 589
lee 589
mission 589
novel 589
mar@@ 588
son 588
status 588
j@@ 587
memorial 586
near 585
occupation 585
due 583
allama 582
him 582
afc 580
floor 580
iqbal 580
film 579
rebellion 578
egg 573
large 573
maryland 573
ad@@ 571
hong 571
engine 570
200 569
antwerp 569
populous 569
powys 569
georgia 567
hampshire 567
opened 567
bangalore 565
se@@ 565
07 564
construction 564
german 564
indiana 564
iraq 564
japan 564
back 563
2012 562
bakso 560
copenhagen 560
council 559
agra 558
blackpool 558
cities 557
military 557
sportiva 557
poaceae 556
row 556
kway 555
robert 555
2007 554
northern 554
received 552
record 552
black 551
asilomar 550
small 550
teow 550
although 549
amsterdam 549
aviation 547
serving 547
signed 546
kong 545
western 545
2015 544
african 544
developed 544
ers 544
am@@ 543
centre 543
southeast 543
as@@ 542
cuisine 542
originally 542
ship 542
ridge 541
site 539
form 537
li@@ 536
lo@@ 535
records 535
times 535
27 534
municipality 534
le 533
africa 532
medal 532
30 531
head 531
mo@@ 531
media 530
ted 529
village 528
design 527
bella 526
current 526
zealand 526
13 523
affiliated 522
best 522
contains 521
car 520
often 520
2019 519
law 519
alcatraz 518
launched 517
million 517
1996 516
6@@ 516
alternative 516
asam 515
five 515
technological 515
local 514
versus 514
george 513
j 513
surface 513
them 513
oil 512
referred 512
di@@ 510
held 510
james 510
port 510
sky 510
batchoy 509
premier 509
size 508
25 507
awh 506
visvesvaraya 506
delaware 505
te@@ 505
day 504
isbn 504
food 503
miller 503
ne@@ 503
karnataka 502
michigan 502
preceded 502
14th 501
alderney 501
elected 501
evil 501
stage 499
4@@ 498
er@@ 498
bananaman 497
indonesian 497
2013 496
currency 494
rome 494
be@@ 493
pedas 493
aids 492
21 491
colmore 491
el 490
footballer 490
km 487
among 486
bbc 486
negre 486
ate 484
grounds 480
per 480
librarians 478
whose 478
america 477
pe@@ 477
pena 477
dr 476
having 476
hockey 476
van 476
another 475
last 475
roma 475
using 475
added 474
administrative 474
andrews 472
pacific 472
round 472
six 472
2017 471
angola 471
ashgabat 471
europe 471
final 471
1932 470
live 470
manhattan 470
h 469
ia 468
like 468
al- 467
dis@@ 467
original 466
water 465
issn 464
king 464
loyal 464
term 464
adare 462
ation 462
ri@@ 462
st@@ 462
derbyshire 461
si@@ 461
leaders 460
volunteer 459
1st 458
22 458
games 458
2006 457
a@@ 457
sh@@ 457
amatriciana 456
el@@ 455
en 455
mars 455
point 455
chievo 454
dancer 454
debut 454
100 453
feet 453
politician 453
sports 453
7@@ 452
education 452
verona 451
300 450
worked 450
came 449
earth 448
once 448
each 447
martyrs 447
places 447
available 446
class 446
au 445
der 445
chief 444
harbor 443
me@@ 443
affiliation 441
asser 441
con@@ 441
obama 441
1918 440
5@@ 439
barack 439
ni 439
romance 439
lead 437
17@@ 436
ts 436
uk 436
vegetables 435
2005 434
levy 433
so 432
sold 432
atatürk 431
compete 431
glastonbury 431
ardmore 430
considered 430
song 430
2@@ 429
moon 429
own 428
̇ 428
2016 427
afonso 427
completion 427
marriott 427
clubs 425
david 425
batagor 423
campus 423
commercial 423
peter 423
atlanta 422
bhajji 421
fortress 420
counties 419
full 419
morgan 419
owner 419
1969 418
mathematics 418
to@@ 418
1962 416
attended 415
books 415
championship 415
ho@@ 414
meat 413
men 413
103 412
wizard 412
— 412
th@@ 411
3@@ 410
because 410
set 410
project 409
property 409
able 408
arapiraquense 408
church 408
dublin 408
went 408
observatory 407
severed 407
sweet 406
situated 405
governor 404
on@@ 404
wasp 404
03 403
baths 403
old 403
po@@ 403
summit 403
zmir 403
charlie 402
manor 402
grey 401
lunar 401
research 401
2001 400
greenville 400
} 400
1998 399
ab@@ 399
introduced 399
returned 398
russian 398
ampara 397
arròs 397
ac@@ 396
airlines 396
2004 395
appointed 395
ated 395
off 395
winning 395
command 394
do 394
la@@ 394
bay 393
frank 393
headquarters 393
coconut 392
{ 392
abbreviation 391
fort 391
hospital 391
belgium 390
political 390
thomas 390
will 390
blues 389
father 389
power 389
ton 389
production 388
systems 388
traditional 388
lies 387
01 386
19 386
academy 386
kerala 386
originates 385
1957 384
election 384
version 384
da 382
illinois 382
similar 382
model 381
story 381
count 380
estimated 380
banana 379
or@@ 379
parker 379
1955 378
astronomer 378
print 377
commonly 376
pietro 376
x 376
adisham 375
award 375
forces 375
northeast 375
2003 374
any 374
seasons 374
agremiação 373
coast 372
replaced 372
sun 372
field 370
just 370
2018 369
9@@ 369
confederate 369
pages 369
various 369
category 368
decembrie 368
den 368
hero 368
promoted 367
ar 366
usually 366
amdavad 365
bo@@ 365
car@@ 365
gufa 365
julia 365
control 364
renamed 364
lahore 362
significant 362
spent 362
areas 361
dutch 360
stuart 360
works 360
ethiopia 359
lu@@ 359
man@@ 359
register 359
single 358
still 358
1910 357
addition 357
aip 357
milk 357
pradesh 357
50 356
is@@ 356
ly 356
make 356
peninsula 356
15@@ 355
different 355
life 355
officially 355
list 354
artists 353
cooked 353
distinguished 353
flights 353
gubbio 353
se 353
northwest 352
young 352
assault 351
brazil 351
inhabitants 351
killed 351
nation 351
quarterly 351
x@@ 351
os 350
promotion 350
sc 350
southwest 350
vincent 350
baymax 349
parts 349
ter 349
wheeler 349
castle 348
days 348
appeared 347
cakes 347
languages 347
no@@ 347
working 347
writer 347
# 346
addiction 346
approximately 346
du@@ 346
prime 346
siomay 346
34 345
bar@@ 345
ford 344
hill 344
paul 344
at@@ 343
label 343
leading 343
24 342
es@@ 342
glen 342
su@@ 342
buildings 341
fylde 341
per@@ 341
﻿ 341
blt 340
he@@ 340
uttar 340
very 340
16@@ 338
600 338
ag@@ 338
pro@@ 338
awarded 337
constructed 337
kilometres 337
position 337
ting 337
did 336
islands 336
living 336
again 335
discipline 335
player 335
royal 335
26 334
assembly 334
contributing 334
germany 333
ma@@ 332
relegated 332
changed 331
important 331
given 330
oclc 330
win 330
1980s 329
becoming 329
cornell 329
1930 328
1974 328
am 328
dc 328
livorno 328
fish 327
punjab 327
code 326
demonym 326
run 326
bu@@ 325
lost 325
operator 325
salle 325
cu@@ 324
diameter 324
les 324
success 324
ic 323
seven 323
tr@@ 323
parliament 322
territory 322
finished 321
half 321
result 320
successful 320
technical 320
8@@ 319
director 319
fourth 319
modern 319
z 319
grantville 318
route 318
ley 317
madin 317
potato 317
40 316
game 316
program 316
ten 316
together 316
har@@ 315
advances 314
features 313
gu@@ 313
th 313
today 313
3rd 312
architecture 312
charles 312
dales 312
1983 311
go 311
hardcover 311
months 311
pork 311
regions 311
santa 311
1927 310
commander 310
floors 310
frederick 310
battlefield 309
ni@@ 309
prior 309
services 309
te 309
1933 308
2002 308
belt 308
short 308
ma 307
mi@@ 307
recorded 307
support 307
uefa 307
youth 307
attack 306
corps 306
grant 306
operations 306
polonica 306
titles 306
tower 306
barny 305
do@@ 305
greek 305
lccn 305
nhl 305
palaeontologica 305
statistical 305
$ 304
adirondack 304
ana 304
culture 304
iii 304
it@@ 304
jens 304
mir 304
ny 304
summer 304
remained 303
32 302
cesena 302
netherlands 302
reached 302
what 302
09 301
beginning 301
bordered 301
continued 301
down 300
marvel 300
common 299
uses 299
ve@@ 299
29 298
consists 298
empire 298
ex@@ 298
majority 298
malaysian 298
valley 298
vi 298
pre@@ 297
incorporated 296
flemish 295
previously 295
turkmenistan 295
1990 294
ariane 294
lower 294
show 294
vi@@ 294
1966 293
ic@@ 293
veil 293
bands 292
countries 292
module 292
announced 291
management 291
society 291
ended 290
much 290
orbits 290
saranac 290
0@@ 289
31 289
ad 289
astronaut 289
ating 289
bi@@ 289
brown 289
johann 289
malay 289
ocean 289
training 289
editor 288
identifier 288
sometimes 288
start 288
garlic 287
gettysburg 287
lumezzane 287
minutes 287
ver@@ 287
backup 286
gold 286
il@@ 286
tirstrup 286
aid 285
hours 285
1994 284
campaign 284
grand 284
light 284
bill 283
joe 283
next 283
sumatra 283
36 282
engines 282
williams 282
act 281
aenir 281
ber@@ 281
coach 281
dedicated 281
dimitra 281
francisco 281
key 281
1999 280
austria 280
christian 280
efxeinoupolis 280
higher 280
influenced 280
tenant 280
board 279
green 279
par@@ 279
retirement 279
1923 278
dead 278
information 278
ko@@ 278
managed 278
ste@@ 278
az 277
cream 277
fullname 277
ge@@ 277
michael 277
mon@@ 277
monocacy 277
ur@@ 277
buffalo 276
paris 276
portion 276
1928 275
battles 275
covers 275
ds 275
gujarat 275
urban 275
härtel 274
schiphol 274
throughout 274
acquired 273
border 273
1995 272
contract 272
delta 272
almond 271
associated 271
competition 271
dean 271
degree 271
ke@@ 271
metal 271
parent 271
polish 271
range 271
alba 270
gave 269
maj 269
settlement 269
transport 269
1970s 268
across 268
less 268
vehicle 268
ville 268
1980 267
1990s 267
azal 267
corporation 267
hot 267
ons 267
plant 267
tart 267
bank 266
entered 266
involved 266
1960s 265
era 265
meters 265
though 265
′ 265
br@@ 264
campeonato 264
could 264
fire 264
scott 264
ships 264
stories 264
so@@ 263
ta 263
catalonia 262
genre 262
jr 262
ru@@ 262
taken 262
trade 262
1959 261
1986 261
als 261
andalusia 261
ap@@ 261
au@@ 261
artist 260
cars 260
downtown 260
greater 260
grove 260
passenger 260
richard 260
eccentricity 259
fought 259
material 259
02 258
complex 258
independent 258
industry 258
kilometers 258
marine 258
match 258
associazione 257
china 257
observation 257
previous 257
awards 256
financial 256
sausage 256
ter@@ 256
35 255
ak@@ 255
children 255
entertainment 255
standard 255
1988 254
cultural 254
democratic 254
highest 254
ings 254
sp@@ 254
tu@@ 254
congress 253
diagonal 253
fe@@ 253
fifth 253
listed 253
means 253
star 253
08 252
acm 252
alcobendas 252
density 252
mu@@ 252
pop 252
qu@@ 252
railroad 252
chairman 251
committee 251
cruise 251
elizabeth 251
for@@ 251
market 251
naval 251
1997 250
architectural 250
arrabbiata 250
divided 249
middle 249
ranked 249
serve 249
taylor 249
her@@ 248
im@@ 248
post 248
schneider 248
1987 247
argentina 247
borders 247
operation 247
aek 246
ammann 246
isidro 246
leaf 246
marcolini 246
michele 246
série 246
45 245
ations 245
brussels 245
chancellor 245
connecticut 245
hu@@ 245
initially 245
inter@@ 245
placed 245
ps 245
arts 244
every 244
married 244
men@@ 244
railway 244
ut 244
ine 243
larger 243
low 243
marce 243
oregon 243
prefecture 243
studied 243
taking 243
brasileiro 242
citation 242
dr@@ 242
economic 242
featured 242
legislature 242
radio 242
beach 241
designated 241
performed 241
shumai 241
you 241
20th 240
ch 240
hi@@ 240
lan@@ 240
landing 240
ler 240
away 239
bridge 239
pro 239
provided 239
soldiers 239
airline 238
ates 237
can@@ 237
com@@ 237
lemon 237
reference 237
roman 237
settled 237
starring 237
af@@ 236
bread 236
court 236
felipe 236
residents 236
soviet 236
stöger 236
active 235
brom 235
brought 235
cheese 235
massachusetts 235
upper 235
word 235
,@@ 234
ca 234
ding 234
front 234
irish 234
rocket 234
sch@@ 234
districts 233
grasso 233
ir@@ 233
math 233
moscow 233
originated 233
over@@ 233
primary 233
fenchurch 232
free 232
jackson 232
mayor 232
represented 232
cowper 231
go@@ 231
invasion 231
ka 231
ment 231
movement 231
operates 231
pi@@ 231
representatives 231
upon 231
″ 231
1,@@ 230
ans 230
matches 230
op@@ 230
present 230
take 230
tomato 230
weymouth 230
14@@ 229
60 229
few 229
metapán 229
ol@@ 229
role 229
rotation 229
stars 229
those 229
brother 228
magdeburg 228
nwc 228
1862 227
1@@ 227
beans 227
canadian 227
gi@@ 227
jones 227
joseph 227
olive 227
pan@@ 227
release 227
capacity 226
ded 226
min@@ 226
nickname 226
ian 225
ve 225
ahmet 224
even 224
latin 224
ling 224
minor 224
mor@@ 224
names 224
right 224
1976 223
me 223
nasi 223
re-@@ 223
we@@ 223
close 222
d-@@ 222
hessarghatta 222
javanese 222
saw 222
560090 221
canada 221
cape 221
franklin 221
little 221
martin 221
philippine 221
radhakrishnan 221
soldevanahalli 221
creek 220
mother 220
sarvapalli 220
secretary 220
700 219
angeles 219
economy 219
elements 219
enaire 219
iraqi 219
lines 219
lived 219
milan 219
offered 219
us@@ 219
avocado 218
dos 218
variety 218
1991 217
cor@@ 217
events 217
forms 217
mile 217
plack 217
players 217
real 217
wilson 217
abbreviated 216
average 216
ci@@ 216
famous 216
honda 216
officer 216
section 216
songs 216
sub@@ 216
war@@ 216
bureau 215
1993 214
anaheim 214
ang@@ 214
borman 214
colombian 214
cr@@ 214
derived 214
houston 214
person 214
ph@@ 214
planet 214
soho 214
table 214
units 214
juventus 213
limited 213
numerous 213
via 213
wife 213
antioquia 212
companies 212
don 212
ous 212
super 212
turn 212
worth 212
ya 212
nationwide 211
reyes 211
terms 211
wrote 211
amateurs 210
discovery 210
eventually 210
merger 210
organization 210
ten@@ 210
universities 210
av@@ 209
cake 209
captain 209
height 209
josé 209
ju@@ 209
mark 209
plan 209
points 209
10@@ 208
blue 208
carried 208
cumberland 208
em@@ 208
manchester 208
1968 207
88 207
ant 207
euro 207
ren@@ 207
singer 207
airports 206
eight 206
fiat 206
hub 206
punk 206
ra 206
distance 205
ed@@ 205
executive 205
further 205
lars 205
1989 204
eggs 204
flowering 204
gr@@ 204
lancashire 204
ms 204
open 204
senate 204
tion 204
1961 203
others 203
arabic 202
ce@@ 202
defined 202
facility 202
housing 202
independence 202
organized 202
senior 202
alkmaar 201
carolina 201
co 201
cre@@ 201
den@@ 201
electric 201
governing 201
pu@@ 201
soon 201
1981 200
assigned 200
bolt 200
combined 200
founding 200
kennedy 200
mer@@ 200
merged 200
passed 200
peanut 200
rank 200
1971 199
33 199
aston 199
bengo 199
der@@ 199
honor 199
impact 199
television 199
wood 199
1982 198
ben 198
lippincott 198
models 198
orbital 198
special 198
begins 197
designer 197
schools 197
’ 197
130 196
1931 196
anderson 196
cal@@ 196
starting 196
fly 195
madison 195
az@@ 194
provinces 194
regular 194
sound 194
1907 193
asteroids 193
boston 193
curitiba 193
ing@@ 193
planned 193
tier 193
wilkins 193
1985 192
grew 192
observations 192
orange 192
purchased 192
500 191
biden 191
heavy 191
hopkins 191
industrial 191
inhabited 191
ist 191
jarama 191
kansas 191
lockheed 191
moving 191
return 191
ty 191
04 190
1964 190
19th 190
administration 190
competed 190
del 190
described 190
franchise 190
harrietstown 190
jo@@ 190
mal@@ 190
wolf 190
1992 189
air@@ 189
alfred 189
ang 189
notable 189
stone 189
transferred 189
transportation 189
basketball 188
characters 188
decided 188
draft 188
eaten 188
ft 188
goal 188
inclination 188
noodles 188
primarily 188
boeing 187
borough 187
cabinet 187
cur@@ 187
earned 187
expansion 187
paracuellos 187
sour 187
1960 186
mid-@@ 186
night 186
sands 186
sent 186
up@@ 186
bre@@ 185
commanded 185
commerce 185
crewed 185
cruises 185
novels 185
out@@ 185
sk@@ 185
chosen 184
columbia 184
finishing 184
johns 184
origin 184
richardson 184
sal@@ 184
ters 184
tim 184
1977 183
1979 183
appearance 183
ay@@ 183
cut 183
disney 183
ent 183
if 183
ke 183
reserve 183
without 183
1967 182
chrysler 182
consisting 182
dark 182
gar@@ 182
gen@@ 182
id 182
mario 182
transactions 182
1973 181
auburn 181
co-@@ 181
dishes 181
foundation 181
houses 181
mason 181
mostly 181
secret 181
shrimp 181
ska 181
tennis 181
arrived 180
deceased 180
flour 180
flying 180
headquartered 180
passengers 180
ryan 180
spaniards 180
track 180
wing 180
asher 179
cost 179
ses 179
settlers 179
39 178
ak 178
ba 178
et 178
instead 178
pfk 178
practice 178
ran@@ 178
related 178
spacecraft 178
ties 178
vice 178
come 177
issue 177
jorge 177
liga 177
mb@@ 177
move 177
stadio 177
structure 177
widodo 177
1950 176
1965 176
belongs 176
costa 176
drafted 176
fifa 176
joko 176
ments 176
neighborhood 176
platform 176
737 175
ahmedabad 175
background 175
bal@@ 175
cold 175
master 175
mexican 175
never 175
oldest 175
pal@@ 175
pinhais 175
postgraduate 175
publishing 175
tions 175
2020 174
ban@@ 174
build 174
communities 174
dan 174
defeated 174
edition 174
fighting 174
formerly 174
leipzig 174
mountain 174
surrounding 174
1975 173
aired 173
bronze 173
growing 173
itself 173
maran 173
meaning 173
nearby 173
noodle 173
ran 173
rolando 173
é@@ 173
1950s 172
1970 172
asia 172
dave 172
expanded 172
firm 172
henry 172
missions 172
na 172
rasmussen 172
separate 172
11@@ 171
action 171
behind 171
des 171
icao 171
junior 171
nfl 171
said 171
2nd 170
annual 170
atlas 170
bar 170
either 170
fiction 170
occupied 170
sebastián 170
sergio 170
str@@ 170
terminal 170
1946 169
90 169
ah@@ 169
botta 169
cap@@ 169
garden 169
neighboring 169
refers 169
18@@ 168
ancient 168
core 168
covered 168
create 168
defense 168
increased 168
losing 168
running 168
shares 168
tony 168
um 168
blockbuster 167
branch 167
designation 167
duncan 167
entry 167
massimo 167
ou@@ 167
rights 167
ring 167
tic 167
viking 167
austrian 166
especially 166
fo@@ 166
hip 166
mumbai 166
outside 166
q@@ 166
rouleau 166
sa 166
shared 166
tor@@ 166
1949 165
despite 165
fall 165
nor@@ 165
ottoman 165
q 165
scheduled 165
sportpark 165
são 165
tes 165
tournament 165
ícolo 165
alabama 164
ally 164
ator 164
bur@@ 164
classified 164
ks 164
labour 164
pr@@ 164
prominent 164
uruguay 164
1972 163
24@@ 163
adopted 163
drago 163
formation 163
human 163
jack 163
lieutenant 163
nu@@ 163
studio 163
subsequently 163
winners 163
1984 162
201 162
ankara 162
aw@@ 162
hiv 162
juan 162
ne 162
remaining 162
super@@ 162
vehicles 162
writing 162
38 161
52 161
entire 161
ever 161
federation 161
isabelle 161
overall 161
private 161
seen 161
tan 161
alfa 160
argentine 160
ce 160
changes 160
char@@ 160
e-@@ 160
feature 160
fi@@ 160
jusuf 160
kalla 160
municipal 160
populated 160
sarawak 160
smaller 160
we 160
audi 159
bus 159
butter 159
flew 159
generally 159
guard 159
historical 159
latter 159
thus 159
trans@@ 159
tri@@ 159
1958 158
41 158
fallujah 158
mathematica 158
nations 158
opening 158
pen@@ 158
strong 158
taqaddum 158
the@@ 158
buenos 157
che@@ 157
comprises 157
emerged 157
fre@@ 157
gal@@ 157
guitar 157
maiden 157
obtained 157
rest 157
study 157
toekomst 157
width 157
ard 156
fiorentina 156
manages 156
recording 156
sambal 156
sister 156
student 156
1904 155
dodge 155
fleet 155
good 155
natural 155
nine 155
speed 155
transfer 155
versions 155
wall 155
wide 155
acres 154
antonio 154
cas@@ 154
charter 154
chili 154
founder 154
hal@@ 154
iulia 154
kuttikkattoor 154
manuel 154
satellite 154
scored 154
simply 154
strip 154
submarine 154
3,@@ 153
3500 153
australia 153
does 153
engineer 153
himself 153
hungarica 153
karl 153
ki@@ 153
mercury 153
producer 153
sen@@ 153
sugar 153
vo@@ 153
20@@ 152
afit 152
ali@@ 152
bas@@ 152
bl@@ 152
carroll 152
cover 152
covering 152
ku@@ 152
mattarella 152
participated 152
terrace 152
two-@@ 152
admitted 151
earlier 151
freedom 151
goals 151
provide 151
separated 151
susana 151
unit 151
1913 150
37 150
albany 150
far 150
infraero 150
musical 150
nearly 150
regiment 150
scottish 150
squadron 150
additional 149
ages 149
ati@@ 149
composed 149
failed 149
gained 149
ge 149
gemini 149
hilmi 149
paraguay 149
suburban 149
wi@@ 149
&apos;t 148
ai 148
almost 148
amateur 148
caused 148
coden 148
monterey 148
ot@@ 148
v8 148
ven@@ 148
439 147
drive 147
festival 147
ies 147
interest 147
ity 147
mas@@ 147
my 147
put 147
roger 147
russia 147
studies 147
sv 147
whom 147
arc 146
block 146
commissioned 146
dan@@ 146
growth 146
hamburg 146
mis@@ 146
non-@@ 146
performance 146
sk 146
streets 146
tom 146
ves 146
warren 146
18th 145
asphalt 145
clellan 145
detroit 145
get 145
granted 145
ical 145
ina 145
lands 145
luanda 145
ner 145
particularly 145
ser@@ 145
styles 145
tenants 145
valls 145
1929 144
1954 144
83 144
ano 144
camp 144
douglas 144
hor@@ 144
ker 144
max 144
older 144
piece 144
principal 144
re 144
reach 144
runs 144
towns 144
1956 143
2,@@ 143
ath@@ 143
find 143
florida 143
garth 143
jam 143
ordered 143
ra@@ 143
raised 143
republican 143
sen 143
ai@@ 142
bought 142
channel 142
cross 142
flown 142
klaus 142
km2 142
nix 142
olympic 142
ors 142
sa@@ 142
sin@@ 142
submarines 142
val@@ 142
94 141
address 141
brothers 141
conservative 141
global 141
going 141
highway 141
hit 141
hop 141
las 141
marble 141
pol 141
usa 141
108 140
25@@ 140
aires 140
ary 140
aus 140
automobile 140
brand 140
championships 140
fk 140
iron 140
jazz 140
largely 140
limerick 140
main-belt 140
modi 140
narendra 140
petersburg 140
qualified 140
ranil 140
recently 140
sing 140
supported 140
sur@@ 140
sw@@ 140
victory 140
wh@@ 140
ze 140
bucharest 139
consisted 139
daughter 139
divisions 139
inaugurated 139
inner 139
larcher 139
launches 139
motor 139
panucci 139
past 139
twice 139
wickremesinghe 139
4165 138
75 138
ah 138
bounded 138
cam@@ 138
deal 138
electronic 138
example 138
future 138
ga 138
generation 138
granite 138
haputale 138
joint 138
mixture 138
municipalities 138
sandesh 138
thakur 138
42 137
centuries 137
facilities 137
georges 137
gram 137
historically 137
issues 137
joining 137
mat@@ 137
poland 137
remains 137
salvador 137
sixth 137
suburb 137
assistant 136
containing 136
jalisco 136
least 136
ranks 136
required 136
revival 136
smith 136
speak 136
categorized 135
coordinates 135
dem 135
ending 135
falls 135
gazette 135
gazettes 135
genus 135
germans 135
lega 135
makes 135
network 135
occurred 135
room 135
takes 135
tre@@ 135
1948 134
26@@ 134
29@@ 134
ash@@ 134
attached 134
ay 134
child 134
eagle 134
here 134
mag@@ 134
mountains 134
ranking 134
steven 134
sti@@ 134
swiss 134
wiley 134
! 133
4,@@ 133
4th 133
allowed 133
armed 133
auron 133
burbank 133
eredivisie 133
fa 133
fulton 133
ha@@ 133
ham@@ 133
ig@@ 133
jacob 133
kar@@ 133
mainly 133
manufacturer 133
rather 133
t-@@ 133
under@@ 133
va 133
variations 133
widely 133
80 132
agency 132
anthem 132
chi@@ 132
daniel 132
establishment 132
eu@@ 132
families 132
households 132
magnitude 132
mainstream 132
missouri 132
police 132
religion 132
sed 132
stony 132
á@@ 132
closed 131
constitution 131
francis 131
italians 131
san@@ 131
scripture 131
tallest 131
venue 131
1947 130
23rd 130
5,@@ 130
all- 130
cuyahoga 130
extended 130
extending 130
fin@@ 130
granola 130
justice 130
leaves 130
lewis 130
ll@@ 130
metro 130
provincial 130
reaching 130
seagle 130
walt 130
17th 129
210 129
320 129
36@@ 129
99 129
acts 129
albuquerque 129
belgaum 129
change 129
combat 129
ism 129
jakarta 129
join 129
leaving 129
link 129
operate 129
origins 129
palace 129
potomac 129
valencian 129
albums 128
and@@ 128
bachelor 128
chopped 128
complete 128
dried 128
ff@@ 128
fictional 128
friends 128
ite 128
japanese 128
om@@ 128
prabhukumar 128
seminar 128
sun@@ 128
vermont 128
1945 127
abhandlungen 127
carnival 127
collection 127
davutoğlu 127
finland 127
kesel 127
lincoln 127
lt 127
mil@@ 127
rear 127
wa 127
1978 126
ck 126
diesel 126
ecliptic 126
finnish 126
ger 126
ger@@ 126
helped 126
heritage 126
influence 126
montevideo 126
publication 126
1952 125
30@@ 125
ade 125
appearances 125
canonica 125
coming 125
deputy 125
gh@@ 125
ir 125
manufactured 125
mathematischen 125
met 125
sir 125
species 125
uruguayan 125
1908 124
44 124
achieved 124
brooklyn 124
edge 124
help 124
humberto 124
inspired 124
palaeontol 124
product 124
rail 124
recent 124
relegation 124
rooms 124
soup 124
superleague 124
superman 124
ton@@ 124
48 123
a-@@ 123
ari@@ 123
ben@@ 123
bri@@ 123
christmas 123
combination 123
declared 123
domestic 123
engle 123
fuel 123
golden 123
inauguration 123
lin@@ 123
pe 123
provisional 123
ram@@ 123
responsible 123
traffic 123
,000 122
ability 122
airfield 122
better 122
boundary 122
chris 122
competing 122
concept 122
condensed 122
deep 122
graduate 122
lane 122
lazio 122
loc@@ 122
midfielder 122
res 122
richmond 122
shows 122
subsequent 122
successor 122
swedish 122
wal@@ 122
&apos;@@ 121
alexis 121
bs 121
catholic 121
colony 121
corner 121
gas 121
increase 121
outer 121
patrick 121
rio 121
silvano 121
simon 121
solent 121
starred 121
surrounded 121
turned 121
typically 121
uni@@ 121
ward 121
5px 120
acf 120
alongside 120
astronauts 120
ata 120
celery 120
connected 120
convention 120
creation 120
diverse 120
división 120
fruit 120
hills 120
ked 120
min-width 120
prokopis 120
recognized 120
respect 120
shipyard 120
spring 120
steve 120
suffered 120
ty@@ 120
urich 120
06 119
beat 119
broadcasted 119
consecutive 119
direct 119
et@@ 119
fer@@ 119
ics 119
manufacturing 119
plants 119
rapid 119
rca 119
residence 119
respectively 119
rise 119
s-@@ 119
solanales 119
split 119
ss 119
vessel 119
é 119
“ 119
28@@ 118
86 118
adjacent 118
defender 118
em 118
halimah 118
hungarian 118
identified 118
maple 118
minotaur 118
nicknamed 118
placid 118
races 118
roberts 118
roll 118
ry 118
sage 118
specific 118
steel 118
studios 118
survey 118
territories 118
tomatoes 118
tourist 118
-based 117
05 117
15th 117
1953 117
access 117
ach@@ 117
barcelona 117
cat@@ 117
chute 117
forced 117
forest 117
gre@@ 117
host 117
ken@@ 117
longer 117
newly 117
ob@@ 117
representing 117
saint 117
types 117
universität 117
women 117
yacob 117
í@@ 117
51 116
aureoles 116
conejo 116
featuring 116
finally 116
friend 116
fu@@ 116
got 116
hudson 116
inside 116
perón 116
prepared 116
resulting 116
roots 116
share 116
sponge 116
three-@@ 116
16000 115
610 115
ate@@ 115
bon@@ 115
compared 115
foreign 115
globemaster 115
integrated 115
løkke 115
magazine 115
mel@@ 115
ness 115
nikos 115
ns 115
os@@ 115
parents 115
perth 115
restaurants 115
romeo 115
satellites 115
sburg 115
sport 115
stands 115
taro 115
tsipras 115
winter 115
zed 115
1936 114
color 114
estate 114
ino 114
medical 114
noted 114
powered 114
rodríguez 114
stern 114
warm 114
ways 114
8,@@ 113
advanced 113
attorney 113
blackwell 113
boat 113
dance 113
ders 113
edward 113
ham 113
hamilton 113
highly 113
hosts 113
lira 113
measures 113
offers 113
pepper 113
portions 113
reported 113
rule 113
subsidiary 113
visayas 113
wil@@ 113
17000 112
1909 112
97 112
arlington 112
authors 112
clear 112
commission 112
don@@ 112
hard 112
headquarter 112
hp 112
iohannis 112
journals 112
mahajan 112
mit@@ 112
news 112
pavlopoulos 112
representative 112
rivers 112
ruled 112
sliced 112
wagon 112
writers 112
ó@@ 112
1919 111
1920 111
1940 111
4-@@ 111
70 111
ado 111
baltic 111
banks 111
bor@@ 111
brazilian 111
cen@@ 111
cooking 111
hosted 111
jose 111
ketchup 111
köln 111
ll 111
mixed 111
offices 111
paulo 111
pol@@ 111
recipe 111
resulted 111
seats 111
sion 111
smashed 111
soccer 111
sumitra 111
tal@@ 111
torino 111
27@@ 110
activities 110
aj@@ 110
andrew 110
autonomous 110
chart 110
equipped 110
israeli 110
je@@ 110
kochi 110
mass 110
publishes 110
purpose 110
reddy 110
stations 110
tan@@ 110
tor 110
voutsis 110
1500 109
conducted 109
erie 109
harvard 109
health 109
interior 109
istanbul 109
judge 109
laid 109
luxury 109
por@@ 109
sar@@ 109
shredded 109
speaking 109
spread 109
stanley 109
star@@ 109
tt 109
variant 109
37@@ 108
81 108
_ 108
anbar 108
artur 108
bird 108
challinor 108
claimed 108
ering 108
experience 108
focus 108
fr@@ 108
ful 108
han@@ 108
hotels 108
intended 108
loss 108
ls 108
oddie 108
rasizade 108
rm 108
runners-up 108
sago 108
soto 108
ticino 108
tin 108
5th 107
ain@@ 107
appearing 107
basis 107
below 107
berlin 107
educated 107
factor 107
finish 107
heinlein 107
helicopter 107
korean 107
mentioned 107
observed 107
paperback 107
professor 107
race 107
sesame 107
trinidad 107
ur 107
ys 107
” 107
55 106
84 106
arabian 106
ba@@ 106
brigade 106
daily 106
governed 106
husband 106
initial 106
jim 106
mar 106
method 106
process 106
rupee 106
shortly 106
sons 106
spaceflight 106
squeezed 106
sts 106
travel 106
tv 106
universitas 106
yo@@ 106
2000s 105
43 105
architects 105
capable 105
climate 105
colonel 105
competes 105
fans 105
ita 105
landed 105
library 105
maine 105
mi 105
motors 105
naming 105
oklahoma 105
pa 105
plans 105
seventh 105
theater 105
train 105
wave 105
wounded 105
approved 104
ara 104
broadcast 104
defeat 104
flags 104
graduating 104
jet 104
ney 104
page 104
paraná 104
produce 104
que 104
queen 104
rich 104
salt 104
sel@@ 104
solo 104
succeeded 104
65 103
ass@@ 103
balder 103
bc 103
boiled 103
brig 103
candidate 103
chorizo 103
cullins 103
hand 103
jayawardenepura 103
kh@@ 103
love 103
mad@@ 103
meyer 103
rotterdam 103
rural 103
sequel 103
sides 103
ul@@ 103
vienna 103
ada 102
alexander 102
asherton 102
characterized 102
colombia 102
confectionery 102
contemporary 102
defensive 102
dick 102
ery 102
guadalajara 102
ie 102
ini 102
jan 102
laura 102
limits 102
lo 102
luciano 102
playoff 102
positions 102
rasher 102
residential 102
seattle 102
spalletti 102
tur@@ 102
ver 102
winner 102
1926 101
1934 101
agent 101
bb@@ 101
drawn 101
edwin 101
essex 101
ev@@ 101
farm 101
fellow 101
fox 101
ine@@ 101
kotte 101
makeup 101
mendoza 101
officers 101
qualifying 101
recordings 101
self-@@ 101
volkswagen 101
39@@ 100
92 100
advisor 100
agriculture 100
almonds 100
arms 100
bat@@ 100
burg 100
columbus 100
dy 100
establish 100
ker@@ 100
lawyer 100
parties 100
possible 100
provides 100
providing 100
shape 100
stages 100
stand 100
tar@@ 100
titled 100
too 100
tour 100
tw@@ 100
a- 99
bel@@ 99
bot@@ 99
boundaries 99
bundelkhand 99
colonial 99
continental 99
cook 99
existing 99
gordon 99
pain 99
raisins 99
relocated 99
sil@@ 99
soy 99
suarez 99
tive 99
typical 99
view 99
ze@@ 99
1911 98
35@@ 98
9,@@ 98
arros 98
attempt 98
broth 98
cameron 98
captured 98
case 98
constituency 98
controlled 98
dor@@ 98
drew 98
dynamics 98
equipment 98
filled 98
gang 98
georgian 98
give 98
guiana 98
gulf 98
hol@@ 98
holds 98
institutions 98
legislative 98
lis@@ 98
minced 98
my@@ 98
orbiting 98
presented 98
quality 98
scene 98
scoring 98
titan 98
van@@ 98
water@@ 98
worldwide 98
za 98
± 98
100305 97
agreement 97
belly 97
beyond 97
boy 97
chevrolet 97
connection 97
cylinder 97
cyril 97
destroyed 97
ear@@ 97
elections 97
far@@ 97
fernando 97
gus 97
id@@ 97
let 97
mill 97
muffin 97
organs 97
our 97
performing 97
publications 97
refer 97
sarnie 97
stay 97
towards 97
video 97
1942 96
6,@@ 96
978 96
ain 96
ale 96
ance 96
arabs 96
ato 96
bell 96
bowl 96
butty 96
charge 96
clube 96
cob 96
exchange 96
ff 96
gor@@ 96
hi 96
ici@@ 96
indigenous 96
kil@@ 96
nova 96
one-@@ 96
pastry 96
physics 96
presence 96
producing 96
projects 96
regarded 96
relatively 96
religious 96
replace 96
scientific 96
skyscraper 96
source 96
speaker 96
ti 96
whole 96
ye@@ 96
-2 95
159 95
3800 95
95 95
affairs 95
albedo 95
ans@@ 95
asa 95
barm 95
black@@ 95
bury 95
busiest 95
carry 95
ck@@ 95
creating 95
cro@@ 95
dar@@ 95
dating 95
del@@ 95
earliest 95
eg@@ 95
folk 95
fri@@ 95
gri@@ 95
individuals 95
object 95
ot 95
pad 95
payload 95
peoples 95
peppers 95
politics 95
pri@@ 95
proposed 95
puerto 95
red@@ 95
reports 95
revolutionary 95
riverside 95
safety 95
sales 95
sanger 95
victoria 95
wayne 95
1865 94
47 94
7,@@ 94
affiliations 94
all@@ 94
aurakles 94
awadh 94
background-image 94
bütüner 94
cl@@ 94
confederates 94
decades 94
doctor 94
event 94
fell 94
gérard 94
güner 94
hüseyin 94
lau@@ 94
mie 94
philip 94
poales 94
programme 94
px 94
resort 94
ski 94
stu@@ 94
supply 94
tapioca 94
und 94
url 94
00@@ 93
1924 93
bio@@ 93
bul@@ 93
canal 93
ces 93
classic 93
coastal 93
format 93
forward 93
grown 93
ha 93
hood 93
industries 93
io 93
ja 93
leads 93
passing 93
pat@@ 93
predecessor 93
rated 93
roughly 93
senator 93
shore 93
squad 93
ón 93
1861 92
46 92
54 92
72 92
ann 92
appears 92
aviator 92
brooke 92
call 92
cer@@ 92
extensive 92
fillings 92
forming 92
hy@@ 92
immediately 92
ink 92
ky 92
locomotive 92
low@@ 92
maccabi 92
multiple 92
oc@@ 92
playoffs 92
quickly 92
ro 92
sam@@ 92
tly 92
vicenza 92
ats 91
attacks 91
bottom 91
brandon 91
dj 91
down@@ 91
est@@ 91
fe 91
flank 91
gener@@ 91
guitarist 91
ically 91
loan 91
marketed 91
mr 91
payloads 91
pl@@ 91
replacement 91
runways 91
sci 91
standing 91
tt@@ 91
1925 90
45@@ 90
47@@ 90
aged 90
animated 90
ative 90
bundesliga 90
coup 90
decline 90
defence 90
ep 90
falcon 90
finals 90
ins 90
labels 90
leagues 90
lia 90
lin 90
mid@@ 90
ministry 90
o-@@ 90
powerful 90
receiving 90
removed 90
rules 90
seconds 90
should 90
sy@@ 90
tel 90
tennessee 90
tudor 90
variants 90
1935 89
57@@ 89
85 89
96 89
accepted 89
already 89
attacked 89
billion 89
carrier 89
cle@@ 89
col@@ 89
coppa 89
ele@@ 89
ernie 89
gate 89
holland 89
ili@@ 89
interstate 89
introduction 89
knight 89
lakes 89
li 89
may@@ 89
mur@@ 89
note 89
ow@@ 89
qatar 89
sandwiches 89
selling 89
stanford 89
temperature 89
transmission 89
voice 89
wolfman 89
ying 89
1900 88
91 88
adam 88
ble 88
ched 88
ches 88
contested 88
coupe 88
cri@@ 88
dated 88
dollars 88
emb@@ 88
eng@@ 88
fully 88
lie 88
lives 88
loughlin 88
multi@@ 88
originating 88
parliamentary 88
plantain 88
registered 88
relationship 88
security 88
spices 88
supreme 88
var@@ 88
vila 88
week 88
1940s 87
56 87
agu@@ 87
albert 87
ality 87
approach 87
asunción 87
baghdad 87
boer 87
bright 87
cornish 87
dates 87
double 87
extends 87
filling 87
giving 87
hel@@ 87
hogao 87
ica 87
influences 87
inter 87
iz@@ 87
len 87
mata 87
neighbouring 87
onion 87
pa@@ 87
pass 87
personal 87
primera 87
ramaphosa 87
samuel 87
sandy 87
second-@@ 87
spider- 87
ster 87
ths 87
ut@@ 87
walter 87
wor@@ 87
000 86
1632 86
1905 86
1921 86
400 86
911 86
93 86
affair 86
applied 86
cast 86
categorised 86
chan@@ 86
che 86
cho@@ 86
com 86
commelinids 86
contain 86
crossing 86
derives 86
develop 86
duty 86
ell 86
energy 86
enrique 86
existence 86
fantasy 86
fore@@ 86
ganges 86
green@@ 86
guanciale 86
how 86
ised 86
kilometre 86
kings 86
lancia 86
letter 86
liberty 86
lou@@ 86
meringue 86
monocotyledon 86
musicians 86
ned 86
oyster 86
philadelphia 86
poet 86
properties 86
pun@@ 86
random 86
replacing 86
rhythm 86
rose 86
sweden 86
tradition 86
visited 86
y-@@ 86
1951 85
900 85
9th 85
admin 85
ataturk 85
cher 85
copa 85
democrat 85
expected 85
frequently 85
gro@@ 85
monarchy 85
nominated 85
ones 85
photometric 85
plaza 85
radar 85
residing 85
ry@@ 85
stock 85
traditionally 85
worden 85
+ 84
78 84
africans 84
articles 84
atio 84
bac@@ 84
cargo 84
chain 84
dale 84
donnell 84
draw 84
fountain 84
ged 84
glass 84
high-@@ 84
leadership 84
literature 84
med 84
new@@ 84
norman 84
novelist 84
palm 84
review 84
romanian 84
singles 84
sousa 84
sporting 84
stan 84
steamed 84
transit 84
walk 84
walker 84
words 84
zamboangans 84
zone 84
16th 83
1863 83
66 83
australian 83
broadcasting 83
cru@@ 83
danish 83
dynamo 83
fruits 83
heart 83
humans 83
inc 83
izmir 83
markets 83
meet 83
needed 83
ong 83
pittsburgh 83
planning 83
popularity 83
renaissance 83
silver 83
sites 83
southeastern 83
sto@@ 83
th-largest 83
unique 83
viag 83
wo@@ 83
12@@ 82
advance 82
always 82
amp@@ 82
bro@@ 82
citizens 82
continues 82
cy 82
defeating 82
describe 82
fact 82
fat 82
follows 82
futebol 82
galileo 82
inherit 82
ish 82
isi@@ 82
job 82
ko 82
kuala 82
maritime 82
mean 82
mo 82
pas@@ 82
probably 82
revolution 82
ris@@ 82
second-largest 82
superhero 82
ta@@ 82
torpedo 82
tracks 82
wien 82
1873 81
1930s 81
82 81
98 81
ani 81
begin 81
break 81
by@@ 81
ca@@ 81
compressed 81
comprising 81
continue 81
cu 81
cups 81
custom 81
decision 81
distinct 81
duke 81
eerste 81
f-@@ 81
female 81
filipino 81
focused 81
fortune 81
headed 81
hometown 81
il 81
mac 81
marked 81
mer 81
naik 81
notably 81
panthers 81
purchase 81
results 81
signing 81
1938 80
211 80
546 80
accident 80
ag 80
app@@ 80
aries 80
arrival 80
article 80
benjamin 80
boris 80
constitutional 80
córdoba 80
dane 80
davis 80
designs 80
distributed 80
donald 80
eli@@ 80
estimate 80
except 80
flat 80
hired 80
ind@@ 80
indicate 80
ise 80
italia 80
jurisdiction 80
operational 80
pan 80
plains 80
programs 80
proper 80
read 80
remain 80
shuttle 80
th-most 80
troops 80
turner 80
vocals 80
west@@ 80
whitman 80
10000 79
13@@ 79
1922 79
53 79
58 79
amount 79
ators 79
aya 79
businessman 79
cavalry 79
colours 79
conver@@ 79
crafts 79
crime 79
dun@@ 79
ena 79
enlisted 79
enough 79
evans 79
expendable 79
ferry 79
fle@@ 79
four-@@ 79
gene 79
heavily 79
heidelberg 79
holding 79
leave 79
mac@@ 79
margrethe 79
musician 79
nearest 79
oni 79
prince 79
recipes 79
seafood 79
theatre 79
ts@@ 79
tures 79
turning 79
vegetable 79
volume 79
wings 79
wrapped 79
120 78
150 78
actually 78
arepa 78
collaboration 78
contest 78
developing 78
doctoral 78
dri@@ 78
ese 78
genres 78
ges 78
hardy 78
ilocano 78
indianapolis 78
inf@@ 78
legends 78
mix 78
mus@@ 78
nature 78
od@@ 78
offer 78
opposition 78
ora 78
peer-reviewed 78
percent 78
pieces 78
products 78
rockets 78
sierra 78
squ@@ 78
tarrant 78
thought 78
tobago 78
underground 78
wars 78
zz@@ 78
án 78
1896 77
1943 77
280 77
5-@@ 77
analysis 77
ced 77
chamber 77
claim 77
competitions 77
condiment 77
counted 77
cting 77
describes 77
directly 77
drawing 77
earning 77
elevated 77
employees 77
er-@@ 77
experienced 77
fied 77
flo@@ 77
iata 77
kept 77
lack 77
let@@ 77
lightcurve 77
manual 77
mit 77
oo@@ 77
portland 77
present-day 77
problems 77
racing 77
sco@@ 77
squid 77
ston 77
tin@@ 77
tofu 77
universe 77
-- 76
1-@@ 76
1800 76
1820 76
1912 76
1939 76
3180 76
38@@ 76
49 76
aci@@ 76
all-@@ 76
arion 76
bak@@ 76
bed 76
budapest 76
carbonaceous 76
coaracy 76
colan 76
contributed 76
door 76
edited 76
effort 76
ellington 76
ens 76
estadio 76
hand@@ 76
hold 76
intersection 76
kalb 76
kind 76
lufthavn 76
ly@@ 76
mp@@ 76
ner@@ 76
nieto 76
northeastern 76
on-@@ 76
paste 76
postal 76
rap 76
roof 76
seminary 76
she@@ 76
snack 76
spot 76
stephen 76
tourism 76
toward 76
trading 76
trans 76
treaty 76
varieties 76
zo@@ 76
zuma 76
1944 75
3528 75
50@@ 75
77 75
anglia 75
arizona 75
arthur 75
avi@@ 75
berkeley 75
bil@@ 75
budget 75
cd 75
certain 75
decade 75
direction 75
existed 75
grenada 75
hartford 75
hen@@ 75
hiro 75
imperial 75
indie 75
iv 75
keep 75
ki 75
lafayette 75
le-@@ 75
mainland 75
mp 75
ously 75
potatoes 75
reading 75
retail 75
secondary 75
sn@@ 75
twelve 75
ul 75
wood@@ 75
1917 74
56@@ 74
89 74
8th 74
aaron 74
aerospace 74
ago 74
aida 74
assumed 74
augustus 74
biggest 74
carlos 74
carmel 74
carpi 74
changing 74
closely 74
composition 74
concert 74
contained 74
ence 74
fonseca 74
foot 74
helsinki 74
issued 74
jer@@ 74
mid- 74
mount 74
not@@ 74
publishers 74
que@@ 74
resignation 74
returning 74
sab@@ 74
sedan 74
shirley 74
shot 74
tokyo 74
warsaw 74
101 73
2060 73
4000 73
800 73
abandoned 73
abdul 73
acy 73
ades 73
ala 73
ale@@ 73
asi@@ 73
bad@@ 73
beano 73
blanco 73
breakfast 73
broke 73
coupé 73
ct 73
display 73
enjoyed 73
freshly 73
hull 73
hun@@ 73
igorot 73
jun@@ 73
kal@@ 73
kr@@ 73
lawrence 73
ligue 73
lon@@ 73
lot 73
nav@@ 73
need 73
newspaper 73
ona 73
ontario 73
owns 73
prize 73
shi@@ 73
si 73
siena 73
soyuz 73
ther@@ 73
vessels 73
wit@@ 73
zing 73
1899 72
67 72
73 72
acting 72
adsit 72
apo@@ 72
baen 72
bass 72
davutoglu 72
descent 72
destination 72
diego 72
ealdorman 72
escape 72
evolved 72
fishing 72
graeme 72
income 72
inf 72
jerry 72
kes 72
lar 72
legal 72
marv 72
ore 72
panama 72
personnel 72
policy 72
postcode 72
poyet 72
response 72
saturn 72
slightly 72
sovereign 72
syst 72
tamil 72
taste 72
teaching 72
tender 72
tulsa 72
unesco 72
ure 72
usaf 72
villa 72
vote 72
wild 72
woman 72
ö@@ 72
60040714 71
87 71
additionally 71
ahead 71
an-@@ 71
canton 71
caribbean 71
carrying 71
chi 71
chilli 71
cookie 71
dropped 71
emd 71
enda 71
fl@@ 71
funk 71
gain 71
ines 71
landmark 71
likely 71
longest 71
meeting 71
norway 71
plate 71
presidential 71
racial 71
sheldon 71
sm@@ 71
span 71
spe@@ 71
tal 71
tea 71
tim@@ 71
ving 71
1941 70
497 70
57 70
6th 70
87@@ 70
ae 70
agricultural 70
allowing 70
are@@ 70
berry 70
bin 70
bordering 70
brian 70
centers 70
civilian 70
clu@@ 70
debuted 70
delivered 70
difference 70
educational 70
engaged 70
entirely 70
excellence 70
failure 70
figure 70
girl 70
hilton 70
hollande 70
howard 70
ich 70
importance 70
ithaca 70
johnston 70
kenny 70
mathematical 70
month 70
motto 70
owen 70
pallesen 70
pin@@ 70
roy 70
shaped 70
siege 70
sign 70
spo@@ 70
structures 70
tadashi 70
unincorporated 70
value 70
vocalist 70
vol@@ 70
zi@@ 70
1898 69
46@@ 69
aa 69
ajo 69
antioch 69
b-@@ 69
bali 69
crown 69
densely 69
denton 69
directed 69
dissolved 69
dry 69
elite 69
emperor 69
gateway 69
geo@@ 69
head@@ 69
high@@ 69
idea 69
ile 69
indexed 69
junction 69
killing 69
kn@@ 69
kon@@ 69
land@@ 69
lated 69
log@@ 69
luis 69
lumpur 69
m-@@ 69
meant 69
michel 69
mont 69
ninth 69
olympiacos 69
ong@@ 69
ov 69
ownership 69
parks 69
pre-@@ 69
preparation 69
pursue 69
rams 69
resigned 69
ria 69
salted 69
sand@@ 69
sions 69
sq 69
stown 69
strips 69
subject 69
tall 69
taught 69
tie 69
tro@@ 69
á 69
-1 68
100@@ 68
12th 68
1864 68
200@@ 68
21st 68
3-@@ 68
70634 68
76@@ 68
80002709 68
abo@@ 68
acura 68
aktieselskab 68
al-@@ 68
ali 68
alized 68
alone 68
amharic 68
appear 68
arianespace 68
ast@@ 68
attracted 68
bakwan 68
bol@@ 68
bound 68
c-type 68
casualties 68
cemetery 68
centres 68
comedy 68
desalegn 68
desmond 68
earl 68
esa 68
eugene 68
europa 68
genoa 68
gl@@ 68
gue 68
hungary 68
intelligence 68
isis 68
kin 68
knowledge 68
launcher 68
liberal 68
literary 68
maintained 68
mike 68
montreal 68
multi-@@ 68
ory 68
plane 68
revealed 68
ric@@ 68
rick 68
roads 68
sale 68
shown 68
sounds 68
ss@@ 68
strait 68
strategic 68
telangana 68
teshome 68
th-@@ 68
tons 68
toyota 68
ultimately 68
ung 68
utrecht 68
40@@ 67
actor 67
adding 67
adult 67
ants 67
attention 67
back@@ 67
baltimore 67
blvd 67
bombing 67
computer 67
conflict 67
disbanded 67
emi 67
exist 67
expensive 67
extension 67
fight 67
gives 67
hailemariam 67
ington 67
ken 67
kevin 67
kirby 67
len@@ 67
meal 67
met@@ 67
metapan 67
ning 67
orders 67
palermo 67
placing 67
pope 67
psalm 67
salem 67
setting 67
sisters 67
springs 67
stri@@ 67
things 67
tinkham 67
twin 67
unlike 67
werft 67
win@@ 67
workers 67
yards 67
ín 67
ə@@ 67
0-@@ 66
0px 66
1878 66
4253 66
86@@ 66
973 66
ap 66
asterix 66
carrol 66
cts 66
curve 66
digital 66
foods 66
gardner 66
gs 66
lar@@ 66
lasted 66
legend 66
lists 66
loin 66
mari@@ 66
might 66
morcilla 66
mythology 66
numbers 66
patacones 66
permanent 66
poor 66
quarter 66
rou@@ 66
routemap 66
s- 66
scale 66
semi-finals 66
sey 66
sport@@ 66
store 66
successfully 66
sunday 66
underwent 66
universal 66
voted 66
votes 66
warner 66
younger 66
167 65
1854 65
61 65
actions 65
activity 65
allow 65
arab 65
arian 65
ax@@ 65
ballistic 65
baron 65
ber 65
cattle 65
classical 65
coastline 65
concrete 65
corn 65
cs1-registration 65
cubanelle 65
deck 65
du 65
enduring 65
ents 65
express 65
fm 65
gam@@ 65
gan 65
gran@@ 65
hon@@ 65
hungar 65
landmarks 65
losses 65
mascot 65
midtown 65
minute 65
mondelez 65
mounted 65
oli@@ 65
parking 65
plus 65
rap@@ 65
resources 65
retreat 65
ribbon 65
search 65
sl@@ 65
speci@@ 65
styling 65
t- 65
teacher 65
texans 65
trophy 65
twenty-@@ 65
vitesse 65
voting 65
waters 65
weather 65
wolters 65
ys@@ 65
2-@@ 64
63 64
7th 64
ace 64
ach 64
ae@@ 64
amarillo 64
att@@ 64
banyumasan 64
bel 64
buscema 64
c1 64
chicharon 64
claude 64
commenced 64
copies 64
deployed 64
dominated 64
dur@@ 64
entitled 64
evidence 64
fal@@ 64
fan 64
gil@@ 64
hal 64
indians 64
influential 64
jupiter 64
lyrics 64
ming 64
moldoff 64
neighborhoods 64
oxford 64
pac@@ 64
peak 64
qatari 64
reduced 64
roswell 64
s-type 64
segunda 64
son@@ 64
stockport 64
stream 64
tab@@ 64
temporary 64
tip 64
tube 64
unsuccessful 64
vermicelli 64
zer 64
,5@@ 63
accompanied 63
agreed 63
ard@@ 63
attend 63
auto 63
behalf 63
bo 63
commonwealth 63
communications 63
completely 63
din@@ 63
driving 63
erected 63
ero 63
experimental 63
flows 63
giles 63
holy 63
kluwer 63
nautical 63
pictures 63
plan@@ 63
printed 63
qiu 63
restaurant 63
seasoned 63
socialist 63
sources 63
state@@ 63
stor@@ 63
supporting 63
suspended 63
vers 63
vis@@ 63
wanted 63
ł@@ 63
,6@@ 62
,9@@ 62
110 62
archipelago 62
aspects 62
atalanta 62
athletic 62
bears 62
becomes 62
berg 62
berliner 62
bertone 62
billy 62
carrarese 62
components 62
confirmed 62
crossed 62
ct@@ 62
democracy 62
done 62
eleven 62
els 62
eth@@ 62
flagship 62
gt 62
hamlet 62
hart 62
householder 62
individual 62
internal 62
investigation 62
keeping 62
kel@@ 62
liber@@ 62
lla 62
lord 62
maximum 62
must 62
north@@ 62
northwestern 62
parish 62
partner 62
penguins 62
plot 62
res@@ 62
saloon 62
salvadoran 62
seven@@ 62
shipping 62
sol@@ 62
southernmost 62
space@@ 62
spicy 62
tribes 62
weeks 62
1903 61
3000 61
affiliate 61
alco 61
ately 61
attempts 61
awa 61
birthplace 61
borneo 61
briefly 61
camp@@ 61
ceded 61
chelsea 61
colorado 61
colón 61
converted 61
cultures 61
data 61
exterior 61
faber 61
fair@@ 61
fel@@ 61
fields 61
garrett 61
hil@@ 61
household 61
infrastructure 61
instruments 61
knvb 61
lac@@ 61
lokomotive 61
marion 61
mills 61
missile 61
money 61
muslim 61
off@@ 61
online 61
pp@@ 61
progressive 61
ranging 61
receive 61
represent 61
reputation 61
rival 61
rovers 61
semin 61
sh 61
sla@@ 61
sony 61
sum@@ 61
swe@@ 61
tam@@ 61
tejano 61
themselves 61
thin 61
titans 61
vantage 61
vas@@ 61
vil@@ 61
wine 61
1920s 60
19@@ 60
2777 60
abh 60
administered 60
aling 60
anna 60
ays 60
basic 60
believed 60
belonging 60
billboard 60
burn 60
c-@@ 60
cing 60
claims 60
coaching 60
component 60
cottage 60
cruz 60
cs 60
delegate 60
depending 60
dre@@ 60
driven 60
drummer 60
ek 60
ela 60
equ@@ 60
est 60
euro@@ 60
fan@@ 60
fashion 60
fresh 60
funds 60
goddess 60
goes 60
grade 60
gula 60
hambg 60
hou@@ 60
jo 60
jong 60
kers 60
lan 60
minority 60
modified 60
moro 60
moss 60
occasions 60
oxygen 60
positioned 60
proved 60
pul@@ 60
rahm 60
routes 60
sanderson 60
sau@@ 60
sc@@ 60
seaso 60
sebastian 60
soul 60
spending 60
stated 60
tank 60
teen 60
terminus 60
tically 60
udinese 60
univ 60
ved 60
venues 60
vicky 60
wat@@ 60
watson 60
website 60
wheel 60
xiaolong 60
ˈ@@ 60
1906 59
1914 59
1937 59
2776 59
8-@@ 59
80@@ 59
88@@ 59
aba 59
agr 59
airman 59
ambassador 59
amc 59
attending 59
attica 59
ban 59
burned 59
c2 59
capita 59
carriers 59
cephalopod 59
civic 59
clo@@ 59
coalition 59
connecting 59
coun@@ 59
democrats 59
dissolution 59
efforts 59
emanuel 59
encompasses 59
ends 59
five-@@ 59
formally 59
hed 59
institution 59
jefferson 59
karachi 59
leg@@ 59
levels 59
ltd 59
monthly 59
mouth 59
mun@@ 59
none 59
ology 59
output 59
ph 59
play@@ 59
princess 59
protected 59
pugin 59
pur 59
quite 59
rivals 59
rpm 59
sive 59
sr 59
tone 59
topped 59
torque 59
vo 59
westminster 59
13th 58
93645978 58
af 58
ane 58
annexed 58
arnhem 58
associate 58
babelsberg 58
bankruptcy 58
bibbo 58
bin@@ 58
bishop 58
bow@@ 58
brief 58
brightness 58
cia 58
coloured 58
cousin 58
craftsman 58
cuttlefish 58
denver 58
determined 58
economics 58
effects 58
eld 58
entering 58
factory 58
flag 58
gardens 58
gregory 58
guy 58
ick 58
improved 58
ish@@ 58
ist@@ 58
jets 58
k-@@ 58
kan@@ 58
lankan 58
larry 58
lation 58
low-@@ 58
mah@@ 58
medieval 58
mols 58
ny@@ 58
om 58
one@@ 58
participate 58
partnership 58
promote 58
putrajaya 58
railroads 58
restored 58
rolling 58
session 58
shallots 58
shopping 58
show@@ 58
soci@@ 58
songwriter 58
spaceport 58
sting 58
stre@@ 58
tackles 58
third-largest 58
tion@@ 58
ura 58
ws 58
yellow 58
&gt; 57
-3 57
00 57
1889 57
74 57
ably 57
abu 57
adapted 57
airbus 57
anti-@@ 57
anti@@ 57
arbor 57
assi@@ 57
ball@@ 57
basin 57
bob 57
break@@ 57
brigadier 57
caterpillar 57
chil@@ 57
chile 57
chinatown 57
choice 57
circle 57
closest 57
collected 57
dav@@ 57
demolished 57
die 57
distribution 57
eighth 57
enter 57
estádio 57
films 57
finance 57
folded 57
gap 57
gold@@ 57
hapoel 57
harbour 57
ill 57
increasingly 57
kent 57
lady 57
lauraceae 57
lm 57
louisiana 57
mes 57
mir@@ 57
moore 57
oberliga 57
p-@@ 57
peachtree 57
pressure 57
price 57
qui@@ 57
ros@@ 57
sell 57
set@@ 57
shipbuilding 57
sponsored 57
tenure 57
traded 57
virtus 57
weight 57
wy@@ 57
â@@ 57
1em 56
27th 56
30843 56
448 56
acre 56
add 56
alpharetta 56
alternate 56
bla@@ 56
boldrini 56
booster 56
bou@@ 56
buried 56
cherokee 56
columbian 56
counter@@ 56
cowboys 56
ctions 56
departure 56
dg@@ 56
drum 56
duane 56
enemy 56
fication 56
friendly 56
gary 56
grass 56
haven 56
horrigan 56
installed 56
kenzie 56
lift 56
maintenance 56
managing 56
mechelen 56
mediterranean 56
moody 56
non- 56
numbered 56
paid 56
parma 56
particular 56
penguin 56
performances 56
peters 56
phoenix 56
picked 56
planets 56
potter 56
produces 56
proximity 56
pur@@ 56
rangers 56
reg@@ 56
releases 56
responsibility 56
reviews 56
rutland 56
sao 56
senators 56
sharif 56
shop 56
something 56
somewhat 56
sville 56
termin@@ 56
thousands 56
to-@@ 56
turk 56
v6 56
verse 56
villages 56
ä@@ 56
ño 56
1850 55
670 55
adv 55
ars 55
ati 55
atic 55
avoid 55
axis 55
ball 55
bari 55
boys 55
bran@@ 55
buckhead 55
bun@@ 55
capitals 55
ceased 55
chesterfield 55
col 55
conclusion 55
conditions 55
confluence 55
content 55
cotton 55
critical 55
delayed 55
des@@ 55
expand 55
fab@@ 55
hab@@ 55
heads 55
heat 55
hence 55
homes 55
index 55
inv@@ 55
lights 55
meade 55
mechanical 55
monroe 55
motion 55
nes 55
nurturing 55
oilers 55
passes 55
pecorino 55
pirate 55
plata 55
preserves 55
prevent 55
rate 55
renowned 55
ross 55
rus@@ 55
shire 55
showed 55
significantly 55
singing 55
stonewall 55
territorial 55
third-@@ 55
tiger 55
touring 55
trained 55
tti 55
vel@@ 55
woods 55
æthelwald 55
19238 54
71 54
87000823 54
achieve 54
aeronautical 54
ann@@ 54
applying 54
apulensis 54
atlético 54
attempted 54
automaker 54
boats 54
businesses 54
butuner 54
cau@@ 54
cincinnati 54
citizen 54
collapse 54
colors 54
conduct 54
consumed 54
crater 54
curtis 54
delivery 54
discontinued 54
duo 54
explorer 54
figures 54
fy 54
g-@@ 54
gates 54
guardian 54
guner 54
huseyin 54
illa 54
inches 54
juice 54
kv 54
labor 54
lokke 54
maria 54
massive 54
meride 54
mesa 54
ola 54
ond@@ 54
peace 54
plateau 54
ple@@ 54
post@@ 54
pre- 54
propulsion 54
russell 54
sav@@ 54
sli@@ 54
solid 54
specifically 54
striker 54
tex@@ 54
thick 54
ticket 54
tics 54
towers 54
trail 54
tree 54
tun@@ 54
victor 54
vision 54
vocal 54
xn 54
zo 54
1,0@@ 53
1897 53
1901 53
69 53
ago@@ 53
airways 53
alliance 53
amsterdamsche 53
ath 53
bakar 53
cabin 53
capture 53
centaur 53
centered 53
chassis 53
chiefs 53
cit 53
classification 53
cli@@ 53
colleges 53
comp@@ 53
contact 53
ddr- 53
desert 53
diane 53
dillin 53
disneyland 53
fac@@ 53
gerard 53
goreng 53
grandfather 53
hard@@ 53
hardcore 53
heights 53
honour 53
horn 53
hour 53
ily 53
inch 53
injury 53
inten@@ 53
internationally 53
ira 53
kedah 53
kin@@ 53
kollam 53
laws 53
legion 53
manitoba 53
measuring 53
mining 53
munster 53
nia 53
offering 53
organizations 53
orleans 53
paleontology 53
partners 53
peña 53
pie 53
prote@@ 53
prototype 53
ready 53
rector 53
retiring 53
río 53
sections 53
shel@@ 53
sher@@ 53
stayed 53
steering 53
sterling 53
stood 53
suggested 53
tampa 53
tation 53
therefore 53
trains 53
true 53
türk 53
wacker 53
weston 53
ü@@ 53
0s 52
1,000 52
1851 52
192 52
292 52
39371 52
512 52
7-@@ 52
89646863 52
aarhusiensis 52
ab 52
acted 52
authorized 52
background-position 52
background-repeat 52
background-size 52
band@@ 52
bmw 52
bring 52
chicharrón 52
coached 52
coal 52
commen@@ 52
connects 52
credited 52
dal 52
divisie 52
equivalent 52
evening 52
exception 52
fil@@ 52
focuses 52
follow 52
françois 52
greatest 52
herald 52
ico 52
instrument 52
iran 52
islamic 52
kins 52
kor@@ 52
lam@@ 52
lengkuas 52
linear-gradient 52
lion 52
looking 52
lovell 52
magistrate 52
melaka 52
miami 52
mond 52
napoli 52
newark 52
no-repeat 52
occupying 52
officials 52
peaked 52
pil@@ 52
plain 52
portuguese 52
pres@@ 52
purple 52
ranch 52
rey 52
south@@ 52
soya 52
spelled 52
sub-@@ 52
testing 52
ukrainian 52
views 52
wheat 52
wick 52
wiener 52
write 52
ym@@ 52
1860 51
1876 51
1885 51
1902 51
1916 51
4349 51
59 51
abraham 51
alexandria 51
amer@@ 51
ases 51
assist 51
atmosphere 51
begun 51
boom 51
bridges 51
calgary 51
composer 51
cy@@ 51
cyrus 51
dense 51
e- 51
effect 51
electrical 51
eligibility 51
environment 51
face 51
favor 51
fir@@ 51
fun@@ 51
gh 51
grow 51
helping 51
hok 51
imprint 51
in-@@ 51
ky@@ 51
lay 51
loaned 51
machinery 51
male 51
meets 51
mul@@ 51
nic@@ 51
nice 51
oak 51
palomar 51
peninsular 51
philosophy 51
pot@@ 51
prominence 51
ras@@ 51
rev@@ 51
smallest 51
springfield 51
standards 51
stop 51
tribe 51
ue 51
utc 51
vic@@ 51
vir@@ 51
wel@@ 51
windsor 51
ā@@ 51
,0@@ 50
-speaking 50
1533 50
accommodate 50
acquisition 50
ake 50
alism 50
allen 50
ama 50
archi@@ 50
astr@@ 50
aviv 50
barry 50
bartolone 50
bases 50
ble@@ 50
breaking 50
casino 50
cathedral 50
celtic 50
charts 50
chor@@ 50
chose 50
comprise 50
continuing 50
corporate 50
craft 50
ction 50
definition 50
eigh@@ 50
ella 50
fast 50
gaining 50
grande 50
grated 50
greenwich 50
guest 50
gwinnett 50
johnny 50
journalist 50
madeleine 50
marietta 50
nas@@ 50
neustadt 50
paper 50
parallel 50
ques 50
reli@@ 50
renzi 50
robinson 50
sachsen 50
secured 50
semi-@@ 50
shield 50
spar@@ 50
straus 50
texture 50
ther 50
thousand 50
thunderbird 50
tian 50
tic@@ 50
trophies 50
uss 50
wards 50
x- 50
zaragoza 50
zi 50
− 50
-class 49
0001 49
1174 49
140000 49
17684 49
1893 49
5,000 49
57392246 49
62 49
ablu 49
aboard 49
adventures 49
ame@@ 49
animation 49
anne 49
anıtı 49
ao 49
arm 49
bay@@ 49
bhaji 49
bodies 49
bronx 49
care 49
cher@@ 49
clade 49
clark 49
clustering 49
colour 49
combining 49
continent 49
creators 49
dam 49
dam@@ 49
difficult 49
doing 49
dol@@ 49
elongated 49
empoli 49
episode 49
gau@@ 49
grand@@ 49
ho 49
honey 49
hussain 49
identity 49
irvine 49
israel 49
klasse 49
know 49
launching 49
lyon 49
mam@@ 49
medium 49
movements 49
mulatu 49
nam@@ 49
namesake 49
nation@@ 49
nigerian 49
o- 49
opposed 49
ori@@ 49
ots 49
ous@@ 49
owners 49
owning 49
paleobiology 49
pap@@ 49
pen 49
perform 49
pon@@ 49
possibly 49
rad@@ 49
ralph 49
rapper 49
sheriff 49
shops 49
slices 49
spectrum 49
suburbs 49
tem@@ 49
terrain 49
vancouver 49
venture 49
vin@@ 49
ye 49
yet 49
zh@@ 49
£ 49
ó 49
şehitleri 49
03380 48
121 48
199 48
57059226 48
admiral 48
americas 48
apart 48
arrested 48
ast 48
ational 48
automatic 48
banking 48
bomb@@ 48
boosters 48
bringing 48
bulk 48
butler 48
cab@@ 48
cat 48
catania 48
ceres 48
ching 48
consolidated 48
cul@@ 48
dell 48
dialect 48
disco 48
ell@@ 48
establishing 48
fair 48
fame 48
farming 48
fen@@ 48
fred 48
giant 48
gm 48
historian 48
ick@@ 48
iloilo 48
invented 48
kailan 48
king@@ 48
lev@@ 48
litre 48
long@@ 48
look 48
marc 48
matteo 48
medicine 48
membership 48
mid 48
mitchell 48
movie 48
nar@@ 48
ninja 48
offensive 48
onia 48
padding 48
participating 48
penang 48
pit@@ 48
post-metal 48
presidency 48
radical 48
ray 48
recognition 48
rico 48
rising 48
rosaceae 48
sat@@ 48
second-most 48
sing@@ 48
steyr 48
stv 48
ter-@@ 48
theory 48
tional 48
transformed 48
trim 48
ulysses 48
valencia 48
varied 48
vesta 48
well-@@ 48
ñ@@ 48
ú@@ 48
0002 47
10th 47
1915 47
2,000 47
3990 47
92550 47
aka 47
aki 47
armstrong 47
bajji 47
bassist 47
blan@@ 47
bolivia 47
broad@@ 47
brunei 47
cambridge 47
capitol 47
carles 47
closer 47
cohn 47
concentration 47
concerts 47
dic@@ 47
employed 47
enrolled 47
examples 47
falcons 47
fitted 47
fútbol 47
goalkeeper 47
hits 47
hoofdklasse 47
iaf 47
increasing 47
invited 47
jud@@ 47
laird 47
line@@ 47
lineup 47
linked 47
long-@@ 47
makassar 47
maur@@ 47
net 47
nie 47
notes 47
option 47
ottawa 47
pay 47
paz 47
polly 47
powers 47
pped 47
premiered 47
protect 47
protein 47
reason 47
regularly 47
releasing 47
rep@@ 47
report 47
retained 47
ric 47
rochdale 47
ron 47
rs-@@ 47
settlements 47
shaft 47
signature 47
slaves 47
slow 47
sunda 47
taib 47
teenage 47
tran@@ 47
turtles 47
vance 47
williamsburg 47
winnipeg 47
yale 47
,7@@ 46
17685 46
1849 46
1868 46
195 46
199@@ 46
3310 46
60@@ 46
69618 46
8392 46
9-@@ 46
9327 46
ace@@ 46
alianza 46
alist 46
alpha 46
aqu@@ 46
arm@@ 46
ato@@ 46
auto@@ 46
aven@@ 46
baan 46
belgian 46
bert 46
bis@@ 46
boo@@ 46
boulevard 46
brit@@ 46
cerro 46
champion 46
collin 46
colonies 46
confused 46
crow 46
cska 46
declined 46
destinations 46
difficulties 46
domin@@ 46
dominant 46
dream 46
fenves 46
fis@@ 46
flu@@ 46
font-size 46
fran@@ 46
geostationary 46
gun@@ 46
gy 46
hancock 46
hin@@ 46
hundred 46
huntington 46
ial 46
inception 46
investment 46
jewish 46
jonathan 46
kaiser 46
lambien 46
lat@@ 46
ler@@ 46
lic@@ 46
lime 46
lined 46
lyle 46
mamnoon 46
mani@@ 46
measured 46
menasha 46
minnesota 46
of-@@ 46
onto 46
pencil@@ 46
pescara 46
photo@@ 46
platted 46
play-off 46
portrayed 46
ports 46
prof@@ 46
publish 46
pure 46
revenue 46
roll@@ 46
rutaceae 46
saturday 46
settle 46
sha 46
shortcrust 46
sis 46
six-@@ 46
spartak 46
superior 46
tells 46
tenth 46
toured 46
uncle 46
unified 46
unione 46
usl 46
visit 46
visual 46
vor@@ 46
vorwärts 46
watch 46
work@@ 46
xi@@ 46
youngest 46
1818 45
1836 45
1890 45
1895 45
20px 45
2215 45
2744 45
96@@ 45
acc@@ 45
african- 45
annie 45
anthony 45
arti@@ 45
ass 45
aste@@ 45
attacking 45
avengers 45
bec@@ 45
blocks 45
blu@@ 45
bruins 45
bull 45
carmine 45
cast@@ 45
ceo 45
conne@@ 45
connect 45
conquered 45
contrast 45
cou@@ 45
crimean 45
cris@@ 45
da@@ 45
demand 45
dennis 45
departments 45
developments 45
dia 45
eastman 45
entity 45
entrance 45
ep@@ 45
ertegun 45
explo@@ 45
flanders 45
flavor 45
geology 45
girls 45
granada 45
grilled 45
han 45
harry 45
hav@@ 45
hosting 45
immigration 45
johan 45
lam 45
learning 45
leeds 45
leinster 45
locally 45
logy 45
manner 45
materials 45
milton 45
nashville 45
nfc 45
non@@ 45
normally 45
paraguayan 45
pat 45
philippe 45
piano 45
pic@@ 45
pursued 45
referring 45
reflect 45
ri 45
river@@ 45
run@@ 45
rupiah 45
secure 45
simple 45
sits 45
solar 45
sou@@ 45
spice 45
sta 45
substitute 45
suspension 45
tas@@ 45
tele@@ 45
tied 45
til@@ 45
toledo 45
traveled 45
trees 45
tropical 45
tru@@ 45
undergraduate 45
veikkausliiga 45
wis@@ 45
å@@ 45
1866 44
1880 44
23900 44
388 44
3992 44
68 44
76 44
76798317 44
79 44
83646315 44
absorbed 44
achieving 44
advis@@ 44
aff@@ 44
aging 44
anda 44
apgpac 44
armies 44
artillery 44
atlanta- 44
attractions 44
beating 44
bibbowski 44
bility 44
box 44
carl 44
chapel 44
chartered 44
chin@@ 44
cir@@ 44
clair 44
cm 44
combustion 44
conquest 44
cour@@ 44
crab 44
damage 44
dynasty 44
effective 44
eliminated 44
engineers 44
ered 44
feder@@ 44
forests 44
full-size 44
funding 44
fusion 44
gdp 44
golf 44
greeks 44
hague 44
haider 44
handed 44
harris 44
hearst 44
hook 44
horsepower 44
ideas 44
image 44
immigrants 44
industri@@ 44
inland 44
islamabad 44
jan@@ 44
jill 44
kit@@ 44
latino 44
lit@@ 44
literally 44
log 44
lying 44
maintain 44
metroplex 44
mobility 44
newport 44
noise 44
ok@@ 44
pakora 44
penalty 44
phase 44
platinum 44
portugal 44
preceding 44
preserved 44
protection 44
quay 44
quebec 44
rain 44
reasons 44
regime 44
reith 44
represents 44
resident 44
ries 44
rivalry 44
rocky 44
rounds 44
shell 44
sized 44
solanaceae 44
southwestern 44
sp 44
subgenre 44
sultanate 44
sum 44
surrender 44
syn@@ 44
then@@ 44
thirty 44
thrust 44
tia 44
tio 44
traced 44
try 44
wabash 44
weber 44
willamette 44
zation 44
zes 44
ć 44
176@@ 43
1853 43
1892 43
1894 43
374 43
abadi 43
admira 43
affected 43
ahl 43
ail 43
allows 43
bars 43
bologna 43
cc 43
childhood 43
chilton 43
colle@@ 43
commuter 43
compact 43
congressional 43
couple 43
dec@@ 43
declaration 43
deșteaptă 43
diaz 43
distinction 43
dumpling 43
duursema 43
dy@@ 43
electro 43
encompassing 43
ethiopian 43
exhibition 43
experiences 43
facing 43
foot@@ 43
gas@@ 43
gy@@ 43
hardtop 43
hay@@ 43
hl 43
holt 43
icebreaker 43
igh@@ 43
ign@@ 43
ikan 43
illustrated 43
inn 43
insurance 43
inte@@ 43
ja@@ 43
jam@@ 43
jes@@ 43
jon 43
latest 43
lets 43
lli 43
lontong 43
measurements 43
merchant 43
min 43
minimum 43
mou@@ 43
na@@ 43
nuclear 43
occupies 43
potential 43
psv 43
qualify 43
rag@@ 43
rancho 43
recovered 43
relations 43
remainder 43
rit@@ 43
robin 43
roles 43
române 43
rot@@ 43
sabah 43
sam 43
scotland 43
side@@ 43
skylab 43
stand@@ 43
sto 43
stoger 43
stroke 43
task 43
teenth 43
tical 43
toronto 43
transition 43
visitors 43
walls 43
wan@@ 43
want 43
whilst 43
winger 43
yer 43
06@@ 42
1869 42
194 42
4150 42
5300 42
64 42
ales 42
allied 42
an- 42
ancestry 42
animal 42
arch@@ 42
backing 42
bah@@ 42
beautiful 42
breaz 42
characteristic 42
cit@@ 42
cla@@ 42
compo@@ 42
condition 42
connections 42
dock 42
dorset 42
dro@@ 42
editor-in-chief 42
ef@@ 42
electoral 42
flames 42
flora 42
fuad 42
function 42
gallery 42
graphic 42
graphy 42
gross 42
handle 42
holder 42
hunt 42
inaugural 42
interests 42
ix 42
ized 42
kinney 42
lay@@ 42
lettuce 42
mic@@ 42
millennium 42
moench 42
monastery 42
navig@@ 42
near- 42
neil 42
netherland 42
oakland 42
ok 42
olympique 42
onic 42
onions 42
pel 42
phar@@ 42
populations 42
pper 42
principality 42
puig 42
rapidly 42
rebuilt 42
recognised 42
reform 42
resolution 42
resumed 42
selection 42
settler 42
sian 42
sof@@ 42
someone 42
sor@@ 42
soyuz-2 42
speakers 42
steak 42
storey 42
strike 42
surf 42
tis 42
u-@@ 42
ukrop 42
unable 42
valer 42
ximo 42
yard 42
yn 42
zu@@ 42
1,500 41
1000 41
1830 41
201@@ 41
28th 41
4,000 41
5000 41
? 41
abbey 41
aerodrome 41
ahn 41
amazing 41
aming 41
appointment 41
assists 41
auckland 41
auguste 41
battery 41
beaches 41
bi 41
bone 41
boy@@ 41
broad 41
cabbage 41
cc@@ 41
cel@@ 41
celebrated 41
challenge 41
cham@@ 41
communication 41
cooper 41
cop@@ 41
crash 41
crossroads 41
cted 41
ctor 41
daredevil 41
details 41
divisione 41
emergency 41
entella 41
enti@@ 41
episodes 41
ere 41
estimates 41
factories 41
farrar 41
fas 41
fer 41
fi 41
fill 41
fired 41
fit 41
formal 41
frangipane 41
ful@@ 41
god 41
guidance 41
halim 41
heroes 41
highlands 41
home@@ 41
ila 41
instru@@ 41
intake 41
iting 41
jay 41
jen@@ 41
jinnah 41
jk 41
lease 41
libya 41
liquid 41
lun@@ 41
mahé 41
malays 41
mental 41
mented 41
metropolis 41
nacional 41
narrow 41
nawaz 41
nis@@ 41
od 41
oriented 41
padang 41
peri@@ 41
peñarol 41
plantation 41
pm 41
policies 41
puigdemont 41
remembered 41
rever@@ 41
rock@@ 41
savannah 41
sky@@ 41
smo@@ 41
spanning 41
springer 41
sprinkled 41
st-@@ 41
strength 41
studying 41
surpassed 41
talent 41
telescope 41
tine 41
topklasse 41
ual 41
under-@@ 41
vac@@ 41
valve 41
vegas 41
vietnamese 41
wells 41
welsh 41
worn 41
yan@@ 41
zar@@ 41
és 41
ür@@ 41
€ 41
,4@@ 40
1848 40
1881 40
2900 40
3648 40
46451790 40
6-@@ 40
7156 40
alle@@ 40
aniti 40
antietam 40
arrow 40
autobiography 40
ave 40
baldwin 40
bandung 40
bes 40
bit 40
bolatinsky 40
bos@@ 40
brabant 40
brook 40
capability 40
chambers 40
chel@@ 40
clayton 40
clerk 40
collaborated 40
completing 40
conce@@ 40
convertible 40
dal@@ 40
defunct 40
dino 40
displacement 40
ea 40
ec@@ 40
elsewhere 40
emp@@ 40
entities 40
eve 40
extremely 40
faculty 40
faroese 40
free@@ 40
generated 40
geographical 40
gerald 40
goscinny 40
governorate 40
gp@@ 40
graduation 40
harlem 40
helmut 40
hr@@ 40
identical 40
incorporating 40
indus 40
italiana 40
itation 40
jahn 40
law@@ 40
learned 40
lions 40
locations 40
logical 40
mall 40
mann 40
margin 40
masum 40
midwest 40
milwaukee 40
nan 40
niagara 40
nit@@ 40
objective 40
on- 40
otherwise 40
pendleton 40
persian 40
pogson 40
profile 40
purposes 40
qualification 40
real@@ 40
rich@@ 40
road@@ 40
robur 40
roman@@ 40
root 40
rosales 40
runcorn 40
sarah 40
scre@@ 40
sector 40
sehitleri 40
separates 40
succeeding 40
successive 40
tag@@ 40
target 40
taxi 40
temple 40
texan 40
then-@@ 40
townships 40
translated 40
tren@@ 40
ujang 40
ukraine 40
vala 40
vary 40
veterans 40
virgin 40
visiting 40
von 40
webb 40
wheelbase 40
y- 40
yu@@ 40
zahar 40
æ@@ 40
í 40
ía 40
ø@@ 40
0567 39
186 39
1872 39
1879 39
476 39
507 39
7920 39
9px 39
aar@@ 39
adi@@ 39
akh@@ 39
alists 39
amed 39
appeal 39
arr@@ 39
athena 39
azerbaijani 39
baduy 39
bau@@ 39
bernard 39
bid 39
blo@@ 39
bore 39
brasília 39
bru@@ 39
ces@@ 39
cheshire 39
courses 39
creative 39
cs1-subscription 39
db@@ 39
deliver 39
desserts 39
dge 39
doctorate 39
donated 39
doom 39
duties 39
ek@@ 39
ene 39
ess@@ 39
fine 39
frankfurt 39
fron@@ 39
funded 39
ging 39
grap@@ 39
guide 39
hau@@ 39
heli@@ 39
hur@@ 39
imposed 39
infantino 39
infrared 39
interview 39
involving 39
iti 39
jac@@ 39
jean 39
kg 39
kingdoms 39
l-@@ 39
landscape 39
machine 39
maj@@ 39
marseille 39
milledgeville 39
mind 39
mm 39
mph 39
ners 39
olimpico 39
oliver 39
opor 39
opp@@ 39
outbreak 39
overland 39
overseas 39
path@@ 39
porsche 39
pound 39
rating 39
redesigned 39
redevelopment 39
rochester 39
romano 39
rosids 39
saddam 39
sg 39
shores 39
sought 39
storm 39
survived 39
travis 39
trinity 39
trip 39
tu 39
una 39
va@@ 39
vajubhai 39
variable 39
ve-@@ 39
venice 39
ves@@ 39
volunteers 39
wallace 39
whether 39
ú 39
ă@@ 39
ɪ@@ 39
-up 38
140 38
1846 38
1857 38
2em 38
79@@ 38
acceler@@ 38
activated 38
aded 38
ads 38
aero@@ 38
application 38
ari 38
asked 38
asturias 38
bavaria 38
belonged 38
bend 38
breakthrough 38
byron 38
cali@@ 38
canaveral 38
chancellorsville 38
chu@@ 38
classes 38
codes 38
commissioner 38
dallas- 38
dbs 38
defending 38
depicted 38
dies 38
distinctive 38
doug 38
drake 38
dubbed 38
díaz 38
encountered 38
exposed 38
fic@@ 38
filipinos 38
finds 38
form@@ 38
fredericksburg 38
functions 38
geneva 38
gru@@ 38
gur@@ 38
hails 38
hercules 38
herself 38
hispanic 38
hyatt 38
i- 38
ice@@ 38
intercontinental 38
investig@@ 38
ius 38
jacksonville 38
ji 38
ka@@ 38
lad@@ 38
linn 38
lock 38
maría 38
maya 38
mindanao 38
mon 38
mrs 38
mtv 38
museums 38
nine@@ 38
now@@ 38
of@@ 38
oni@@ 38
opposite 38
oraa 38
painter 38
participation 38
pedro 38
pioneer 38
presidents 38
programmes 38
progress 38
py@@ 38
rain@@ 38
regis 38
resistance 38
ruins 38
runner-up 38
rush 38
sacramento 38
schuster 38
score 38
sel 38
shilling 38
slay 38
soldier 38
somerset 38
spaces 38
stan@@ 38
struck 38
tap@@ 38
tax 38
techniques 38
tend 38
th-century 38
themes 38
thereafter 38
threat 38
tou@@ 38
trial 38
trus@@ 38
turbo@@ 38
twenty 38
vicinity 38
was@@ 38
windows 38
woo@@ 38
worl 38
× 38
ː@@ 38
&#93; 37
1411 37
1870 37
1887 37
2,7@@ 37
78771100 37
97@@ 37
absolute 37
accord 37
accounts 37
acehnese 37
affluent 37
agre@@ 37
amo@@ 37
ander 37
anglo- 37
apartments 37
aro@@ 37
astronomers 37
astronomical 37
attributed 37
bearing 37
bengal 37
bir@@ 37
bun 37
bush 37
but@@ 37
calendar 37
cap 37
care@@ 37
clear@@ 37
collaborative 37
collins 37
concerned 37
considerable 37
coo@@ 37
cooperation 37
craig 37
crashed 37
crowd 37
cus 37
dayton 37
decoration 37
deportiva 37
derby 37
derivative 37
dly 37
domain 37
dunne 37
edwards 37
eman 37
ements 37
end@@ 37
everything 37
extreme 37
feyenoord 37
flow 37
futbol 37
garage 37
giovanni 37
goo@@ 37
governments 37
grail 37
handling 37
hop@@ 37
horse 37
ie@@ 37
ils 37
im 37
institu@@ 37
istic 37
kas@@ 37
kempe 37
lokomotiv 37
lor 37
lu 37
magic 37
margaret 37
marketing 37
mechan@@ 37
monte 37
morris 37
nj 37
nominee 37
owed 37
padova 37
patel 37
pau@@ 37
paved 37
pay@@ 37
pel@@ 37
periods 37
peronist 37
phillips 37
pick 37
piłsudski 37
pla@@ 37
pleasant 37
poly@@ 37
posses@@ 37
predominantly 37
producers 37
professionally 37
rahman 37
ranges 37
reconstruction 37
renovated 37
rené 37
resembles 37
save 37
seahawks 37
sense 37
shed 37
shi 37
sic@@ 37
sit 37
soft 37
sparta 37
statue 37
steam 37
ster@@ 37
sty@@ 37
sundanese 37
sve 37
tech 37
tered 37
thema 37
three-year 37
threshold 37
tot@@ 37
tow@@ 37
tz 37
ultimate 37
v-@@ 37
varese 37
vast 37
vista 37
wes@@ 37
wheels 37
withdrew 37
ș@@ 37
ə 37
,8@@ 36
0,000 36
1080 36
26131 36
301 36
360 36
= 36
ack 36
ade@@ 36
advantage 36
affe@@ 36
agremiacao 36
aia 36
alien 36
aluna 36
alvinegro 36
ame 36
américa 36
antares 36
assembled 36
bal 36
bath@@ 36
believe 36
broadway 36
brow@@ 36
cancelled 36
chem@@ 36
cittadella 36
computing 36
conflicts 36
cti@@ 36
damaged 36
dandy 36
dead@@ 36
demise 36
deploy 36
deputies 36
developer 36
differences 36
dou@@ 36
drums 36
ee 36
ess 36
etc 36
eu 36
faced 36
fee 36
fun 36
gg@@ 36
gin@@ 36
gli@@ 36
gowda 36
gradually 36
greenlandic 36
handled 36
harrison 36
has@@ 36
hip-hop 36
holiday 36
hooker 36
ib@@ 36
ide@@ 36
independently 36
indicates 36
inkpot 36
intention 36
iras 36
jamie 36
js 36
las@@ 36
letters 36
león 36
ling@@ 36
linz 36
lock@@ 36
lum 36
madras 36
main@@ 36
manage 36
marriage 36
matt 36
mechanics 36
merge 36
mishkin 36
montgomery 36
morning 36
moun@@ 36
muhammad 36
murder 36
nat@@ 36
neal 36
nett 36
nick 36
nothing 36
numbering 36
orchestra 36
pilots 36
pioneers 36
pitch 36
polk 36
positive 36
poultry 36
prima 36
proposal 36
refused 36
rim 36
rises 36
say 36
sharing 36
sign@@ 36
ske@@ 36
stake 36
stevens 36
stow 36
struggle 36
surprise 36
tales 36
tee 36
theme 36
tholen 36
tippecanoe 36
top-@@ 36
top@@ 36
trials 36
tuscany 36
uab 36
varying 36
vf 36
voiced 36
vá@@ 36
wales 36
waterford 36
weekly 36
wein 36
white@@ 36
widespread 36
window 36
wizards 36
ym 36
1700 35
1838 35
1888 35
3,000 35
4-door 35
ack@@ 35
adap@@ 35
aer@@ 35
aim 35
ambi@@ 35
ania 35
apartment 35
ascent 35
bach 35
backs 35
bag@@ 35
bentegodi 35
bet@@ 35
bian@@ 35
bsg 35
buda 35
campbell 35
cent 35
certified 35
chal@@ 35
competitive 35
confederation 35
costs 35
defenceman 35
desire 35
dorothy 35
dough 35
efxeinoupoli 35
eligible 35
eo 35
examiner 35
extend 35
first-@@ 35
fol@@ 35
fourth-largest 35
fu 35
fur@@ 35
gel@@ 35
gio 35
guar@@ 35
guitars 35
healthcare 35
highland 35
ians 35
ich@@ 35
imag@@ 35
inde@@ 35
indi@@ 35
inger 35
internazionale 35
internet 35
introduce 35
johor 35
khalid 35
knopf 35
kur@@ 35
legs 35
lic 35
llo 35
lloyd 35
locomotives 35
lon 35
loud 35
mad 35
mans 35
marshal 35
melodifestivalen 35
multinational 35
navigation 35
nigeria 35
onian 35
opportunity 35
optional 35
organ 35
outstanding 35
phone 35
pier 35
plic@@ 35
pool 35
porter 35
post-punk 35
pounds 35
protagonist 35
radi@@ 35
rav@@ 35
reign 35
romanesque 35
romans 35
sabres 35
saints 35
saudi 35
scal@@ 35
sectors 35
shifted 35
simonson 35
sole 35
stretches 35
suit 35
suitable 35
sumatran 35
superboy 35
surviving 35
text-align 35
time@@ 35
tland 35
traders 35
traditions 35
tudes 35
tunnel 35
uk@@ 35
unknown 35
ussr 35
val 35
wealthy 35
wen@@ 35
williamson 35
111484 34
1558 34
16-@@ 34
1732 34
1867 34
1886 34
2,6@@ 34
202 34
3360 34
33@@ 34
adventure 34
age@@ 34
alu@@ 34
ams 34
annually 34
ards 34
armando 34
artwork 34
assumes 34
baby 34
baking 34
boarding 34
bones 34
bow 34
burns 34
centr@@ 34
centro 34
charlotte 34
cil@@ 34
cks 34
consistent 34
conventions 34
deb@@ 34
decca 34
degrees 34
dem@@ 34
denzil 34
determine 34
dig@@ 34
distributor 34
dollfuss 34
dual 34
duchy 34
earth@@ 34
ensure 34
eros 34
exists 34
expedition 34
expres@@ 34
extra 34
fa@@ 34
faction 34
fastest 34
fastest-growing 34
feinstein 34
forested 34
four-door 34
fourth-@@ 34
geography 34
glendower 34
heard 34
housed 34
ids 34
ik 34
incident 34
indoor 34
inker 34
inking 34
intermediate 34
jutland 34
kazan 34
kids 34
kimberly 34
koln 34
kupperberg 34
leased 34
lesser 34
lightning 34
logo 34
macon 34
maharashtra 34
mahe 34
marsden 34
mate 34
mid-1970s 34
militia 34
millions 34
mini@@ 34
modern-day 34
monarch 34
natives 34
needs 34
neuro@@ 34
newcastle 34
night@@ 34
nomination 34
nov@@ 34
occasionally 34
odessa 34
ordway 34
oy 34
panel 34
papers 34
pati@@ 34
ped 34
perugia 34
picchi 34
pickard 34
pier@@ 34
planes 34
plymouth 34
post-@@ 34
presi@@ 34
profit 34
promotions 34
pérez 34
qarabağ 34
raf 34
rd-@@ 34
really 34
reduce 34
regained 34
resear@@ 34
resonance 34
reve@@ 34
rie 34
rogers 34
safely 34
scar@@ 34
schirra 34
sci@@ 34
scrip@@ 34
sculp@@ 34
sele@@ 34
sellers 34
sep@@ 34
serv@@ 34
shannon 34
shu@@ 34
sig@@ 34
six@@ 34
spata 34
stro@@ 34
subcontinent 34
suggests 34
supercoppa 34
sz@@ 34
td 34
teachers 34
tice 34
umb@@ 34
unveiled 34
vs 34
warfare 34
well-known 34
wessex 34
ykkönen 34
è@@ 34
-year-old 33
1121 33
1812 33
1826 33
1855 33
518 33
abang 33
abilities 33
acquiring 33
afterwards 33
alex 33
alias 33
ames 33
amongst 33
anandiben 33
angels 33
aragon 33
arid 33
asol 33
assaults 33
authorities 33
automotive 33
bath 33
batter 33
belong 33
bodley 33
bour@@ 33
calls 33
canyon 33
cases 33
celebration 33
christianity 33
cio 33
combines 33
conceived 33
concluded 33
confederacy 33
contr@@ 33
contracted 33
cork 33
crest 33
csm 33
cunningham 33
cuts 33
defenders 33
depot 33
det@@ 33
dianne 33
discoverer 33
documented 33
drove 33
easily 33
editors 33
edmonton 33
electro- 33
elli 33
establishments 33
eva 33
ever@@ 33
expanding 33
felt 33
fey 33
fire@@ 33
fronted 33
germanic 33
get@@ 33
gravy 33
gun 33
hellenic 33
hole 33
hunting 33
improve 33
in- 33
incorporates 33
indicated 33
initiative 33
installation 33
instrumental 33
integr@@ 33
interested 33
jar@@ 33
jesuit 33
jn 33
jobs 33
kak@@ 33
kentucky 33
kill 33
kit 33
kre@@ 33
lagonda 33
lers 33
leton 33
linking 33
luther 33
machines 33
mandarin 33
manned 33
migrated 33
mojo 33
motor@@ 33
mutant 33
mödling 33
nebraska 33
necessary 33
non-families 33
non-family 33
nor 33
osborne 33
otto 33
plac@@ 33
poetry 33
pozuelo 33
practiced 33
presenter 33
pressed 33
processing 33
propellant 33
public-use 33
rcb- 33
recovery 33
reformed 33
repulsed 33
request 33
resorts 33
retaining 33
salzburg 33
sat 33
sax@@ 33
scenes 33
school@@ 33
scientist 33
seeds 33
separation 33
serious 33
seville 33
some@@ 33
straight 33
stretched 33
styled 33
suffering 33
sup@@ 33
supplies 33
sworth 33
technique 33
third-most 33
tho@@ 33
thor@@ 33
tle 33
tom@@ 33
tors 33
traces 33
trademark 33
truck 33
turin 33
vin 33
wr@@ 33
1,5@@ 32
13017 32
1473 32
190 32
2421 32
597 32
8805735 32
abi 32
academ@@ 32
accommo@@ 32
aking 32
alfredo 32
allies 32
amor 32
astérix 32
atory 32
atu@@ 32
australians 32
automobiles 32
aw 32
ayo 32
bapti@@ 32
bear 32
benefit 32
best-@@ 32
beta 32
bhp 32
big@@ 32
binary 32
bren@@ 32
broken 32
bruce 32
bt 32
bungalows 32
cabins 32
carrie 32
carries 32
cernan 32
chair 32
characteristics 32
chargers 32
chic@@ 32
claiming 32
cobb 32
colon@@ 32
commands 32
commemor@@ 32
committees 32
commu@@ 32
comparison 32
con 32
cons@@ 32
conscious 32
continuously 32
cornwall 32
couples 32
coverage 32
crops 32
crossover 32
cut@@ 32
def@@ 32
dent 32
dinamo 32
doors 32
drogheda 32
duc@@ 32
ducks 32
eding 32
electro@@ 32
evi@@ 32
exclusively 32
faith 32
favourite 32
forbes 32
founders 32
frag@@ 32
frit@@ 32
geering 32
gene@@ 32
geographic 32
geosynchronous 32
getting 32
goal@@ 32
goi@@ 32
grain 32
grav@@ 32
hear@@ 32
hemisphere 32
highways 32
hugh 32
hundreds 32
illo 32
ingham 32
ingly 32
irving 32
ji@@ 32
kat@@ 32
lance 32
lard 32
lb 32
lean 32
leg 32
legislation 32
leiden 32
lemper 32
les@@ 32
lio 32
lit 32
logically 32
longstreet 32
loo@@ 32
luigi 32
luxembourg 32
macmillan 32
mber 32
mini 32
miniseries 32
moder@@ 32
mohammed 32
mol@@ 32
monaco 32
mont@@ 32
monuments 32
nan@@ 32
nias 32
nis 32
normal 32
ole 32
opera 32
organised 32
ox@@ 32
painted 32
parana 32
partly 32
paso 32
person@@ 32
pick@@ 32
piedmont 32
pierre 32
pine 32
pines 32
plc 32
plo@@ 32
poly 32
pos@@ 32
prepare 32
primitive 32
quar@@ 32
recreation 32
reinforced 32
ren 32
retain 32
rs 32
rudolph 32
saab 32
sampdoria 32
sassuolo 32
scholars 32
sending 32
seneca 32
sever@@ 32
sh- 32
short-lived 32
shortened 32
siblings 32
sis@@ 32
sively 32
so-called 32
speech 32
spor@@ 32
starts 32
stein 32
su 32
sur 32
symbol 32
tail 32
taurus 32
tax@@ 32
teen@@ 32
tensions 32
text 32
tha 32
thirteen 32
toclimit-@@ 32
topping 32
trance 32
tro 32
trucks 32
trying 32
tur 32
tured 32
twentieth 32
umaglesi 32
vari@@ 32
varies 32
vie@@ 32
wagons 32
whereas 32
zagato 32
zip 32
00-@@ 31
1,8@@ 31
124@@ 31
1588 31
1874 31
191 31
197 31
350 31
90@@ 31
abad 31
aberdeen 31
absence 31
achievement 31
adenan 31
alfonso 31
allo@@ 31
amar 31
apped 31
applications 31
arctech 31
asi 31
azz@@ 31
beats 31
bers 31
bes@@ 31
bills 31
blood 31
brazilians 31
buy 31
calling 31
careers 31
carter 31
caught 31
cause 31
ceremony 31
chance 31
chemical 31
chers 31
christopher 31
cies 31
cited 31
cole 31
commanding 31
conclu@@ 31
consortium 31
constitutes 31
credit 31
crosses 31
debate 31
designers 31
deutsche 31
devoted 31
diesel-electric 31
discover 31
diversity 31
docking 31
dresden 31
earn 31
east@@ 31
easy 31
ely 31
emphasis 31
ened 31
ensemble 31
ere@@ 31
exploration 31
explored 31
faces 31
facto 31
ffs 31
fitz 31
fla@@ 31
flyers 31
frame 31
gale 31
gar 31
gol@@ 31
got@@ 31
gould 31
graafschap 31
hands 31
hussein 31
hybrid 31
imp@@ 31
indo- 31
ing-@@ 31
ingen 31
innovative 31
involvement 31
ire 31
iro 31
ith 31
iv@@ 31
jesse 31
jordan 31
jur@@ 31
kap@@ 31
katherine 31
kourou 31
kovač 31
kuwait 31
lah@@ 31
legacy 31
lille 31
links 31
lor@@ 31
lugano 31
maker 31
manila 31
maxwell 31
mercer 31
metre 31
mig@@ 31
minis@@ 31
nelson 31
nemesis 31
nings 31
nixon 31
nuevo 31
nusa 31
ol 31
pair 31
pakistani 31
parkersburg 31
partially 31
patten 31
pav@@ 31
pecel 31
performs 31
plat@@ 31
post- 31
preserve 31
priv@@ 31
pub 31
pulse 31
pus 31
rajasthan 31
ras 31
ratio 31
reaches 31
removal 31
rhythms 31
rodriguez 31
romagna 31
roy@@ 31
sacked 31
salad 31
sap@@ 31
sardar 31
saskatchewan 31
scr@@ 31
seater 31
segment 31
sheikh 31
shenandoah 31
shift 31
shor@@ 31
sie 31
simeiz 31
sindh 31
single-@@ 31
sixteen 31
skyscrapers 31
slo@@ 31
spi@@ 31
stal@@ 31
stati@@ 31
sted 31
stores 31
stretch 31
sultan 31
syria 31
tations 31
temp@@ 31
terry 31
tit@@ 31
top-flight 31
town@@ 31
tucker 31
ulam 31
um@@ 31
vietnam 31
viewed 31
violence 31
whi@@ 31
wilhelm 31
wins 31
wise 31
wre@@ 31
-to-@@ 30
0269 30
0965 30
1,7@@ 30
1635 30
1811 30
1827 30
1847 30
1871 30
20,000 30
2140 30
2632 30
5571 30
56947 30
9370 30
abramson 30
abroad 30
account 30
adu@@ 30
aero 30
aftermath 30
agencies 30
aire 30
aks 30
ald@@ 30
aligned 30
amahe9 30
aman 30
animals 30
approval 30
artistic 30
autonomy 30
avia 30
bangka 30
battle@@ 30
beaten 30
benz 30
bethesda 30
birds 30
bles 30
blind 30
bomb 30
bravo 30
brighton 30
bugle 30
buick 30
buresch 30
cdp 30
clinton 30
collective 30
colwyn 30
concerns 30
condiments 30
contributions 30
counterpart 30
cune 30
cygnus 30
deportivo 30
depression 30
devils 30
displaced 30
drug 30
entry-level 30
essential 30
expelled 30
fam@@ 30
flores 30
foster 30
freight 30
frequent 30
fur 30
gab@@ 30
gel 30
grammy 30
griffin 30
hes 30
hindu 30
hope 30
hygiea 30
ier 30
igh 30
imple@@ 30
instrumentation 30
ished 30
itz@@ 30
kad@@ 30
keystone 30
kid 30
layer 30
lian 30
lish 30
liter@@ 30
manuzzi 30
marin 30
marina 30
marks 30
mates 30
mau@@ 30
mentawai 30
merging 30
merit 30
meter 30
migration 30
missing 30
mysterious 30
nag@@ 30
nazi 30
neighbourhood 30
nin@@ 30
norfolk 30
nut 30
obli@@ 30
odinson 30
off-@@ 30
oldham 30
onist 30
opelika 30
pass@@ 30
passage 30
percentage 30
perkedel 30
pes 30
pete 30
phil@@ 30
philips 30
phys@@ 30
politically 30
possession 30
poverty 30
power@@ 30
promo@@ 30
promoting 30
rac@@ 30
rampla 30
reality 30
recalled 30
relative 30
revived 30
rhodes 30
roster 30
ruling 30
saxon 30
schedule 30
sex@@ 30
shad@@ 30
sia 30
spell 30
spinach 30
stark 30
stint 30
stopped 30
straddles 30
streak 30
swi@@ 30
syl@@ 30
symb@@ 30
thessaloniki 30
thor 30
throne 30
tiers 30
told 30
tranmere 30
trans- 30
tributary 30
turbo 30
violet 30
vis 30
volcanic 30
volumes 30
vtec 30
walked 30
whit@@ 30
yor@@ 30
à 30
ä 30
ørestad 30
139 29
1821 29
1837 29
196 29
2,0@@ 29
3,0@@ 29
a9@@ 29
accomplished 29
accounting 29
additions 29
ail@@ 29
andy 29
ante 29
arctic 29
ario 29
ase 29
ater@@ 29
audience 29
aver@@ 29
aves 29
bailey 29
bas 29
beat@@ 29
belfast 29
bene@@ 29
bit@@ 29
bluegrass 29
brain 29
branded 29
brewer 29
brigh@@ 29
buying 29
cal 29
carbohydrate 29
cardozo 29
chapter 29
chocolate 29
christ@@ 29
class@@ 29
cles 29
closing 29
cock 29
colloquially 29
colon 29
concern 29
configuration 29
consist 29
continuous 29
controlling 29
cookies 29
corre@@ 29
critic 29
cross-@@ 29
crotone 29
cure 29
cus@@ 29
cutting 29
czech 29
defen@@ 29
deluxe 29
dic 29
didn 29
differ 29
diocese 29
dispute 29
dundee 29
ef 29
encompassed 29
epic 29
eurovision 29
expan@@ 29
expe@@ 29
ey 29
faa 29
farmers 29
ferrari 29
fif@@ 29
finch 29
flash 29
forever 29
fourteen 29
gan@@ 29
generations 29
geographically 29
gharafa 29
gonzález 29
gros@@ 29
h-@@ 29
hag@@ 29
harvey 29
haz@@ 29
hes@@ 29
hing 29
hus@@ 29
ibn 29
ik@@ 29
iling 29
indic@@ 29
inspiration 29
invaded 29
isaac 29
itable 29
keith 29
kie 29
kir@@ 29
kun@@ 29
liner 29
liverpool 29
lone 29
maneuver 29
manufacture 29
marco 29
mart@@ 29
mass@@ 29
mat 29
mati@@ 29
meanwhile 29
med@@ 29
morden 29
mot@@ 29
mov 29
multan 29
nationals 29
neapolitan 29
nevada 29
non 29
obasanjo 29
obtaining 29
onal 29
ories 29
originate 29
orn 29
ou 29
outdoor 29
outlaw 29
overlooking 29
pack@@ 29
palmer 29
pasta 29
peru 29
phil 29
phrase 29
physical 29
princeton 29
proce@@ 29
pt 29
pursuing 29
raid 29
rat 29
reconnaissance 29
recruited 29
reflecting 29
regionalliga 29
reorganized 29
requires 29
respe@@ 29
ron@@ 29
ronald 29
sad@@ 29
saf@@ 29
saint- 29
sanskrit 29
santiago 29
saying 29
scheme 29
sergeant 29
skaya 29
slc-@@ 29
southampton 29
speeds 29
ston@@ 29
stor 29
substantial 29
thanks 29
tour@@ 29
tra 29
traveling 29
trio 29
trou@@ 29
two-year 29
vandenberg 29
ven 29
villains 29
visible 29
wallonia 29
whl 29
winds 29
yea 29
yl@@ 29
&apos;m 28
-year 28
1,6@@ 28
164 28
17023 28
182 28
1841 28
1845 28
204770 28
2702 28
2868 28
47290 28
49@@ 28
50000 28
88002539 28
a1 28
abdul@@ 28
abe 28
abstracts 28
accessible 28
aches 28
aggregate 28
ahri 28
ailing 28
aimed 28
ais 28
akes 28
aleksand@@ 28
alf@@ 28
anderlecht 28
anniversary 28
anthology 28
appe@@ 28
apple 28
approaches 28
arapiraca 28
arc@@ 28
aris@@ 28
armada 28
armenia 28
aro 28
arriving 28
ash 28
asociación 28
associates 28
atives 28
attitude 28
ature 28
augusta 28
authored 28
ayaz 28
b- 28
bad 28
bergen 28
bing 28
bling 28
brig@@ 28
cad@@ 28
canon 28
capturing 28
cardinals 28
cele@@ 28
charleston 28
chung 28
circuit 28
citizenship 28
cleared 28
clutch 28
co-created 28
colo@@ 28
compilation 28
comprised 28
consumption 28
contra 28
cornwell 28
council@@ 28
cran@@ 28
customs 28
cylinders 28
d- 28
dawn 28
demo@@ 28
dered 28
detected 28
developers 28
differenti@@ 28
dow@@ 28
dra 28
driver 28
editorial 28
efficient 28
elementary 28
emerging 28
encounter 28
ener@@ 28
environmental 28
eventual 28
festivals 28
financed 28
fing@@ 28
fix@@ 28
fixed 28
franchises 28
fru@@ 28
fuel@@ 28
fying 28
gent 28
gie 28
globe 28
gouverneur 28
graham 28
gramophone 28
greatly 28
homeland 28
huiberts 28
icolo 28
ide 28
illustrator 28
immediate 28
impro@@ 28
initiated 28
interrupted 28
ip@@ 28
ison 28
items 28
jacabian 28
jack@@ 28
jackets 28
jaguar 28
jeff 28
johannesburg 28
justi@@ 28
karkh 28
kerry 28
lanciano 28
landlocked 28
leagu 28
leng@@ 28
leon@@ 28
license 28
lil@@ 28
looked 28
mail 28
metric 28
micropolitan 28
miss 28
more@@ 28
mosul 28
mé@@ 28
naples 28
nash 28
north-east 28
objects 28
ological 28
oper@@ 28
opium 28
or-@@ 28
oregano 28
oscar 28
oth 28
outlook 28
pest 28
polis 28
poolside 28
post-rock 28
pow@@ 28
precovery 28
presents 28
pression 28
priestley 28
prob@@ 28
productions 28
pushed 28
quali@@ 28
quick 28
raisin 28
randolph 28
rb 28
reel 28
regal 28
rel@@ 28
rendezvous 28
repair 28
revised 28
rian 28
rolled 28
rotational 28
samara 28
scen@@ 28
scout 28
scu@@ 28
secre@@ 28
seeing 28
seri@@ 28
shar@@ 28
shipped 28
shr@@ 28
soun@@ 28
specialized 28
stat@@ 28
steam@@ 28
stel@@ 28
step 28
stretching 28
sts-@@ 28
subgenres 28
suites 28
supporter 28
surabaya 28
swimming 28
switcher 28
tanks 28
tempeh 28
temperatures 28
tering 28
tests 28
thr@@ 28
thrown 28
thur@@ 28
topo@@ 28
tos 28
tr 28
transi@@ 28
travelling 28
trust 28
turkmenabat 28
turns 28
undergone 28
unitary 28
ups 28
vill@@ 28
voc@@ 28
vul@@ 28
wa@@ 28
walking 28
wan 28
warrior 28
web 28
wilderness 28
wind 28
wooden 28
zawraa 28
ž@@ 28
‘ 28
00,000 27
1,600 27
1776 27
1852 27
2021 27
22@@ 27
233 27
2989 27
3048 27
45644811 27
524 27
advancing 27
afghanistan 27
afternoon 27
airpor 27
allo 27
altitude 27
andr@@ 27
ano@@ 27
apparent 27
argen@@ 27
armor 27
aside 27
attract 27
batman 27
bimonthly 27
bmg 27
bon 27
bra 27
bra@@ 27
brands 27
broncos 27
burning 27
canadiens 27
canceled 27
candidates 27
caps 27
capsule 27
carol@@ 27
causing 27
cd@@ 27
cedar 27
centur 27
chair@@ 27
charges 27
chen@@ 27
city@@ 27
cliff 27
co-founder 27
co-ownership 27
collections 27
communist 27
constitu@@ 27
consul@@ 27
contracts 27
controversial 27
criminal 27
crispy 27
dad 27
dart 27
dash 27
db7 27
deci@@ 27
defensor 27
depth 27
dh@@ 27
dian 27
dimmit 27
din 27
dip 27
discoveries 27
diver@@ 27
eduardo 27
effectively 27
electronics 27
emma 27
ender 27
enjoy 27
europeans 27
even@@ 27
exhibits 27
fallen 27
farm@@ 27
fifteen 27
filed 27
forcing 27
forum 27
foun@@ 27
gall@@ 27
gear 27
gloucester 27
guil@@ 27
half-@@ 27
hamburger 27
hang@@ 27
hangar 27
human@@ 27
humid 27
iberian 27
ician 27
icks 27
idaho 27
iled 27
ilian 27
implemented 27
incumbent 27
inline-@@ 27
jimmy 27
juniors 27
kan 27
kashmir 27
kelly 27
kowloon 27
licence 27
licensed 27
limit 27
load 27
lombok 27
mansion 27
manufacturers 27
marie 27
matthew 27
maurer 27
mean@@ 27
median 27
memory 27
methodist 27
mix@@ 27
mixed-use 27
mode@@ 27
monday 27
moor 27
napo@@ 27
nepal 27
newer 27
nizhny 27
northernmost 27
norwegian 27
obtain 27
occasional 27
oce@@ 27
oct@@ 27
olympics 27
oning 27
pallotta 27
path 27
penn@@ 27
pho@@ 27
posi@@ 27
pot 27
pping 27
preston 27
pronunciation 27
prosecuting 27
publicly 27
rand@@ 27
referendum 27
regul@@ 27
relatives 27
revol@@ 27
rh@@ 27
rhe@@ 27
rhead 27
rob 27
roland 27
sadiq 27
salsa 27
sara 27
severe 27
sheet 27
sheridan 27
shirt 27
singer-songwriter 27
sm 27
smiths 27
software 27
specializes 27
sponsorship 27
spy@@ 27
stadion 27
stav@@ 27
sters 27
string 27
strongly 27
structural 27
struggled 27
succession 27
supposed 27
sustain@@ 27
sustained 27
sylvia 27
tac@@ 27
tastes 27
theodore 27
thi@@ 27
tickets 27
trac@@ 27
tta 27
tty 27
turn@@ 27
unk 27
upgraded 27
usage 27
wake 27
well@@ 27
wellington 27
wer 27
wijk 27
wind@@ 27
yan 27
zan@@ 27
² 27
ë@@ 27
,3@@ 26
1,9@@ 26
1046 26
105 26
111 26
12,@@ 26
122 26
13,@@ 26
1633 26
1832 26
1856 26
1882 26
189 26
27250 26
3078 26
32024459 26
330 26
389 26
4100 26
733 26
814 26
8188 26
accep@@ 26
acks 26
admission 26
aft 26
alberto 26
ambrose 26
ance@@ 26
angel 26
anim@@ 26
apor@@ 26
ascen@@ 26
attained 26
ault 26
aur@@ 26
avant-garde 26
azi@@ 26
aére@@ 26
bab@@ 26
bam@@ 26
banned 26
besides 26
bing@@ 26
birthday 26
blackhawks 26
book@@ 26
boroughs 26
brick 26
broadcasts 26
buil@@ 26
caldwell 26
canucks 26
cartoon 26
castrovillari 26
census-designated 26
clancy 26
clin@@ 26
color@@ 26
commendation 26
commercially 26
compu@@ 26
concepts 26
conrad 26
conserv@@ 26
constituent 26
corruption 26
crust 26
cs1-code 26
cs1-format 26
cs1-hidden-error 26
cs1-kern-left 26
cs1-kern-wl-left 26
cs1-lock-registration 26
cs1-lock-subscription 26
cs1-maint 26
cs1-visible-error 26
cs1-ws-icon 26
ctive 26
ctors 26
culminating 26
cultivated 26
dict@@ 26
diplomat 26
directors 26
disaster 26
dit@@ 26
drop 26
dru@@ 26
druid 26
dson 26
dumplings 26
eat 26
eating 26
economically 26
editions 26
elimin@@ 26
ement 26
empires 26
employee 26
employer 26
enburg 26
ently 26
ethnically 26
ette 26
every@@ 26
ex 26
extensively 26
fir 26
flower 26
forsyth 26
frac@@ 26
front@@ 26
fund 26
gabriel 26
gat 26
gearbox 26
glenn 26
goods 26
guernsey 26
harcourt 26
hat@@ 26
heavier 26
hern@@ 26
hero@@ 26
honours 26
huge 26
hydra 26
iberia 26
impressive 26
ined 26
intelli@@ 26
iss@@ 26
ital@@ 26
ito 26
itz 26
jamaican 26
jav@@ 26
jepson 26
k- 26
kerosene 26
laboratory 26
lati@@ 26
laurales 26
lebanon 26
life@@ 26
lou 26
luke 26
ly-@@ 26
mare 26
mathews 26
mention 26
mercedes- 26
mia 26
micro@@ 26
mode 26
movies 26
nad@@ 26
najib 26
nemzeti 26
net@@ 26
nicholas 26
nn 26
nr-1 26
onally 26
oned 26
organizing 26
osa 26
oured 26
pak@@ 26
pallas 26
patsy 26
peanuts 26
peas 26
pes@@ 26
pirveli 26
pontiac 26
powder 26
prairie 26
presen@@ 26
preservation 26
priced 26
produc@@ 26
psycho@@ 26
re-elected 26
regen@@ 26
reinmuth 26
repeated 26
representation 26
requirements 26
retro@@ 26
rk@@ 26
roda 26
roosevelt 26
rup@@ 26
saar@@ 26
scales 26
seal 26
sees 26
seg@@ 26
select 26
semi-final 26
separately 26
ser 26
sets 26
shadow 26
shaw 26
shiitake 26
simultaneously 26
sitting 26
sl 26
sle@@ 26
soaked 26
soli@@ 26
sonic 26
sour@@ 26
spect@@ 26
spend 26
spotsylvania 26
stam@@ 26
storage 26
streng@@ 26
submitted 26
substituted 26
suff@@ 26
sunni 26
tactical 26
tant 26
tape 26
tere@@ 26
tested 26
tham 26
tract 26
triangle 26
tried 26
turmeric 26
urban@@ 26
veteran 26
vic 26
vig@@ 26
voters 26
walks 26
way@@ 26
wen 26
werke 26
wet@@ 26
wich 26
wichita 26
wild@@ 26
winnebago 26
wol@@ 26
ya@@ 26
yang 26
yarborough 26
you@@ 26
ß@@ 26
ô@@ 26
ō@@ 26
-77 25
10,000 25
1801 25
1830s 25
185 25
1859 25
1891 25
25th 25
acoustic 25
actual 25
aea 25
aga 25
agents 25
aled 25
aluminium 25
amalgam@@ 25
and-@@ 25
ando 25
ange@@ 25
anth@@ 25
arians 25
arrangement 25
array 25
ased 25
aunt 25
ava 25
awd 25
ax 25
b-52 25
baker 25
barley 25
border-@@ 25
breads 25
buck@@ 25
burger 25
canary 25
capitali@@ 25
carved 25
castile 25
cer 25
champion@@ 25
charger 25
chemistry 25
cho 25
clade-@@ 25
coined 25
colonization 25
colored 25
comedian 25
commons 25
conferences 25
confusion 25
consequence 25
contents 25
cottingham 25
critics 25
cycle 25
dation 25
dela@@ 25
depicting 25
derek 25
disc 25
discharged 25
distinguish 25
dome 25
eccentric 25
eing 25
eis@@ 25
element 25
encouraged 25
engagement 25
ennial 25
ewell 25
experiment 25
fate 25
federico 25
ferdinand 25
fes@@ 25
fisher@@ 25
fit@@ 25
fli@@ 25
flowers 25
fon@@ 25
footb@@ 25
fowl 25
frontier 25
full-time 25
gat@@ 25
ghost 25
gia 25
ginger 25
glo@@ 25
gn@@ 25
governmental 25
grasses 25
graves 25
grid 25
grille 25
hardwick 25
haw@@ 25
hew 25
high-rise 25
hillsboro 25
how@@ 25
iber@@ 25
ida 25
ii@@ 25
improvements 25
infan@@ 25
innovation 25
ishing 25
isle 25
isles 25
iso 25
jameson 25
je 25
jessica 25
joshua 25
junta 25
justin 25
kappa 25
keeper 25
kes@@ 25
khan 25
khor 25
kilkenny 25
kro@@ 25
lamborghini 25
lex@@ 25
lifting 25
lima 25
line-up 25
liqui@@ 25
lls 25
logistics 25
loosely 25
lowest 25
maintaining 25
malaya 25
map 25
marcos 25
mature 25
maxim@@ 25
memor@@ 25
mine 25
mirage 25
missed 25
missi@@ 25
modifications 25
monmouth 25
mony 25
mound 25
murry 25
nationalist 25
natur@@ 25
nights 25
north-@@ 25
norwalk 25
oc 25
occur 25
offset 25
og@@ 25
oney 25
ony 25
opportunities 25
ori 25
outagamie 25
outskirts 25
padd@@ 25
perak 25
pierce 25
platforms 25
play-offs 25
pond 25
preferred 25
preparatory 25
prin@@ 25
prison 25
privately 25
promp@@ 25
psychiat@@ 25
ques@@ 25
r-@@ 25
raising 25
rant 25
raw 25
razak 25
reaction 25
recognize 25
refined 25
regu@@ 25
rein@@ 25
rel 25
rescue 25
respon@@ 25
returns 25
riding 25
rough 25
rubber 25
rugby 25
sandia 25
schipol 25
scrivener 25
sha@@ 25
sheboygan 25
sherman 25
shooting 25
shuvalan 25
sir@@ 25
smoked 25
soil 25
springs- 25
sr@@ 25
srl 25
state-owned 25
stationed 25
straits 25
strange 25
strategy 25
stru@@ 25
supervis@@ 25
supple@@ 25
supplied 25
supporters 25
surveyor 25
tains 25
tak@@ 25
take@@ 25
tang@@ 25
tened 25
tercera 25
terex 25
theaters 25
thoroughfare 25
thro@@ 25
tionally 25
tours 25
tromb@@ 25
tual 25
tudyk 25
turbocharged 25
tyrol 25
ud 25
universi@@ 25
victorian 25
victories 25
vigor 25
vine 25
vv 25
warton 25
weapons 25
wer@@ 25
wri@@ 25
year-round 25
zen@@ 25
zones 25
ç@@ 25
ław 25
ț@@ 25
-like 24
0443 24
1360 24
160 24
1822 24
1890s 24
1px 24
340 24
34@@ 24
43@@ 24
62145 24
6377 24
acker 24
acqu@@ 24
administrator 24
admirer 24
adoption 24
aeronautics 24
ahmed 24
aic 24
airs 24
alps 24
amar@@ 24
amendment 24
americ@@ 24
amhaaj 24
amps 24
andra 24
ane@@ 24
angelo 24
angle 24
anian 24
antiquity 24
anton@@ 24
apertura 24
apparently 24
arabia 24
arecibo 24
arista 24
aroma 24
assemb@@ 24
assets 24
ater 24
atiset 24
atom@@ 24
attendance 24
barisan 24
beauty 24
benedict 24
bet 24
boasts 24
body@@ 24
bok 24
bowery 24
brings 24
bry@@ 24
camera 24
cannot 24
carlo 24
cha@@ 24
chap@@ 24
charlois 24
cherry 24
cin@@ 24
circum@@ 24
citing 24
citrus 24
colima 24
colonists 24
como 24
concord 24
congresses 24
constructing 24
context 24
contribu@@ 24
corp 24
countryside 24
courthouse 24
craw@@ 24
cruces 24
cs1-kern-wl-right 24
dancing 24
ddle 24
dering 24
destroy 24
destruction 24
dionysus 24
dir@@ 24
disputed 24
divide 24
dog 24
dolan 24
domesticated 24
drama 24
eger@@ 24
ei@@ 24
eindhoven 24
embassy 24
enacted 24
enclave 24
erna 24
ero@@ 24
essentially 24
fav@@ 24
fed 24
feel 24
figured 24
fitz@@ 24
flan@@ 24
franz 24
friday 24
fueled 24
girona 24
glam 24
glutinous 24
goat 24
gowran 24
groningen 24
grumman 24
grummett 24
guaran@@ 24
götzen 24
haag 24
hawk 24
hays 24
hc 24
heading 24
helen 24
highest-@@ 24
hill@@ 24
hip@@ 24
hondt 24
honors 24
house@@ 24
hum@@ 24
incarnation 24
inconclusive 24
incorporation 24
inducted 24
informally 24
interpretation 24
iris 24
iron@@ 24
isabel 24
ises 24
islanders 24
joins 24
juli@@ 24
józef 24
kabi 24
kapitan 24
kecap 24
keefe 24
kick 24
kitchen 24
kk@@ 24
knocked 24
kot@@ 24
kurdish 24
kö@@ 24
lang@@ 24
lawn 24
ld 24
learn 24
lef@@ 24
lexus 24
leyland 24
libertadores 24
libr@@ 24
liver 24
liège 24
mahmood 24
malacca 24
manship 24
mathematician 24
mber@@ 24
meetings 24
menting 24
merri@@ 24
mes@@ 24
midway 24
miguel 24
minerva 24
ministers 24
mixing 24
modeled 24
molly 24
monte@@ 24
moves 24
mtx 24
mud@@ 24
munich 24
málaga 24
nd 24
nie@@ 24
nm 24
northrop 24
nuts 24
oi 24
ols 24
operators 24
opp 24
ord 24
papenburg 24
parsley 24
peace@@ 24
peninsulas 24
petrotrin 24
piloted 24
pine@@ 24
port@@ 24
possibility 24
promozione 24
psychedelic 24
pub@@ 24
pursuit 24
quest 24
raids 24
ramek 24
rapping 24
rare 24
rawalpindi 24
recommended 24
recreational 24
reducing 24
ref@@ 24
rejected 24
reliable 24
renner 24
reorganization 24
resides 24
restricted 24
rhine 24
ribicoff 24
ride 24
rix 24
roof@@ 24
ros 24
ru 24
ruler 24
sahle 24
sapindales 24
says 24
scenic 24
scope 24
scor@@ 24
scripps 24
secession 24
see@@ 24
seems 24
self 24
seller 24
send 24
serbian 24
shallot 24
ship@@ 24
showing 24
signi@@ 24
skills 24
skir@@ 24
smi@@ 24
somers 24
south-east 24
sovereignty 24
specialist 24
spirit 24
squadrons 24
stade 24
stances 24
starter 24
ste 24
storyline 24
straight-@@ 24
straw@@ 24
successes 24
sud 24
suicide 24
switched 24
switching 24
tall@@ 24
tell 24
thy 24
tile 24
timothy 24
tionary 24
ton- 24
tourer 24
triestina 24
turkmenbashi 24
twente 24
uc@@ 24
un 24
vacated 24
var 24
vendors 24
vertical 24
viii 24
visitor 24
watching 24
wealth 24
wealthiest 24
wed 24
wei@@ 24
wid@@ 24
wide-field 24
wildwood 24
world-@@ 24
writes 24
x-@@ 24
your 24
~ 24
ş 24
-born 23
131 23
170 23
180 23
1828 23
1840s 23
1884 23
198 23
306 23
417 23
7,6@@ 23
70@@ 23
abil@@ 23
ables 23
abolished 23
abstracted 23
acquire 23
adi 23
agan 23
akis 23
alam@@ 23
alder@@ 23
alignment 23
alised 23
alo@@ 23
aluminum 23
amendments 23
ancestors 23
anti- 23
astro@@ 23
aug@@ 23
austro- 23
auth@@ 23
axle 23
balance 23
bamberga 23
bankrupt 23
barbara 23
bates 23
beds 23
belgrano 23
belitung 23
bia 23
biscu@@ 23
bradley 23
brand@@ 23
broader 23
brownsville 23
burlington 23
catalan 23
catherine 23
caves 23
cb 23
celebr@@ 23
celebrity 23
chau@@ 23
chef 23
chen 23
chin 23
clare@@ 23
closure 23
coffee 23
comman@@ 23
committed 23
commune 23
concentrated 23
consulting 23
controls 23
conventional 23
coronet 23
cos 23
courtyard 23
covington 23
coyotes 23
crow@@ 23
csa 23
cultur 23
dag@@ 23
dark@@ 23
decommissioned 23
departed 23
depen@@ 23
dictatorship 23
dil@@ 23
dining 23
directions 23
donovan 23
dorf 23
dragon 23
dress 23
employs 23
enhanced 23
eries 23
ets 23
evolution 23
excep@@ 23
exile 23
exper@@ 23
extre@@ 23
failing 23
fighters 23
fled 23
floated 23
four@@ 23
francois 23
frozen 23
frying 23
g- 23
ga@@ 23
german- 23
giants 23
gilbert 23
gir@@ 23
good@@ 23
gour@@ 23
grave 23
guests 23
halton 23
hard-@@ 23
hartel 23
heav@@ 23
hierarchical 23
hind@@ 23
hoo@@ 23
horseback 23
huron 23
ic-@@ 23
ille 23
images 23
inen 23
install@@ 23
integration 23
interred 23
interse@@ 23
islam 23
islander 23
itali@@ 23
ization 23
jamaica 23
jonas 23
kam@@ 23
keys 23
knew 23
korea 23
kowski 23
kremlin 23
kristina 23
ks@@ 23
lancaster 23
landings 23
lask 23
lav@@ 23
layout 23
legendary 23
leo 23
lime@@ 23
lind@@ 23
lobo 23
lumpkin 23
manis 23
maps 23
marath@@ 23
marking 23
marque 23
mas 23
matching 23
mate@@ 23
mb 23
mbs 23
meats 23
mighty 23
most-populous 23
mountainous 23
mutual 23
narr@@ 23
negoti@@ 23
nockalls 23
novgorod 23
o2 23
observe 23
occultation 23
omelette 23
open@@ 23
orion 23
ow 23
paragu@@ 23
paten@@ 23
patty 23
pdl 23
pininfarina 23
pisa 23
poli@@ 23
por 23
post-hardcore 23
posted 23
progres@@ 23
propelled 23
question 23
quwa 23
raise 23
ray@@ 23
re-established 23
realized 23
rearguard 23
redefine 23
ree 23
reflected 23
refounded 23
regency 23
relocation 23
renovation 23
reside 23
restoration 23
revi@@ 23
rican 23
ricardo 23
rnzaf 23
rod 23
romantic 23
rooted 23
rox@@ 23
samples 23
sand 23
saved 23
schaft 23
sche@@ 23
scopus 23
searching 23
seasonal 23
seconda 23
serra 23
sett@@ 23
seventy-@@ 23
sham 23
shipyards 23
shoegaze 23
simp@@ 23
sity 23
skin 23
slavery 23
sm-liiga 23
solano 23
solanum 23
somalia 23
spells 23
stabili@@ 23
stable 23
staple 23
statistics 23
steuben 23
stock@@ 23
styria 23
sudan 23
sulawesi 23
sullivan 23
survive 23
swigert 23
synthesizers 23
tackle 23
tale 23
talking 23
tar 23
tary 23
tech@@ 23
temperate 23
ten-@@ 23
tenggara 23
teries 23
thing 23
thir@@ 23
thompson 23
threatening 23
ticketmaster 23
tiny 23
tipo 23
toclevel@@ 23
travelers 23
treasury 23
tweede 23
ty-@@ 23
ug@@ 23
uncrewed 23
undertaking 23
unrelated 23
updated 23
v12 23
vel 23
vera 23
vit@@ 23
voy@@ 23
vp 23
wald 23
walloon 23
wes 23
wheeling 23
why 23
wigan 23
wilder 23
willis 23
winfield 23
wire 23
wit 23
wore 23
zer@@ 23
ă 23
ō 23
š@@ 23
ا@@ 23
⋅ 23
&apos;re 22
001 22
0025 22
0633 22
12,000 22
125 22
1636 22
1833 22
1880s 22
1883 22
190@@ 22
2010s 22
225 22
248 22
49805501 22
53502 22
5858 22
7653 22
abu@@ 22
ading 22
adju@@ 22
advoc@@ 22
agglomeration 22
airfields 22
alhambra 22
alla 22
anchored 22
anthologies 22
anticip@@ 22
apply 22
ares 22
arrondissement 22
arsenal 22
assassination 22
atures 22
avery 22
bai@@ 22
baikonur 22
barrett 22
baseball 22
battalion 22
bce 22
beaux- 22
benef@@ 22
boards 22
branches 22
brescia 22
brother@@ 22
busy 22
cagliari 22
calero 22
cam 22
carmel- 22
cash 22
castilla 22
castillo 22
cel 22
cept 22
charted 22
chester 22
christi@@ 22
cie 22
ciudad 22
clare 22
clinical 22
co-written 22
collegiate 22
collision 22
combine 22
conqu@@ 22
constituted 22
construct 22
cosmodrome 22
countr 22
criticized 22
crystal 22
cucumber 22
customers 22
dance-@@ 22
deep-@@ 22
defend 22
delic@@ 22
demolition 22
derde 22
dez 22
di- 22
diamond 22
disappeared 22
distant 22
divisional 22
dorchester 22
dynamic 22
eagles 22
east-@@ 22
edi@@ 22
eff@@ 22
efs 22
eisner 22
eland 22
eldest 22
emo@@ 22
enabled 22
english@@ 22
eni@@ 22
enne 22
ente 22
enumerated 22
eri 22
espoo 22
exclusive 22
exhaust 22
exiled 22
exp@@ 22
eye 22
falklands 22
ference 22
ferr@@ 22
finding 22
florence 22
french@@ 22
freshman 22
gabri@@ 22
gand@@ 22
georgetown 22
ght 22
giroux 22
gly@@ 22
gmb 22
gods 22
gon@@ 22
gone 22
gregor 22
grounded 22
grouped 22
guns 22
hak@@ 22
hand-@@ 22
heck 22
herbs 22
heth 22
hms 22
holders 22
holdings 22
horizon 22
iff@@ 22
incre@@ 22
indianapolis- 22
indicating 22
infin@@ 22
injuries 22
ion 22
ire@@ 22
irlam 22
irregular 22
iti@@ 22
itt@@ 22
iya 22
jas 22
jean- 22
journey 22
judicial 22
kell 22
knox 22
kuning 22
laguna 22
lalbhai 22
laughlin 22
legally 22
legi@@ 22
lif@@ 22
lightcurves 22
liked 22
lina 22
lings 22
lok 22
lose 22
luthor 22
maa 22
macdonald 22
mach@@ 22
maintains 22
malay@@ 22
mant@@ 22
mark@@ 22
marta 22
martínez 22
maz@@ 22
md 22
mei@@ 22
mentation 22
midd@@ 22
middle@@ 22
midland 22
minim@@ 22
mob 22
modu@@ 22
moment 22
mughal 22
nate 22
neither 22
nels 22
neowise 22
neville 22
nineteenth 22
nissan 22
noble 22
oa 22
objectives 22
ongoing 22
onis 22
ote 22
oth@@ 22
overwhel@@ 22
ox 22
pace 22
pack 22
parsons 22
participants 22
partnered 22
past@@ 22
patron 22
perimeter 22
persea 22
piacenza 22
pies 22
plu@@ 22
po 22
pole 22
polydor 22
posed 22
previe@@ 22
problem 22
prohi@@ 22
putting 22
pyramid 22
quen@@ 22
quer@@ 22
rafael 22
rajkot 22
rati@@ 22
rc 22
read@@ 22
reali@@ 22
rebranded 22
recurring 22
references 22
reis 22
rejoined 22
remove 22
reserves 22
restrictions 22
rg@@ 22
rhy@@ 22
rij@@ 22
robertson 22
rookie 22
rostock 22
rotating 22
routing 22
rush@@ 22
sac@@ 22
savoury 22
saw@@ 22
scan@@ 22
sch 22
scho@@ 22
schul@@ 22
scorer 22
seaport 22
seeking 22
shake 22
shamal 22
shaping 22
shoo@@ 22
shorter 22
shrine 22
shut 22
singers 22
singh 22
six-cylinder 22
società 22
somali 22
spite 22
sponsor 22
star-37 22
stew 22
subjects 22
sure 22
surfing 22
tables 22
tadao 22
talaba 22
tat@@ 22
te-@@ 22
tec 22
teenager 22
temporarily 22
tent 22
than@@ 22
tica 22
tigr@@ 22
tigray 22
tina 22
toast 22
tonnage 22
treviso 22
trum@@ 22
trumpet 22
tun 22
turtle 22
twilight 22
uderzo 22
ular 22
unic@@ 22
vacuum 22
vand@@ 22
viareggio 22
w-@@ 22
waves 22
weak@@ 22
wider 22
wilmington 22
withdrawal 22
wonton 22
wright 22
yel@@ 22
yr@@ 22
yville 22
zam@@ 22
zhou 22
* 21
107 21
12-@@ 21
145 21
156 21
1823 21
193 21
2-door 21
2023 21
22nd 21
324 21
3746 21
444 21
8g 21
abc 21
abella 21
administratively 21
adol@@ 21
afl 21
aims 21
ald 21
alisation 21
alph@@ 21
alter@@ 21
amherst 21
amounts 21
anything 21
appomattox 21
arem-arem 21
ark@@ 21
arrest 21
ascoli 21
astronomy 21
athletics 21
atlan@@ 21
attraction 21
audiences 21
aven 21
balcon@@ 21
barbecue 21
basil 21
bau 21
bed@@ 21
bell@@ 21
benton 21
berk@@ 21
bernalillo 21
bicycle 21
bitter 21
blackburn 21
boardwalk 21
boone 21
borg 21
brien 21
buccaneers 21
burn@@ 21
burnside 21
cadillac 21
caledonia 21
camps 21
cancer 21
canned 21
cannon 21
cassia 21
cave 21
cent@@ 21
centred 21
certificate 21
chaco 21
city-@@ 21
clarke 21
classed 21
clock 21
co-founded 21
coll@@ 21
collaborating 21
collectively 21
colts 21
comet 21
comm@@ 21
commit@@ 21
comprehensive 21
condi@@ 21
consequently 21
consolidation 21
constan@@ 21
constru@@ 21
continuity 21
contractor 21
contractors 21
cope 21
copy 21
coriander 21
corridor 21
counsel 21
cow@@ 21
cowboy 21
crop 21
cruis@@ 21
cruyff 21
cultiv@@ 21
cummins 21
delhi 21
demonstr@@ 21
dependent 21
depic@@ 21
deposits 21
device 21
dialects 21
diplomatic 21
dire@@ 21
discovering 21
discus@@ 21
discussions 21
document 21
documents 21
drag 21
dt 21
ducos 21
eded 21
edo 21
eight-@@ 21
elect 21
eline 21
ellis 21
emer@@ 21
ency 21
enhance 21
eponymous 21
epsth 21
equal 21
ergotelis 21
ethic 21
etta 21
execu@@ 21
expen@@ 21
ez 21
farmer 21
feeder 21
fewer 21
ffe@@ 21
fies 21
first-team 21
flam@@ 21
flourished 21
fortified 21
forts 21
four-cylinder 21
freeway 21
gangsta 21
gers 21
gible 21
god@@ 21
grapher 21
grunge 21
guided 21
guj@@ 21
h- 21
habit@@ 21
henri 21
herbert 21
hydrogen 21
iana 21
icals 21
identification 21
iness 21
ink@@ 21
interven@@ 21
ising 21
jaguars 21
jap@@ 21
jason 21
jawiya 21
jc 21
jeff@@ 21
juno 21
kazakhstan 21
key@@ 21
kiran 21
kurdistan 21
labor@@ 21
lem@@ 21
lewis@@ 21
licen@@ 21
lim@@ 21
lingua 21
lob@@ 21
lodge 21
loose 21
luc@@ 21
lyn@@ 21
mande@@ 21
marcel@@ 21
marinated 21
marqu@@ 21
marri@@ 21
matador 21
mee 21
meh 21
michelinie 21
milli@@ 21
minangkabau 21
missiles 21
mobile 21
motive 21
mv 21
namely 21
narrative 21
nasional 21
nevertheless 21
nicaragu@@ 21
noord 21
north-west 21
occurring 21
olo 21
opry 21
oromo 21
outw@@ 21
overhead 21
overla@@ 21
owing 21
ows 21
pain@@ 21
patrol 21
pearl 21
permanently 21
pertu@@ 21
pi 21
plain@@ 21
politicians 21
popularly 21
practicing 21
prefectural 21
premises 21
progressed 21
pronounced 21
protagonists 21
psychology 21
public@@ 21
pulau 21
purchasing 21
queens 21
rail@@ 21
randall 21
rar@@ 21
raymond 21
re-election 21
red-@@ 21
reduction 21
refer@@ 21
refurbished 21
regi@@ 21
regio 21
relocating 21
remarkable 21
requ@@ 21
responsibilities 21
restructuring 21
ret@@ 21
reti@@ 21
reunification 21
rev 21
ris 21
rob@@ 21
sboro 21
scholarship 21
sculpture 21
se-@@ 21
sean 21
secretar@@ 21
seized 21
serge@@ 21
sessions 21
shah 21
shaw@@ 21
shirts 21
sina 21
sio 21
sit@@ 21
snow 21
solely 21
sonora 21
south-@@ 21
spans 21
spark 21
specializing 21
spelling 21
sphere 21
spiced 21
spokesman 21
spr@@ 21
stability 21
stad 21
stly 21
stone@@ 21
stral 21
stur@@ 21
subdivided 21
surprised 21
svg 21
sw 21
swift 21
tagalog 21
taliesin 21
tbilisi 21
tence 21
texts 21
thirty-@@ 21
tious 21
titi 21
traction 21
trails 21
translation 21
troubles 21
troy 21
ube 21
uc 21
ula 21
umbria 21
under-19 21
unofficial 21
unt 21
uring 21
v- 21
valle@@ 21
vega 21
vely 21
vertical-align 21
vice-president 21
videos 21
vier@@ 21
voices 21
volcan@@ 21
wai@@ 21
wall@@ 21
washtenaw 21
web@@ 21
widow 21
wigram 21
willem 21
winchester 21
wolf@@ 21
worker 21
worth@@ 21
yers 21
yo 21
yorba 21
án@@ 21
ña 21
ö 21
ş@@ 21
,000-@@ 20
002 20
1,4@@ 20
100,000 20
114 20
126 20
129@@ 20
1829 20
1850s 20
1870s 20
1875 20
2,4@@ 20
2,5@@ 20
2195 20
30th 20
50,000 20
51969173 20
8820 20
90s 20
aaidbi 20
aaura 20
accu@@ 20
acknowledged 20
actress 20
adiva 20
aerial 20
akeem 20
alled 20
allu@@ 20
alt@@ 20
altered 20
alty 20
amaz@@ 20
anchor 20
ander@@ 20
andre@@ 20
anwar 20
appalachian 20
approached 20
arifin 20
aris 20
armen@@ 20
armin 20
arro@@ 20
asing 20
austr@@ 20
avel@@ 20
barn@@ 20
baru 20
bb 20
beck 20
bedford 20
bee 20
bentley 20
betty 20
bilingual 20
bloomsbury 20
bog@@ 20
bohe@@ 20
borne 20
borussia 20
bos 20
brunswick 20
brutalist 20
buses 20
businessmen 20
buuren 20
canadian- 20
cancellation 20
candi@@ 20
carbure@@ 20
carolyn 20
carrozzeria 20
cassava 20
catch 20
cav@@ 20
cebu 20
cement 20
chapman 20
ches@@ 20
chickens 20
ci 20
ciambotta 20
circular 20
cking 20
clay 20
collaborations 20
column 20
compar@@ 20
concentrate 20
conglomerate 20
conner 20
consultant 20
contribution 20
conven@@ 20
conveni@@ 20
convinced 20
corrup@@ 20
cros@@ 20
ctu@@ 20
cuba 20
curry 20
cá@@ 20
cámpora 20
dad@@ 20
daggett 20
dalpatbhai 20
damon 20
dangerous 20
day@@ 20
dd@@ 20
decides 20
decisive 20
decorated 20
decree 20
defines 20
delfino 20
deline@@ 20
demands 20
dency 20
depends 20
descended 20
descri@@ 20
destroying 20
dges 20
differs 20
disciplinary 20
dotted 20
duck 20
dying 20
ec 20
ego 20
eisenhower 20
elaborate 20
electors 20
eliot 20
ells 20
elphin 20
elsa 20
emis@@ 20
employment 20
enge 20
enlarged 20
ernst 20
estates 20
excelsior 20
exclave 20
excluded 20
excludes 20
expedi@@ 20
famed 20
feeling 20
firedome 20
flat@@ 20
focusing 20
forget 20
formats 20
full-@@ 20
full-length 20
fundamental 20
gaines 20
galloway 20
geard 20
germania 20
gi 20
ginataan 20
giulietta 20
glory 20
greencastle 20
greens 20
gregg 20
grosseto 20
groton 20
hampton 20
hearts 20
hidden 20
hit@@ 20
holloway 20
hollywood 20
horizon@@ 20
hostile 20
hydraulic 20
hylas 20
icebreakers 20
icebreaking 20
iciency 20
ignition 20
improvement 20
inas 20
inhabit 20
initi@@ 20
inked 20
inner-@@ 20
inst@@ 20
insu@@ 20
internation@@ 20
isation 20
jamali 20
janson 20
jeep 20
jeremy 20
jerusalem 20
jib@@ 20
jon@@ 20
jor@@ 20
kalimantan 20
kee 20
kel 20
kellamergh 20
khrunichev 20
khyber 20
kim 20
kis@@ 20
know@@ 20
kos 20
kru@@ 20
lag@@ 20
lak 20
lamar 20
lanes 20
large-scale 20
lenape 20
leviathan 20
lie@@ 20
ligh@@ 20
lino 20
lish@@ 20
livestock 20
lle@@ 20
loaf 20
lp 20
lucas 20
lung 20
macy 20
makers 20
maneuver@@ 20
manley 20
marin@@ 20
marsh 20
maserati 20
matter 20
matters 20
meda 20
medic@@ 20
meier 20
melbourne 20
ment@@ 20
metallic 20
methods 20
mian 20
michel@@ 20
mid-1990s 20
midlands 20
mies 20
minotaur- 20
miracle 20
moderni@@ 20
morgantown 20
mus 20
mustered 20
nathan 20
nato 20
naz@@ 20
negotiated 20
negotiations 20
neo-@@ 20
neptun 20
neptune 20
nik 20
ning@@ 20
nove@@ 20
observatories 20
oh 20
ola@@ 20
opponents 20
opposing 20
opti@@ 20
options 20
ordering 20
oven 20
overthrew 20
palma 20
par 20
perfect 20
philli@@ 20
piaz@@ 20
pie@@ 20
pir@@ 20
planetary 20
plank 20
pleasantville 20
poems 20
popularized 20
portmanteau 20
porto 20
pp 20
predecessors 20
predomin@@ 20
pressing 20
pris@@ 20
prix 20
procedures 20
prosecu@@ 20
pseudonym 20
quarter@@ 20
quarterfinals 20
quez 20
quincy 20
raf@@ 20
rai@@ 20
rapide 20
receives 20
recipient 20
reelection 20
reentry 20
regarding 20
regent 20
regulations 20
relating 20
releg@@ 20
rent 20
renton 20
right-@@ 20
rival@@ 20
rivera 20
roasted 20
rod@@ 20
rona 20
rust@@ 20
sabin 20
sant 20
santos 20
sbct 20
scattered 20
scholar 20
scou@@ 20
seaside 20
seating 20
seed 20
sely 20
semi@@ 20
semig@@ 20
shak@@ 20
sharks 20
sho@@ 20
shore@@ 20
sid 20
similarly 20
simmer@@ 20
single-engine 20
situation 20
slovakia 20
smooth 20
sociology 20
sohc 20
solution 20
sophomore 20
spare 20
specialty 20
spective 20
stat 20
statu@@ 20
stine 20
stops 20
streams 20
subfamily 20
suborbital 20
sugges@@ 20
sumac 20
supervision 20
supports 20
sylda 20
synth-pop 20
tad@@ 20
tag 20
tc 20
tern 20
thailand 20
themis 20
thirds 20
thiruvananthapuram 20
thread 20
threads 20
tial 20
tioned 20
tipperary 20
toclimit@@ 20
topics 20
torn 20
tra@@ 20
tram 20
traverse 20
tte 20
tunes 20
turku 20
tx 20
tz@@ 20
uccle 20
under-17 20
understanding 20
undrafted 20
universit@@ 20
unsuccessfully 20
unusual 20
urugu@@ 20
valuable 20
valued 20
valves 20
vase 20
vd 20
veerman 20
vene@@ 20
vicente 20
victorious 20
vincen@@ 20
virus 20
visayan 20
vol 20
vyborg 20
warriors 20
wasn 20
wau@@ 20
welfare 20
wenatchee 20
wholly 20
wildlife 20
xe@@ 20
yogyakarta 20
york@@ 20
yugoslavia 20
zaheer 20
zakaria 20
ère 20
106 19
120@@ 19
123 19
1600 19
1798 19
1825 19
1831 19
1835 19
1839 19
1840 19
1842 19
1844 19
194@@ 19
197@@ 19
3,6@@ 19
3,8@@ 19
44114 19
560 19
aal@@ 19
abs 19
absecon 19
absorb 19
acceptance 19
acclaim 19
aco 19
activist 19
adas 19
adian 19
advertising 19
ady 19
afgh@@ 19
afri@@ 19
after@@ 19
aggres@@ 19
ahmad 19
airplay 19
airspace 19
akihito 19
alagoas 19
aleksandra 19
alice 19
aliens 19
alities 19
all-new 19
alling 19
allocated 19
ami 19
amr 19
analo@@ 19
ancestor 19
anga 19
any@@ 19
apping 19
arri@@ 19
assistance 19
asō 19
atively 19
atlas- 19
attracting 19
aul@@ 19
ausonia 19
autumn 19
auxiliary 19
backed 19
bah 19
bala 19
barrel 19
bart 19
batt@@ 19
bbs 19
beauregard 19
berger 19
best@@ 19
bond 19
branding 19
brasilia 19
bre 19
bremen 19
bridge@@ 19
bristoe 19
bristol 19
britpop 19
brush 19
builder 19
bumbu 19
carto@@ 19
catal@@ 19
categoria 19
cath@@ 19
cco 19
ce-@@ 19
centur@@ 19
characterised 19
charlton 19
chattahoochee 19
chiapas 19
chord 19
civilization 19
clar@@ 19
coin 19
coinci@@ 19
colin 19
colonels 19
combin@@ 19
commissioners 19
competitor 19
comple@@ 19
compression 19
concentr@@ 19
consi@@ 19
consider 19
consideration 19
contiguous 19
contribute 19
controversy 19
copyright 19
correct 19
cortes 19
counts 19
creates 19
crowned 19
cs@@ 19
ctional 19
cun@@ 19
cze@@ 19
danube 19
datuk 19
de-@@ 19
decatur 19
demonstrated 19
designing 19
devised 19
dial 19
diana 19
did@@ 19
dis 19
displays 19
divisio 19
dney 19
dom 19
doub@@ 19
dover 19
dre 19
dual-@@ 19
editors-in-chief 19
emergence 19
emi@@ 19
emigrated 19
emily 19
engineered 19
ense 19
enterprise 19
entrepreneur 19
español 19
esville 19
eta 19
eunomia 19
exceeding 19
exhibit 19
exhibitions 19
experi@@ 19
explorers 19
expo@@ 19
exported 19
exxon 19
eyes 19
fairly 19
felix 19
fertile 19
fife 19
fifth-most 19
fifty-@@ 19
foothills 19
freshwater 19
frisco 19
fé@@ 19
gain@@ 19
gang@@ 19
gee 19
gest 19
gg 19
gillett 19
goodwin 19
gothic 19
governors 19
gp7 19
grange 19
gunfight 19
habbaniyah 19
halls 19
handball 19
happened 19
harmon@@ 19
hel 19
helicopters 19
heliport 19
helmet 19
hir@@ 19
hitmen 19
hokkaido 19
hol 19
homestead 19
hopes 19
hot@@ 19
howe 19
hydro@@ 19
idis 19
immigrant 19
inform@@ 19
inherited 19
initials 19
injected 19
inline 19
innov@@ 19
innsbruck 19
intensity 19
investigated 19
io@@ 19
isa@@ 19
iss 19
issuing 19
ittihad 19
ium 19
jal@@ 19
jes 19
joh@@ 19
jointly 19
kaliber 19
kane 19
karabakh 19
kate 19
keyboardist 19
kho@@ 19
kiev 19
kilometer 19
kingpin 19
klein 19
klubu 19
kol@@ 19
kot 19
kov 19
lasting 19
lec@@ 19
lecturer 19
legisl@@ 19
lele 19
lemongrass 19
leon 19
lex 19
limbo 19
listing 19
lower-@@ 19
m2 19
malatu 19
malayalam 19
malone 19
mandate 19
manit@@ 19
manti@@ 19
mart 19
mashed 19
matched 19
matic 19
mattingly 19
mea 19
medi@@ 19
mein 19
mentor 19
mex@@ 19
migrants 19
minneapolis 19
mono@@ 19
moon@@ 19
morrison 19
most-@@ 19
motherwell 19
mps 19
mt@@ 19
mund 19
mystery 19
newcom@@ 19
nicol@@ 19
nier 19
nig@@ 19
norris 19
nu 19
nun@@ 19
ní 19
oaxaca 19
occasion 19
occu@@ 19
offshore 19
olithic 19
olympia 19
onwards 19
opel 19
orbited 19
organiz@@ 19
oshkosh 19
owski 19
package 19
painting 19
pandan 19
parade 19
participant 19
pattern 19
perihelion 19
petroleum 19
pian 19
pickles 19
pioneered 19
plante 19
popu@@ 19
portfolio 19
portr@@ 19
portsmouth 19
potentially 19
practi@@ 19
practical 19
praised 19
presbyterian 19
priest 19
primavera 19
prison@@ 19
proje@@ 19
prominently 19
prosperity 19
qarabag 19
quo@@ 19
rak@@ 19
ramseur 19
ramón 19
ranger 19
rarely 19
rasheed 19
rayyan 19
raz@@ 19
reader 19
reforms 19
regina 19
rell 19
remkes 19
reno 19
reporter 19
resi@@ 19
respective 19
retains 19
rive 19
rolls 19
rology 19
roo@@ 19
rosi 19
rulers 19
ruth 19
salinas 19
savings 19
schleswig 19
schu@@ 19
sear@@ 19
seas 19
second-highest 19
seek 19
separating 19
sex 19
sey@@ 19
shin@@ 19
shir@@ 19
shorta 19
sikh 19
sixty-@@ 19
sley 19
sno@@ 19
spatiales 19
spectral 19
spider 19
spin@@ 19
spoke 19
spurred 19
stadt 19
stanbulspor 19
stanton 19
stephens 19
stepped 19
stick 19
stin@@ 19
stir-fried 19
stones 19
stripes 19
ström 19
stuff 19
stuffed 19
subsidized 19
success@@ 19
sung 19
surfaced 19
surve@@ 19
swamp 19
swept 19
syrian 19
tahu 19
tail@@ 19
tamarind 19
tarō 19
team@@ 19
tempe 19
tens 19
terri@@ 19
thal 19
thani 19
tiles 19
tioning 19
tivity 19
tl 19
top-tier 19
tory 19
tourists 19
tournaments 19
transylvania 19
trie 19
tries 19
troop 19
tsman 19
tto 19
tum 19
tuned 19
turkmen 19
tus@@ 19
té@@ 19
ua 19
urs 19
utah 19
utzon 19
vacation 19
values 19
venezia 19
vester 19
vinyl 19
virgil 19
vity 19
vy@@ 19
wag@@ 19
weekend 19
wheel@@ 19
white-@@ 19
winkler 19
wishes 19
witnessed 19
wool@@ 19
worst 19
xon 19
yah 19
youngstown 19
za@@ 19
zd@@ 19
zeevalking 19
zio 19
ís 19
-powered 18
-seat 18
-story 18
0236 18
1,200 18
1200 18
1480153 18
1769 18
1843 18
1858 18
2,9@@ 18
214 18
265 18
318875313 18
5294 18
6,000 18
8,000 18
806 18
90640840 18
992 18
accompany 18
ached 18
achievements 18
acht 18
aders 18
adh 18
advan@@ 18
air-@@ 18
alid 18
alleg@@ 18
alli@@ 18
alpha@@ 18
alter 18
alto 18
amp 18
amsterdam@@ 18
amu@@ 18
amurai 18
analy@@ 18
ande 18
anger 18
annexation 18
appropriate 18
aqui@@ 18
arab@@ 18
archbishop 18
ardi 18
aria 18
ariola 18
aspect 18
assassinated 18
assisted 18
aters 18
atlantis 18
atop 18
atore 18
atrium 18
att 18
attempting 18
aurigny 18
authorit@@ 18
aux 18
avalanche 18
awi 18
azad 18
babangida 18
backgrounds 18
balls 18
bananas 18
barbe@@ 18
barkov 18
batu 18
bble 18
beam 18
beli@@ 18
bench 18
bengals 18
benitoite 18
betawi 18
bhu@@ 18
binchy 18
biology 18
bluff 18
boom@@ 18
box@@ 18
brooks 18
brookwood 18
buckler 18
buddhist 18
buddy 18
bumiputera 18
bur 18
burg- 18
cabrera 18
cafero 18
café 18
calculates 18
califor@@ 18
campuses 18
cauliflower 18
celestial 18
chains 18
chand@@ 18
check@@ 18
chippewa 18
christ 18
churches 18
cinema 18
cite 18
cket 18
clad 18
clan 18
coach@@ 18
coahuila 18
colonized 18
columns 18
comfort 18
commandant 18
commanders 18
comments 18
companion 18
complex@@ 18
cone 18
congressman 18
conley 18
consensus 18
conservation 18
constable 18
constitute 18
continuation 18
coordin@@ 18
coordinated 18
correspond 18
courts 18
croma 18
cued 18
cuisines 18
cular 18
culinary 18
cycling 18
dalton 18
dauphin 18
deals 18
decre@@ 18
defe@@ 18
demanded 18
dembowska 18
demo 18
demographic 18
denti@@ 18
dents 18
deployment 18
destiny 18
detailed 18
devast@@ 18
df@@ 18
diablo 18
diced 18
dini 18
dio 18
disputes 18
diving 18
divor@@ 18
dn 18
dna 18
doesn 18
domingo 18
dor 18
doshi 18
drained 18
dramatic 18
dreams 18
drugs 18
dé@@ 18
eclip@@ 18
eg 18
ellip@@ 18
emilia- 18
encour@@ 18
encourage 18
engelbert 18
ensu@@ 18
entes 18
ernest 18
escor@@ 18
este 18
et-@@ 18
eus 18
eves 18
exceptionally 18
exclu@@ 18
exposure 18
facilitate 18
factors 18
fairhead 18
fantastic 18
farmington 18
farms 18
federations 18
fic 18
fifth-largest 18
flexi@@ 18
fokker 18
followers 18
fortifications 18
fos@@ 18
fritters 18
gabriels 18
gaz@@ 18
geffen 18
gemstone 18
gence 18
gens 18
georgiadis 18
gets 18
gia@@ 18
gigante 18
gla@@ 18
goethe 18
gordo 18
graduates 18
gran 18
grill 18
grilling 18
groo@@ 18
guinea 18
gulai 18
gw@@ 18
hackney 18
hai@@ 18
haise 18
half@@ 18
halle 18
hardware 18
heim 18
hermes 18
higgins 18
hillsborough 18
hind 18
hinduism 18
historians 18
holmen 18
hosp@@ 18
hospitality 18
hr 18
hughes 18
hul@@ 18
hunter 18
hyperson@@ 18
hér@@ 18
i-@@ 18
ibero 18
icit@@ 18
icon 18
illas 18
imprisoned 18
injection 18
injured 18
insignia 18
involves 18
ira@@ 18
isol@@ 18
isolated 18
jail 18
jane 18
jesus 18
john@@ 18
judd 18
jus@@ 18
kairos 18
kal 18
khimki 18
kidney 18
kilroy 18
kinds 18
klm 18
kwa 18
kwetiau 18
lal@@ 18
landmass 18
landscap@@ 18
larissa 18
lead@@ 18
leafs 18
lean@@ 18
leisure 18
lett 18
lied 18
lifted 18
lighter 18
likes 18
limb@@ 18
limburg 18
liners 18
lled 18
llocano 18
lond@@ 18
looks 18
lorient 18
m-type 18
macan 18
mag 18
mage 18
magnate 18
malabar 18
mallorca 18
malvern 18
marcus 18
marsh@@ 18
mash 18
mayo 18
mba 18
mbo 18
meatball 18
medina 18
medium-@@ 18
meg 18
meg@@ 18
melodies 18
mentary 18
metal@@ 18
metall@@ 18
michoacán 18
milit@@ 18
mize 18
modernist 18
montpellier 18
mosqu@@ 18
mozambique 18
mt 18
muham@@ 18
mushroom 18
musi 18
muskegon 18
mutton 18
n-@@ 18
nakhchivan 18
nathaniel 18
nau@@ 18
nayarit 18
ncaa 18
neg@@ 18
nicknames 18
non-hub 18
oak@@ 18
oblast 18
observer 18
onne 18
ool 18
ordinary 18
organisations 18
ota 18
otic 18
outs 18
pad@@ 18
palaces 18
pancake 18
panels 18
panhandle 18
param@@ 18
paramount 18
parti 18
pelican 18
pencils 18
perhaps 18
pet 18
phi@@ 18
philosopher 18
pianist 18
pickle 18
pittsburg 18
pixar 18
pizza 18
poe@@ 18
polar@@ 18
poulos 18
ppe 18
precursor 18
premium 18
prep 18
pretoria 18
prices 18
printing 18
prospe@@ 18
protecting 18
psg 18
pue@@ 18
pump@@ 18
pupils 18
quil@@ 18
rat@@ 18
realm 18
recruit 18
redi@@ 18
reed 18
reelected 18
regiments 18
registration 18
rele@@ 18
remix 18
removing 18
rentistas 18
repe@@ 18
repo@@ 18
require 18
rer 18
resided 18
reynolds 18
rhin@@ 18
rio@@ 18
robotic 18
rocket@@ 18
rode 18
roun@@ 18
rs@@ 18
safe 18
sang 18
sar 18
schmelzer 18
scientists 18
scri@@ 18
seas@@ 18
serbia 18
sers 18
serundeng 18
servant 18
ses-14 18
sf@@ 18
shafts 18
shan@@ 18
shap@@ 18
sheffield 18
shock 18
sight 18
simeulue 18
similarity 18
simon@@ 18
sketch 18
slogan 18
smass 18
socially 18
sofrito 18
solo@@ 18
solve 18
spac@@ 18
spaw@@ 18
spir@@ 18
spirit@@ 18
sq@@ 18
sser 18
stafford 18
stirling 18
stockholm 18
strau@@ 18
stron@@ 18
sug@@ 18
surrounds 18
synonymous 18
syracuse 18
syste 18
talk 18
tas 18
tch@@ 18
tedly 18
teens 18
telegraph 18
tempos 18
tender@@ 18
tene@@ 18
thened 18
thinking 18
threats 18
tieri 18
tigers 18
tigris 18
toni 18
torpe@@ 18
toulouse 18
tow 18
translates 18
transmissions 18
transported 18
transvaal 18
trend 18
trieste 18
trine 18
trojan 18
turf 18
turnpike 18
tus 18
tuscan 18
tyler 18
uae 18
ubiquitous 18
uduk 18
unclear 18
unted 18
valor 18
veracruz 18
vian 18
vier 18
vik 18
villa@@ 18
vins 18
vladimir 18
vre 18
ware 18
wayans 18
wear 18
wedding 18
wesham 18
williamsport 18
willie 18
with@@ 18
wyoming 18
xton 18
yes 18
yielded 18
yrigoyen 18
zaanstreek 18
zacatecas 18
zon 18
zy 18
zzo 18
águila 18
ś@@ 18
⁄ 18
&apos;état 17
-and-@@ 17
-on 17
04@@ 17
112 17
113 17
142 17
165 17
1800s 17
196@@ 17
2,500 17
2194 17
278 17
30,000 17
3226 17
3400 17
36th 17
4019 17
44@@ 17
7,000 17
75@@ 17
89@@ 17
a-based 17
aan 17
accomp@@ 17
accused 17
acti@@ 17
add@@ 17
adds 17
affor@@ 17
afonsa 17
aggressive 17
ained 17
ake@@ 17
aker 17
ako@@ 17
alban@@ 17
alber@@ 17
albin@@ 17
alco@@ 17
alcohol 17
alge@@ 17
alig@@ 17
alise 17
alization 17
allan 17
alligator 17
alumnus 17
amun 17
ances 17
anese 17
anic 17
anova 17
anto@@ 17
aran 17
arch 17
archaeological 17
arose 17
arrive 17
art@@ 17
as-20@@ 17
as-@@ 17
ason 17
assed 17
asting 17
atmospheric 17
atwood 17
auf@@ 17
austins 17
awar@@ 17
ayed 17
baca 17
bale 17
balkenende 17
barnes 17
baronies 17
bassett 17
batak 17
bayern 17
beau@@ 17
bli@@ 17
bloo@@ 17
bloody 17
boss 17
bourne 17
br 17
brain@@ 17
breaks 17
broo@@ 17
brook@@ 17
browning 17
brun@@ 17
bu 17
bure@@ 17
burg@@ 17
bus@@ 17
button 17
bé@@ 17
campaigns 17
cand@@ 17
captained 17
card 17
carts 17
centraal 17
cep@@ 17
cess@@ 17
ceylon 17
chad 17
charged 17
charleroi 17
chev@@ 17
chicharron 17
chis@@ 17
choose 17
chorley 17
chris@@ 17
christened 17
citigroup 17
cl 17
clark@@ 17
classi@@ 17
clean@@ 17
clown 17
cobra 17
cock@@ 17
commemorate 17
commissioning 17
concacaf 17
confidence 17
constant 17
constituencies 17
conten@@ 17
convair 17
cosmo@@ 17
county-owned 17
cover@@ 17
crad@@ 17
critic@@ 17
croatian 17
ctio 17
ction@@ 17
curren@@ 17
das 17
davidson 17
dawson 17
deaths 17
debrecen 17
deemed 17
deer 17
delegates 17
delegation 17
delivering 17
descen@@ 17
detached 17
determin@@ 17
diag@@ 17
direct@@ 17
discarded 17
disease 17
displayed 17
dive 17
docked 17
documentary 17
dohc 17
dome@@ 17
dozen 17
drag@@ 17
dul@@ 17
dáil 17
eddsworld 17
edinburgh 17
ee@@ 17
eer 17
eighteen 17
eighth-largest 17
eilis 17
electr@@ 17
ellet 17
ellin@@ 17
embarked 17
emphasi@@ 17
emphasizes 17
endam 17
endurance 17
ene@@ 17
episcopal 17
eritrea 17
exce@@ 17
exposition 17
extent 17
fairbanks- 17
fairs 17
faster 17
fernández 17
fifty 17
fig@@ 17
file 17
fili@@ 17
filmed 17
finest 17
fl 17
flavour 17
flip 17
flour@@ 17
flowing 17
ford@@ 17
four-year 17
fourth-most 17
fowle 17
foye 17
franca 17
fring@@ 17
front-wheel 17
funen 17
galangal 17
gamma 17
ganymed 17
gaspar 17
generate 17
generator 17
genesis 17
girl@@ 17
glasgow 17
governs 17
grants 17
gree@@ 17
grossing 17
guin@@ 17
haarlemmermeer 17
hai 17
hain@@ 17
hawai@@ 17
hawks 17
heidelberg- 17
hein@@ 17
high-performance 17
honor@@ 17
honorary 17
hornet 17
horrell 17
hungaria 17
hurricanes 17
icia 17
ideal 17
identi@@ 17
iipm 17
inspire 17
instructor 17
intense 17
interpre@@ 17
iri@@ 17
ists 17
itary 17
ivan 17
j-@@ 17
jassim 17
jim@@ 17
joy@@ 17
k2 17
kac@@ 17
kai@@ 17
kaminis 17
kang 17
kenneth 17
kets 17
khar@@ 17
killer 17
kilograms 17
kim@@ 17
kirch@@ 17
knights 17
kolin 17
kozhikode 17
krylia 17
ku 17
kul@@ 17
königstuhl 17
laan 17
lamezia 17
latitude 17
leonard 17
lg@@ 17
lighting 17
line-height 17
llano 17
locals 17
logic 17
lolly 17
lombardy 17
long-time 17
lots 17
lous 17
lov@@ 17
lton 17
lud@@ 17
luna 17
luzon 17
lydia 17
m-420 17
madonna 17
magruder 17
malmö 17
mansions 17
manus 17
marched 17
martina 17
mated 17
maybeck 17
meadowbrook 17
measure 17
mechanically 17
medline 17
melody 17
memo@@ 17
merchants 17
mercury- 17
merrimack 17
mers 17
mess@@ 17
metro@@ 17
mid-1960s 17
mines 17
modules 17
morse 17
mpg 17
mu 17
muslims 17
mustard 17
méxico 17
nab@@ 17
nac 17
negeri 17
nh 17
nica 17
noti@@ 17
nton 17
nuro 17
oaks 17
oath 17
occulted 17
octo@@ 17
ole@@ 17
onists 17
ope 17
our@@ 17
oversaw 17
paseo 17
patrolled 17
peacekeeper 17
pebble 17
peopl 17
performers 17
permitted 17
persons 17
peter@@ 17
phased 17
phi 17
phon 17
pig 17
pigs 17
piston 17
porte 17
potenza 17
powertrain 17
ppo 17
praise 17
prawn 17
precise 17
predic@@ 17
prequel 17
prestigious 17
prevented 17
priority 17
profession 17
proton 17
pru@@ 17
pueblo 17
puk 17
purcell 17
quad@@ 17
quarter-finals 17
quoted 17
qusay 17
raced 17
ragi 17
rai 17
ramadi 17
randstad 17
ransom 17
rappers 17
rayel 17
recor@@ 17
redmond 17
rehearsal 17
rely 17
rem@@ 17
renewal 17
resig@@ 17
restore 17
resume 17
resur@@ 17
reverend 17
reviewer 17
ricans 17
richest 17
rid 17
risk 17
roanoke 17
robot 17
rockwall 17
rout@@ 17
rum@@ 17
saad 17
saga 17
sati@@ 17
sation 17
sau 17
sauces 17
say@@ 17
scandin@@ 17
schwe@@ 17
sd@@ 17
sday 17
seated 17
seiz@@ 17
sement 17
semi-professional 17
semifinals 17
semin@@ 17
sequence 17
sf 17
sheep 17
shields 17
shing 17
shivers 17
shoe 17
shoemaker 17
shorts 17
sibiu 17
signal 17
simpl@@ 17
singapo@@ 17
sinister 17
sistersville 17
sitory 17
ska-@@ 17
skip@@ 17
sleep 17
sman 17
sor 17
south-west 17
spa 17
specially 17
sses 17
stalemate 17
starch 17
stell@@ 17
stered 17
stir 17
stree 17
structured 17
stx 17
subordin@@ 17
sufficient 17
sul 17
summers 17
sunapee 17
super-@@ 17
superheroes 17
swer@@ 17
tacoma 17
tain@@ 17
tangled 17
tay@@ 17
technically 17
technologies 17
tees 17
telemetry 17
telling 17
tening 17
terminated 17
ternana 17
terra 17
tes@@ 17
threatened 17
thuring@@ 17
timeline 17
tish@@ 17
tiv@@ 17
tl@@ 17
tment 17
toasted 17
tools 17
touchdowns 17
trainer 17
trak@@ 17
trapped 17
travels 17
tualatin 17
tubes 17
tumb@@ 17
turbine 17
turkeys 17
ucr 17
ulia 17
umbrella 17
umm 17
unded 17
unemployment 17
uprising 17
uptown 17
ur- 17
vere@@ 17
vica 17
vicar 17
vik@@ 17
villain 17
vinegar 17
virgin@@ 17
volleyball 17
walled 17
waterfront 17
wers 17
whe@@ 17
where@@ 17
wiley- 17
willard 17
willowes 17
won@@ 17
worthy 17
xi 17
yana 17
yaz@@ 17
year-old 17
yed 17
zy@@ 17
ángel 17
éireann 17
ün@@ 17
ș 17
əˈ@@ 17
&apos;ve 16
-4 16
-97 16
10,@@ 16
116 16
12-month 16
128 16
141 16
144 16
1631 16
1773 16
1793 16
1819 16
200,000 16
2158 16
3,4@@ 16
3,500 16
3,7@@ 16
3684 16
4,7@@ 16
40-@@ 16
404 16
49ers 16
8784 16
889 16
917 16
a6 16
abacha 16
abel 16
aber@@ 16
abor@@ 16
accompaniment 16
accoun@@ 16
ache 16
achi@@ 16
ackland 16
adam@@ 16
addi@@ 16
adjoining 16
admir@@ 16
adopt 16
afro@@ 16
ager 16
agli@@ 16
aided 16
ailed 16
airborne 16
ait 16
akin 16
albion 16
aleksander 16
all-time 16
alley 16
allman 16
allusion 16
alman@@ 16
alpine 16
altar 16
alvin 16
aly 16
amager 16
amkar 16
angel@@ 16
ango 16
angular 16
anni@@ 16
anschluss 16
appro@@ 16
approaching 16
ardi@@ 16
argu@@ 16
arities 16
arkansas 16
arn@@ 16
asmus 16
assaulted 16
associ@@ 16
aten 16
ather 16
attach@@ 16
atw 16
audi@@ 16
audio 16
av 16
averaged 16
baati 16
bakersfield 16
bangl@@ 16
barr 16
barrow 16
belgrade 16
bendis 16
bernardino 16
bil 16
bl 16
bloc@@ 16
blow 16
boardings 16
bombed 16
bonds 16
boo 16
boro 16
brainiac 16
brava 16
brave 16
broc@@ 16
bud@@ 16
buns 16
burleson 16
buster 16
byrne 16
cadet 16
calab@@ 16
calcu@@ 16
camden 16
cantonese 16
carbon@@ 16
caste@@ 16
cathol@@ 16
cay@@ 16
caz@@ 16
ceremon@@ 16
chaired 16
challenged 16
chapters 16
chautauqua 16
chemie 16
chini 16
cht 16
chur@@ 16
cid 16
claire 16
clan@@ 16
claridge 16
clifford 16
climb@@ 16
close@@ 16
coast@@ 16
colonia 16
combe 16
competi@@ 16
concor@@ 16
conf@@ 16
conqueror 16
conurbation 16
convin@@ 16
cookbook 16
cousins 16
cricket 16
crushed 16
críona 16
cum@@ 16
cé@@ 16
dable 16
daimler 16
dakota 16
dame 16
daughters 16
dd 16
death@@ 16
debuting 16
deep@@ 16
deere 16
defining 16
demonstrating 16
devices 16
devil 16
dged 16
dhálaigh 16
dilts 16
dings 16
diploma 16
distortion 16
distribu@@ 16
divi@@ 16
doha 16
dolly 16
doubled 16
draw@@ 16
ds@@ 16
dust 16
dz@@ 16
e-magazines 16
easter 16
eberhard 16
echl 16
economist 16
edgar 16
egypt 16
eiro 16
ela@@ 16
ele 16
electorate 16
ellicott 16
ello 16
elos 16
else@@ 16
emirates 16
emory 16
enormous 16
eping 16
eras 16
eri@@ 16
española 16
ested 16
estuary 16
ethelwald 16
ethnicity 16
eury@@ 16
ev 16
evacu@@ 16
evalu@@ 16
everyone 16
excav@@ 16
executives 16
exercise 16
exerts 16
explore 16
fano 16
farrell 16
fat@@ 16
feast 16
ferencváros 16
figh@@ 16
finalist 16
finalists 16
financially 16
financing 16
firms 16
flood@@ 16
flor@@ 16
fold 16
fork 16
forks 16
fortaleza 16
forth 16
fortuna 16
franco 16
franco@@ 16
freeman 16
frew 16
frost 16
fsv 16
furthermore 16
gasoline 16
gation 16
ghee 16
gian@@ 16
ginataang 16
giorgos 16
givens 16
gov 16
govern@@ 16
grades 16
gray@@ 16
grissom 16
grocery 16
ground@@ 16
grow@@ 16
guang@@ 16
guatemala 16
gustavson 16
hailed 16
hale 16
happ@@ 16
haputhale 16
harden@@ 16
harpers 16
hass@@ 16
hat 16
hebard 16
heim@@ 16
helenius 16
heraklion 16
herman 16
hler 16
hoc@@ 16
hokkien 16
hs 16
humph@@ 16
hung@@ 16
hyper@@ 16
ibiza 16
ice-@@ 16
illing 16
imprints 16
in-law 16
incidents 16
industrialization 16
inscription 16
interchangeably 16
interim 16
invention 16
investors 16
isa 16
itated 16
ited 16
jar 16
jeepster 16
jobber 16
justicialist 16
k20 16
kalapuya 16
keene 16
kemi 16
kendall 16
kensington 16
kick@@ 16
kings@@ 16
kry@@ 16
kump 16
kurt 16
lagran@@ 16
lahti 16
lake@@ 16
lates 16
launche 16
liiga 16
limit@@ 16
linguis@@ 16
lis 16
list@@ 16
litt@@ 16
liv@@ 16
llan@@ 16
llc 16
lle 16
loads 16
longtime 16
lotus 16
lowell 16
lus 16
lviv 16
lyonnais 16
magazines 16
malt 16
marching 16
mariah 16
mars-crosser 16
marten 16
martyr 16
mazzare 16
melting 16
mercedes 16
mid-size 16
mik@@ 16
minorities 16
missionary 16
mistak@@ 16
mitting 16
mixes 16
mls 16
modification 16
mongol 16
mos 16
mosque 16
motorcycle 16
msc 16
murray 16
nai@@ 16
najaf 16
nas 16
natal 16
nbc 16
nese 16
nez 16
nigel 16
niko@@ 16
nonetheless 16
nord 16
north-central 16
nov 16
obe 16
oceania 16
offen@@ 16
ogh@@ 16
oph@@ 16
opponent 16
or- 16
orb@@ 16
ore@@ 16
organizational 16
organize 16
oriz@@ 16
ose 16
outnumbered 16
outpost 16
pac 16
palisa 16
paluani 16
pam@@ 16
panay 16
paok 16
park@@ 16
pas 16
pasok 16
patriots 16
perm 16
personality 16
peshawar 16
petrol 16
pets 16
pez 16
peşəkar 16
phenomenon 16
pink 16
plagu@@ 16
plates 16
ple 16
poets 16
pointed 16
populatio 16
pose 16
pps 16
prece@@ 16
precedence 16
precinct 16
precipitation 16
premiership 16
pride 16
principally 16
progra 16
ption 16
pupil 16
purdue 16
put@@ 16
quattro 16
quin 16
quin@@ 16
rad 16
rah 16
railways 16
ranged 16
rankings 16
rapids 16
ravens 16
rebel@@ 16
recei@@ 16
refuge 16
relief 16
relocate 16
reportedly 16
retake 16
retire 16
revolución 16
riau 16
roc@@ 16
rook 16
ruben 16
rugged 16
rut@@ 16
sail 16
sali@@ 16
salv@@ 16
sampling 16
sarab@@ 16
sate 16
satur@@ 16
sbury 16
schiff 16
sco 16
scouts 16
sealed 16
seamen 16
seemingly 16
self-titled 16
serialized 16
sessed 16
shaker 16
share@@ 16
sharp 16
shelby 16
shewa 16
shifting 16
sibility 16
sibylla 16
silver@@ 16
sim@@ 16
similarities 16
sixth-@@ 16
sixth-largest 16
skald 16
sketches 16
ski@@ 16
skilled 16
slaughter 16
slowly 16
slu@@ 16
sooz 16
soviets 16
speed@@ 16
spiritu@@ 16
spoiler 16
spring@@ 16
sprouts 16
ssed 16
st- 16
staf@@ 16
steel@@ 16
stepwell 16
straffner 16
street-side 16
struc@@ 16
struggles 16
substantially 16
suffrage 16
superintendent 16
suv 16
swana 16
swit@@ 16
sy 16
taj@@ 16
talented 16
talks 16
tampere 16
taos 16
taxi@@ 16
taxonom@@ 16
tek@@ 16
tell@@ 16
templatequote 16
tenanted 16
teng@@ 16
terial 16
terpiece 16
terr@@ 16
tho 16
thorne 16
thou@@ 16
timor 16
tiësto 16
tolerance 16
trace 16
travelled 16
traver@@ 16
trevi 16
tsu@@ 16
tton 16
turk@@ 16
two-door 16
ultra 16
under-21 16
undergoing 16
uous 16
urap 16
uti@@ 16
utili@@ 16
veness 16
vereniging 16
vern 16
vertigo 16
vh 16
vide@@ 16
visi@@ 16
vić 16
vocalists 16
volga 16
wallage 16
wanderers 16
wax 16
wearing 16
westward 16
wet 16
wha 16
wotherspoon 16
wrest 16
yielding 16
yle 16
yorkshire 16
zar 16
zzi 16
är@@ 16
ée 16
ér@@ 16
øn@@ 16
ń@@ 16
ˌ@@ 16
-85 15
-by-@@ 15
-in 15
-shaped 15
-time 15
000-@@ 15
03@@ 15
102 15
1219 15
1510 15
175 15
1763 15
1790 15
17th-century 15
1813 15
1824 15
1834 15
19-@@ 15
2,2@@ 15
20-@@ 15
222 15
253 15
270 15
336@@ 15
38,@@ 15
3px 15
4,0@@ 15
533 15
567 15
573 15
672 15
69@@ 15
944 15
945@@ 15
accordance 15
accurate 15
acronym 15
adel 15
ador 15
aerodynamic 15
agnes 15
ails 15
aining 15
airplane 15
akari 15
albac@@ 15
alcona 15
alkma@@ 15
alta 15
alternatively 15
amenities 15
amtrak 15
anch@@ 15
andreas 15
andro 15
angara 15
announcement 15
anywhere 15
anz@@ 15
apostle 15
apprentice 15
archie 15
argentines 15
arist@@ 15
arranged 15
arrivals 15
arte@@ 15
artificial 15
asco 15
aspir@@ 15
aster 15
ationist 15
attracts 15
aus@@ 15
aut 15
automated 15
avellaneda 15
averell 15
bab 15
bajnokság 15
bangor 15
bankrupted 15
barejas 15
bartholomew 15
bauer 15
bawang 15
beg@@ 15
beloved 15
berries 15
bigger 15
bilo@@ 15
birkenhead 15
birla 15
bishopsgate 15
blend 15
boiling 15
bold 15
bot 15
boun@@ 15
bozo 15
brady 15
brakes 15
brevet 15
bris@@ 15
briscoe 15
brockenbrough 15
bruno 15
bryan 15
buff@@ 15
buhari 15
bukit 15
butt@@ 15
byram 15
cab 15
cage 15
californian 15
call-@@ 15
campo 15
canonical 15
carbohydrates 15
caretaker 15
castle@@ 15
catalo@@ 15
catalogue 15
caucasus 15
cemeteries 15
centen@@ 15
ceram@@ 15
cere@@ 15
cerrito 15
chac@@ 15
challenges 15
chat@@ 15
choo@@ 15
chronos 15
cil 15
circled 15
clatsop 15
cleburne 15
clothing 15
cn 15
co-creating 15
cocu 15
collector 15
colm 15
coloccia 15
colombo 15
comets 15
communic@@ 15
compen@@ 15
concurrently 15
confessions 15
confron@@ 15
conjunction 15
connor 15
conse@@ 15
consider@@ 15
consoli@@ 15
conspir@@ 15
consu@@ 15
consumer 15
container 15
cool 15
cooled 15
corners 15
cotta 15
cox 15
cq 15
crack@@ 15
crank@@ 15
crist@@ 15
criș@@ 15
ctly 15
culate 15
cult 15
cultivars 15
cutlass 15
cyborg 15
cyn@@ 15
dab@@ 15
database 15
db 15
dc@@ 15
dealer 15
decide 15
declining 15
defended 15
delay 15
deleg@@ 15
delta- 15
demonstrations 15
detective 15
dimensions 15
dipping 15
disabled 15
diseases 15
distri@@ 15
dominican 15
dozens 15
draf@@ 15
draws 15
dressing 15
dumas 15
duration 15
eau 15
eb 15
ebe 15
eccellenza 15
eco@@ 15
eddie 15
edgewood 15
eged 15
eks 15
ela-1 15
elder 15
elevations 15
eleventh 15
eli 15
elkin 15
emili@@ 15
emir 15
emir@@ 15
emo 15
ences 15
endangered 15
engo 15
enterprises 15
enthusi@@ 15
entr@@ 15
entrepreneur@@ 15
entrepreneurs 15
envisioned 15
epi@@ 15
equator 15
ern@@ 15
este@@ 15
etary 15
ethn@@ 15
etymo@@ 15
evol@@ 15
exact 15
examination 15
excellent 15
exemp@@ 15
exercises 15
experimentation 15
expulsion 15
extraction 15
ez@@ 15
fabric@@ 15
fairing 15
fairy 15
favorite 15
façade 15
feat 15
fications 15
fierce 15
fiers 15
figu@@ 15
finger 15
fires 15
first-ever 15
fixture 15
flavored 15
foundations 15
freder@@ 15
frequency 15
ft@@ 15
fted 15
fts 15
gandhinagar 15
gare@@ 15
garrison 15
german-speaking 15
gertrude 15
ges@@ 15
gge 15
ggia 15
giugiaro 15
glendale 15
globalization 15
gonz@@ 15
grammar 15
grandson 15
grasslands 15
grat@@ 15
gravity 15
gray 15
gre 15
gros 15
gtv 15
guan@@ 15
guarania 15
guer@@ 15
gulf@@ 15
gurih 15
gustavus 15
h22 15
haas 15
had@@ 15
hadd@@ 15
handful 15
harrah 15
hawk@@ 15
heerenveen 15
hell 15
helm 15
herget 15
hoit 15
hounds 15
hq 15
hypothesis 15
icient 15
iconic 15
identify 15
idol 15
iga 15
ij@@ 15
improvis@@ 15
inca 15
inclusion 15
incorporate 15
indonesians 15
indu@@ 15
ini@@ 15
inks 15
inspe@@ 15
instance 15
institutes 15
institutional 15
insur@@ 15
int 15
intervention 15
introduces 15
investor 15
irs 15
ishes 15
isi 15
isl@@ 15
istle 15
jewel 15
jewellery 15
joint-@@ 15
journalism 15
jubal 15
jung 15
k-series 15
keel 15
kelvinator 15
ket 15
kh 15
kho 15
kirkham 15
kirkuk 15
kker 15
knee 15
knight@@ 15
kno@@ 15
koc@@ 15
kokomo 15
kolk@@ 15
ladee 15
lamb 15
lang 15
layers 15
leda 15
left-wing 15
leonardo 15
less@@ 15
lified 15
light@@ 15
lism 15
listening 15
liter 15
lleida 15
loaded 15
locate 15
lords 15
loy@@ 15
lubbock 15
luck 15
macology 15
mahmud 15
man-@@ 15
manassas 15
margar@@ 15
marry 15
marshall 15
martin@@ 15
mass-@@ 15
masters 15
meatballs 15
medals 15
meer 15
memb@@ 15
memphis 15
menu 15
meri@@ 15
merrill 15
mesopotam@@ 15
mid-1950s 15
middlesex 15
middletown 15
min-height 15
miner@@ 15
miramar 15
mk 15
ml@@ 15
monit@@ 15
monitoring 15
moorish 15
mureș 15
mushrooms 15
nahuatl 15
nak@@ 15
nee 15
negrin 15
nel@@ 15
nes@@ 15
nets 15
neutral 15
news@@ 15
ng@@ 15
nick@@ 15
niles 15
nine-@@ 15
noblesville 15
northfield 15
notre 15
now-@@ 15
nucleus 15
nueva 15
nur@@ 15
odds 15
oes 15
ofi 15
oideae 15
olimpi@@ 15
olu@@ 15
ome@@ 15
one-year 15
ophone 15
ops 15
outer@@ 15
outlets 15
oval 15
owl 15
packed 15
padding-left 15
pag@@ 15
pan-@@ 15
papua 15
partition 15
passport 15
patri@@ 15
pear@@ 15
penalties 15
penn 15
perceived 15
permission 15
peronism 15
philanthrop@@ 15
photograph 15
phy@@ 15
pickett 15
pis@@ 15
pist@@ 15
plat 15
pled 15
plur@@ 15
poll 15
portage 15
portrait 15
ppe@@ 15
presentation 15
proceeds 15
proclaimed 15
programming 15
projected 15
proli@@ 15
promis@@ 15
promise 15
provin@@ 15
provisions 15
pulled 15
putnam 15
ragù 15
rambl@@ 15
rece@@ 15
reception 15
recogni@@ 15
reduc@@ 15
regulators 15
reims 15
rela@@ 15
relationships 15
religi@@ 15
remixed 15
remnants 15
renovations 15
renzo 15
repeating 15
requiring 15
reservation 15
retre@@ 15
rhode 15
ricu@@ 15
ridgewell 15
ring@@ 15
riv@@ 15
rl@@ 15
roadster 15
rocker 15
romita 15
rop 15
sailing 15
sak@@ 15
scarborough 15
sche 15
schöneiche 15
securing 15
seem 15
semifinal 15
sentry 15
seven-@@ 15
seventeen 15
shab@@ 15
shallow 15
shepherd 15
shortlisted 15
sie@@ 15
signs 15
silke 15
slave 15
slide 15
sloping 15
slovenia 15
sors 15
sort 15
sovcomflot 15
sovetov 15
spart@@ 15
spectators 15
spher@@ 15
sphinx 15
spit@@ 15
spur 15
square-@@ 15
stabia 15
stamford 15
standout 15
stas 15
staten 15
stating 15
statute 15
steady 15
stra 15
stra@@ 15
submersible 15
subscri@@ 15
sud@@ 15
supposedly 15
surround 15
surveys 15
survi@@ 15
sussex 15
swing 15
synthe@@ 15
taj 15
tama 15
targets 15
taunton 15
tavern 15
teria 15
thick@@ 15
third-placed 15
thomson 15
thre@@ 15
throttle 15
tikka 15
till 15
tillamook 15
tillas 15
timmerman 15
titu@@ 15
tjao 15
tomb 15
tonnes 15
toppled 15
torres 15
townsend 15
tr-@@ 15
tractor 15
travel@@ 15
treasurer 15
trench 15
tti@@ 15
tuna 15
tura 15
turmo@@ 15
tuscaloosa 15
u-17 15
unds 15
univer@@ 15
upcoming 15
upgr@@ 15
usable 15
useful 15
user 15
usual 15
valentine 15
vali@@ 15
vaughan 15
vector@@ 15
veneto 15
vent 15
verde 15
vermeend 15
vernon 15
vice- 15
viceroyalty 15
vii 15
vince 15
violent 15
wala 15
wand@@ 15
wark 15
wednesday 15
weighed 15
weinstein 15
west-@@ 15
western-@@ 15
westernmost 15
wexler 15
weyburn 15
wharf 15
wig 15
winters 15
winton 15
withdrawing 15
withdrawn 15
wonder 15
woody 15
yur@@ 15
ywca 15
z- 15
zachary 15
zwickau 15
ál@@ 15
ów 15
ör@@ 15
₹ 15
&apos;d 14
133 14
135 14
15,000 14
15,@@ 14
1750 14
1804 14
1860s 14
187 14
1877 14
198@@ 14
19th-century 14
2,3@@ 14
25-@@ 14
3090 14
3453 14
385 14
38th 14
4,4@@ 14
4,6@@ 14
569 14
618 14
750 14
808 14
877 14
9,000 14
975 14
abandon 14
abdullah 14
abl 14
absorption 14
abundant 14
accept 14
accidentally 14
accordingly 14
accredited 14
acles 14
actively 14
acu@@ 14
adaptive 14
addres@@ 14
adela@@ 14
adverti@@ 14
aesthe@@ 14
afar 14
agari 14
agon 14
agro@@ 14
ailers 14
aj 14
alameda 14
aleksey 14
alexandra 14
alk@@ 14
ally-@@ 14
alternating 14
amphi@@ 14
amphitheatre 14
amy 14
ancho@@ 14
andrei 14
anje 14
announ@@ 14
anor 14
antarctica 14
ante@@ 14
anthropo@@ 14
ape@@ 14
appreci@@ 14
appren@@ 14
aravaca 14
argued 14
arina 14
aristocr@@ 14
arium 14
ary@@ 14
asap 14
ashers 14
ashes 14
assor@@ 14
astic 14
astrophysical 14
aten@@ 14
atheneum 14
ather@@ 14
aton 14
atti 14
atti@@ 14
aurora 14
authorised 14
automatically 14
avan@@ 14
avenues 14
aviaco 14
awan 14
ayers 14
back-to-@@ 14
bakery 14
balboa 14
balkan 14
ballybricken 14
bantam 14
banville 14
barker 14
barnoldswick 14
bat 14
battered 14
batumi 14
bear@@ 14
belief 14
belknap 14
belo 14
benny 14
bertelsmann 14
bi-@@ 14
bie 14
bihar 14
bious 14
bisected 14
blanca 14
blog 14
bner 14
bobby 14
boniface 14
boogaard 14
boogie 14
border-bottom 14
borrowed 14
brasil 14
brazel 14
brazoria 14
bro 14
broil 14
bron@@ 14
brussels- 14
buildin 14
burgers 14
burnt 14
bă@@ 14
c- 14
cabbages 14
cag@@ 14
camote 14
candlenut 14
capit@@ 14
carbon 14
carpenter 14
categories 14
catt@@ 14
cedar@@ 14
certain@@ 14
cession 14
cha 14
charity 14
charnock 14
check 14
chet 14
chorus 14
cire@@ 14
civilisation 14
cked 14
clackamas 14
clausura 14
clearly 14
cler@@ 14
climax 14
cluster 14
coat 14
coated 14
coimb@@ 14
collabor@@ 14
colleagues 14
combatant 14
come@@ 14
common@@ 14
comparable 14
conduc@@ 14
confirmation 14
conquist@@ 14
consolini 14
contempor@@ 14
controller 14
conversion 14
cooler 14
coron@@ 14
correspondence 14
corresponds 14
corvallis 14
costume 14
cots 14
coupes 14
credits 14
crews 14
crimin@@ 14
critically 14
crucial 14
culturally 14
customer 14
dahi 14
dair@@ 14
dang 14
db4 14
dc-@@ 14
ddy 14
deal@@ 14
debre@@ 14
debt 14
deco 14
decorations 14
decrease 14
dence 14
departing 14
derivatives 14
derive 14
dery@@ 14
dest 14
destro@@ 14
detail 14
devon 14
differed 14
digi@@ 14
dim 14
discovers 14
discuss 14
dismissed 14
dison 14
dispat@@ 14
dist@@ 14
distinguishing 14
diversified 14
divitt 14
dod@@ 14
dollar 14
dolph 14
dot 14
doubling 14
dream@@ 14
dres@@ 14
drinks 14
dwight 14
early-@@ 14
earthquake 14
ease 14
eaton 14
eber@@ 14
ecology 14
ed-@@ 14
edible 14
edit@@ 14
electricity 14
electropop 14
elef@@ 14
eling 14
elly 14
ely@@ 14
emig@@ 14
engined 14
enig@@ 14
enrollment 14
entran@@ 14
envis@@ 14
estado 14
ete 14
euphrates 14
european- 14
evan@@ 14
everett 14
exhibited 14
expatri@@ 14
experiencing 14
exploited 14
expo 14
fais@@ 14
falkirk 14
falling 14
fasc@@ 14
favoritner 14
favour 14
feb 14
fel 14
ffe 14
finely 14
firestone 14
fitting 14
fj@@ 14
fleetwood 14
flow@@ 14
fly@@ 14
folding 14
folklore 14
forlì 14
formula 14
frances 14
francesco 14
franch@@ 14
frank@@ 14
fraternity 14
friendship 14
fritanga 14
frosinone 14
full-back 14
functioned 14
gal 14
gather@@ 14
gauge 14
gauliga 14
generating 14
genie 14
georgi@@ 14
gest-@@ 14
ghent 14
ghts 14
gies 14
giorgetto 14
giri 14
gore 14
grads 14
grammo@@ 14
granbury 14
granting 14
grasshopper 14
grave@@ 14
great-@@ 14
groz@@ 14
gua 14
guad@@ 14
guairá 14
gul@@ 14
haarlem 14
hall@@ 14
hanover 14
happen@@ 14
happy 14
har 14
hardback 14
hari 14
harmonica 14
harold 14
harrington 14
hatcher 14
haver@@ 14
headwaters 14
helps 14
hendricks 14
here@@ 14
hid 14
hindu@@ 14
holi@@ 14
holker 14
homo@@ 14
hone@@ 14
hopmann 14
horror 14
hsbc 14
hugo 14
hydrazine 14
ibrahim 14
ices 14
icians 14
iff 14
igu@@ 14
illegal 14
illu@@ 14
immer@@ 14
immun@@ 14
impe@@ 14
impressed 14
ine-@@ 14
innes 14
inno@@ 14
inos 14
int@@ 14
integral 14
intellec@@ 14
intending 14
interceptions 14
interesting 14
intru@@ 14
inve@@ 14
inventor 14
invest 14
investigate 14
iowa 14
ironi 14
is- 14
it- 14
itan 14
iter@@ 14
jacks 14
jacob@@ 14
javenese 14
jesuits 14
joel 14
jorkens 14
jos 14
josiah 14
juaz@@ 14
kadhi 14
kand@@ 14
kangkung 14
kari@@ 14
karnatka 14
kasur 14
kelvin 14
kett 14
kirk 14
kirkwood 14
klemm 14
koreans 14
krak@@ 14
krasnodar 14
kri@@ 14
kuching 14
lacked 14
lancement 14
land-@@ 14
landowners 14
langoth 14
lawson 14
left-back 14
legu@@ 14
liechtenstein 14
lier 14
lieu@@ 14
lifetime 14
lightly 14
lij 14
lil 14
linguists 14
lining 14
liquor 14
lithu@@ 14
locking 14
logist 14
lope 14
lore 14
lowrance 14
ls@@ 14
lucky 14
lumber 14
lutt@@ 14
lí@@ 14
macchio 14
mack 14
mackerel 14
madre 14
magnetic 14
maha 14
makh@@ 14
manag@@ 14
manipu@@ 14
mao 14
max@@ 14
mayonnaise 14
mble 14
melt 14
mero 14
metry 14
mf 14
mickey 14
milieu 14
milla 14
millennia 14
minuteman 14
miriam 14
modelled 14
modes 14
modi@@ 14
moldova 14
montacute 14
moral 14
mos@@ 14
motoren@@ 14
mper 14
msa 14
msp 14
mtu 14
mulated 14
multi-purpose 14
multnomah 14
murphy 14
muscle 14
must@@ 14
myan@@ 14
nakadori 14
nam 14
name@@ 14
nancy 14
nap@@ 14
narrowly 14
naturally 14
nauchnij 14
nberg 14
near@@ 14
neft@@ 14
neighbours 14
nel 14
networks 14
nichols 14
nimrod 14
nock 14
north- 14
observ@@ 14
occupy 14
oh@@ 14
old-@@ 14
oldsmobile 14
olympi@@ 14
oming 14
ook 14
open-@@ 14
opo@@ 14
orbi 14
ord@@ 14
organic 14
oriental 14
orlando 14
ornam@@ 14
outlying 14
overseen 14
overthrow 14
pakhtunkhwa 14
pampanga 14
papandreou 14
part-time 14
parti@@ 14
participates 14
paternal 14
pec 14
peeled 14
pens 14
pep@@ 14
pers@@ 14
peru@@ 14
peti@@ 14
phono@@ 14
phyllis 14
picture 14
pin 14
pit 14
plen@@ 14
pler 14
plesetsk 14
plug 14
positioning 14
poured 14
predators 14
prev@@ 14
princely 14
probe 14
proclamation 14
propellants 14
proper@@ 14
proportion 14
prospect 14
py 14
pécs 14
quaid 14
quaker 14
quartermaster 14
quirke 14
rab@@ 14
radius 14
real-@@ 14
rebel 14
reeves 14
refin@@ 14
reflects 14
reid 14
reinforce 14
remote 14
rene 14
renov@@ 14
repeatedly 14
reporting 14
resemblance 14
reserved 14
retrac@@ 14
retri@@ 14
reunited 14
reverse 14
rhythmic 14
richards 14
ried 14
rigi@@ 14
rings 14
roberto 14
rockabilly 14
rockingham 14
rol 14
romane 14
rosa 14
rovich 14
sailed 14
sal 14
sanctioned 14
sardin@@ 14
sat-2 14
satisfy 14
saving 14
scandal 14
scar 14
schalke 14
schedu@@ 14
screenplay 14
sd 14
sden 14
sedans 14
seithenyn 14
senten@@ 14
sequ@@ 14
settling 14
sfx 14
shehbaz 14
shep@@ 14
shinzō 14
short-@@ 14
sib@@ 14
significance 14
signifying 14
sil 14
sio@@ 14
sioma 14
skins 14
slope 14
slopes 14
sne@@ 14
softer 14
sophistic@@ 14
sout 14
sovi@@ 14
span@@ 14
spanish@@ 14
sparsely 14
spezia 14
spiciness 14
square-foot 14
sre@@ 14
ssi 14
staff@@ 14
stag@@ 14
stant 14
state-@@ 14
staying 14
stile 14
stilo 14
stored 14
stral@@ 14
stran@@ 14
stronghold 14
stuck 14
subdivision 14
subduc@@ 14
substitu@@ 14
suf@@ 14
suited 14
summerfield 14
surrendered 14
surveying 14
survivors 14
suspected 14
swee@@ 14
sweetened 14
switch 14
sylvan@@ 14
syndic@@ 14
synodic 14
synon@@ 14
syrup 14
tailgate 14
taiwan 14
tallis 14
tanaka 14
tappara 14
teammate 14
techn@@ 14
telecommunications 14
tempo 14
tends 14
teri 14
terminals 14
th-tallest 14
the- 14
then- 14
thereby 14
thermal 14
thisted 14
thri@@ 14
thriving 14
ticketing 14
tilla 14
timber 14
timing 14
tones 14
toro 14
townsman 14
tractors 14
traits 14
transfers 14
transformation 14
transpor@@ 14
travan@@ 14
trenette 14
tri- 14
tribute 14
trinto@@ 14
trojans 14
truth 14
tsil@@ 14
tter 14
tuber@@ 14
tune 14
turbul@@ 14
ture 14
twel@@ 14
umg 14
underpin@@ 14
understand 14
undertaken 14
underwater 14
unfinished 14
unite 14
uro 14
uto 14
valladolid 14
verly 14
versatile 14
vibr@@ 14
vintage 14
vio 14
virage 14
virtually 14
visig@@ 14
visits 14
vital 14
vitus 14
volun@@ 14
voor@@ 14
vu@@ 14
wane 14
wanting 14
watts 14
wel 14
windshield 14
wolves 14
wyndham 14
württemberg 14
yamhill 14
yas@@ 14
yavadvipa 14
year@@ 14
yekaterinburg 14
yorktown 14
young@@ 14
yton 14
ywood 14
zano 14
zations 14
zeiss 14
zenit 14
zia 14
zine 14
zitarrosa 14
zuela 14
· 14
ápolis 14
ão 14
ê@@ 14
új@@ 14
ę@@ 14
ī@@ 14
​ 14
‎ 14
• 14
&#@@ 13
&apos;é@@ 13
000,000 13
10-@@ 13
10s 13
11,@@ 13
115 13
118 13
127 13
128@@ 13
12px 13
14,@@ 13
1537 13
161 13
166 13
173 13
179 13
18-@@ 13
1803 13
1805 13
1816 13
1820s 13
2,8@@ 13
220 13
24-hour 13
268 13
3,3@@ 13
3,5@@ 13
305 13
31st 13
33aa33 13
348 13
349 13
351 13
355 13
35th 13
37th 13
380 13
3em 13
4,5@@ 13
450 13
54th 13
555 13
60s 13
770 13
82nd 13
880 13
972 13
a-class 13
a4 13
aalborg 13
abner 13
abru@@ 13
acces@@ 13
accredit@@ 13
aceh 13
acha@@ 13
achi 13
acious 13
activate 13
actors 13
acular 13
adopting 13
ador@@ 13
ados 13
adults 13
adven@@ 13
advent 13
advocate 13
aesthetic 13
afford 13
agree 13
airing 13
aited 13
aktieselkab 13
albans 13
alee 13
alessandro 13
alia 13
aller 13
alo 13
ambu@@ 13
americana 13
amhara 13
amplitude 13
an-speaking 13
anato@@ 13
anci@@ 13
andaman 13
angry 13
angu@@ 13
ani@@ 13
anka 13
annu@@ 13
antenna 13
apar@@ 13
aper 13
appeti@@ 13
appoin@@ 13
ara@@ 13
archae@@ 13
aring 13
armis@@ 13
arnold 13
arrives 13
arroyo 13
arroz 13
arteon 13
arturo 13
asd 13
ashing 13
associations 13
aston@@ 13
auditorium 13
aux@@ 13
avo@@ 13
aware 13
azi 13
aç@@ 13
backbone 13
badge 13
bahawalpur 13
barrac@@ 13
barrier 13
basil@@ 13
beach@@ 13
bedro@@ 13
behavi@@ 13
beijing 13
belar@@ 13
beneath 13
bersatu 13
beside 13
best-selling 13
biffo 13
bill@@ 13
billi@@ 13
biological 13
biscocho 13
bits 13
bizarro 13
blade 13
blair 13
blasterjaxx 13
blin@@ 13
bolog@@ 13
bombers 13
borger 13
bornholm 13
borowiecki 13
bowling 13
boxing 13
bp 13
brag@@ 13
brass@@ 13
brayer 13
brazos 13
breaker 13
brenner 13
broker 13
bryning 13
bulletin 13
burial 13
burke 13
butter@@ 13
cally 13
capistrano 13
caram@@ 13
cardi@@ 13
cardinal 13
carinthia 13
carne 13
cascade 13
castell@@ 13
catoctin 13
cdb 13
celebrations 13
cence 13
centre-back 13
centrum 13
cf 13
cgt 13
challenger 13
chauncey 13
cheese@@ 13
chick@@ 13
chodacki 13
chron@@ 13
chronicles 13
cis@@ 13
clam@@ 13
clara 13
clash 13
clovis 13
co-produced 13
co-wrote 13
coalitions 13
coliseum 13
colleague 13
compart@@ 13
complement 13
compli@@ 13
compliment 13
composite 13
computer-@@ 13
confined 13
congee 13
congregation 13
conquistadores 13
consistency 13
consum@@ 13
conting@@ 13
convicted 13
cool@@ 13
cor 13
corner@@ 13
corresponding 13
cosm@@ 13
costu@@ 13
craf 13
craf@@ 13
creati@@ 13
crespi 13
cribed 13
crippled 13
croydon 13
cs1-kern-right 13
cs1-lock-limited 13
culi@@ 13
culmination 13
cumb@@ 13
cursor 13
d23 13
daniele 13
dat 13
daw@@ 13
declar@@ 13
denied 13
denomination 13
deplo@@ 13
deri@@ 13
descendant 13
desperate 13
desteapta 13
destroyer 13
die@@ 13
dion 13
directorate 13
disciplines 13
discontinuation 13
distinc@@ 13
distur@@ 13
dity 13
dling 13
dmitri 13
doc@@ 13
dominion 13
door@@ 13
dough@@ 13
download 13
downs 13
doña 13
drabble 13
drafting 13
dropping 13
drought 13
duluth 13
durban 13
dynas@@ 13
ech@@ 13
ecuador 13
eda 13
edg@@ 13
edge@@ 13
eds 13
ejected 13
electronically 13
elek@@ 13
elevators 13
elli@@ 13
else 13
embar@@ 13
emerson 13
employ 13
encer 13
enchantress 13
encla@@ 13
encompass 13
enforcement 13
enga 13
engaging 13
enheim 13
ensuring 13
ental 13
equatorial 13
err@@ 13
erson 13
esposit@@ 13
essed 13
ests 13
eug@@ 13
eurasian 13
europop 13
evident 13
excess 13
exit 13
expl@@ 13
explan@@ 13
extended-@@ 13
external 13
facilitated 13
failures 13
fascinated 13
fault 13
favour@@ 13
federalized 13
femme 13
ferenc 13
feu@@ 13
five-door 13
fixing 13
flashman 13
flavo@@ 13
flesh 13
fletcher 13
flin@@ 13
flood 13
florian 13
florianó@@ 13
fog 13
follow-up 13
fond 13
fore 13
frankish 13
fransokyo 13
fraud 13
freelance 13
frontman 13
fuj@@ 13
fullerton 13
funer@@ 13
funky 13
furness 13
fused 13
futsal 13
garcia 13
gast@@ 13
gath@@ 13
gathering 13
gees 13
gejdenson 13
gentrification 13
ggles 13
ghton 13
gian 13
gill 13
gior@@ 13
giu@@ 13
giuseppe 13
gno 13
gospel 13
grandmother 13
graph@@ 13
graz 13
graz@@ 13
groupings 13
guards 13
guen@@ 13
guerrero 13
guine@@ 13
gujar@@ 13
gustav 13
gymnas@@ 13
hamada 13
hamp@@ 13
hannover 13
hansa 13
harrisburg 13
harve@@ 13
hatch 13
hatchback 13
heated 13
heavy-lift 13
hebe 13
hectares 13
heinrich 13
heinz 13
hellen@@ 13
hem 13
hemi 13
herb 13
hic@@ 13
hire 13
hofple@@ 13
hog@@ 13
hoods 13
hoped 13
hoping 13
howth 13
ht 13
hubs 13
huddersfield 13
héctor 13
ibo@@ 13
icans 13
icbm 13
iced 13
icing 13
icio 13
icker 13
icy 13
id-lock-limited 13
id-lock-registration 13
id-lock-subscription 13
ight 13
ignacy 13
igne 13
igned 13
ildjarn 13
ilitie 13
illustrations 13
imed 13
impres@@ 13
inadequ@@ 13
incar@@ 13
industrialised 13
industrialized 13
infer@@ 13
influx 13
insisted 13
instruction 13
intelligen@@ 13
inter- 13
intercept 13
introducing 13
inven@@ 13
inverness 13
ious 13
istan 13
jacobean 13
jagung 13
jah 13
jena 13
jettison@@ 13
jews 13
jive 13
join@@ 13
jose@@ 13
josef 13
jts 13
julie 13
jump 13
juve 13
juven@@ 13
juventud 13
kadavanthra 13
kandor 13
kare@@ 13
karen 13
kath@@ 13
keeps 13
kem@@ 13
kildare 13
kinley 13
kirkland 13
kki 13
knockout 13
kolf@@ 13
koshland 13
kovich 13
kutch 13
labeled 13
laine 13
lawman 13
learns 13
leather 13
lein 13
lett@@ 13
levi 13
lid 13
liftoff 13
light-@@ 13
lij@@ 13
listeners 13
lity 13
liveright 13
lly 13
lobby 13
logging 13
lois 13
longitude 13
loved 13
lovely 13
lr-@@ 13
luca 13
lufkin 13
lunch 13
lur 13
luxurious 13
ló@@ 13
lú@@ 13
madhya 13
maer@@ 13
mak@@ 13
males 13
managers 13
mand@@ 13
manto@@ 13
margin-left 13
mariano 13
marines 13
marketplace 13
martha 13
martinez 13
matar@@ 13
mbled 13
mead@@ 13
measurement 13
menace 13
meritorious 13
mesclun 13
meteor@@ 13
mic 13
mick 13
midfield 13
midwestern 13
mika 13
mill@@ 13
millio 13
mineral 13
minicipal 13
ministries 13
mlin 13
mming 13
moderate 13
moira 13
monnet 13
monsters 13
moo@@ 13
motorway 13
mson 13
muddy 13
multi-engine 13
mythical 13
nachtmystium 13
nación 13
naft 13
nagar 13
nagorno- 13
nagoya 13
nar 13
nascar 13
nash@@ 13
nasrid 13
nati@@ 13
nd@@ 13
neck 13
negro 13
neo 13
nephew 13
neu@@ 13
neuj@@ 13
nian 13
nico@@ 13
nikolai 13
nim@@ 13
nola 13
nominal 13
nominations 13
nordic 13
norte 13
northward 13
noticed 13
nyc 13
nypd 13
observatio 13
odd 13
odis@@ 13
odon@@ 13
odyssey 13
olan 13
ologist 13
oma 13
orchard 13
orchestr@@ 13
orien@@ 13
oring 13
orthodox 13
otak-otak 13
oting 13
ott 13
ough 13
overnight 13
owes 13
own@@ 13
pac-@@ 13
packages 13
padua 13
paella 13
pang@@ 13
pard 13
passion 13
payment 13
payne 13
pc 13
peer 13
penetr@@ 13
penned 13
penz@@ 13
period@@ 13
pero 13
persecu@@ 13
personally 13
petro@@ 13
peugeot 13
pfc 13
pher@@ 13
phic 13
phonogram 13
picador 13
picking 13
picks 13
pige@@ 13
pike 13
pilo@@ 13
plantations 13
planted 13
pleas@@ 13
plural 13
poem 13
pola 13
poplar 13
portland- 13
post-grunge 13
post-war 13
postmaster 13
posts 13
potosí 13
pottery 13
powermaster 13
ppen 13
practices 13
prado 13
precisely 13
prefix 13
prelude 13
preparing 13
presenters 13
principle 13
profesional 13
professionals 13
profound 13
program@@ 13
propri@@ 13
prose 13
protests 13
proto@@ 13
ptions 13
puebla 13
pursu@@ 13
puts 13
pécsi 13
radcliffe 13
rains 13
ral 13
rama 13
rappahannock 13
rd-0124 13
re-released 13
reactions 13
readers 13
readily 13
reappeared 13
rear-@@ 13
rear-wheel 13
rectrix 13
regard 13
reggina 13
reinforcements 13
relevant 13
relieved 13
renew@@ 13
repertoire 13
resemble 13
reserv@@ 13
respected 13
reverted 13
rick@@ 13
ridge@@ 13
right-back 13
rik 13
riot 13
rocks 13
rom@@ 13
routine 13
runner 13
rí@@ 13
sacks 13
sailor 13
salo@@ 13
salta 13
salto 13
sani 13
sardo 13
saurashtra 13
savage 13
saxony 13
scandinavian 13
schel 13
scilly 13
sdorf 13
secretariat 13
sell@@ 13
semi 13
sens 13
sensitive 13
senti@@ 13
seriously 13
serted 13
sg@@ 13
shaheen 13
shoulder 13
siberia 13
sided 13
sigma 13
sik@@ 13
silla 13
silva 13
sin 13
sko@@ 13
slotted 13
slow@@ 13
snow@@ 13
société 13
sol 13
solutions 13
sonar 13
soups 13
spacewalk 13
spark@@ 13
spearheaded 13
spectra 13
specul@@ 13
splendid 13
splits 13
splitting 13
spotted 13
spun 13
squads 13
ssr 13
stad@@ 13
staffordshire 13
starsem 13
stere@@ 13
stewart 13
stic 13
str 13
strafford 13
stration 13
strict 13
stry 13
sty 13
su-30 13
submerged 13
submergence 13
subur@@ 13
suc@@ 13
sue 13
sugar@@ 13
sul@@ 13
superseded 13
supervillain 13
surgery 13
syri@@ 13
sü@@ 13
tacuarembó 13
taller 13
tam 13
tegl@@ 13
tension 13
terhouse 13
teri@@ 13
terror 13
tery 13
textile 13
theatres 13
theatric@@ 13
theoretical 13
thian 13
think 13
tilton 13
tis@@ 13
tommy 13
tomor@@ 13
tong@@ 13
tornado 13
tostones 13
toy 13
tracking 13
train@@ 13
transitional 13
treaties 13
trenton 13
trevor 13
tri 13
trillion 13
trim@@ 13
trimmed 13
trin@@ 13
trium@@ 13
tsardom 13
tucumán 13
tunstall 13
turboprop 13
tv@@ 13
twin@@ 13
tying 13
ubi@@ 13
ues 13
unding 13
unfortun@@ 13
uniting 13
unity 13
uno 13
upright 13
urg@@ 13
usher 13
utilized 13
utilizing 13
utt@@ 13
uzbekistan 13
vacancy 13
valle 13
vancouver- 13
vaughn 13
vehic@@ 13
velo@@ 13
veniz@@ 13
ventura 13
vet 13
vg 13
viable 13
vigor@@ 13
vizi@@ 13
viñoly 13
void 13
volu@@ 13
volunteered 13
vár 13
vé@@ 13
waiting 13
wak@@ 13
waliso 13
wallo@@ 13
wang 13
ware@@ 13
warning 13
waterways 13
watkins 13
watsonville 13
webster 13
welcome 13
weldon 13
wester@@ 13
whitehead 13
whitney 13
wicklow 13
wir@@ 13
witt 13
xt@@ 13
xx@@ 13
yala 13
yam@@ 13
ylan 13
yp@@ 13
ysville 13
yu 13
zaandam 13
zap@@ 13
å 13
ères 13
ús 13
úñ@@ 13
œ@@ 13
ɛ@@ 13
ɡ@@ 13
&@@ 12
000@@ 12
124 12
130@@ 12
170@@ 12
188 12
193@@ 12
aca 12
accompan@@ 12
aceae 12
acle 12
adem@@ 12
adis@@ 12
aen@@ 12
ague 12
ales@@ 12
alli 12
announcing 12
apium 12
appointing 12
appointments 12
appropriated 12
aps 12
aptos 12
apuram 12
aquabats 12
aquaman 12
aramburu 12
ardini 12
artifacts 12
asier 12
assignment 12
assin@@ 12
assisi 12
asted 12
astrium 12
athle@@ 12
atie 12
auburn- 12
authoriz@@ 12
autobiographical 12
availability 12
aver 12
awareness 12
aérospatiale 12
b20 12
babyl@@ 12
baden- 12
bai 12
balinese 12
ballots 12
balochistan 12
bang@@ 12
barro@@ 12
basically 12
batstone 12
beech 12
beh@@ 12
behavioral 12
believes 12
believing 12
bels 12
benedic@@ 12
bengal@@ 12
bennu 12
benson 12
bestseller 12
bian 12
bic 12
biggs 12
birr 12
blake 12
blast 12
bloomfield 12
boon@@ 12
boost 12
borleng@@ 12
bote 12
bourg 12
boydton 12
bradford 12
brainard 12
brechin 12
brilliant 12
broadcaster 12
bros 12
bud 12
caball@@ 12
caf@@ 12
cafe 12
cafes 12
calisto 12
camilla 12
campedelli 12
campur 12
camshaft 12
cann 12
cano 12
caree 12
carlock 12
carrot 12
carrots 12
casa 12
categ@@ 12
celebrates 12
cell 12
ception 12
cesana 12
cester 12
ceuta 12
ch-@@ 12
chairs 12
charrúa 12
cheddar 12
chess 12
chiefly 12
chihuahua 12
chino 12
chipman 12
chips 12
chow@@ 12
christina 12
chronic@@ 12
cinem@@ 12
circu@@ 12
city-county 12
cky 12
clarence 12
classics 12
claudiomaccone 12
clemen@@ 12
climates 12
clockwise 12
coal-@@ 12
cof@@ 12
collided 12
collisi@@ 12
commando 12
commerci@@ 12
compiled 12
comune 12
concep@@ 12
concepción 12
concer@@ 12
condominiums 12
conducting 12
confi@@ 12
coni 12
consistently 12
contacted 12
controllers 12
converti@@ 12
corazón 12
corn@@ 12
cornelius 12
corpor@@ 12
corporations 12
correspon@@ 12
corrientes 12
cors@@ 12
coruña 12
counterattack 12
cowdenbeath 12
crack 12
craters 12
croati@@ 12
cross@@ 12
crosstour 12
crunchy 12
cue 12
culminated 12
culpeper 12
cybele 12
cyclone 12
cypr@@ 12
daim@@ 12
danger 12
dant 12
dar 12
dara 12
dations 12
davies 12
daytona 12
db9 12
dc-9 12
dechman 12
dedication 12
defense@@ 12
definitions 12
deforestation 12
demonstration 12
demoted 12
der-@@ 12
derland 12
descendants 12
desig@@ 12
desk 12
deterior@@ 12
detto 12
differ@@ 12
differential 12
differing 12
digit 12
dinner 12
diplo@@ 12
dispar@@ 12
displaying 12
disrup@@ 12
dissatis@@ 12
distinguis@@ 12
distorted 12
distribute 12
distributes 12
diy 12
diya 12
do-@@ 12
dock@@ 12
dodd 12
donetsk 12
doubt 12
dowd 12
dragon@@ 12
dragons 12
dramatically 12
drive@@ 12
drumming 12
dus 12
dwarf 12
dyne 12
düssel@@ 12
earth-@@ 12
easter@@ 12
ech 12
ecological 12
eder@@ 12
edged 12
edmund 12
edsel 12
ees 12
eintracht 12
eissn 12
eldorado 12
elects 12
elled 12
elwood 12
embase 12
embraer 12
eminent 12
employers 12
employing 12
encar@@ 12
enclosed 12
endeav@@ 12
engage 12
enhan@@ 12
ening 12
enjoyment 12
enjoys 12
enplanements 12
ensuing 12
ento 12
entre 12
erbil 12
erne@@ 12
escaped 12
espoused 12
euclid 12
eurasia 12
evolve 12
exactly 12
experiments 12
export 12
extra-@@ 12
extrac@@ 12
f1 12
facilit 12
facts 12
falkland 12
familiar 12
fare 12
farmland 12
farther 12
fastback 12
favor@@ 12
fermented 12
ferries 12
fidd@@ 12
fidel@@ 12
fiel@@ 12
firpo 12
fish@@ 12
flag@@ 12
flanking 12
flavoured 12
fleming 12
flies 12
floyd 12
follow@@ 12
font-weight 12
footbal 12
footh@@ 12
fordshire 12
forged 12
formations 12
four-wheel 12
franciscan 12
fraser 12
friction 12
friedrich 12
frisian 12
fry@@ 12
full-sized 12
furniture 12
gali@@ 12
galicia 12
gallo 12
gambling 12
gano 12
garcía 12
garnished 12
gart 12
gations 12
gaussia 12
gauteng 12
gay 12
general@@ 12
geoffrey 12
geor@@ 12
germain 12
gerstman 12
gheny 12
ghia 12
gino 12
glad@@ 12
godflesh 12
godha 12
gol 12
gondar 12
gos@@ 12
govern 12
governance 12
gps 12
grabski 12
grains 12
granddaughter 12
graphs 12
greenland 12
greg@@ 12
grigory 12
grin@@ 12
grou 12
ground-@@ 12
guidelines 12
guiding 12
gymnasium 12
haji 12
haley 12
hallescher 12
halwara 12
hangars 12
hans 12
hardie 12
hare 12
harris@@ 12
harrow 12
hart@@ 12
hazardous 12
hc@@ 12
headlights 12
hear 12
hei@@ 12
hell@@ 12
hellas 12
hendri@@ 12
heral@@ 12
hermann 12
heroism 12
herrera 12
hershey 12
hiatus 12
high-tech 12
highlighted 12
histor@@ 12
home-@@ 12
honored 12
hopper 12
howald@@ 12
hta 12
humanity 12
hurricane 12
iabadiu 12
ib 12
icate 12
ideals 12
ignacio 12
ignited 12
ilam@@ 12
ill@@ 12
illness 12
illumin@@ 12
illy 12
ilo 12
in-house 12
inae 12
independi@@ 12
infamous 12
inflation 12
influencing 12
inform 12
informal 12
inger@@ 12
inlet 12
inspector 12
instated 12
interamnia 12
intern@@ 12
invasions 12
invest@@ 12
invol@@ 12
irby 12
irun 12
irwin 12
ische 12
isha 12
isobe 12
itiner@@ 12
iu 12
j-series 12
jabloteh 12
jackie 12
jailed 12
jake 12
janeiro 12
joaqu@@ 12
joker@@ 12
julian 12
jungle 12
jury 12
kacy 12
kalo@@ 12
kannur 12
kathiawar 12
kaw@@ 12
kaz@@ 12
kea 12
keep@@ 12
kemangi 12
kerkrade 12
kern 12
kharaitiyat 12
kingston 12
knock@@ 12
knudsen 12
kok 12
krakatoa 12
krish@@ 12
kuntse@@ 12
kut@@ 12
lace 12
lambeth 12
landfill 12
landreth 12
langu@@ 12
larson 12
lc-@@ 12
le- 12
lectures 12
lefto@@ 12
legged 12
lely@@ 12
lemantan 12
lenti@@ 12
leo@@ 12
letter@@ 12
levant 12
librarian 12
licata 12
lindbergh 12
lipp@@ 12
livio 12
locus 12
logan 12
logi@@ 12
lonely 12
long-term 12
loris 12
lors 12
lough@@ 12
lounsbury 12
lover 12
lowlands 12
lt; 12
lwów 12
lynn 12
lyric@@ 12
lü@@ 12
machin@@ 12
mack@@ 12
madura 12
maggiora 12
mainstays 12
malayan 12
malik 12
man- 12
mancha 12
mani 12
manife@@ 12
manis@@ 12
mansfield 12
manu@@ 12
massalia 12
mathemati@@ 12
mazdaspeed3 12
mcollapse 12
medlock 12
mel 12
mello@@ 12
melo 12
mendr@@ 12
ment-@@ 12
merchand@@ 12
message 12
meuse 12
mexicans 12
mid-19th 12
mika@@ 12
mol 12
moni@@ 12
monopoly 12
monterrey 12
monton@@ 12
morelos 12
mort@@ 12
mortally 12
mosa 12
mulate 12
muni@@ 12
murcia 12
mw 12
mw-selflink 12
mw@@ 12
myriad 12
mönchengladbach 12
nadu 12
nair 12
nal 12
namibia 12
nass@@ 12
nationally 12
navajo 12
nec@@ 12
need@@ 12
neighbors 12
nev@@ 12
newtown 12
ng 12
nial 12
nicolás 12
nightclub 12
nip 12
nomad 12
nomin@@ 12
normandy 12
northampton 12
nott 12
novosibirsk 12
nozz@@ 12
noël 12
np@@ 12
nuclear-powered 12
numb@@ 12
nx 12
observing 12
obvi@@ 12
occidental 12
occultations 12
oceanographic 12
oceans 12
ogden@@ 12
ohayon 12
oli 12
olimpia 12
olym@@ 12
ondale 12
oneida 12
opens 12
operative 12
ordin@@ 12
ores 12
org@@ 12
organis@@ 12
orist 12
orph@@ 12
ortho@@ 12
ossi 12
ostr@@ 12
ov@@ 12
overhaul 12
padding-right 12
padeh 12
paintings 12
pak 12
pale@@ 12
palencia 12
pall@@ 12
pangk@@ 12
papaya 12
parachute 12
parad@@ 12
paradis@@ 12
paran@@ 12
parkinson 12
parlo@@ 12
partial 12
partido 12
partitioned 12
pastries 12
paterson 12
patterns 12
pavilion 12
pec@@ 12
pedals 12
pedestri@@ 12
pempek 12
pending 12
performer 12
perreault 12
perrin 12
perspectives 12
persu@@ 12
perturb@@ 12
pesaka 12
peso 12
pflugerville 12
pha@@ 12
phair 12
philippa 12
phus 12
pid 12
pig@@ 12
pilgri@@ 12
placement 12
placer 12
plague 12
plained 12
platt@@ 12
playter 12
poin@@ 12
pokal 12
polytechnic 12
ponta 12
poor@@ 12
poorly 12
ported 12
portolà 12
posthum@@ 12
postp@@ 12
pratt 12
prec@@ 12
premiere 12
presided 12
pressur@@ 12
pressures 12
presumably 12
pringle 12
prisoner 12
proced@@ 12
processes 12
projec 12
promising 12
promotes 12
properly 12
proportional 12
proposals 12
prosp@@ 12
prosperous 12
protestant 12
prototy@@ 12
providence 12
psych@@ 12
pta 12
puskás 12
płomień 12
qasim 12
qing 12
qualifications 12
qualities 12
quantities 12
quarters 12
quentin 12
questions 12
quinn 12
quit 12
r- 12
rabbit 12
radab 12
rafique 12
rag 12
raiders 12
rainfall 12
raj 12
rajwana 12
ramboll 12
rash 12
raw@@ 12
rawon 12
reads 12
rebounds 12
recession 12
recognizable 12
reconc@@ 12
rectangular 12
redesign 12
redeveloped 12
refurbishment 12
rejoin 12
relinqu@@ 12
remarked 12
rement 12
reminiscent 12
remixes 12
rename 12
reorganisation 12
replaces 12
reprint 12
republ@@ 12
republicans 12
resemb@@ 12
resist 12
resolved 12
retaliation 12
retrovir@@ 12
retrovirus 12
revel@@ 12
revitalization 12
rhi@@ 12
rica 12
richelieu 12
rig@@ 12
robbery 12
robbie 12
robles 12
rockdale 12
roller 12
româ@@ 12
rory 12
rosco@@ 12
roseanne 12
rostov 12
round-robin 12
rover 12
row@@ 12
rs-2 12
rumored 12
runners 12
rust 12
ruutu 12
sag@@ 12
saint-étienne 12
salford 12
sandbach 12
sank 12
sargon 12
sas@@ 12
saskatoon 12
schellingwou@@ 12
schi@@ 12
scholar@@ 12
scholastic 12
schoo 12
schärf 12
scratching 12
screen@@ 12
script 12
seasoning 12
seasonings 12
seco 12
seetours 12
sei@@ 12
selangor 12
sells 12
separ@@ 12
servicing 12
sharp@@ 12
sharpsburg 12
shephard 12
shifts 12
shoegaz@@ 12
shogunate 12
shootout 12
siber@@ 12
sigh@@ 12
sillerman 12
silvio 12
sire 12
skill 12
skyline 12
slim 12
sme@@ 12
smeer 12
smoke 12
socks 12
solicitor 12
solomon 12
someday 12
songwriters 12
south- 12
southe@@ 12
spagna 12
specials 12
spin-@@ 12
spl@@ 12
splend@@ 12
stack 12
stalls 12
stance 12
stand-alone 12
starr 12
stearns 12
stevenson 12
stints 12
storeys 12
strictly 12
striking 12
struggling 12
stylized 12
sub 12
subbotina 12
subcities 12
subcompact 12
subsidiaries 12
subtropical 12
sudden 12
suddenly 12
supre@@ 12
surgeon 12
surrey 12
surroundings 12
suspici@@ 12
symph@@ 12
synthesis 12
synthesizer 12
szen@@ 12
t-up 12
table@@ 12
tai@@ 12
taining 12
tallmadge 12
tamaulipas 12
tana 12
targeted 12
tarrag@@ 12
tbody 12
teach 12
teisaire 12
tel@@ 12
tela@@ 12
telford 12
thatcher 12
the-@@ 12
theat@@ 12
therap@@ 12
thers 12
thorpe 12
thouse 12
thunder@@ 12
thunderbirds 12
tie@@ 12
tierney 12
tirol 12
titl 12
tius 12
tlx 12
tokugawa 12
tracy 12
trades 12
transferring 12
transform 12
treas@@ 12
treatment 12
tribal 12
tribun@@ 12
trilogy 12
trips 12
triumph 12
trump 12
tsim 12
tui 12
turon 12
uba 12
undefeated 12
under-20 12
understood 12
undertake 12
undertook 12
uniformed 12
unions 12
unrest 12
urbanized 12
ure@@ 12
uriburu 12
uru 12
usaaf 12
usc 12
useni 12
utilis@@ 12
uts 12
valdosta 12
vale 12
valent 12
vals 12
vegetation 12
vey 12
viceroy 12
vick@@ 12
villar@@ 12
virden 12
viven@@ 12
vladi@@ 12
walkin@@ 12
war-@@ 12
warehouses 12
warships 12
wartime 12
wash@@ 12
washed 12
weap@@ 12
wears 12
wee 12
ween 12
weigh@@ 12
well-defined 12
wellness 12
wered 12
wherein 12
whites 12
wicz 12
wide-ranging 12
widen@@ 12
will@@ 12
williamsville 12
willys- 12
wingate 12
winni@@ 12
withdraw 12
witter 12
woodward 12
wooster 12
workshop 12
worlds 12
wr 12
wrestling 12
wu@@ 12
x-type 12
xasthur 12
xl 12
xx 12
yad 12
yar 12
yeoman 12
yi@@ 12
yl 12
yours 12
yuba 12
zeppelin 12
zero 12
zir@@ 12
zulu@@ 12
álvarez 12
ás 12
öl@@ 12
ør@@ 12
ławek 12
škoda 12
ști 12
ɔː@@ 12
ʊ@@ 12
а@@ 12
ل@@ 12
َ@@ 12
158 11
aband@@ 11
ablo 11
accla@@ 11
achu@@ 11
ación 11
adesh 11
adirond@@ 11
affili@@ 11
alties 11
ambro@@ 11
amo 11
ancy 11
antly 11
apers 11
aram@@ 11
arran@@ 11
arrange@@ 11
arro 11
ashed 11
assum@@ 11
atin@@ 11
atten@@ 11
attrac@@ 11
august@@ 11
bare@@ 11
bbi@@ 11
begin@@ 11
bited 11
block@@ 11
bloom@@ 11
brock@@ 11
buddh@@ 11
buz@@ 11
by-@@ 11
caa 11
cak@@ 11
carmel@@ 11
carr@@ 11
cca 11
chy 11
civ@@ 11
civil@@ 11
ción 11
clau@@ 11
coli 11
collap@@ 11
colo 11
combat@@ 11
commun@@ 11
ctively 11
datab@@ 11
dau@@ 11
dding 11
deli@@ 11
depar@@ 11
design@@ 11
dest@@ 11
develop@@ 11
dge@@ 11
dl 11
docu@@ 11
drum@@ 11
eca 11
ecc@@ 11
econo@@ 11
elle 11
en- 11
engag@@ 11
enjo@@ 11
equi@@ 11
error 11
exhau@@ 11
explor@@ 11
facilit@@ 11
fashi@@ 11
fast@@ 11
fection@@ 11
ferred 11
fier 11
flash@@ 11
francis@@ 11
friend@@ 11
front-@@ 11
gos 11
graaf@@ 11
gram@@ 11
graphical 11
gui@@ 11
health@@ 11
hio 11
hispan@@ 11
hond@@ 11
ilians 11
ind 11
infra@@ 11
ingle 11
inher@@ 11
inn@@ 11
inste@@ 11
interchange@@ 11
intr@@ 11
ister 11
ital 11
ith@@ 11
krit 11
lab 11
lac 11
large@@ 11
lew@@ 11
lingu@@ 11
locked 11
luf@@ 11
lump@@ 11
maneu@@ 11
manufac@@ 11
meat@@ 11
mete@@ 11
mish 11
mist@@ 11
mitted 11
naw@@ 11
nell 11
nep@@ 11
newsp@@ 11
nmost 11
nr@@ 11
ober@@ 11
occup@@ 11
offs 11
ois 11
olimp@@ 11
op 11
orial 11
ority 11
ould 11
paci@@ 11
pallo@@ 11
paralle@@ 11
patric@@ 11
pene@@ 11
politan 11
popular@@ 11
populari@@ 11
preven@@ 11
process@@ 11
propo@@ 11
provi@@ 11
psy@@ 11
psychede@@ 11
quir@@ 11
regg@@ 11
requi@@ 11
restor@@ 11
restric@@ 11
roe 11
samp@@ 11
serts 11
shri@@ 11
slov@@ 11
sole@@ 11
som 11
spati@@ 11
speak@@ 11
stin 11
sumed 11
surf@@ 11
tage 11
tern@@ 11
thia 11
tik@@ 11
till@@ 11
toy@@ 11
trop@@ 11
tted 11
tually 11
turally 11
twer@@ 11
usu@@ 11
vall@@ 11
vil 11
wara 11
wär@@ 11
yav@@ 11
ández 11
ő@@ 11
š 11
ɑ@@ 11
00s 10
05@@ 10
20s 10
55@@ 10
absorb@@ 10
addic@@ 10
adop@@ 10
albe@@ 10
albu@@ 10
alexand@@ 10
andalu@@ 10
aned 10
anten@@ 10
archipel@@ 10
archite@@ 10
assassin@@ 10
aste 10
asunci@@ 10
atories 10
aust@@ 10
aveng@@ 10
aving 10
badu@@ 10
baj@@ 10
barri@@ 10
bec 10
belle 10
beng@@ 10
bhai 10
brou@@ 10
brough 10
carri@@ 10
casu@@ 10
certi@@ 10
clevel@@ 10
competit@@ 10
cont@@ 10
contin@@ 10
copy@@ 10
cott 10
coup@@ 10
cry@@ 10
dang@@ 10
defin@@ 10
define 10
democr@@ 10
depart@@ 10
depu@@ 10
dete@@ 10
detro@@ 10
dev@@ 10
dimen@@ 10
do- 10
dot@@ 10
dow 10
dw@@ 10
edonia 10
egy@@ 10
ei 10
elect@@ 10
elo 10
emphas@@ 10
ented 10
escap@@ 10
eth 10
eti 10
europe@@ 10
fail@@ 10
finan@@ 10
friedr@@ 10
german@@ 10
gon 10
gren@@ 10
guit@@ 10
haul 10
homeste@@ 10
humb@@ 10
icz 10
ilia 10
inc@@ 10
inclin@@ 10
indian@@ 10
induc@@ 10
inging 10
inner@@ 10
interrup@@ 10
inves@@ 10
istan@@ 10
jected 10
ket@@ 10
kinson 10
kok@@ 10
koz@@ 10
kras@@ 10
ladi@@ 10
leaf@@ 10
leag@@ 10
libertad@@ 10
like@@ 10
lished 10
lo- 10
lum@@ 10
lé@@ 10
magnit@@ 10
mali@@ 10
materi@@ 10
mathematici@@ 10
mee@@ 10
midfiel@@ 10
mili@@ 10
minu@@ 10
mise 10
mississi@@ 10
moldo@@ 10
mugh@@ 10
neigh@@ 10
nex@@ 10
no-@@ 10
nol@@ 10
numer@@ 10
occul@@ 10
occur@@ 10
origin@@ 10
owa 10
pione@@ 10
pling 10
popul@@ 10
pora 10
porto@@ 10
poul@@ 10
prefe@@ 10
raj@@ 10
ral@@ 10
ration 10
reas@@ 10
recog@@ 10
refle@@ 10
repeat 10
resu@@ 10
reviewed 10
rin 10
rium 10
robo@@ 10
rom 10
rome@@ 10
rough@@ 10
rug@@ 10
sate@@ 10
sburgh 10
schöne@@ 10
secu@@ 10
seem@@ 10
shaf@@ 10
sier@@ 10
sime@@ 10
spel@@ 10
stab@@ 10
stap@@ 10
steph@@ 10
store@@ 10
story@@ 10
succes@@ 10
suppor@@ 10
sus 10
suspe@@ 10
syste@@ 10
talist 10
tch 10
techno@@ 10
tempor@@ 10
theod@@ 10
transport@@ 10
tre 10
unge 10
ural 10
urance 10
urn@@ 10
vine@@ 10
viol@@ 10
vist 10
vot@@ 10
winter@@ 10
wiya 10
xed 10
youn@@ 10
zaw@@ 10
î@@ 10
ò 10
đ@@ 10
ē@@ 10
ł 10
ر@@ 10
290 9
30s 9
843 9
` 9
accur@@ 9
activi@@ 9
acán 9
administr@@ 9
aked 9
alan@@ 9
apol@@ 9
approxim@@ 9
aser 9
asha 9
assis 9
attor@@ 9
aud 9
austro@@ 9
azer@@ 9
azione 9
bara 9
baron@@ 9
beauti@@ 9
bey@@ 9
blin 9
boa 9
boar@@ 9
bod@@ 9
boli@@ 9
borro@@ 9
brad@@ 9
chihuahu@@ 9
christian@@ 9
citi@@ 9
clack@@ 9
clari@@ 9
cocho 9
comb@@ 9
cott@@ 9
crete 9
crip@@ 9
dai@@ 9
decor@@ 9
dee 9
dham 9
discover@@ 9
diversi@@ 9
domestic@@ 9
dwell 9
emphasiz@@ 9
environ@@ 9
exerc@@ 9
fas@@ 9
ferencvá@@ 9
finis@@ 9
forti@@ 9
furt 9
gaard 9
geon 9
ghe@@ 9
gil 9
giovan@@ 9
glob@@ 9
herit@@ 9
hier@@ 9
hn 9
hok@@ 9
holm 9
horse@@ 9
illustr@@ 9
ilo@@ 9
immig@@ 9
iner@@ 9
inhabit@@ 9
iring 9
isio 9
islam@@ 9
isted 9
jaz@@ 9
jour@@ 9
journ@@ 9
juni@@ 9
kup@@ 9
laun@@ 9
lear@@ 9
legis@@ 9
leip@@ 9
lem 9
listen@@ 9
lomb@@ 9
mahar@@ 9
malab@@ 9
map@@ 9
maxi@@ 9
mberg 9
melo@@ 9
miss@@ 9
mist 9
mn@@ 9
mula 9
muse@@ 9
myste@@ 9
mysti@@ 9
naj@@ 9
necess@@ 9
negr@@ 9
nered 9
nised 9
noon 9
novo@@ 9
ods 9
omar 9
omin@@ 9
onica 9
ood 9
oral 9
paleo@@ 9
patter@@ 9
phenomen@@ 9
plex 9
ponti@@ 9
prair@@ 9
prepar@@ 9
prising 9
propel@@ 9
pura 9
quat@@ 9
rants 9
rd 9
reco@@ 9
regar@@ 9
region@@ 9
replac@@ 9
repu@@ 9
rosto@@ 9
satis@@ 9
sb@@ 9
secon@@ 9
shepher@@ 9
shoot@@ 9
short@@ 9
shou@@ 9
sians 9
soyuz@@ 9
stadi@@ 9
step@@ 9
stir@@ 9
stric@@ 9
superi@@ 9
supp@@ 9
synchronous 9
tali@@ 9
tally 9
tella 9
throw 9
thum@@ 9
tish 9
tov 9
tradi@@ 9
tribut@@ 9
turers 9
turkmen@@ 9
ugu@@ 9
unification 9
ush@@ 9
vich 9
victor@@ 9
volk@@ 9
week@@ 9
wick@@ 9
wiz@@ 9
zag@@ 9
³ 9
č@@ 9
ı 9
ŵ@@ 9
ʃ@@ 9
192@@ 8
236 8
317 8
371 8
906@@ 8
947 8
abstr@@ 8
abun@@ 8
acity 8
adiu 8
adminis@@ 8
aerodynam@@ 8
agle 8
ahi 8
ahu 8
allow@@ 8
archy 8
asoci@@ 8
assign@@ 8
asts 8
ator@@ 8
attribu@@ 8
aure@@ 8
austri@@ 8
bande@@ 8
bav@@ 8
beth 8
bn 8
board@@ 8
bour 8
busi@@ 8
canadi@@ 8
cano@@ 8
carpen@@ 8
casti@@ 8
cements 8
centric 8
cera 8
chee 8
civili@@ 8
colum@@ 8
columb@@ 8
commo@@ 8
confir@@ 8
congre@@ 8
continu@@ 8
convic@@ 8
cook@@ 8
corne@@ 8
ctor@@ 8
cture 8
cylin@@ 8
deem@@ 8
dential 8
der- 8
destin@@ 8
develo@@ 8
distribut@@ 8
dner 8
dum 8
dynam@@ 8
eas@@ 8
econ@@ 8
educ@@ 8
ems 8
enced 8
ens@@ 8
envir@@ 8
exe@@ 8
fix 8
frequen@@ 8
fresh@@ 8
fro@@ 8
full@@ 8
gins 8
gle 8
gou@@ 8
grams 8
graph 8
grass@@ 8
hali@@ 8
hap@@ 8
harri@@ 8
harv@@ 8
hig@@ 8
holl@@ 8
hugh@@ 8
ign 8
igor@@ 8
imperi@@ 8
in-chief 8
indi 8
individu@@ 8
intro@@ 8
invasi@@ 8
ito@@ 8
johan@@ 8
justici@@ 8
krist@@ 8
lah 8
launch@@ 8
laur@@ 8
lder 8
lette 8
lition 8
live@@ 8
lufth@@ 8
mai 8
mal 8
mala 8
manhatt@@ 8
marke@@ 8
meso@@ 8
micha@@ 8
moham@@ 8
monu@@ 8
mys@@ 8
nauch@@ 8
nay@@ 8
neighbour@@ 8
nish 8
nity 8
noble@@ 8
oil@@ 8
olic 8
oman 8
omia 8
onato 8
orchar@@ 8
orti@@ 8
pal 8
paper@@ 8
parliamen@@ 8
phal@@ 8
ping 8
pix@@ 8
pos 8
poto@@ 8
ppi 8
prac@@ 8
pth 8
purpo@@ 8
qat@@ 8
quent 8
quot@@ 8
rance 8
rapid@@ 8
recru@@ 8
rect@@ 8
refu@@ 8
rest@@ 8
revolu@@ 8
richard@@ 8
roch@@ 8
sach@@ 8
sadi@@ 8
sain@@ 8
sic 8
simul@@ 8
sister@@ 8
somer@@ 8
song@@ 8
spic@@ 8
spon@@ 8
stanti@@ 8
stle 8
stoc@@ 8
stradd@@ 8
succe@@ 8
sultan@@ 8
sym@@ 8
tain 8
targe@@ 8
tarr@@ 8
teau 8
tely 8
temper@@ 8
tenstein 8
thorough@@ 8
tino 8
tiva 8
tivo 8
tments 8
toria 8
touch@@ 8
trad@@ 8
trade@@ 8
traj@@ 8
ttle 8
turb@@ 8
turing 8
uel 8
ums 8
urg 8
uri@@ 8
uta 8
veget@@ 8
vised 8
witnes@@ 8
wou@@ 8
yen 8
zah@@ 8
zie 8
º 8
ë 8
ğ@@ 8
ɒ@@ 8
ي@@ 8
… 8
-belt 7
1100 7
186@@ 7
696@@ 7
714 7
aal 7
abbrevi@@ 7
accor@@ 7
acher 7
achers 7
achie@@ 7
acio 7
ahu@@ 7
aig 7
ains 7
akh 7
alek@@ 7
ampton 7
ando@@ 7
anes 7
annon 7
antio@@ 7
anza 7
appar@@ 7
assim 7
athan@@ 7
atin 7
atri@@ 7
atta 7
attac@@ 7
attoor 7
atur@@ 7
atus 7
aur 7
avian 7
avier 7
ação 7
balti@@ 7
bard 7
bass@@ 7
bishop@@ 7
blue@@ 7
bor 7
bric@@ 7
bulspor 7
busin@@ 7
cac@@ 7
canoe 7
cari@@ 7
cas 7
centre-@@ 7
chatt@@ 7
chr@@ 7
coar@@ 7
colli@@ 7
cone@@ 7
confeder@@ 7
conflic@@ 7
consci@@ 7
country@@ 7
cust@@ 7
cutt@@ 7
decisi@@ 7
deliver@@ 7
deng 7
dens 7
dently 7
deriv@@ 7
desper@@ 7
destru@@ 7
dictator@@ 7
domesti@@ 7
eal@@ 7
econom@@ 7
effe@@ 7
elabor@@ 7
eled 7
elev@@ 7
empi@@ 7
enberg 7
eno@@ 7
entertain@@ 7
eria 7
ese@@ 7
eson 7
espa@@ 7
espe@@ 7
essar@@ 7
faro@@ 7
fayette 7
fern@@ 7
foc@@ 7
folk@@ 7
formers 7
furn@@ 7
galore 7
garnis@@ 7
ghar@@ 7
ghter 7
gradu@@ 7
guair@@ 7
hans@@ 7
horiz@@ 7
hydr@@ 7
iche 7
ichev 7
ideae 7
ight@@ 7
ights 7
ignment 7
inary 7
inson 7
inspir@@ 7
isco 7
ites 7
jama@@ 7
kar 7
kow@@ 7
krem@@ 7
labe@@ 7
ley@@ 7
limi@@ 7
llites 7
logies 7
logis@@ 7
luxembour@@ 7
mada 7
magde@@ 7
mation 7
mille@@ 7
mud 7
mum 7
names@@ 7
neutr@@ 7
novel@@ 7
oline 7
omi@@ 7
onda 7
onso 7
opping 7
oppo@@ 7
ored 7
oria 7
otto@@ 7
ova 7
owiecki 7
pee 7
pepp@@ 7
perfe@@ 7
pher 7
phr@@ 7
ppa 7
preci@@ 7
premi@@ 7
prints 7
propor@@ 7
provisi@@ 7
qad@@ 7
quarter-@@ 7
remark@@ 7
remo@@ 7
rested 7
rington 7
riors 7
rons 7
ror 7
rus 7
sadd@@ 7
sandwic@@ 7
santi@@ 7
scat@@ 7
schip@@ 7
schol@@ 7
scienti@@ 7
scot@@ 7
sema 7
sfield 7
sham@@ 7
shari@@ 7
shif@@ 7
simultane@@ 7
sional 7
situ@@ 7
sonia 7
spheric 7
spur@@ 7
stays 7
steu@@ 7
suits 7
summ@@ 7
suspen@@ 7
tari@@ 7
tau@@ 7
tels 7
template@@ 7
thesis 7
ticed 7
tings 7
trinid@@ 7
tude 7
twen@@ 7
unve@@ 7
ussia 7
vant 7
wed@@ 7
wee@@ 7
wex@@ 7
world@@ 7
yar@@ 7
year-@@ 7
yor 7
zen 7
zers 7
zona 7
â 7
ï@@ 7
ą@@ 7
ő 7
ů@@ 7
ż@@ 7
ște@@ 7
с@@ 7
ع@@ 7
‑ 7
-use 6
188@@ 6
189@@ 6
195@@ 6
345@@ 6
463@@ 6
600@@ 6
62@@ 6
836@@ 6
936@@ 6
abats 6
abdu@@ 6
abse@@ 6
acha 6
ades@@ 6
agen 6
agricul@@ 6
aho 6
ajo@@ 6
aland 6
alls 6
amas 6
amin@@ 6
analys@@ 6
antarc@@ 6
apolis 6
athan 6
atto@@ 6
augh@@ 6
augu@@ 6
avant-@@ 6
ayan 6
bally@@ 6
bans 6
barto@@ 6
bernard@@ 6
bic@@ 6
birm@@ 6
bm@@ 6
bob@@ 6
boygan 6
brab@@ 6
braz@@ 6
brid 6
cade 6
canton@@ 6
cass@@ 6
centre@@ 6
characteris@@ 6
chback 6
cle 6
cled 6
coma 6
compe@@ 6
cona 6
conglomer@@ 6
contrac@@ 6
crosser 6
crun@@ 6
ctives 6
cucu@@ 6
cules 6
dece@@ 6
deman@@ 6
difficul@@ 6
discar@@ 6
disci@@ 6
dits 6
doba 6
domini@@ 6
done@@ 6
dougl@@ 6
ean 6
editor-@@ 6
editor@@ 6
eil@@ 6
eisen@@ 6
eleven@@ 6
elin 6
elph@@ 6
enci@@ 6
encoun@@ 6
enfor@@ 6
engel@@ 6
envisi@@ 6
erto 6
esis 6
essors 6
establis@@ 6
evolu@@ 6
examin@@ 6
extr@@ 6
fay@@ 6
ficial 6
fortun@@ 6
getty@@ 6
gig@@ 6
giuli@@ 6
glas@@ 6
glen@@ 6
gow 6
gow@@ 6
gra@@ 6
gris@@ 6
group@@ 6
guerr@@ 6
gust@@ 6
hamb@@ 6
harriet@@ 6
hemis@@ 6
him@@ 6
hunt@@ 6
hya 6
hypo@@ 6
inci@@ 6
ior 6
iraq@@ 6
isco@@ 6
isition 6
iso@@ 6
issa 6
itals 6
jab@@ 6
jaco@@ 6
jag@@ 6
jection 6
jurisdic@@ 6
kais@@ 6
kham 6
klu@@ 6
kop@@ 6
left-@@ 6
lincol@@ 6
magne@@ 6
make@@ 6
mall@@ 6
market@@ 6
mech@@ 6
mera 6
minent 6
ming@@ 6
monoc@@ 6
muth 6
má@@ 6
nahu@@ 6
nego@@ 6
nette 6
ocl@@ 6
oly 6
omo 6
oms 6
onism 6
orious 6
oys@@ 6
palaeontolog@@ 6
pamp@@ 6
para 6
part@@ 6
pavili@@ 6
perce@@ 6
philipp@@ 6
philoso@@ 6
phin 6
pillar 6
pinos 6
pog@@ 6
poli 6
posal 6
pou@@ 6
pover@@ 6
pra@@ 6
precipit@@ 6
prince@@ 6
princi@@ 6
princip@@ 6
prises 6
pronoun@@ 6
pseu@@ 6
publ@@ 6
purch@@ 6
quia 6
recommen@@ 6
rence 6
restruc@@ 6
revitali@@ 6
rez 6
rish@@ 6
rist@@ 6
romag@@ 6
roule@@ 6
secur@@ 6
shutt@@ 6
sible 6
similar@@ 6
singer-@@ 6
slau@@ 6
sm-@@ 6
sopho@@ 6
spire 6
splen@@ 6
split@@ 6
spokes@@ 6
sprink@@ 6
spro@@ 6
studi@@ 6
substanti@@ 6
swis@@ 6
t-day 6
temap 6
tenan@@ 6
tended 6
theore@@ 6
there@@ 6
thiru@@ 6
thom@@ 6
thresh@@ 6
tico 6
tip@@ 6
tole@@ 6
toler@@ 6
turbopro@@ 6
typ@@ 6
udin@@ 6
um-@@ 6
unts 6
valen@@ 6
vers@@ 6
vor 6
wide-@@ 6
wink@@ 6
wish 6
wn 6
wyn 6
yon 6
yugosla@@ 6
zil 6
­ 6
ß 6
à@@ 6
ät 6
ð@@ 6
ř@@ 6
ū 6
ū@@ 6
ʊ 6
μ@@ 6
ْ@@ 6
ṭ@@ 6
153 5
226 5
294 5
370 5
377 5
456@@ 5
459 5
7877@@ 5
93@@ 5
@ 5
^ 5
`@@ 5
acao 5
accompani@@ 5
activ@@ 5
adis 5
ael 5
agar 5
alab@@ 5
aldr@@ 5
alex@@ 5
amal@@ 5
anist 5
ansch@@ 5
appal@@ 5
apu@@ 5
are-@@ 5
arist 5
artill@@ 5
as- 5
assic 5
aster@@ 5
astron@@ 5
atorial 5
avail@@ 5
awar 5
aérospati@@ 5
bagh@@ 5
banan@@ 5
bank@@ 5
bern@@ 5
bery 5
bhaj@@ 5
bion 5
birth@@ 5
biz@@ 5
bol 5
boulev@@ 5
brilli@@ 5
brown@@ 5
budap@@ 5
burgh 5
byr@@ 5
camer@@ 5
campa@@ 5
canon@@ 5
canu@@ 5
carni@@ 5
caval@@ 5
cen 5
certific@@ 5
cess 5
challeng@@ 5
characteri@@ 5
clamation 5
clif@@ 5
colu@@ 5
compan@@ 5
compil@@ 5
comprehen@@ 5
configur@@ 5
contro@@ 5
corri@@ 5
countr@@ 5
cous@@ 5
critici@@ 5
curves 5
custom@@ 5
dah 5
dall@@ 5
darin 5
dat@@ 5
dedic@@ 5
demb@@ 5
desliga 5
diam@@ 5
dp 5
dred 5
dyk 5
earthqu@@ 5
ecu@@ 5
enchan@@ 5
ende@@ 5
erland 5
essen@@ 5
ethiop@@ 5
eties 5
ety 5
eur@@ 5
evo 5
excel@@ 5
fantas@@ 5
fascin@@ 5
featu@@ 5
feli@@ 5
ffen 5
flav@@ 5
frater@@ 5
frie@@ 5
fris@@ 5
gem@@ 5
gency 5
gorod 5
grab@@ 5
gustav@@ 5
hack@@ 5
haps 5
heavy-@@ 5
hers 5
hest 5
hollan@@ 5
ido@@ 5
igi 5
ih 5
inad@@ 5
indepen@@ 5
indigen@@ 5
insis@@ 5
ite@@ 5
itude 5
jó@@ 5
kara 5
kee@@ 5
keef@@ 5
kilo@@ 5
kla@@ 5
kou@@ 5
kumar 5
kutti@@ 5
köl@@ 5
laigh 5
lettu@@ 5
levi@@ 5
lib@@ 5
listic 5
loun@@ 5
macker@@ 5
magistr@@ 5
malacc@@ 5
mandy 5
margin@@ 5
marse@@ 5
massi@@ 5
matically 5
matthe@@ 5
meadow@@ 5
metap@@ 5
millenni@@ 5
minist@@ 5
missis@@ 5
modern@@ 5
moor@@ 5
mored 5
munici@@ 5
nch@@ 5
nether@@ 5
nichol@@ 5
offici@@ 5
olf@@ 5
onel 5
ont@@ 5
onymous 5
orca 5
orium 5
oto@@ 5
ott@@ 5
ough@@ 5
paleonto@@ 5
pane 5
ped@@ 5
performan@@ 5
perihe@@ 5
pers 5
philad@@ 5
pla 5
pool@@ 5
praw@@ 5
presti@@ 5
profession@@ 5
pson 5
pé@@ 5
rais@@ 5
regis@@ 5
rella 5
remn@@ 5
renti@@ 5
ress 5
rey@@ 5
ribb@@ 5
righ@@ 5
rn@@ 5
rought 5
sah@@ 5
sals 5
saraw@@ 5
sberg 5
schen 5
scrat@@ 5
sea@@ 5
settle@@ 5
shen@@ 5
sist 5
slic@@ 5
societ@@ 5
solved 5
soo@@ 5
spoon 5
squee@@ 5
strong@@ 5
subsi@@ 5
subsidi@@ 5
superse@@ 5
sures 5
sust@@ 5
synchron@@ 5
sé@@ 5
tack@@ 5
tapi@@ 5
taur@@ 5
territ@@ 5
tier@@ 5
tir@@ 5
tley 5
tong 5
tournam@@ 5
trav@@ 5
tribu@@ 5
tuc@@ 5
tul@@ 5
tum@@ 5
tural 5
twood 5
ude 5
uis@@ 5
ures 5
use@@ 5
usi@@ 5
uster 5
veter@@ 5
vio@@ 5
weal@@ 5
wig@@ 5
wing@@ 5
withdraw@@ 5
writ@@ 5
wro@@ 5
yr 5
zable 5
½ 5
árez 5
érica 5
ì@@ 5
ø 5
úa 5
üt@@ 5
ý 5
ā 5
ě@@ 5
ı@@ 5
ź 5
ʒ@@ 5
η@@ 5
τ@@ 5
е@@ 5
к@@ 5
н@@ 5
р@@ 5
ب@@ 5
ት@@ 5
ኢ@@ 5
ያ 5
ዮ@@ 5
ጵ@@ 5
-left 4
239@@ 4
320@@ 4
40s 4
858 4
863 4
\ 4
absolu@@ 4
acknowle@@ 4
afric@@ 4
almon@@ 4
alp@@ 4
amster@@ 4
anal@@ 4
anes@@ 4
anno@@ 4
ape 4
applic@@ 4
appre@@ 4
ardo 4
arella 4
aso@@ 4
astero@@ 4
astes 4
astronau@@ 4
atat@@ 4
atically 4
atlé@@ 4
attle 4
atu 4
automobi@@ 4
azerbaijan@@ 4
aéro@@ 4
banded 4
barcel@@ 4
belgi@@ 4
bey 4
bicy@@ 4
biling@@ 4
bion@@ 4
bm 4
bounds 4
bril@@ 4
bul 4
bungal@@ 4
capsu@@ 4
cash@@ 4
census-@@ 4
cery 4
chants 4
charac@@ 4
ciano 4
cittad@@ 4
clock@@ 4
cocon@@ 4
colla@@ 4
cology 4
conquer@@ 4
conso@@ 4
controversi@@ 4
cot 4
credi@@ 4
credit@@ 4
cs1-lock-@@ 4
ctorate 4
culin@@ 4
dak@@ 4
dare 4
daugh@@ 4
defini@@ 4
depor@@ 4
desp@@ 4
deut@@ 4
devan@@ 4
diesel-@@ 4
diff@@ 4
doming@@ 4
dono@@ 4
doro@@ 4
dro 4
drome 4
duk 4
eag@@ 4
earli@@ 4
eindho@@ 4
elec@@ 4
enese 4
engine@@ 4
enix 4
enna 4
enza 4
erly 4
erman 4
ert 4
espo@@ 4
esque 4
ett 4
eun@@ 4
excell@@ 4
falcon@@ 4
fey@@ 4
ffin 4
fically 4
fined 4
fino 4
fren@@ 4
gara 4
gate@@ 4
gear@@ 4
geograph@@ 4
ginat@@ 4
glend@@ 4
goren@@ 4
gras@@ 4
hols 4
horri@@ 4
hé@@ 4
icial 4
icity 4
ied 4
iel 4
ield 4
ig 4
ight-@@ 4
iler 4
illed 4
imb@@ 4
indone@@ 4
inity 4
injur@@ 4
inspi@@ 4
intermedi@@ 4
inver@@ 4
jang 4
jay@@ 4
jeep@@ 4
kali@@ 4
kans@@ 4
kke 4
koda 4
kosh@@ 4
lai 4
landic 4
large-@@ 4
latio 4
lein@@ 4
lest 4
level@@ 4
lighted 4
lis- 4
liè@@ 4
lli@@ 4
lufthav@@ 4
macc@@ 4
madge 4
madon@@ 4
magaz@@ 4
martine@@ 4
marty@@ 4
mathe@@ 4
mattox 4
mazdaspe@@ 4
mercur@@ 4
metho@@ 4
monas@@ 4
mush@@ 4
mz@@ 4
nach@@ 4
nado 4
nasty 4
no- 4
nodar 4
norm@@ 4
oceano@@ 4
ock 4
offic@@ 4
oles 4
olph 4
ony@@ 4
oper 4
ovan@@ 4
palities 4
parker@@ 4
parliam@@ 4
particip@@ 4
partner@@ 4
perug@@ 4
pino 4
pment 4
portfo@@ 4
portugu@@ 4
precin@@ 4
pyram@@ 4
querque 4
rajas@@ 4
rc@@ 4
recre@@ 4
referen@@ 4
rehear@@ 4
rememb@@ 4
reson@@ 4
retur@@ 4
revie@@ 4
ril 4
rodri@@ 4
roux 4
sans@@ 4
schle@@ 4
sebasti@@ 4
sels 4
semb@@ 4
sett 4
sgate 4
sheh@@ 4
shred@@ 4
sibilities 4
sibly 4
sloven@@ 4
spec@@ 4
speciali@@ 4
sphin@@ 4
sponsor@@ 4
spor 4
spot@@ 4
ssel@@ 4
stationary 4
stering 4
stors 4
strup 4
sugge@@ 4
summer@@ 4
sundan@@ 4
sus-@@ 4
susp@@ 4
swig@@ 4
tamp@@ 4
techni@@ 4
technic 4
teo 4
tera 4
tesse 4
through@@ 4
tines 4
tives 4
tress 4
tsar@@ 4
tsi@@ 4
tville 4
twee@@ 4
twenti@@ 4
ucci 4
urai 4
uram 4
valenci@@ 4
valu@@ 4
versary 4
vice-@@ 4
vipa 4
wait 4
whar@@ 4
whel@@ 4
yland 4
zaan@@ 4
zamboang@@ 4
zione 4
öt@@ 4
ü 4
ē 4
ţ@@ 4
ű@@ 4
ʌ@@ 4
ʿ@@ 4
λ@@ 4
ς 4
г@@ 4
м@@ 4
у@@ 4
ق 4
ن 4
و@@ 4
ِ@@ 4
व@@ 4
ḥ@@ 4
ṃ@@ 4
ṣ@@ 4
⁠ 4
026@@ 3
2047@@ 3
224@@ 3
24-@@ 3
535@@ 3
571 3
787@@ 3
880@@ 3
925@@ 3
abian 3
abram@@ 3
aceous 3
aces 3
aching 3
aden@@ 3
adores 3
afa 3
agglomer@@ 3
ailan 3
akar@@ 3
aki@@ 3
alcoben@@ 3
alem 3
alen 3
alliga 3
amatric@@ 3
anan@@ 3
angered 3
annex@@ 3
annur 3
anthrop@@ 3
antiqu@@ 3
apalli 3
apoel 3
apos@@ 3
appo@@ 3
appropri@@ 3
apul@@ 3
aragu@@ 3
architet@@ 3
aristo@@ 3
asim 3
aska 3
audit@@ 3
author@@ 3
autobio@@ 3
autonom@@ 3
bankrupt@@ 3
banyu@@ 3
bbed 3
bbie 3
berke@@ 3
bumb@@ 3
cancel@@ 3
cara 3
caster 3
categor@@ 3
chancel@@ 3
chang@@ 3
charle@@ 3
child@@ 3
cial 3
collegi@@ 3
commelin@@ 3
como@@ 3
comun@@ 3
consisten@@ 3
contain@@ 3
conurb@@ 3
ctioned 3
cía 3
dall 3
ded-@@ 3
denson 3
dgeville 3
diame@@ 3
dim@@ 3
dioc@@ 3
disne@@ 3
distin@@ 3
distor@@ 3
divisi@@ 3
dorado 3
doria 3
dral 3
dram@@ 3
edu@@ 3
encies 3
enter@@ 3
erine 3
ern 3
ership 3
esco 3
españ@@ 3
essor 3
eving 3
exhi@@ 3
exhibi@@ 3
exis@@ 3
expand@@ 3
exten@@ 3
eza 3
factor@@ 3
facul@@ 3
famili@@ 3
fastest-@@ 3
faç@@ 3
ferences 3
fers 3
fin 3
fioren@@ 3
flori@@ 3
forman@@ 3
franc@@ 3
further@@ 3
geoff@@ 3
georg@@ 3
gery 3
glaston@@ 3
governor@@ 3
guadal@@ 3
habban@@ 3
hagen 3
hamil@@ 3
his@@ 3
hkin 3
homet@@ 3
hosa 3
hü@@ 3
id-lock-@@ 3
idan 3
iden@@ 3
import@@ 3
inclu@@ 3
inet 3
inny 3
intercep@@ 3
ique 3
isian 3
isra@@ 3
itti@@ 3
jects 3
josi@@ 3
józ@@ 3
kash@@ 3
kathi@@ 3
ketball 3
kimb@@ 3
kingham 3
kirk@@ 3
knowle@@ 3
lass 3
leban@@ 3
lems 3
line-@@ 3
lini 3
loko@@ 3
lombar@@ 3
lori@@ 3
lux@@ 3
lyn 3
m-4@@ 3
maha@@ 3
matt@@ 3
mazz@@ 3
meet@@ 3
mere 3
millan 3
minne@@ 3
mistry 3
mixed@@ 3
mood 3
morgan@@ 3
mosco@@ 3
mother@@ 3
mountain@@ 3
mpe@@ 3
mumb@@ 3
mut 3
naci@@ 3
nago@@ 3
natively 3
neme@@ 3
never@@ 3
norwe@@ 3
oba 3
obje@@ 3
occupi@@ 3
ochi@@ 3
ond 3
ono@@ 3
onto@@ 3
ope@@ 3
opf 3
orig@@ 3
orized 3
orle@@ 3
osh@@ 3
palaeonto@@ 3
parachu@@ 3
peg 3
pend@@ 3
phy 3
plate@@ 3
pleasan@@ 3
portu@@ 3
presum@@ 3
previ@@ 3
professi@@ 3
progre@@ 3
pseudon@@ 3
puig@@ 3
pun 3
qua 3
quanti@@ 3
quently 3
quit@@ 3
rare@@ 3
rea 3
rear@@ 3
recon@@ 3
refur@@ 3
relati@@ 3
reme@@ 3
reper@@ 3
resor@@ 3
restaur@@ 3
rhyth@@ 3
riad 3
rito 3
rober@@ 3
rose@@ 3
rotter@@ 3
rup 3
rón 3
satu 3
saur@@ 3
savo@@ 3
scher 3
sene 3
ses-@@ 3
shua 3
sind@@ 3
skab 3
smouth 3
solicit@@ 3
solu@@ 3
sover 3
spag@@ 3
spear@@ 3
star-@@ 3
statisti@@ 3
stay@@ 3
strateg@@ 3
stret@@ 3
subscription 3
subse@@ 3
sula@@ 3
surren@@ 3
tained 3
tane@@ 3
taun@@ 3
tels@@ 3
terfield 3
that@@ 3
them@@ 3
thern 3
thes@@ 3
tienne 3
titude 3
tiv 3
tiy@@ 3
tness 3
toge@@ 3
tomat@@ 3
tona 3
tril@@ 3
tse@@ 3
tunst@@ 3
turo 3
tusc@@ 3
ucc@@ 3
uish 3
ukrain@@ 3
unciation 3
unti@@ 3
uz@@ 3
vancou@@ 3
vend@@ 3
versati@@ 3
versi@@ 3
vous 3
wana 3
willi@@ 3
wyn@@ 3
yavad@@ 3
yiel@@ 3
ylon 3
zakar@@ 3
zburg 3
zho@@ 3
§ 3
« 3
» 3
ág 3
ël 3
önen 3
ī 3
ț 3
α@@ 3
ε@@ 3
ο@@ 3
а 3
з@@ 3
к 3
н 3
т@@ 3
я 3
ա@@ 3
س@@ 3
ف@@ 3
ق@@ 3
1484 2
187@@ 2
392 2
811 2
840 2
965 2
a33 2
aarh@@ 2
abbre@@ 2
accadem@@ 2
achar@@ 2
achary 2
acous@@ 2
ade-@@ 2
adier 2
adio 2
admi@@ 2
aerod@@ 2
ahmed@@ 2
alago@@ 2
alam 2
alth@@ 2
anahe@@ 2
angal 2
angi@@ 2
annah 2
apolis- 2
appa 2
arap@@ 2
arest 2
arrab@@ 2
artic@@ 2
assar 2
assaul@@ 2
astern 2
astronom@@ 2
asty 2
aterinburg 2
aura 2
ause 2
autum@@ 2
auxili@@ 2
azerbai@@ 2
azion@@ 2
bap@@ 2
basan@@ 2
battali@@ 2
bber 2
bien 2
born@@ 2
bound@@ 2
bras@@ 2
brasile@@ 2
brav@@ 2
burne 2
business@@ 2
cadil@@ 2
carin@@ 2
cauli@@ 2
ceme@@ 2
centricity 2
cephal@@ 2
character@@ 2
charest 2
charr@@ 2
chinat@@ 2
chio 2
chip@@ 2
choy 2
chrys@@ 2
ciam@@ 2
cilla 2
citizen@@ 2
cki 2
ckland 2
coali@@ 2
collo@@ 2
commissi@@ 2
confection@@ 2
confes@@ 2
congress@@ 2
consequ@@ 2
cori@@ 2
county-@@ 2
courty@@ 2
cuis@@ 2
cycl@@ 2
david@@ 2
decemb@@ 2
delux@@ 2
dene@@ 2
devil@@ 2
diale@@ 2
dimit@@ 2
discipl@@ 2
dispu@@ 2
distan 2
dmit@@ 2
doctor@@ 2
dren 2
dures 2
dá@@ 2
dí@@ 2
ecli@@ 2
eder 2
edic@@ 2
eh 2
elen 2
eliza@@ 2
elong@@ 2
emper@@ 2
emplo@@ 2
ende 2
ener 2
enh@@ 2
eni 2
ensemb@@ 2
ensis 2
entre@@ 2
enu@@ 2
episo@@ 2
erton 2
establish@@ 2
eved 2
exac@@ 2
exer@@ 2
febr@@ 2
feren@@ 2
flee@@ 2
font-@@ 2
forsy@@ 2
fow@@ 2
frangi@@ 2
freel@@ 2
fundam@@ 2
garde 2
gej@@ 2
ghlin 2
gin 2
glu@@ 2
gradi@@ 2
grig@@ 2
gry 2
guanci@@ 2
guez 2
guid@@ 2
halle@@ 2
helicop@@ 2
hendr@@ 2
hid@@ 2
hip-@@ 2
hof@@ 2
hokkai@@ 2
hospital@@ 2
hygi@@ 2
icebreak@@ 2
icide 2
icket 2
id-@@ 2
iden 2
iest 2
igni@@ 2
ignit 2
inau@@ 2
ingredi@@ 2
inhab@@ 2
inju@@ 2
interchan@@ 2
inum 2
invi@@ 2
ird 2
ireann 2
isan 2
islan@@ 2
issu@@ 2
itake 2
itra 2
juris@@ 2
kalapu@@ 2
kamin@@ 2
kenne@@ 2
khand 2
khy@@ 2
kingdo@@ 2
knu@@ 2
kore@@ 2
larly 2
lau 2
lf@@ 2
lington 2
liqu@@ 2
lith@@ 2
liver@@ 2
lized 2
llan 2
lome@@ 2
loon 2
lour 2
lown 2
lts 2
lume@@ 2
luxemb@@ 2
mah 2
manh@@ 2
mars-@@ 2
massachu@@ 2
melin@@ 2
mely 2
mendo@@ 2
meric 2
meth@@ 2
metropol@@ 2
miche@@ 2
michig@@ 2
mington 2
miri@@ 2
monocotyle@@ 2
montgomer@@ 2
monton 2
mote 2
multin@@ 2
myth@@ 2
narrow@@ 2
nathan@@ 2
neighbor@@ 2
niger@@ 2
nover 2
nw@@ 2
oca 2
occasi@@ 2
odys@@ 2
oldsmo@@ 2
olfo 2
olymp@@ 2
onary 2
orche@@ 2
oren@@ 2
orge 2
orities 2
oshko@@ 2
otak 2
otak@@ 2
ought 2
ours 2
outh 2
oxy@@ 2
pakh@@ 2
pd 2
peninsu@@ 2
peop@@ 2
perman@@ 2
pininf@@ 2
pitt@@ 2
play-@@ 2
politici@@ 2
poten@@ 2
practic@@ 2
pred@@ 2
presbyteri@@ 2
prise 2
profes@@ 2
progr@@ 2
pron@@ 2
pł@@ 2
quel 2
quick@@ 2
rage 2
raham 2
raz 2
rd-0@@ 2
reci@@ 2
recipi@@ 2
reconna@@ 2
refurbish@@ 2
reinfor@@ 2
represent@@ 2
resul@@ 2
retali@@ 2
rho@@ 2
round-@@ 2
scul@@ 2
seca 2
secretari@@ 2
septe@@ 2
ser-@@ 2
shal@@ 2
sheff@@ 2
shehb@@ 2
shop@@ 2
sket@@ 2
skirts 2
smal@@ 2
socc@@ 2
solan@@ 2
somal@@ 2
sop 2
sov@@ 2
spani@@ 2
stal 2
stitu@@ 2
su-@@ 2
submer@@ 2
sudski 2
sulli@@ 2
synthesi@@ 2
tagalo@@ 2
taker 2
taleza 2
terran@@ 2
terranean 2
thic 2
thly 2
threate@@ 2
threw 2
thur 2
ticke@@ 2
tippe@@ 2
traff@@ 2
tric 2
tson 2
turt@@ 2
uary 2
ultim@@ 2
ulu@@ 2
ury 2
uto@@ 2
uzbe@@ 2
vair 2
vano 2
vb 2
vens 2
vermic@@ 2
viceroy@@ 2
vington 2
visves@@ 2
wart 2
wealth@@ 2
wenat@@ 2
william@@ 2
wrest@@ 2
württe@@ 2
ymp@@ 2
yw@@ 2
zepp@@ 2
´ 2
ã@@ 2
òs 2
ô 2
ù 2
û@@ 2
ğlu 2
ġ@@ 2
ń 2
ǫ@@ 2
ɔ@@ 2
ɜ@@ 2
ɪ 2
ɬ@@ 2
ʲ@@ 2
ʼ 2
ʼ@@ 2
ʾ 2
ː 2
́ 2
̣ 2
έ@@ 2
ί@@ 2
β 2
ι@@ 2
κ@@ 2
ν 2
ν@@ 2
и@@ 2
о 2
о@@ 2
ע@@ 2
ء 2
ئ@@ 2
ة 2
ت@@ 2
ح@@ 2
ر 2
ش@@ 2
غ@@ 2
م@@ 2
ي 2
ّ 2
پ@@ 2
ێ@@ 2
ܒ@@ 2
ܓ@@ 2
ܕ 2
ܕ@@ 2
क 2
ट 2
ड 2
प@@ 2
़ 2
् 2
க@@ 2
ச@@ 2
ஞ 2
ி 2
் 2
ರ@@ 2
ಸ 2
ಹ@@ 2
ು 2
ೆ@@ 2
್ 2
ሪ@@ 2
ቀ@@ 2
ፍ@@ 2
ḍ@@ 2
ṛ@@ 2
† 2
‡ 2
№ 2
✦ 2
官@@ 2
港 2
饘 2
香@@ 2
0000 1
313 1
44811 1
5600@@ 1
5739@@ 1
706@@ 1
823 1
aaf 1
aai@@ 1
abat 1
aberde@@ 1
abilly 1
acciden@@ 1
acki 1
acute 1
aeronau@@ 1
afghan@@ 1
agam@@ 1
ahe@@ 1
aktie@@ 1
akur 1
alcat@@ 1
alessand@@ 1
allig@@ 1
altern@@ 1
alth 1
alumin@@ 1
amate@@ 1
amhar@@ 1
amher@@ 1
anac 1
ange 1
anthro@@ 1
aol@@ 1
aolong 1
apee 1
aper@@ 1
apt@@ 1
arapira@@ 1
arav@@ 1
areci@@ 1
arily 1
arrabbi@@ 1
arrondis@@ 1
arsen@@ 1
aspe@@ 1
assas 1
asturi@@ 1
atl 1
atmo@@ 1
atric@@ 1
aur- 1
auton@@ 1
awai 1
awang 1
azón 1
bache@@ 1
background-@@ 1
bago 1
baha@@ 1
baikon@@ 1
baraj@@ 1
base@@ 1
beij@@ 1
bha@@ 1
bise@@ 1
boni@@ 1
brahim 1
bray@@ 1
brist@@ 1
broadcas@@ 1
brus@@ 1
bulle@@ 1
bundel@@ 1
burle@@ 1
busce@@ 1
campe@@ 1
cardo@@ 1
castro@@ 1
cathe@@ 1
caucas@@ 1
ccn 1
chall@@ 1
charlo@@ 1
chevro@@ 1
chiap@@ 1
chichar@@ 1
cinc@@ 1
cincin@@ 1
cincinnat@@ 1
colis@@ 1
colloqui@@ 1
colomb@@ 1
comf@@ 1
compon@@ 1
compre@@ 1
conden@@ 1
condomini@@ 1
connecti@@ 1
consis@@ 1
copen@@ 1
cornw@@ 1
csi 1
culmin@@ 1
cumán 1
cunn@@ 1
có@@ 1
cór@@ 1
dalpat@@ 1
danao 1
dare@@ 1
davuto@@ 1
degre@@ 1
delaw@@ 1
demon@@ 1
denepura 1
denomin@@ 1
derby@@ 1
derness 1
desh 1
dessa 1
dingly 1
diom@@ 1
dise@@ 1
dox 1
drab@@ 1
dulu@@ 1
ear-@@ 1
edds@@ 1
elds 1
elling@@ 1
emph@@ 1
eness 1
eniging 1
enorm@@ 1
enos 1
enth@@ 1
enve@@ 1
eny 1
ergote@@ 1
esthe@@ 1
ethi@@ 1
ettes 1
eval 1
eval@@ 1
exist@@ 1
facil@@ 1
falk@@ 1
fallu@@ 1
farr@@ 1
ferdin@@ 1
ferring 1
feyeno@@ 1
ffo 1
forl@@ 1
frances@@ 1
fric@@ 1
furnit@@ 1
fute@@ 1
gentri@@ 1
gett 1
glou@@ 1
glu 1
godi 1
goe@@ 1
gover@@ 1
goyen 1
gradient 1
gron@@ 1
groun@@ 1
guadalaj@@ 1
gwin@@ 1
gym@@ 1
haar@@ 1
haile@@ 1
handlun@@ 1
heed 1
heer@@ 1
heerenve@@ 1
heidel@@ 1
heidelber@@ 1
herak@@ 1
hito 1
hs@@ 1
hud@@ 1
hundre@@ 1
huss@@ 1
hydrau@@ 1
iab@@ 1
iac 1
igns 1
igny 1
ildjar@@ 1
ills 1
immedi@@ 1
increas@@ 1
instein 1
intere@@ 1
introduc@@ 1
iohan@@ 1
istic@@ 1
istr@@ 1
itiba 1
ived 1
iyah 1
jamin 1
jerus@@ 1
jess@@ 1
jetti@@ 1
jos@@ 1
karab@@ 1
karnat@@ 1
kazakh@@ 1
kell@@ 1
kens 1
kero@@ 1
khwa 1
kuttikk@@ 1
kwe@@ 1
laga 1
lamborgh@@ 1
lame@@ 1
lasse 1
lemm 1
lemon@@ 1
ley- 1
lez 1
linqu@@ 1
lokomo@@ 1
lomar 1
lote@@ 1
loway 1
luence 1
lumezz@@ 1
luxuri@@ 1
mains 1
margre@@ 1
mariam 1
martí@@ 1
meas@@ 1
melodi@@ 1
merch@@ 1
merick 1
mering@@ 1
mett 1
millen@@ 1
minnes@@ 1
mins 1
minute@@ 1
missour@@ 1
mitch@@ 1
mme 1
monopo@@ 1
monter@@ 1
montpelli@@ 1
montre@@ 1
mpi@@ 1
mö@@ 1
nage 1
nakh@@ 1
naren@@ 1
nasi@@ 1
nei@@ 1
neider 1
neur 1
nickn@@ 1
oax@@ 1
occ@@ 1
old@@ 1
ongs 1
onnais 1
oosa 1
opher 1
opport@@ 1
organ@@ 1
pakistan@@ 1
palae@@ 1
palle@@ 1
palu@@ 1
pand@@ 1
parli@@ 1
particu@@ 1
passeng@@ 1
patac@@ 1
pate@@ 1
peer-@@ 1
perre@@ 1
pflu@@ 1
pfluger@@ 1
philadelph@@ 1
phili@@ 1
piac@@ 1
pied@@ 1
pil 1
pił@@ 1
plar 1
polici@@ 1
portol@@ 1
poser 1
prestigi@@ 1
pric@@ 1
prima@@ 1
promot@@ 1
prosper@@ 1
pse@@ 1
publis@@ 1
putraj@@ 1
qbal 1
quired 1
raa 1
radhak@@ 1
rah@@ 1
ramap@@ 1
rasmus@@ 1
recur@@ 1
refurbis@@ 1
reminis@@ 1
repor@@ 1
repul@@ 1
rett 1
ricul@@ 1
rill 1
rique 1
rishnan 1
runner@@ 1
sacram@@ 1
salvador@@ 1
sandw@@ 1
sask@@ 1
schap 1
scription 1
seam@@ 1
segun@@ 1
selang@@ 1
selves 1
sert 1
serun@@ 1
seto 1
shahe@@ 1
shoe@@ 1
shogun@@ 1
sibi@@ 1
siby@@ 1
signia 1
singapor@@ 1
singhe 1
skyscr@@ 1
sliiga 1
slovak@@ 1
so-@@ 1
softw@@ 1
sonville 1
soph@@ 1
sored 1
sove@@ 1
spalle@@ 1
stalem@@ 1
stand-@@ 1
sth 1
streek 1
strugg@@ 1
stuff@@ 1
succ@@ 1
sumat@@ 1
surab@@ 1
sus@@ 1
switz@@ 1
sylvania 1
sí 1
ta- 1
tacu@@ 1
tbil@@ 1
technolog@@ 1
tejan@@ 1
tempe@@ 1
ternal 1
text-@@ 1
thessaloni@@ 1
tially 1
tici@@ 1
tigu@@ 1
timo@@ 1
tno@@ 1
toire 1
tox 1
treati@@ 1
triu@@ 1
trude 1
tsipr@@ 1
tsk 1
tte@@ 1
tucky 1
tud 1
turkmenbas@@ 1
ukr@@ 1
ult 1
umi 1
upri@@ 1
urb@@ 1
urne 1
uth@@ 1
utre@@ 1
vaal 1
vaju@@ 1
varaya 1
varez 1
vaugh@@ 1
veikk@@ 1
velt 1
vement 1
vements 1
ver- 1
vertical-@@ 1
visay@@ 1
visible-@@ 1
viso 1
wednes@@ 1
wek 1
westmin@@ 1
wide@@ 1
wido@@ 1
willow@@ 1
wiscons@@ 1
worl@@ 1
wother@@ 1
xim@@ 1
y-level 1
yal 1
yburn 1
yek@@ 1
ykk@@ 1
yri@@ 1
zac@@ 1
zambo@@ 1
zig 1
zza 1
¥ 1
¼ 1
ã 1
ê 1
ð 1
ñ 1
õ@@ 1
öger 1
ørest@@ 1
üssel@@ 1
ý@@ 1
þ@@ 1
ć@@ 1
č 1
ła@@ 1
ň@@ 1
ŋ@@ 1
ś 1
ť 1
ž 1
ǎ@@ 1
ɟ@@ 1
ɡ 1
ʏ@@ 1
ʷ@@ 1
ά@@ 1
ή@@ 1
δ@@ 1
θ@@ 1
μ 1
π@@ 1
ρ@@ 1
σ@@ 1
χ@@ 1
ω 1
ό@@ 1
б@@ 1
в@@ 1
л@@ 1
п@@ 1
ч@@ 1
щ@@ 1
ы@@ 1
ь 1
ь@@ 1
ј@@ 1
ү@@ 1
ҹ@@ 1
ә@@ 1
հ@@ 1
յ@@ 1
ն 1
ս@@ 1
տ@@ 1
ב@@ 1
ד@@ 1
י@@ 1
ן 1
צ@@ 1
ר@@ 1
أ@@ 1
ت 1
ج@@ 1
خ@@ 1
ز 1
ك@@ 1
ن@@ 1
ა 1
დ@@ 1
ე@@ 1
ი@@ 1
ჭ@@ 1
ር@@ 1
ቃ 1
ኒ 1
ን@@ 1
አ@@ 1
ኣ@@ 1
ካ 1
የ@@ 1
ድ 1
ἀ@@ 1
₨ 1
⅔ 1
全@@ 1
澳@@ 1
糜 1
蛋@@ 1
話 1
话 1
酏 1
門 1
鬻 1
麵 1
madeupword0000 0
madeupword0001 0
madeupword0002 0
madeupword0003 0
madeupword0004 0
