the 250983
, 216900
. 167902
of 132335
in 117913
and 103917
a 90320
is 83711
s@@ 60080
was 51696
to 48120
s 43158
e@@ 38978
re@@ 36934
ed 35331
t@@ 34134
d@@ 34067
in@@ 33134
o@@ 32927
as 31109
-@@ 30554
on 30424
i@@ 30171
ing 29900
m@@ 29500
c@@ 29286
by 28982
on@@ 27815
p@@ 26974
f@@ 25691
- 25614
l@@ 24954
an 24788
th@@ 24570
united 24005
a@@ 23924
with 23558
g@@ 22825
y@@ 22774
for 22741
at 22607
it 21861
t 21719
st@@ 21039
n@@ 20931
le@@ 20818
states 20721
w@@ 20487
k@@ 20381
e 20285
ar@@ 19925
he 19903
from 19849
al 19700
an@@ 18629
b@@ 18484
er@@ 18363
al@@ 18346
) 18186
r@@ 18151
( 17929
u@@ 16925
y 16247
h@@ 16178
'@@ 15504
has 15041
er 14965
se@@ 14784
de@@ 14649
mo@@ 14394
which 14283
es 13780
" 13539
or 13521
es@@ 13503
0 13446
ly 13169
city 13129
en@@ 13037
d 12885
te@@ 12878
ro@@ 12811
v@@ 12807
ri@@ 12736
o 12651
si@@ 12649
ac@@ 12594
un@@ 12524
new 12473
its 12398
his 12293
or@@ 12238
n 12154
ter 11701
are 11627
su@@ 11591
st 11571
co@@ 11521
country 11490
pro@@ 11481
airport 11480
ad@@ 11430
li@@ 11135
ch@@ 11075
county 10962
as@@ 10957
l 10645
af@@ 10619
is@@ 10514
ted 10463
i 10421
at@@ 10221
leader 10139
part 10120
1@@ 10080
ti@@ 10078
me@@ 10028
m 9999
club 9996
am@@ 9883
to@@ 9814
ic@@ 9633
con@@ 9616
lo@@ 9606
4@@ 9565
ur@@ 9497
3@@ 9423
c 9342
that 9324
name 9195
2@@ 9002
ap@@ 8993
one 8834
di@@ 8825
ent@@ 8763
0@@ 8762
be@@ 8745
' 8738
5@@ 8732
19@@ 8659
us 8574
ne@@ 8533
first 8515
place 8476
el@@ 8462
it@@ 8409
sh@@ 8374
ho@@ 8290
k 8278
j@@ 8149
il@@ 8059
ag@@ 8017
ter@@ 8006
bo@@ 7889
ver@@ 7876
ation 7858
no@@ 7794
also 7791
so@@ 7717
th 7691
8@@ 7636
z@@ 7258
texas 7231
located 7215
university 7150
1 7140
9@@ 7134
6@@ 6967
pl@@ 6857
po@@ 6818
where 6793
who 6774
7@@ 6715
do@@ 6630
language 6620
ex@@ 6587
3 6549
ab@@ 6543
music 6493
.@@ 6480
were 6463
birth 6444
au@@ 6392
ol@@ 6364
18@@ 6358
x@@ 6302
ce 6259
ated 6224
ate@@ 6190
f 6182
de 6175
location 6171
mar@@ 6112
born 6105
tr@@ 6098
ally 6077
pe@@ 6075
bu@@ 6046
qu@@ 6046
mi@@ 5999
p 5998
por@@ 5950
ce@@ 5897
ers 5818
be 5801
ut@@ 5789
group 5784
led 5781
ch 5779
200@@ 5768
,@@ 5752
u 5742
ci@@ 5738
min@@ 5736
en 5700
/ 5671
ar 5656
le 5640
associated 5574
american 5567
ethnic 5516
201@@ 5509
state 5501
5 5442
international 5438
cu@@ 5427
ing@@ 5390
20@@ 5384
cor@@ 5380
red 5372
sp@@ 5370
8 5361
tur@@ 5338
b 5335
du@@ 5291
band 5274
w 5222
"@@ 5220
2 5210
av@@ 5095
ve 5085
ati@@ 5084
mon@@ 5079
tion 5044
this 5035
capital 5003
alan 4965
ate 4956
served 4946
per@@ 4865
em@@ 4842
national 4811
ou@@ 4790
and@@ 4762
all 4755
ent 4737
americans 4735
les 4709
com@@ 4684
car@@ 4648
ded 4616
ts 4615
lu@@ 4590
par@@ 4585
ir@@ 4580
fi@@ 4544
7 4470
member 4467
number 4449
gr@@ 4447
mb@@ 4444
man 4441
area 4412
air 4402
gh@@ 4373
had 4369
vi@@ 4282
for@@ 4252
gu@@ 4239
ver 4220
football 4210
ical 4170
r 4170
ma@@ 4141
league 4137
two 4128
pu@@ 4114
but 4103
g 4103
genre 4094
they 4076
9 4062
ast@@ 4008
we@@ 3996
4 3992
their 3987
ment 3975
during 3966
et@@ 3963
age 3961
team 3957
known 3941
comm@@ 3932
: 3886
dr@@ 3862
all@@ 3853
ve@@ 3835
se 3824
man@@ 3816
–@@ 3780
ak@@ 3775
6 3766
ding 3761
; 3749
ten@@ 3721
ge@@ 3705
fe@@ 3701
other 3700
iti@@ 3698
onal 3695
played 3690
12 3689
mu@@ 3683
gh 3676
der@@ 3662
cen@@ 3639
ser@@ 3618
ay@@ 3609
runway 3606
eng@@ 3603
date 3584
x 3583
school 3568
made 3566
aaron 3562
region 3561
california 3550
ph@@ 3537
ic 3522
el 3515
wee@@ 3501
english 3496
fin@@ 3494
air@@ 3483
go@@ 3482
main 3481
lin@@ 3465
fc 3451
ine 3447
war 3425
lar@@ 3423
indiana 3396
serv@@ 3392
been 3388
ru@@ 3374
ad 3364
ste@@ 3328
ai@@ 3323
ob@@ 3309
col@@ 3299
ran@@ 3267
musical 3259
197@@ 3258
he@@ 3249
ia 3227
ry 3207
me 3191
aj@@ 3168
dish 3154
ons 3149
pen@@ 3144
washington 3142
ist@@ 3132
land@@ 3132
fo@@ 3127
ff@@ 3122
party 3122
us@@ 3114
cont@@ 3111
year 3100
square 3093
have 3087
york 3076
ds 3070
16@@ 3039
unt@@ 3030
ath@@ 3029
artist 3005
tu@@ 3004
ther@@ 3003
years 3000
il 2995
per 2992
om@@ 2984
di 2974
when 2954
ke@@ 2946
ground 2945
wor@@ 2943
198@@ 2942
into 2938
office 2938
pre@@ 2932
ct@@ 2925
ity 2922
000 2917
ant 2891
count@@ 2888
pi@@ 2850
rock 2844
199@@ 2841
h 2829
gi@@ 2828
196@@ 2825
ant@@ 2825
her 2806
white 2803
pr@@ 2802
ii 2796
under 2796
ig@@ 2784
aw@@ 2766
bacon 2763
11 2760
used 2759
– 2759
west 2752
ice 2742
while 2741
bet@@ 2738
ingredient 2737
president 2729
length 2725
ber@@ 2720
plays 2720
apollo 2708
north 2704
wi@@ 2693
ang@@ 2692
bor@@ 2692
iz@@ 2688
largest 2685
institute 2684
ju@@ 2681
est 2676
v 2674
ach@@ 2660
gre@@ 2658
named 2652
world 2640
est@@ 2638
ric@@ 2637
ed@@ 2624
engine 2616
able 2605
ory 2598
son@@ 2595
rou@@ 2587
death 2565
cit@@ 2539
house 2534
pri@@ 2530
land 2522
ian 2520
mer@@ 2514
second 2514
worked 2514
martin 2512
population 2494
form@@ 2492
ship 2487
ish@@ 2481
hu@@ 2480
became 2476
building 2472
:@@ 2470
nor@@ 2467
based 2456
wh@@ 2450
cre@@ 2446
ations 2444
spain 2432
jo@@ 2430
te 2430
ary 2423
kilometres 2422
jersey 2421
der 2413
force 2405
fu@@ 2401
sin@@ 2401
built 2397
17@@ 2392
william 2391
bar@@ 2386
ain 2385
ass@@ 2381
more 2381
az@@ 2378
john 2377
technology 2375
anders 2373
part@@ 2373
season 2372
time 2372
ist 2364
called 2358
har@@ 2358
town 2349
she 2348
metres 2347
del@@ 2344
monument 2342
ra@@ 2341
can 2336
ss 2336
hel@@ 2332
ke 2332
ut 2332
established 2316
ld 2310
att@@ 2291
la@@ 2291
type 2284
well 2281
there 2277
italy 2275
bel@@ 2274
may 2271
ye@@ 2265
south 2264
above 2262
ton 2254
je@@ 2253
character 2252
dis@@ 2250
launch 2249
period 2246
ni@@ 2245
sea 2245
15@@ 2241
ev@@ 2226
son 2224
way 2222
are@@ 2212
10 2209
asteroid 2204
10@@ 2201
blues 2200
mexico 2200
acharya 2195
ur 2195
up 2194
manager 2191
india 2190
level 2185
ge 2180
gro@@ 2175
play@@ 2174
origin 2173
ot@@ 2164
bi@@ 2151
la 2143
journal 2138
195@@ 2137
art@@ 2132
br@@ 2131
singer 2130
cr@@ 2129
former 2120
sub@@ 2112
aid 2110
long 2110
her@@ 2106
ard 2104
fer@@ 2104
off@@ 2103
regional 2101
ents 2099
appe@@ 2088
austin 2088
vo@@ 2086
public 2079
gar@@ 2075
being 2072
aarhus 2065
atlantic 2061
ned 2057
died 2053
sel@@ 2053
am 2052
published 2051
hi@@ 2037
ps 2037
wil@@ 2031
seas@@ 2020
later 2014
tit@@ 2013
ine@@ 2010
bro@@ 2008
georgia 2007
ans 2001
before 2000
ry@@ 2000
title 2000
found 1997
pilot 1994
can@@ 1989
tro@@ 1989
both 1977
ased 1976
met@@ 1974
space 1970
cap@@ 1969
out 1968
home 1967
sou@@ 1966
serie 1964
king 1958
ingredients 1955
founded 1943
vari@@ 1936
ture 1931
ly@@ 1917
ty@@ 1916
11@@ 1914
hou@@ 1913
business 1908
20 1905
tion@@ 1902
loc@@ 1895
aston 1892
pp@@ 1886
yo@@ 1886
lon@@ 1881
mas@@ 1881
sion 1880
people 1872
ast 1871
193@@ 1868
college 1867
tt@@ 1864
den 1858
ko@@ 1848
ill@@ 1846
str@@ 1846
et 1842
four 1841
see 1839
members 1838
won 1838
ion 1836
ong 1833
iv@@ 1827
sauce 1825
sal@@ 1824
company 1818
den@@ 1818
vil@@ 1814
side 1808
z 1806
ven@@ 1804
district 1798
kingdom 1798
march 1797
ach 1796
cl@@ 1796
spoken 1795
fac@@ 1790
sing@@ 1787
sk@@ 1782
wo@@ 1782
day 1767
pos@@ 1766
clu@@ 1764
including 1764
shepard 1761
nu@@ 1759
orb@@ 1759
akeem 1755
high 1755
epoch 1754
ash@@ 1753
ks 1752
record 1748
im 1744
ori@@ 1741
flight 1739
native 1739
& 1738
began 1737
london 1736
spe@@ 1735
fl@@ 1734
men@@ 1734
win@@ 1734
total 1727
00 1726
bean 1725
da 1725
sur@@ 1725
lan@@ 1724
ins 1722
od@@ 1722
abdul 1719
los 1715
than 1714
ters 1713
bur@@ 1711
bre@@ 1709
san 1708
inter@@ 1705
records 1703
uni@@ 1691
orbital 1687
site 1677
nasa 1675
key 1668
madrid 1661
aldrin 1660
bas@@ 1653
sen@@ 1648
infantry 1645
civil 1640
crew 1639
elliot 1639
char@@ 1638
cal@@ 1636
anderson 1635
ese 1635
hall 1632
adam 1629
african 1627
alfred 1626
general 1626
und 1626
spanish 1622
central 1620
mil@@ 1618
service 1617
stu@@ 1617
mat@@ 1616
sever@@ 1614
designed 1611
15 1610
comp@@ 1610
many 1610
cur@@ 1607
ating 1604
albert 1600
andrew 1597
ten 1595
follow@@ 1591
alma 1590
township 1588
top 1585
mag@@ 1584
mes 1579
signed 1576
abo@@ 1575
val@@ 1571
italian 1568
play 1566
mater 1563
ven 1557
buzz 1556
2009 1551
id@@ 1550
indonesia 1545
sm@@ 1544
july 1541
ta@@ 1538
pres@@ 1534
road 1530
discovered 1527
ight 1526
ack@@ 1524
pal@@ 1521
december 1508
jones 1508
buil@@ 1507
succ@@ 1503
battle 1502
plac@@ 1501
sch@@ 1494
op@@ 1493
1634 1489
des@@ 1488
old 1481
ra 1481
é@@ 1480
up@@ 1477
nam@@ 1476
ban@@ 1474
fic@@ 1466
wn 1466
created 1465
00@@ 1464
18 1461
ger 1461
mc 1461
ire 1457
mak@@ 1457
os@@ 1456
ner 1454
family 1452
fre@@ 1452
ah@@ 1451
2000 1450
consi@@ 1450
14@@ 1448
ribicoff 1447
european 1446
ley 1446
social 1444
war@@ 1442
ay 1439
british 1435
mendrisio 1434
2014 1432
ari@@ 1432
ght 1432
minister 1430
cro@@ 1425
champi@@ 1424
ors 1419
add@@ 1418
august 1412
res 1412
recor@@ 1411
series 1410
car 1401
ake 1400
ities 1400
james 1398
vel@@ 1398
port 1397
aircraft 1396
high@@ 1394
origin@@ 1394
shi@@ 1393
14 1392
turner 1389
25@@ 1386
regi@@ 1385
17 1382
od 1382
ting 1380
ft 1378
street 1378
career 1376
asian 1375
test 1375
ohio 1374
flo@@ 1367
whose 1367
ick@@ 1363
polit@@ 1362
solo 1361
26@@ 1360
igh@@ 1359
gen@@ 1353
sol@@ 1353
station 1353
the@@ 1351
operated 1346
comics 1344
footballer 1344
ite 1343
november 1339
book 1336
january 1336
ma 1336
rocket 1336
association 1335
cam@@ 1335
nationality 1333
trans@@ 1333
seat 1332
tor@@ 1330
tions 1329
2006 1327
25 1327
adams 1325
east 1324
division 1323
ef@@ 1323
ies 1321
back@@ 1320
itu@@ 1320
km 1319
final 1318
same 1317
now 1316
sciences 1316
desig@@ 1314
abraham 1312
line 1310
back 1304
ac 1303
run@@ 1302
sum@@ 1300
ici@@ 1299
sy@@ 1297
23 1296
end 1288
29@@ 1286
lev@@ 1281
ow@@ 1280
31 1279
ff 1277
successor 1277
enc@@ 1276
michigan 1276
rhythm 1276
16 1271
ab 1269
ace 1269
tes 1266
au 1263
related 1262
apoapsis 1258
ced 1258
military 1257
ee@@ 1256
base 1253
ings 1248
comes 1247
;@@ 1244
ham@@ 1244
june 1244
atlanta 1243
donnell 1240
id 1240
black 1239
don@@ 1239
metal 1239
denmark 1238
21 1237
wisconsin 1236
mary 1234
fam@@ 1233
27 1232
art 1231
ition 1230
started 1230
within 1229
dent 1227
pennsylvania 1226
chi@@ 1225
pan@@ 1224
compe@@ 1223
operating 1223
work@@ 1223
debut 1221
dist@@ 1220
tre@@ 1220
xi@@ 1220
ence 1219
pe 1216
ren@@ 1216
/@@ 1214
along 1212
ts@@ 1208
fried 1207
ku@@ 1206
tw@@ 1204
q@@ 1199
join@@ 1198
speed 1198
ces 1196
mississippi 1193
inclu@@ 1191
popular 1190
log@@ 1185
active 1179
september 1176
ard@@ 1172
dy@@ 1172
vis@@ 1171
ics 1170
ms 1170
roc@@ 1170
duc@@ 1168
11th 1167
03 1165
german 1165
groups 1165
cul@@ 1164
oper@@ 1164
issi@@ 1163
divis@@ 1161
variation 1161
athens 1158
center 1158
alternative 1157
rs 1157
super@@ 1156
ble 1153
great 1153
cho@@ 1152
ship@@ 1152
label 1151
body 1150
accademia 1148
ace@@ 1147
sandwich 1147
agu@@ 1146
rice 1146
ty 1146
style 1144
army 1139
elec@@ 1137
39@@ 1136
sri 1136
tem@@ 1136
use 1133
albany 1132
malaysia 1132
mit@@ 1130
arm@@ 1127
abilene 1126
ling 1126
peri@@ 1126
architettura 1122
squ@@ 1122
akron 1120
io 1120
ben@@ 1117
07 1116
include 1116
sed 1116
ates 1115
beef 1114
eth@@ 1112
greece 1112
written 1112
historic 1107
produc@@ 1107
commander 1106
sc 1105
periapsis 1104
ie 1103
akita 1101
stylistic 1101
os 1099
october 1096
shor@@ 1096
science 1095
april 1094
france 1092
pur@@ 1092
mate@@ 1090
official 1088
abel 1086
hol@@ 1086
low 1086
ak 1084
architect 1081
wn@@ 1081
leg@@ 1080
int 1079
system 1079
% 1076
netherlands 1076
sa@@ 1076
ayam 1075
elevation 1075
ves 1075
boo@@ 1074
cel@@ 1072
v8 1072
wer 1072
battles 1070
ple@@ 1070
° 1070
200 1068
ish 1066
wal@@ 1065
background 1064
milli@@ 1062
connecticut 1060
taib 1060
ade 1058
organisation 1058
scho@@ 1058
hal@@ 1057
philippines 1056
27@@ 1054
ack 1052
fountain 1051
new@@ 1045
cc@@ 1043
baku 1042
ice@@ 1042
35@@ 1040
gener@@ 1040
alison 1039
madison 1038
representatives 1038
fr@@ 1037
currently 1036
england 1035
owned 1035
aleksandr 1034
hop 1034
vie@@ 1034
tern 1033
auburn 1030
100 1029
do 1028
fran@@ 1028
plo@@ 1028
singapore 1028
speci@@ 1028
angola 1027
turkish 1026
alabama 1025
fri@@ 1024
pol@@ 1024
tex@@ 1024
13 1021
van@@ 1021
24 1016
rayel 1013
assembly 1011
ich@@ 1011
academic 1009
sa 1009
mot@@ 1008
um 1008
22 1007
chicken 1007
form 1000
french 1000
students 1000
tive 1000
canada 999
mus@@ 999
anaheim 998
town@@ 996
virginia 995
bl@@ 993
comic 993
dor@@ 993
azerbaijan 992
ina 991
power 989
sco@@ 989
sts 988
start 984
re 983
mahmud 982
ative 981
alfa 979
47@@ 978
j 977
completed 974
ford 974
single 974
so 974
engineering 970
fli@@ 970
order 969
van 968
charac@@ 966
ale 965
graduated 965
í@@ 965
albuquerque 964
alex 963
cent@@ 963
retired 963
stre@@ 963
cour@@ 958
meters 958
selected 958
eg@@ 956
sig@@ 956
36@@ 954
americ@@ 953
ward 953
park 951
penyet 951
ariane 950
1963 949
lected 949
big 948
30 946
tak@@ 946
prime 945
ards 942
hip 942
musician 941
romeo 941
come 940
euro@@ 940
cleveland 938
creator 938
dessert 938
memorial 938
adi@@ 937
ale@@ 937
launched 937
ot 937
rel@@ 936
develop@@ 934
des 931
185@@ 930
ana 930
ell 930
serves 930
2015 929
gran@@ 928
ica 927
arem 926
01 924
space@@ 924
ures 922
includes 919
louis 919
turkey 918
28 917
#@@ 916
aving 916
bakewell 914
manufacturer 914
ne 914
dan@@ 911
field 910
nrbq 910
vermont 910
size 909
37@@ 906
antares 906
ore 906
chicago 905
class 904
1955 903
arena 903
baked 903
nation 903
ta 903
days 902
february 900
roma 899
transportation 899
paisa 896
ail@@ 895
dic@@ 895
1st 894
ital@@ 894
centre 893
hotel 893
community 892
mean 892
ple 892
dered 890
bal@@ 888
conference 888
04 885
audi 885
occ@@ 885
originally 884
switzerland 884
christian 880
hon@@ 880
romania 880
wer@@ 879
dodge 878
museum 878
ga 877
stan@@ 877
á@@ 877
33@@ 876
bionico 875
atlas 872
chil@@ 872
osborne 872
cas@@ 871
co 870
crisis 870
density 870
author 869
juan 868
produced 866
ave 865
bus@@ 865
came 865
nav@@ 864
bil@@ 863
polish 863
sil@@ 863
tic@@ 862
vol@@ 862
1000 856
astero@@ 856
dc 856
own 856
king@@ 855
lanka 854
calcio 851
cou@@ 850
oregon 849
mark 848
once 846
fusion 845
49@@ 843
alco 843
kilometre 842
2005 841
ger@@ 841
ck@@ 840
mp@@ 840
43@@ 839
sc@@ 839
barajas 838
tic 838
award 837
za 837
democratic 835
pakistan 835
ele@@ 834
103 832
2013 828
department 828
lead@@ 828
secon@@ 827
germany 826
took 826
dy 824
indian 824
row 824
pop 823
1998 822
last 822
ajax 821
09 819
watson 819
adolfo 818
az 818
lec@@ 817
44@@ 816
kar@@ 816
mer 816
them 816
inhabitants 815
ays 814
indi@@ 814
ler 813
organ@@ 813
sv 812
vic@@ 812
binignit 810
food 809
amc 808
fighter 808
inst@@ 808
mor@@ 808
resi@@ 808
aur@@ 806
champions 806
ah 805
britain 805
owner 805
andra 804
hor@@ 804
ahmet 803
chinese 803
occupation 803
rome 803
sam@@ 801
government 800
bandeja 798
moscow 798
sus@@ 796
pat@@ 795
union 794
ished 792
28@@ 791
lem@@ 791
explosion 790
sportiva 788
craig 787
ram 787
addis 786
don 786
sto@@ 784
{@@ 784
05 783
garth 781
bavarian 780
lake 780
aviation 779
eric 779
followed 779
appleton 778
comple@@ 777
press 777
sen 776
manag@@ 775
council 774
metropolitan 774
sl@@ 774
gal@@ 772
}@@ 772
fir@@ 771
inf@@ 771
26 770
que 770
ws 770
aver@@ 769
ater 768
ris@@ 766
164 765
ano 765
che@@ 765
ried 764
ker@@ 762
delta 759
succeeded 759
ines@@ 758
wel@@ 758
full 757
ames 756
ino 755
publisher 755
sky 755
acta 752
bat@@ 751
3rd 750
ature 749
jazz 749
senate 749
disco 748
sing 748
ö@@ 748
but@@ 747
liv@@ 746
oc@@ 746
suárez 745
airbase 744
millimetres 742
pudding 742
way@@ 742
ces@@ 741
kovač 741
ery 740
ili@@ 740
va 738
agnes 736
aste@@ 736
gl@@ 736
johnson 736
ajoblanco 735
uk 735
atur@@ 733
flint 731
sand@@ 731
discoverer 730
aluna 728
ile 728
demonym 727
governor 726
pic@@ 726
floor 725
houston 724
province 724
trad@@ 724
cover@@ 723
lt 722
ababa 720
avi@@ 720
ken@@ 720
popu@@ 720
similar 720
stadium 719
29 718
course 718
ster 718
californ@@ 717
among 716
design 716
development 716
premier 716
ai 715
gs 715
77@@ 714
acura 713
added 712
sau@@ 712
ants 711
2011 710
status 710
alaska 709
avenue 709
code 708
post@@ 707
cab@@ 706
lar 706
alpena 705
builder 705
chan@@ 705
walter 705
lit@@ 704
lock@@ 704
zealand 704
mission 703
dallas 702
star@@ 701
ket@@ 700
lee 700
affiliated 699
cy@@ 699
sports 699
ute 699
afc 698
250 697
matador 696
ney 695
allen 694
alberto 693
sabin 691
staff 691
ya 690
asad 689
park@@ 689
public@@ 689
construction 688
model 688
surface 688
100@@ 687
oil 686
teisaire 686
kilo@@ 685
2008 684
gorbach 684
jennings 684
currency 683
river 682
06@@ 681
rebellion 680
02 679
ayers 679
campus 678
cast@@ 678
lor 678
pped 678
urs 678
ily 677
ny 677
abarth 676
live 676
soci@@ 676
managed 675
navy 675
45@@ 674
bangalore 674
mad@@ 674
authority 673
holloway 673
ines 672
len@@ 672
dou@@ 671
mex@@ 671
alfons 670
prudnikov 669
fic 668
kway 668
sburg 668
struc@@ 668
ba@@ 667
eastern 667
mid 666
hil@@ 664
obama 664
derivative 663
fought 662
set 662
summit 662
°@@ 662
ane 661
aleksandra 660
alvah 659
illinois 659
position 658
gin@@ 657
lo 657
ves@@ 657
martyrs 656
men 656
mars 655
discover@@ 653
escape 652
media 652
alfredo 651
mass 650
32 649
mal@@ 649
ridge 649
feet 648
﻿ 648
atatürk 647
barack 647
fiel@@ 647
inc 647
rot@@ 647
ality 645
hero 645
angeles 644
youth 643
coo@@ 642
cru@@ 642
hand@@ 642
ich 642
teow 642
federal 641
ached 640
egg 640
tain@@ 640
diameter 639
soviet 639
tt 639
maryland 637
medal 637
asilomar 636
head 636
1999 635
hy@@ 635
ls 634
spon@@ 634
2004 633
sarawak 633
isbn 632
sweet 632
08 630
aust@@ 630
zitarrosa 630
any 629
poaceae 629
red@@ 629
karnataka 628
player 628
′@@ 628
ere 627
187@@ 626
current 626
″ 626
34 625
amsterdam 625
java 625
cat@@ 624
stand@@ 624
univers@@ 624
rus@@ 623
ais@@ 622
allama 622
caballero 622
din@@ 622
ertegun 622
kh@@ 622
klink 622
06 620
48 620
austria 620
fen@@ 620
production 620
sar@@ 619
ams@@ 618
awar@@ 618
iqbal 618
round 618
abner 617
caterpillar 617
mathemat@@ 617
mir@@ 616
parliament 616
é 616
lat@@ 615
deer 614
went 614
blackpool 613
costa 613
francisco 613
negre 613
sci@@ 612
ids 611
originated 611
mo 610
technological 610
ü@@ 610
ara 609
grounds 609
preceded 609
neigh@@ 608
ow 607
contains 606
bak@@ 605
sty@@ 605
antwerp 604
astella 604
baade 604
ches@@ 604
robert 604
originates 603
97@@ 602
agra 602
birmingham 602
ireland 602
46 601
ber 601
miller 601
elizabeth 600
milan 600
spaceport 600
cuisine 599
evil 599
romagnoli 598
versus 598
clas@@ 597
icebreaker 597
forrest 596
places 596
water 596
hard@@ 595
88@@ 594
hampshire 593
japan 593
ni 593
gt 592
jon@@ 592
ka 592
ssi@@ 592
iraq 591
alessio 590
bakso 590
glo@@ 590
lou@@ 590
win 590
copenhagen 589
ela 589
19 588
alcatraz 588
gor@@ 588
andrews 587
aids 586
orange 586
systems 586
ams 585
visvesvaraya 585
affiliation 584
hot 584
instrument 584
serving 584
german@@ 582
asam 581
delaware 581
ata 580
bananaman 580
education 580
ator 578
aten 577
ars 576
dings 576
uses 576
ze 576
vers@@ 575
greek 574
ram@@ 574
icip@@ 573
ol 573
tar@@ 573
david 572
300 571
coupé 571
operator 571
albennie 569
bella 569
attended 568
—@@ 568
57@@ 566
uruguay 565
peo@@ 562
tlx 562
velocity 562
1996 561
89@@ 561
mathematics 561
af 560
count 560
georgiadis 560
batchoy 559
ville 559
govern@@ 558
pedas 557
ep@@ 556
leaders 555
kant 553
vegetables 553
volunteer 553
honda 552
ó@@ 552
bhajji 551
107 549
electric 549
08@@ 548
bridge 548
dge 548
film 548
traditional 548
adonis 547
ao 547
secretary 547
ket 546
librarians 546
argentina 545
issn 545
ful@@ 544
mah@@ 544
sho@@ 544
broad@@ 541
ashgabat 539
associ@@ 538
ham 538
hong 538
derbyshire 537
southeast 537
56@@ 536
burg 536
ire@@ 536
amarillo 535
ras@@ 535
14th 534
rol 534
tenant 534
luna 532
airlines 531
republic 531
vir@@ 531
1993 530
headquar@@ 530
07@@ 529
transport 529
completion 528
levy 528
church 527
sis 527
alex@@ 526
awh 526
rosa 526
colmore 525
seconds 525
kong 524
oh@@ 524
person 524
alderney 523
anti@@ 523
charlie 523
asser 522
available 522
fel@@ 522
ure@@ 521
vel 521
congre@@ 520
cooked 520
may@@ 520
perform@@ 520
abubakar 519
zahra 519
acc@@ 518
alaa 518
bun@@ 518
meat 518
offici@@ 518
vice 518
101 517
i̇zmir 517
werft 517
ans@@ 516
ns 516
wri@@ 516
baths 515
fil@@ 515
milk 515
dr 514
with@@ 514
awarded 513
arròs 512
administrative 511
ago 511
24@@ 510
ens 509
$@@ 508
amatriciana 508
chief 508
loyal 508
ona 508
jer@@ 507
register 507
airey 506
fort 506
lin 506
open 506
ro 506
ardmore 505
indonesian 504
neave 504
ue 504
nation@@ 503
spo@@ 503
dancer 502
harbor 502
just@@ 502
locomotive 502
moore 502
manufactured 500
ught 500
severed 499
print 498
zed 498
adio 497
alls 497
33 496
daggett 495
arapiraquense 494
bay 494
africa 493
1989 492
2016 492
chievo 492
000000 491
bac@@ 491
graduate 491
mayor 491
22@@ 488
cons@@ 488
coun@@ 488
sport@@ 488
ón 488
property 487
reg@@ 487
wasp 487
ban 486
1986 485
aleksey 485
anese 485
wizard 485
09@@ 483
grou@@ 483
1932 482
50 482
clubs 482
dan 482
pow@@ 482
arab@@ 481
ington 481
adare 480
daniel 478
adisham 477
bir@@ 477
chirikov 477
finland 477
aida 476
ches 476
peter 476
wis@@ 476
ey 475
roman@@ 475
camilla 474
chic@@ 474
ctor 474
own@@ 474
previo@@ 474
represented 474
scales 474
1918 473
maiden 473
verona 473
vin@@ 473
diam@@ 472
enn@@ 472
hunt 472
technical 472
abbreviation 471
jour@@ 471
pena 471
academ@@ 470
attica 470
ann 469
manu@@ 469
yu@@ 469
1994 468
30@@ 468
funk 468
44 467
cruises 467
vide@@ 466
fortress 465
600 464
by@@ 464
dol@@ 464
alhambra 463
guiana 463
hospital 463
36 462
ampara 462
cent 461
grey 461
parker 461
23@@ 460
mi 460
performs 459
represent@@ 459
agremiação 458
educ@@ 458
foundation 458
tor 458
construc@@ 457
tomat@@ 457
antioch 456
dri@@ 456
head@@ 455
plant 455
dio 454
67@@ 453
ben 453
frank 452
island 452
jr 452
wit@@ 452
88 450
category 450
politician 450
universit@@ 450
ñ@@ 450
helena 449
presi@@ 449
socialist 449
jam@@ 448
kl@@ 448
ony 448
oth@@ 448
rams 448
spent 448
1962 447
indie 447
nig@@ 447
37 446
greenville 446
ang 444
banana 444
cham@@ 444
ith@@ 444
launch@@ 444
manor 444
novel 444
royal 444
romance 443
feder@@ 442
kno@@ 442
vent@@ 442
1950 439
afonso 439
beam 439
arlington 438
gram 438
1910 437
0000 436
alv 436
john@@ 436
frew 435
glastonbury 435
ended 434
abdulsalami 433
bb@@ 433
cornell 433
dynam@@ 433
camp@@ 432
mis@@ 432
pages 432
burns 431
pradesh 431
suburban 431
tenn@@ 431
indone@@ 430
lands 430
série 430
1969 429
gen 429
guitar 429
legen@@ 429
austral@@ 428
cape 428
gufa 428
pietro 428
dedicated 427
hungar@@ 427
110 426
bs 425
pad 425
amdavad 424
ering 424
front 424
george 424
georgi@@ 424
tere@@ 424
uttar 424
wood 424
ama 423
mun@@ 423
que@@ 422
belgium 421
felipe 421
braz@@ 420
hygiea 420
kharaitiyat 420
ages 419
barboza 419
koc 419
quarterly 419
wilder 419
arts 418
dublin 418
administr@@ 417
rotterdam 417
architec@@ 416
works 416
gest 415
parent 415
tennessee 415
1927 414
alist 414
batagor 414
glen 414
1923 413
arr@@ 413
iss@@ 412
post 412
publish@@ 411
ca 410
marriott 410
morgan 410
potato 410
transmission 410
decembrie 409
julia 409
origins 409
stuart 409
stic 408
guruli 407
montevideo 407
addiction 406
alli@@ 406
bank 406
coconut 406
ene 406
mel@@ 406
oclc 406
tama 406
temperature 406
wide 406
poland 405
allan 404
cakes 404
iii 404
studi@@ 404
aleksandre 403
pot@@ 403
def@@ 402
pie@@ 402
rut@@ 402
span@@ 402
star 402
syste@@ 402
1995 401
acy 401
baymax 401
fal@@ 401
trance 401
connec@@ 400
dun@@ 400
rid@@ 400
val 400
dales 399
essor 399
fylde 399
hera 399
1089 398
distric@@ 398
berg 397
gree@@ 396
aka 395
pilo@@ 395
sibal 395
1099 394
1928 394
ales 394
campeonato 394
labour 394
previously 394
aip 393
sq 393
canadian 392
carlos 392
folk 392
sian 392
mich@@ 391
given 390
kat@@ 390
roll 390
aus 388
gettysburg 388
vehicle 388
twilight 387
wheeler 387
orn@@ 386
aires 385
democr@@ 385
floors 385
ira@@ 385
wash@@ 385
2003 384
bru@@ 384
grozny 384
a1 383
buenos 383
distinguished 383
ef 383
ek 383
kilograms 383
mike 383
ye 383
1957 382
cook@@ 382
euro 382
pa 382
quaid 382
vi 381
discipline 380
pes@@ 379
alvis 378
hardcover 378
pacific 378
assembled 377
claudiomaccone 377
popul@@ 377
bbc 376
ler@@ 376
performed 376
assault 375
care@@ 375
jo 375
ero 374
ja 374
lor@@ 374
sate@@ 374
’@@ 374
rit@@ 373
branch 372
gubbio 372
iu@@ 372
alpharetta 371
phillips 371
agn@@ 370
arbor 370
potter 370
russian 370
werder 370
11264 369
aya 368
hun@@ 368
priestley 368
yor@@ 368
hernández 367
schiphol 366
stars 366
spartak 365
aenir 364
brasileiro 364
canad@@ 364
writer 364
connect@@ 363
paraguay 363
vincent 363
anthem 362
1966 361
indianapolis 361
legisl@@ 361
pau@@ 361
soto 361
provin@@ 360
she@@ 360
wheel@@ 359
jwaydan 358
kel@@ 358
li 358
studied 358
vehic@@ 358
taylor 357
akes 356
ball 356
christ@@ 356
ingen 355
livorno 355
bal 354
constructed 354
figneria 354
gold 354
philipp@@ 354
belongs 353
salle 353
ura 353
eli@@ 352
gan@@ 352
johann 352
1930 351
aft 351
parliam@@ 351
45 350
cir@@ 350
ilo@@ 350
barny 349
whe@@ 349
bremen 348
ented 348
franc@@ 348
mir 348
rad@@ 348
rais@@ 348
rotation 348
titans 347
blt 346
contributing 346
lanc@@ 346
ll 346
olive 346
om 346
án 346
52@@ 345
blu@@ 345
boogaard 345
cream 345
dbs 345
denti@@ 345
lydia 345
municip@@ 345
who@@ 345
williams 345
jan@@ 344
lam@@ 344
backup 343
colo@@ 343
douglas 343
frederick 343
itar@@ 343
mart@@ 343
samaras 343
brazil 342
kerala 342
advances 341
dawson 341
ganymed 341
lia 341
residence 341
sausage 341
abradab 340
asher 340
ax@@ 340
azal 340
ig 340
liga 340
madin 340
municipality 340
ys 340
malaysian 339
tart 339
veil 339
bhangra 338
illa 338
quar@@ 338
via 338
adu@@ 337
apo@@ 337
90 336
ado 336
chumakov 336
craf@@ 336
designer 336
jack@@ 336
ethiopia 335
fd 335
fulton 335
nie 335
wolf@@ 335
complex 334
arrabbiata 333
atic 333
bol@@ 333
dence 333
punk 333
sep@@ 333
va@@ 333
bass 332
ro1 332
bertram 331
lccn 331
lockheed 331
phil@@ 331
yin 331
boston 330
congress 330
dean 330
gau@@ 330
ym@@ 330
1036 329
elle 329
adirondack 328
alexandria 328
conta@@ 328
dimitra 328
indian@@ 328
jav@@ 328
saranac 328
aco@@ 327
black@@ 327
manhattan 327
66063 326
atten@@ 326
fish 326
ign@@ 326
joe 326
situated 326
ł@@ 326
﻿@@ 326
410777 325
gover@@ 325
lars 325
alkmaar 324
davis 324
inv@@ 324
rah@@ 324
antonis 323
eal@@ 322
efxeinoupolis 322
means 322
palaeontologica 322
polonica 322
syn@@ 322
grantville 321
synthpop 321
utt@@ 321
categor@@ 320
iction 320
itional 320
khor 320
pap@@ 320
power@@ 320
à 320
ency 319
arti@@ 318
bertone 318
gren@@ 318
meas@@ 318
sb 318
shivers 318
sta 318
alla 317
cesena 317
ola 317
amate@@ 316
bert@@ 316
bread 316
conflict 316
current@@ 316
grand 316
identifier 316
killed 316
lemon 316
rian 316
sh 316
texans 316
math 315
gradu@@ 314
ised 314
married 314
thomas 314
vicia 314
109 313
1097 313
meyer 313
dark 312
helsinki 312
lumezzane 312
reli@@ 312
tl@@ 312
turkmenistan 312
chancel@@ 310
cheese 310
colombian 310
zz@@ 310
erce 309
jar@@ 309
mar 309
tai@@ 309
academy 308
areas 308
electr@@ 308
rome@@ 308
ø@@ 308
agustín 307
garlic 307
jens 307
almond 306
coach 306
greater 306
ries 306
stat@@ 306
sville 306
unds 306
wave 306
erasmus 305
felicitas 305
syl@@ 305
charles 304
clematis 304
involved 304
pro 304
provisional 304
q 304
var@@ 304
catalonia 303
languages 303
mst 303
15788 302
curr@@ 302
dav@@ 302
football@@ 302
malay 302
66391 300
author@@ 300
bolt 300
chu@@ 300
crew@@ 300
elev@@ 300
irish 300
real 300
acm 299
kw4 299
1101 298
argentine 298
dead 298
len 298
scrip@@ 298
alon@@ 297
battlefield 297
ense 297
ians 297
zh@@ 297
ä@@ 297
bay@@ 296
change 296
craft 296
olympic 296
ore@@ 296
diagonal 295
establ@@ 295
torpedo 295
away 294
director 294
headquarters 294
key@@ 294
rist@@ 294
dents 293
aek 292
ash 292
brussels 292
derived 292
terek 292
vio@@ 292
cover 291
custom 291
agen 290
ba 290
ena 290
pon@@ 290
straight 290
tarrant 290
tirstrup 289
argent@@ 288
armin 288
auto@@ 288
carolina 288
foun@@ 288
sandw@@ 287
alba 286
green@@ 286
get@@ 285
perón 285
ril 285
spouse 285
onn@@ 284
stoc@@ 284
andalusia 283
ician 283
3000 282
lic 282
isidro 281
mber 281
punjab 281
aci@@ 280
architecture 280
atlan@@ 280
creek 280
southwest 280
willi@@ 280
formerly 278
fullname 278
hessarghatta 278
lah@@ 278
radhakrishnan 278
sarvapalli 278
soldevanahalli 278
worth 278
560090 277
66@@ 277
gujarat 277
nati@@ 277
35 276
edit@@ 276
monocacy 276
secre@@ 276
virage 276
46@@ 274
erland 274
ink@@ 274
miss@@ 274
visi@@ 274
ahmad 273
härtel 273
covers 272
jac@@ 272
kelvins 272
kil@@ 272
pogson 272
huse@@ 271
uring 271
42 270
60 270
michael 270
olympique 270
vandenberg 270
lahore 269
las 269
marce 269
plant@@ 269
ath 268
kal@@ 268
libr@@ 268
minist@@ 268
passed 268
republican 268
ymouth 268
nwc 267
northwest 266
oli@@ 266
operation 266
paul 266
schneider 266
130 265
falcons 265
gazet@@ 265
47 264
alcobendas 264
ando 264
bar 264
bh@@ 264
fully 264
mol@@ 264
ok 264
starring 264
wat@@ 264
writ@@ 264
ences 263
flemish 263
georg@@ 263
alter@@ 262
colo 262
drive 262
lyonnais 262
airman 261
sebast@@ 261
alf@@ 260
ammann 260
buuren 260
lington 260
master 260
vers 260
ander 259
gaussia 259
ister 259
lira 259
prefecture 259
rostock 259
2001 258
asunción 258
doctoral 258
michele 258
ov 258
uk@@ 258
birthplace 257
05@@ 256
bengo 256
chairman 256
fenchurch 256
gruppo 256
influ@@ 256
ison 256
marcolini 256
nick@@ 256
brom 255
gab@@ 254
gar 254
ita 254
mary@@ 254
metapán 254
northeast 254
ridge@@ 254
tyus 254
üner 254
ala 253
governing 253
jorge 253
nationwide 253
redi@@ 253
rodríguez 253
zia 253
nd 252
subur@@ 252
tom 252
vk8 252
wheel 252
kadhim 251
peñ@@ 251
plante 251
augu@@ 250
bou@@ 250
bumiputera 250
inh@@ 250
ki 250
ology 250
reyes 249
arianespace 248
average 248
bobina 248
develo@@ 248
usly 248
virgin@@ 248
1001 247
19255 247
assad 247
erson 247
moyine 247
parti 247
4th 246
ahe@@ 246
castle 246
cylin@@ 246
fru@@ 246
nel 246
olymp@@ 246
sumat@@ 246
800 245
akhigbe 245
neptun 245
deputy 244
draft 244
kon@@ 244
stadi@@ 244
archite@@ 243
una 242
drum 241
acob 240
ador 240
use@@ 240
amateurs 239
grasso 239
tran@@ 239
41 238
cher 238
free@@ 238
instru@@ 238
itiba 238
separ@@ 238
affili@@ 237
alligator 237
deram 237
casey 236
latin 236
mem@@ 236
nat@@ 236
reti@@ 236
richard 236
standard 236
enue 235
avocado 234
paris 234
ais 233
kins 233
lies 232
arol 231
belgi@@ 231
higher 230
names 230
significant 230
spir@@ 230
stöger 230
tam@@ 230
antioquia 229
ile@@ 229
michig@@ 229
3800 228
figh@@ 228
pfk 228
rey 228
dens@@ 227
enaire 227
fec@@ 227
lippincott 227
lines 226
plack 226
powered 226
sel 226
jan 225
jano 225
ald 224
aleksand@@ 224
luxury 224
ros@@ 224
ax 223
sia 223
soho 223
wilkins 223
ć 223
compar@@ 222
dece@@ 222
erto 222
orial 222
00000 221
99@@ 220
aceae 220
awards 220
cele@@ 220
dam 220
gun 220
pak@@ 220
scal@@ 220
kov 219
mendelsohn 219
kets 218
ip 217
youthclub 217
š@@ 217
blue 216
abbre@@ 215
ators 214
link 214
manufac@@ 214
nish 214
ston 214
ç@@ 214
alu@@ 212
andre@@ 212
competed 212
conservative 212
executive 212
ares 211
ir 210
separate 210
apol@@ 209
yet 209
ú@@ 209
bad@@ 208
ico 208
proper@@ 208
bus 206
demon@@ 206
municipal 206
tim 206
afric@@ 205
ital 205
une 205
rom@@ 204
sey 204
ria 203
55@@ 202
isi@@ 202
ties@@ 202
è@@ 202
ahme@@ 201
veget@@ 201
52 200
brown 200
chap@@ 200
latter 200
mai@@ 200
our 200
— 198
80 196
joseph 196
territ@@ 196
ür@@ 196
alp@@ 194
ference 194
kn@@ 194
nal 194
yer 193
65 192
aker 192
artists 192
dall@@ 192
flour 192
health 192
ini 192
sab@@ 192
submarine 192
max 191
43 190
75 190
ande@@ 190
chili 190
elli@@ 190
ingham 190
ken 190
yl@@ 190
olym@@ 189
countries 188
ez 188
illo 188
iro 188
mp 188
quer@@ 188
sport 188
” 188
æ@@ 187
)@@ 186
1974 186
fk 186
identifi@@ 186
salv@@ 186
1979 184
1987 184
ş@@ 183
architectural 182
broo@@ 182
bundesliga 182
ele 182
lay@@ 182
nar@@ 182
ato 181
malay@@ 181
68@@ 180
bury 180
ching 180
eric@@ 180
oes 180
follo@@ 179
brit@@ 178
hap@@ 178
hard 178
height 178
mit 178
staf@@ 178
student 178
territory 178
zu@@ 178
â@@ 178
grams 177
cruise 176
gn 176
pork 176
tomato 176
04@@ 174
automobile 174
information 174
rose 174
tech@@ 173
87@@ 172
austrian 172
colomb@@ 172
urugu@@ 172
wag@@ 172
cruis@@ 171
sic 171
abel@@ 170
atric@@ 170
jama@@ 170
stru@@ 170
är@@ 170
! 169
%@@ 168
editor 168
logy 168
1956 166
1958 166
esp@@ 166
lot@@ 166
sac@@ 166
sor 165
0000@@ 164
dar 164
found@@ 164
josé 164
leng@@ 164
ə@@ 164
aar@@ 163
1971 162
abr@@ 162
ag 162
fall 162
florida 162
heal@@ 162
peninsula 162
ˈ@@ 162
1983 160
fill@@ 160
mari@@ 160
ny@@ 160
org@@ 160
± 160
ein@@ 159
attack 158
belon@@ 158
bern@@ 158
brothers 158
gan 158
istan@@ 158
materi@@ 158
ond@@ 158
operates 158
you@@ 158
rer 157
shire 157
ala@@ 156
blan@@ 156
districts 156
influenced 156
leaf 156
tel 156
ğ@@ 156
inhab@@ 155
1988 154
cold 154
dal 154
gad@@ 154
kol@@ 154
noodle 154
premi@@ 154
propel@@ 154
ri 154
semb@@ 153
1982 152
hit@@ 152
ib@@ 152
kes 152
shu@@ 152
sti@@ 152
uro@@ 152
icia 151
kova@@ 151
clau@@ 150
depu@@ 150
eggs 150
joh@@ 150
material 150
untain 150
ß@@ 150
alexand@@ 149
i̇@@ 149
ı@@ 149
1981 148
alab@@ 148
almon@@ 148
compete 148
deriv@@ 148
freedom 148
minutes 148
republic@@ 148
“ 148
98@@ 146
ira 146
was@@ 146
á 145
1980 144
99 144
nickname 144
astern 143
1959 142
ae 142
esh 142
lega 142
brand@@ 140
powys 140
spart@@ 140
valenci@@ 140
wy@@ 140
tot@@ 139
geor@@ 138
isco 138
itas 138
kansas 138
lincoln 138
eria 137
beans 136
erb@@ 136
hes@@ 136
manchester 136
sat@@ 136
ão 136
locom@@ 135
agency 134
cake 134
chall@@ 134
entertainment 134
occup@@ 134
ska 134
submar@@ 134
technolog@@ 134
sage 133
dag@@ 132
etta 132
ko 132
singing 132
wall 132
1976 130
ea 130
javanese 130
legislature 130
lla 130
mb 130
nan 130
nell 130
palaeonto@@ 130
pav@@ 130
retirement 130
ymo@@ 130
án@@ 130
olympi@@ 129
empire 128
fiat 128
inform@@ 128
olf@@ 128
wol@@ 128
doct@@ 127
paragu@@ 127
ashed 126
associazione 126
cross 126
heart 126
penn@@ 126
performing 126
reference 126
rober@@ 126
rp@@ 126
wilson 126
55 124
akr@@ 124
bill 124
fighting 124
fili@@ 124
ink 124
maine 124
mann 124
penin@@ 124
piece 124
rand@@ 124
shipyard 124
simil@@ 124
terr@@ 124
ō@@ 124
“@@ 124
asa 123
remi@@ 123
62@@ 122
boeing 122
diesel 122
lei@@ 122
reb@@ 122
repres@@ 121
83 120
alexander 120
die 120
dom 120
isis 120
ji 120
oreg@@ 120
lie 119
ray@@ 119
109@@ 118
iana 118
lish 118
secret 118
uruguayan 118
ō 118
’ 118
batt@@ 117
theast 117
noodles 116
peanut 116
pou@@ 116
riot@@ 116
tech 116
vegetab@@ 116
wan 116
€@@ 116
+ 114
itute 114
jacob 114
motors 114
pean@@ 114
ral@@ 114
1931 112
93@@ 112
columbus 112
frederic@@ 112
karl 112
scri@@ 112
agust@@ 111
birth@@ 111
listic 111
í 111
ales@@ 110
buffalo 110
petro@@ 110
phili@@ 110
prefec@@ 110
ă@@ 110
asunci@@ 109
gras@@ 109
boat 108
chopped 108
dh@@ 108
hern@@ 108
ingredi@@ 108
laz@@ 108
mbers 108
poly@@ 108
rid 108
sambal 108
signific@@ 108
siomay 108
soldiers 108
tennis 108
auth@@ 107
christmas 106
federation 106
inaugurated 106
metre 106
sk 106
voice 106
+@@ 104
18th 104
92 104
blanco 104
execu@@ 104
ha 104
nigerian 104
rie 104
specific 104
techn@@ 104
£@@ 104
1933 102
estab@@ 102
guar@@ 102
onto@@ 102
po 102
samu@@ 102
scott 102
shredded 102
shrimp 102
×@@ 102
math@@ 101
54@@ 100
bronze 100
defence 100
juventus 100
roger 100
rud@@ 100
shred@@ 100
whit@@ 100
zeal@@ 100
ä 99
ague 98
avail@@ 98
dia 98
franklin 98
grove 98
lives 98
matic 98
ober@@ 98
plaza 98
stadio 98
stock 98
thom@@ 98
spor@@ 97
ael 96
ange 96
automatic 96
bras@@ 96
democracy 96
fab@@ 96
gra@@ 96
hamilton 96
organis@@ 96
prede@@ 96
subsidiary 96
ː@@ 96
ș@@ 95
cate@@ 94
fee@@ 94
legends 94
onso 94
pool 94
ryan 94
wolf 94
× 93
abar@@ 92
arthur 92
billy 92
condi@@ 92
dic 92
gos@@ 92
hamburger 92
roy 92
russia 92
soldi@@ 92
ó 92
tir@@ 91
94 90
aired 90
ethiop@@ 90
hein@@ 90
massachusetts 90
plymouth 90
sands 90
valencian 90
vermon@@ 90
ë@@ 90
eth 89
infant@@ 89
ribut@@ 89
ı 89
700 88
conne@@ 88
dubl@@ 88
ranch 88
turkmen@@ 88
yard 88
arian 87
catalon@@ 87
yal 87
82 86
84 86
_@@ 86
chi 86
china 86
danc@@ 86
ferenc@@ 86
ione 86
neg@@ 86
surf@@ 86
monu@@ 85
bav@@ 84
disci@@ 84
kg 84
mode@@ 84
sels 84
strai@@ 84
techno@@ 84
viet@@ 84
wagon 84
aarh@@ 83
battle@@ 83
iri@@ 83
asphalt 82
bago 82
dis 82
invol@@ 82
pressed 82
sachuse@@ 82
situ@@ 82
nr@@ 81
ă 81
57 80
atives 80
davi@@ 80
ethn@@ 80
kin 80
leipzig 80
pen 80
swiss 80
tta 80
ucc@@ 80
burn 79
108@@ 78
62 78
bhaj@@ 78
coupe 78
guez 78
harvard 78
kent 78
mobile 78
pale@@ 78
pleas@@ 78
pus 78
vf 78
wick@@ 78
ö 78
apan 77
ethi@@ 77
transport@@ 77
turk@@ 77
ž@@ 77
dra 76
eter 76
invasion 76
involv@@ 76
legis@@ 76
litre 76
min 76
non 76
oliver 76
stel@@ 76
stroke 76
subsidi@@ 76
tan 76
ürk 76
banan@@ 75
59@@ 74
68 74
congressional 74
dave 74
derives 74
essex 74
gang@@ 74
gulf 74
inaugur@@ 74
knigh@@ 74
mam@@ 74
measure@@ 74
pag@@ 74
rez 74
tony 74
usa 74
schi@@ 73
ym 73
anahe@@ 72
dani@@ 72
hum@@ 72
ik 72
iness 72
langu@@ 72
leads 72
magdeburg 72
prece@@ 72
recordings 72
uel@@ 72
universities 72
vil 72
volunte@@ 72
ín 72
wiz@@ 71
ambassador 70
aple 70
apple@@ 70
bath@@ 70
contra 70
dab@@ 70
doctor@@ 70
inese 70
ku 70
nie@@ 70
ois 70
rhy@@ 70
shri@@ 70
uro 70
v6 70
à@@ 70
å@@ 70
−@@ 70
youth@@ 69
cuyahoga 68
inches 68
maccabi 68
palermo 68
ral 68
tay@@ 68
uth 68
andalu@@ 67
nw@@ 67
temper@@ 67
777 66
>@@ 66
alder@@ 66
eagle 66
filip@@ 66
gene 66
harbour 66
lins 66
marco@@ 66
milit@@ 66
panthers 66
revival 66
speaking 66
stal@@ 66
steve 66
utes 66
cand@@ 64
chancellor 64
dos 64
hambur@@ 64
jam 64
minced 64
prad@@ 64
primera 64
rey@@ 64
saraw@@ 64
sio 64
wheelbase 64
demo@@ 63
desser@@ 63
hamb@@ 62
manuel 62
meric@@ 62
monar@@ 62
penh@@ 62
pleasant 62
pub@@ 62
shaft 62
vić 62
publ@@ 61
ù 61
1905 60
1913 60
a9@@ 60
falcon 60
jakart@@ 60
newport 60
phal@@ 60
tura 60
address 58
alv@@ 58
appeal 58
berry 58
circuit 58
eing 58
kaiser 58
korean 58
lanci@@ 58
manches@@ 58
organ 58
patrick 58
piaz@@ 58
plate 58
postgraduate 58
predecessor 58
purple 58
ruth 58
signi@@ 58
sour 58
tertain@@ 58
tu 58
unity 58
ń@@ 58
ɪ@@ 58
ptu@@ 57
!@@ 56
abdu@@ 56
aire 56
baltic 56
butter 56
delaw@@ 56
fore 56
samp@@ 56
warm 56
ć@@ 56
č@@ 56
74 54
]@@ 54
bbi@@ 54
dale 54
die@@ 54
división 54
dor 54
ema 54
genus 54
mas 54
mbe 54
montreal 54
quel 54
rap 54
reme@@ 54
ress 54
sex 54
terrace 54
tro 54
”@@ 54
gent@@ 53
guit@@ 53
aca 52
ania 52
ankara 52
jefferson 52
jonathan 52
köln 52
manhatt@@ 52
mr 52
philippine 52
plants 52
ā@@ 52
ś@@ 52
inhabit@@ 51
api@@ 50
assemb@@ 50
axle 50
berlin 50
bol 50
hai@@ 50
kans@@ 50
laur@@ 50
luanda 50
marble 50
monroe 50
nood@@ 50
oi 50
paper@@ 50
salem 50
samar@@ 50
semin@@ 50
steven 50
stown 50
zah@@ 50
⋅@@ 50
aba 49
tiva 49
vand@@ 49
1862 48
abbreviated 48
bob@@ 48
colour 48
identi@@ 48
jaz@@ 48
kids 48
lancia 48
luf@@ 48
maple 48
nova 48
palo 48
personnel 48
polon@@ 48
reo@@ 48
solan@@ 48
wichita 48
ér@@ 48
‘@@ 48
singap@@ 47
= 46
airbus 46
arap@@ 46
bruins 46
conflic@@ 46
gonz@@ 46
gonzález 46
hig@@ 46
isab@@ 46
ollo@@ 46
paci@@ 46
roberts 46
shaf@@ 46
shan@@ 46
tress 46
wet@@ 46
1907 44
?@@ 44
abad@@ 44
anbar 44
commerce 44
duncan 44
gaz@@ 44
isaac 44
kot@@ 44
mad 44
mus 44
nu 44
olfo 44
philli@@ 44
serge@@ 44
starred 44
tch 44
uruguay@@ 44
agremi@@ 43
ğ 43
campbell 42
clube 42
daw@@ 42
ffal@@ 42
georges 42
jal@@ 42
lincol@@ 42
mob@@ 42
obasanjo 42
postal 42
poulos 42
pud@@ 42
rash@@ 42
romagn@@ 42
ô@@ 42
ę@@ 42
1857 40
aham 40
arctech 40
cambridge 40
das 40
edwin 40
ench 40
forre@@ 40
hamburg 40
indianapol@@ 40
jeff@@ 40
kh 40
magde@@ 40
meri@@ 40
speak@@ 40
tenants 40
urich 40
uru@@ 40
nove@@ 39
320 38
aman 38
assed 38
bi 38
botta 38
clutch 38
dynamics 38
guadalajara 38
gus 38
jay@@ 38
ketchup 38
manages 38
manit@@ 38
resides 38
ropolitan 38
ros 38
são 38
tti 38
washtenaw 38
±@@ 38
ê@@ 38
ü 38
arian@@ 37
onis 37
tennes@@ 37
125@@ 36
1850 36
1904 36
adol@@ 36
borman 36
brandon 36
canaveral 36
chiefs 36
cub@@ 36
eeded 36
efxeinoupol@@ 36
espa@@ 36
gearbox 36
governed 36
lazio 36
mario 36
sergey 36
utc 36
watch 36
wering 36
weymouth 36
william@@ 36
williamson 36
yaho@@ 36
ʊ@@ 36
montevide@@ 35
131 34
dol 34
fillings 34
friedr@@ 34
futebol 34
luxur@@ 34
mumbai 34
nai@@ 34
saab 34
sale@@ 34
} 34
′ 34
bor 33
manufactu@@ 33
rebelli@@ 33
210 32
22nd 32
410@@ 32
adem@@ 32
arp 32
coar@@ 32
colombia 32
cuit 32
illi 32
kalb 32
layout 32
luand@@ 32
luci@@ 32
mason 32
oco@@ 32
ottoman 32
plaz@@ 32
stanley 32
sylvia 32
< 31
> 31
31st 30
360 30
amar 30
aska 30
benton 30
cameron 30
capitol 30
christen@@ 30
efs 30
eras@@ 30
evo 30
guad@@ 30
ilton 30
inos 30
kochi 30
lini 30
olk 30
olu@@ 30
paperback 30
para 30
richard@@ 30
spaniards 30
steuben 30
tomatoes 30
torpe@@ 30
trak@@ 30
uttle@@ 30
welfare 30
² 30
ð@@ 30
ț@@ 30
1856 28
600@@ 28
ark 28
barkov 28
celestial 28
cowper 28
deri@@ 28
exe@@ 28
fior@@ 28
fiorentina 28
germans 28
gion 28
giuseppe 28
matt@@ 28
mississi@@ 28
monarch 28
nashville 28
qat@@ 28
rahman 28
riverside 28
salam@@ 28
sesame 28
sportpark 28
squid 28
starr@@ 28
sumatra 28
thema 28
tonnes 28
uto@@ 28
vila 28
wald 28
zam@@ 28
ández 28
öl@@ 28
ū@@ 28
antio@@ 27
decemb@@ 27
108 26
280 26
324 26
aen@@ 26
alli 26
arese 26
bhai 26
bloom@@ 26
chorizo 26
diag@@ 26
erton 26
fas 26
flowering 26
hygi@@ 26
influenc@@ 26
jak@@ 26
kadh@@ 26
kais@@ 26
khar@@ 26
lf 26
lotus 26
metap@@ 26
olusegun 26
onz@@ 26
patric@@ 26
pesaka 26
retire@@ 26
sergio 26
smashed 26
speak 26
tapioca 26
tram 26
unk 26
wich@@ 26
wido@@ 26
~@@ 26
ē@@ 26
ɛ@@ 26
breaker 25
erte@@ 25
istan 25
23rd 24
27th 24
30th 24
abi 24
ahmedabad 24
baj@@ 24
blackwell 24
eland 24
febru@@ 24
fernando 24
fruits 24
gazettes 24
ghe@@ 24
granite 24
grenad@@ 24
harrietstown 24
inauguration 24
lein 24
marry 24
mud 24
parker@@ 24
prop@@ 24
rak@@ 24
rd 24
ributing 24
rix 24
sampdoria 24
shepar@@ 24
spangled 24
taqaddum 24
unci@@ 24
v12 24
visay@@ 24
å 24
ú 24
đ@@ 24
ł 24
# 23
dedic@@ 23
karnat@@ 23
26th 22
800@@ 22
acoustic 22
ajo 22
almonds 22
arabic 22
canaver@@ 22
chichar@@ 22
comparable 22
floating 22
frederick@@ 22
garage 22
gher@@ 22
ghlin 22
hopkins 22
izab@@ 22
jackets 22
johns 22
kara 22
kelv@@ 22
klaus 22
lansing 22
moldo@@ 22
nash@@ 22
pierce 22
richardson 22
sci 22
siom@@ 22
soh@@ 22
solent 22
spal@@ 22
tts 22
turin 22
vd 22
yah@@ 22
ą@@ 22
ī@@ 22
ń 22
ş 22
ɔ@@ 22
‘ 22
custo@@ 21
129@@ 20
168 20
260@@ 20
\@@ 20
aleksander 20
condensed 20
cornish 20
cubic 20
enrique 20
galicia 20
gran 20
guanciale 20
harbo@@ 20
isa@@ 20
jacksonville 20
jakarta 20
kore@@ 20
mata 20
nix 20
obasan@@ 20
ont 20
pod 20
rom 20
tc 20
thunder 20
unj@@ 20
árez 20
û@@ 20
ɑ@@ 20
ˌ@@ 20
‑@@ 20
* 18
202 18
737 18
alber@@ 18
alexis 18
banner 18
bloomington 18
burlington 18
candle 18
derby@@ 18
falcon@@ 18
gearbo@@ 18
guards 18
hog@@ 18
invas@@ 18
kar 18
klu@@ 18
labo@@ 18
meringue 18
nijmegen 18
nikos 18
pala@@ 18
qatar 18
rupp@@ 18
seagle 18
sula 18
viking 18
whig 18
yat 18
œ@@ 18
ŵ@@ 18
ż@@ 18
ʒ@@ 18
adh@@ 17
bn 17
bq 17
1500 16
906@@ 16
adenan 16
carroll 16
cio 16
codes 16
cumberland 16
deceased 16
engo 16
haputale 16
mamiffer 16
mendo@@ 16
pain 16
paler@@ 16
parc 16
paulo 16
pis 16
priest@@ 16
seum 16
stern 16
terly 16
thames 16
uary 16
μ@@ 16
ṭ@@ 16
♭ 16
♭@@ 16
arians 15
footb@@ 15
(@@ 14
249@@ 14
253 14
318@@ 14
? 14
@ 14
alexandre 14
bande@@ 14
baraj@@ 14
celery 14
centi@@ 14
centimetres 14
dem 14
dinamo 14
erly 14
gear@@ 14
glast@@ 14
imagine 14
istanbul 14
italians 14
lever 14
marv 14
mayo 14
melin@@ 14
mellow 14
michel 14
mumb@@ 14
nij@@ 14
oric 14
palaeontolog@@ 14
partment 14
plantain 14
raisins 14
royce 14
sec 14
sim 14
squee@@ 14
tapioc@@ 14
toekomst 14
veinticinco 14
velo@@ 14
vival 14
voyage 14
ã@@ 14
ò@@ 14
barbo@@ 13
osbor@@ 13
216@@ 12
722 12
alexandra 12
biden 12
canonica 12
castilla 12
chennai 12
croci@@ 12
croma 12
cubanelle 12
cuttlefish 12
cyril 12
enduring 12
faber 12
gubbi@@ 12
kornelije 12
maher 12
muff@@ 12
ocl@@ 12
olden@@ 12
omac@@ 12
onica 12
performer 12
pol 12
queens 12
randall 12
religion 12
rutte 12
sang@@ 12
seminar 12
silvano 12
static 12
subsi@@ 12
teis@@ 12
wetlands 12
wiley 12
~ 12
ção 12
ì 12
ì@@ 12
ï@@ 12
òs 12
ř@@ 12
š 12
ɒ@@ 12
ʃ@@ 12
⁄@@ 12
] 11
assau@@ 11
zitar@@ 11
211 10
305 10
416@@ 10
^ 10
arabian 10
bersatu 10
carav@@ 10
coff 10
eate@@ 10
elwald 10
emile 10
fallujah 10
frie@@ 10
guan@@ 10
hays 10
humph@@ 10
icut 10
infraero 10
istanbu@@ 10
izo 10
justici@@ 10
loom@@ 10
luj@@ 10
macc@@ 10
measurement 10
mih@@ 10
oyster 10
perm 10
pkins 10
pog@@ 10
psychedel@@ 10
rca 10
roem@@ 10
roemer 10
roj@@ 10
rojas 10
roule@@ 10
rouleau 10
sebastián 10
sixma 10
spacewatch 10
sponge 10
staten 10
taro 10
transac@@ 10
transactions 10
tsi@@ 10
tuanku 10
tubular 10
ungen 10
utti@@ 10
veloc@@ 10
wolfman 10
wolfsburg 10
²@@ 10
³ 10
·@@ 10
î@@ 10
ě@@ 10
ţ@@ 10
ɡ@@ 10
θ@@ 10
… 10
gaar@@ 9
159 8
339@@ 8
439 8
512 8
770 8
788 8
9000 8
=@@ 8
^@@ 8
abubak@@ 8
agle 8
architectur@@ 8
asuncion 8
azione 8
bangal@@ 8
batag@@ 8
chiri@@ 8
compressed 8
confectionery 8
cookie 8
diya 8
doris 8
ernie 8
estádio 8
fredericksburg 8
gaard 8
georgiad@@ 8
graz 8
guadalaj@@ 8
hiv 8
hogao 8
hungary 8
jenn@@ 8
jonath@@ 8
laun@@ 8
mah 8
marysville 8
mathem@@ 8
mathematica 8
mathematisch@@ 8
naik 8
ocacy 8
ohan@@ 8
pais@@ 8
panama 8
parac@@ 8
pavlo@@ 8
peoria 8
peñarol 8
polydor 8
rasher 8
reddy 8
redo 8
seb@@ 8
sebasti@@ 8
sousa 8
spani@@ 8
squeezed 8
tary 8
toe@@ 8
tsipras 8
umi 8
vanden@@ 8
vietnamese 8
yce 8
yuzhnoye 8
· 8
½ 8
½@@ 8
ät 8
è 8
þ@@ 8
ğlu 8
ů@@ 8
ɾ@@ 8
η@@ 8
λ@@ 8
ν@@ 8
व@@ 8
bion@@ 7
*@@ 6
253@@ 6
255 6
3528 6
610 6
ademia 6
aurak@@ 6
bako 6
burbank 6
candombe 6
chancellorsville 6
clyde 6
confec@@ 6
confection@@ 6
dolphins 6
ealdorman 6
eaters 6
entina 6
español 6
esteghlal 6
gazette 6
ilocano 6
inau@@ 6
ión 6
jang 6
jarama 6
justicialist 6
krasnodar 6
kub 6
litres 6
magdal@@ 6
mak 6
manitoba 6
massimo 6
mberto 6
mering@@ 6
miri 6
naren@@ 6
nijme@@ 6
niko@@ 6
nottingham 6
parkersburg 6
perit@@ 6
placid 6
ppin@@ 6
quez 6
rector 6
riet@@ 6
roe 6
silent 6
sonville 6
spiral 6
stellendam 6
superleague 6
sycam@@ 6
syche@@ 6
sylvania 6
thers 6
trans 6
tudor 6
tyrol 6
uner 6
valen@@ 6
vaz 6
veh@@ 6
vá@@ 6
vázquez 6
zz 6
« 6
³@@ 6
º 6
â 6
ô 6
ù@@ 6
ý@@ 6
ā 6
ū 6
ź 6
ʌ@@ 6
α@@ 6
ε@@ 6
ο@@ 6
ς 6
τ@@ 6
ل@@ 6
​@@ 6
‑ 6
− 6
alek@@ 5
binign@@ 5
dris@@ 5
groz@@ 5
guru@@ 5
indon@@ 5
| 5
057@@ 4
10000 4
3500 4
388 4
4000 4
524 4
8000@@ 4
@@@ 4
_ 4
` 4
abhandlungen 4
acf 4
africans 4
arabs 4
bebi 4
belly 4
brooke 4
bucharest 4
caravan 4
città 4
coaracy 4
cuban@@ 4
dabad 4
dane 4
dinam@@ 4
dougherty 4
enos 4
erian 4
eron 4
faver@@ 4
gator 4
gorbac@@ 4
grenada 4
grenadier 4
guadal@@ 4
guanci@@ 4
guf@@ 4
halton 4
haput@@ 4
hernandez 4
hitleri 4
icao 4
ilene 4
ipe 4
isch 4
jaya 4
jonny 4
kke 4
kourou 4
kuching 4
luciano 4
magdalene 4
manh@@ 4
mariam 4
mathematischen 4
mbus 4
mendel@@ 4
mendoza 4
mendris@@ 4
monde@@ 4
offset 4
ohann@@ 4
oit 4
ombe 4
onnais 4
orig@@ 4
palae@@ 4
petrotrin 4
piazzia 4
pinh@@ 4
pire 4
prab@@ 4
rasmus@@ 4
rasmussen 4
rasno@@ 4
raz 4
raúl 4
rique 4
rodr@@ 4
roke 4
ropolit@@ 4
sago 4
saran@@ 4
satem 4
scow 4
susana 4
sycamore 4
tabaré 4
takis 4
telan@@ 4
telangana 4
thm 4
universität 4
uttikkatto@@ 4
vietnam@@ 4
visayas 4
w4 4
welf@@ 4
zhno@@ 4
zig 4
«@@ 4
» 4
»@@ 4
ë 4
ð 4
÷ 4
üt@@ 4
ī 4
ź@@ 4
ș 4
ə 4
ʁ@@ 4
ʏ@@ 4
ʼ@@ 4
̃@@ 4
έ@@ 4
ί@@ 4
β 4
ι@@ 4
а@@ 4
е@@ 4
н@@ 4
о@@ 4
ة 4
ق@@ 4
क@@ 4
ट 4
ड@@ 4
प@@ 4
़@@ 4
्@@ 4
க@@ 4
ச@@ 4
ஞ@@ 4
ி 4
்@@ 4
ರ@@ 4
ಸ@@ 4
ಹ@@ 4
ು@@ 4
ೆ@@ 4
್@@ 4
ṛ@@ 4
…@@ 4
₹@@ 4
№@@ 4
♯ 4
✦ 4
糜@@ 4
酏@@ 4
饘@@ 4
鬻@@ 4
ewell 3
1202 2
1513 2
1706@@ 2
2160 2
264 2
473 2
546 2
589@@ 2
706@@ 2
717@@ 2
846 2
887@@ 2
973 2
978 2
994@@ 2
<@@ 2
[ 2
[@@ 2
`@@ 2
abbrevi@@ 2
amkar 2
arion 2
arros 2
artur 2
asherton 2
belgaum 2
benoit 2
bicoff 2
blockbuster 2
boris 2
bütüner 2
caball@@ 2
categorised 2
choy 2
cob 2
consin 2
counci@@ 2
crai@@ 2
crewe 2
crociere 2
dcu@@ 2
eem 2
falc@@ 2
faversham 2
fonseca 2
ganges 2
gett 2
glas 2
globe@@ 2
globemaster 2
granola 2
güner 2
heinlein 2
hilmi 2
humberto 2
hungarica 2
hüseyin 2
ilow 2
ineering 2
isabelle 2
isham 2
itis 2
joints 2
kesel 2
khara@@ 2
kuban 2
kuttikkattoor 2
lege 2
lez 2
limerick 2
lint 2
loughlin 2
magd@@ 2
makov 2
maran 2
mberland 2
metapan 2
mihajlović 2
mitsotakis 2
nieto 2
oba 2
obas@@ 2
ocado 2
oladipo 2
organs 2
orge 2
osi 2
otk@@ 2
pagnell 2
pean 2
primer@@ 2
pshire 2
rashid 2
rolando 2
rupe@@ 2
rys 2
samuda 2
schnei@@ 2
scripture 2
seca 2
seco 2
sham 2
siniša 2
solanales 2
ssia 2
stalin 2
stellen@@ 2
suare@@ 2
sé 2
tab 2
tapi@@ 2
tarran@@ 2
tera 2
thav@@ 2
thur 2
ticino 2
tuan@@ 2
tubu@@ 2
tville 2
tyle@@ 2
uben 2
ucci 2
vap@@ 2
vard 2
viv 2
vk@@ 2
zuma 2
{ 2
£ 2
¥@@ 2
§ 2
´@@ 2
º@@ 2
ß 2
ánde@@ 2
ç 2
érie 2
ê 2
ícolo 2
ï 2
ò 2
ött@@ 2
÷@@ 2
ø 2
úl 2
üse@@ 2
ý 2
č 2
ę 2
ň 2
ň@@ 2
ŋ@@ 2
ő@@ 2
ś 2
ť 2
ž 2
ț 2
ɐ@@ 2
ɜ@@ 2
ʻ@@ 2
δ@@ 2
κ@@ 2
ρ@@ 2
ς@@ 2
σ@@ 2
φ 2
ό@@ 2
к@@ 2
л@@ 2
м@@ 2
н 2
т@@ 2
ч@@ 2
ь@@ 2
ا@@ 2
خ@@ 2
ع@@ 2
ف@@ 2
م@@ 2
ي@@ 2
ہ 2
ی@@ 2
ა@@ 2
დ@@ 2
ე@@ 2
ი@@ 2
ჭ@@ 2
ḍ@@ 2
ṃ@@ 2
ἀ@@ 2
​ 2
″@@ 2
₨ 2
₹ 2
⅔ 2
⑯@@ 2
☉ 2
5600@@ 1
aijan 1
alcoben@@ 1
apsis 1
caterpill@@ 1
ccn 1
erbaijan 1
thpop 1
