. 43474
the 32237
, 26231
of 23558
is 23011
in 16579
and 12684
a 12144
united 8141
airport 7426
states 7392
country 6720
- 6369
leader 6358
was 5733
( 5619
) 5608
name 4766
by 4744
city 4443
location 4378
language 4011
new 3885
s 3748
university 3708
has 3606
county 3474
international 3454
alan 3266
which 3164
located 3058
runway 2989
c 2920
from 2811
number 2691
at 2618
texas 2589
&apos; 2554
ethnic 2509
part 2492
0 2464
region 2402
are 2398
ingredient 2359
where 2287
bacon 2252
to 2182
group 2045
di 2014
capital 2001
monument 1967
aarhus 1902
it 1886
institute 1871
acharya 1814
club 1776
english 1768
apollo 1726
an 1725
dish 1725
technology 1720
as 1711
length 1687
birth 1682
place 1668
main 1647
india 1629
on 1578
above 1539
school 1522
jersey 1490
ground 1488
with 1453
character 1452
served 1439
its 1428
shepard 1426
: 1418
elliot 1417
ingredients 1417
see 1417
york 1406
indonesia 1405
bean 1401
infantry 1400
aldrin 1387
metres 1387
f 1378
1634 1370
william 1365
americans 1354
sea 1351
italy 1338
date 1319
buzz 1307
mendrisio 1302
level 1277
spain 1277
anders 1267
pilot 1241
sauce 1237
born 1232
for 1224
madrid 1217
st 1203
1 1188
/ 1187
nasa 1183
he 1176
&quot; 1149
– 1146
crew 1136
denmark 1134
spoken 1117
member 1108
business 1102
austin 1098
hall 1096
found 1094
d 1093
pennsylvania 1085
established 1070
long 1068
air 1034
national 1034
members 1033
accademia 1021
sciences 1017
11th 1010
akita 1006
architettura 1005
john 998
mississippi 985
al 974
11 972
b 971
12 952
manager 936
social 930
organisation 918
also 914
regional 906
operating 898
philippines 895
variation 889
journal 876
state 875
who 873
force 872
de 871
one 861
singapore 847
california 843
sandwich 835
sri 830
fc 815
american 809
public 809
paisa 807
people 805
creator 801
arem 796
wisconsin 789
bionico 785
switzerland 785
beef 781
8 779
ayam 777
binignit 777
malaysia 773
penyet 772
square 759
turkey 754
dessert 753
adams 752
architect 748
athens 746
greece 744
type 744
alma 742
bakewell 742
mater 741
president 741
3 737
elevation 733
league 728
t 725
adolfo 722
l 720
baku 716
bandeja 716
kingdom 713
academic 712
barajas 709
france 702
bavarian 700
crisis 700
r 699
comes 696
washington 693
lanka 684
e 681
pakistan 679
romania 676
explosion 673
ac 662
1963 655
title 654
baked 653
comics 653
appleton 651
nationality 648
suárez 647
acta 646
south 645
or 637
m 635
atlantic 630
ajoblanco 625
college 623
ram 620
azerbaijan 617
pudding 616
test 615
published 612
be 611
north 611
author 609
addis 604
ababa 603
airbase 601
township 601
can 592
alaska 591
mary 588
students 588
asad 587
alpena 586
turkish 584
akron 580
abilene 577
allama 574
iqbal 574
britain 573
great 573
association 571
publisher 569
conference 565
i 565
mexico 564
area 562
operated 561
calcio 559
flint 559
eric 557
bangalore 551
2014 546
kway 546
poaceae 546
teow 546
written 545
rebellion 544
antwerp 542
ohio 541
agra 540
ajax 539
ice 533
blackpool 527
retired 524
season 523
250 518
asilomar 518
street 514
occupation 512
serves 512
selected 508
asam 504
batchoy 501
sportiva 501
alcatraz 500
memorial 500
technological 500
versus 500
visvesvaraya 500
awh 497
engineering 497
way 497
chicago 496
groups 496
15 495
floor 495
afc 494
row 493
asian 490
bella 489
fighter 489
pedas 489
england 487
isbn 485
bakso 484
chicken 482
negre 482
bananaman 481
native 480
press 480
currency 479
colmore 478
white 478
evil 476
alderney 475
course 475
preceded 474
authority 473
aids 472
20 470
fried 470
java 470
karnataka 470
librarians 470
staff 470
2000 468
cleveland 467
23 466
issn 466
pena 466
road 465
british 464
johnson 464
death 463
copenhagen 461
ridge 461
andrews 458
hong 457
kong 457
loyal 457
birmingham 454
hotel 454
zealand 453
book 452
derbyshire 452
serie 452
hampshire 451
affiliated 449
arena 449
dancer 449
ashgabat 447
martyrs 447
adare 446
created 446
us 446
obama 441
maryland 440
barack 439
amatriciana 435
big 433
atatürk 430
07 429
affiliation 427
miller 424
status 422
̇ 422
grounds 421
sky 421
that 421
bhajji 419
london 419
angola 417
asser 417
levy 417
louis 416
14th 415
dallas 414
verona 414
afonso 413
volunteer 413
egg 412
order 412
chinese 411
ardmore 408
designed 408
rome 407
african 405
european 405
arapiraquense 404
wizard 403
zmir 403
mars 402
avenue 399
building 399
japan 398
roma 398
u 398
103 397
art 396
science 396
football 391
museum 391
ampara 390
baths 390
severed 390
wasp 390
arròs 389
la 387
aircraft 386
greenville 385
delaware 383
abbreviation 382
amsterdam 381
fortress 381
media 380
grey 379
historic 376
there 374
leaders 373
manor 372
medal 372
spanish 370
1932 369
champions 369
charlie 369
1918 368
alternative 368
decembrie 368
made 368
agremiação 367
pietro 366
department 365
g 364
ni 362
graduated 359
ireland 359
originates 356
summit 356
1st 355
adisham 355
amdavad 355
gufa 355
romance 355
known 353
aip 352
chievo 352
died 351
administrative 350
called 350
dr 349
followed 348
lake 346
10 345
18 345
glastonbury 345
marriott 345
service 344
they 344
pages 343
played 342
batagor 339
comic 338
completion 338
&amp; 337
wheeler 337
300 334
parker 333
africa 332
harbor 332
6 331
oclc 330
count 329
200 328
print 328
province 328
fylde 327
pradesh 327
uttar 327
discipline 326
quarterly 326
addiction 325
virginia 325
blt 324
indian 323
03 322
cornell 322
demonym 322
sweet 322
high 320
plays 320
mathematics 317
morgan 317
salle 317
stuart 317
completed 315
glen 315
julia 315
vegetables 315
michigan 313
vincent 312
dales 311
cakes 310
cuisine 310
ii 308
san 308
surface 308
gubbio 306
illinois 306
lccn 305
iraq 304
livorno 304
barny 303
polonica 303
01 302
have 302
hospital 302
madin 302
palaeontologica 302
17 299
property 298
whose 298
contributing 297
hardcover 297
advances 296
indiana 296
jens 295
kerala 293
28 292
home 291
oil 290
council 289
1910 288
600 288
baymax 288
bbc 288
tirstrup 286
campus 284
operator 284
house 283
veil 283
assault 282
14 281
ethiopia 281
led 281
peter 281
owner 280
potato 280
frank 279
efxeinoupolis 278
1962 277
fullname 277
identifier 277
largest 277
dimitra 276
italian 275
man 275
aenir 273
härtel 272
community 271
first 271
code 270
their 270
lumezzane 269
belgium 268
tenant 268
category 266
play 266
footballer 265
almond 264
places 262
size 262
azal 260
register 260
adirondack 259
turkmenistan 259
contains 258
company 256
hero 255
rice 255
battlefield 254
food 253
banana 251
den 251
flemish 251
lead 251
tart 250
van 250
acm 249
monocacy 248
alba 247
cesena 247
ammann 246
frederick 246
johann 246
lahore 246
schneider 246
diagonal 245
dublin 245
july 245
popular 244
siomay 244
p 243
black 242
grantville 242
michele 241
n 241
1996 240
distinguished 240
marcolini 240
andalusia 239
floors 239
aek 238
arrabbiata 238
cream 238
dean 238
navy 237
saranac 236
film 235
punjab 235
brom 234
los 234
alcobendas 233
grasso 233
1957 231
27 231
schiphol 231
1927 230
malaysian 230
both 228
f@@ 228
marce 228
nwc 228
backup 227
brasileiro 227
campeonato 227
red 227
southeast 226
stöger 226
technical 226
ed 224
felipe 224
vi 223
all 222
full 222
hessarghatta 222
math 222
560090 221
civil 221
dead 221
radhakrishnan 221
republic 221
soldevanahalli 221
aviation 220
sarvapalli 220
enaire 219
mc 219
this 219
family 218
fenchurch 218
includes 218
plack 217
airlines 216
sc 216
shumai 215
eastern 214
isidro 214
metapán 212
milk 211
space 211
avocado 209
catalonia 209
sausage 209
4 208
federal 208
party 208
1955 207
antioquia 207
battle 205
malay 205
system 205
série 205
prefecture 204
robert 204
dedicated 203
gujarat 203
pork 203
ut 202
amateurs 201
david 201
garlic 201
lemon 201
ahmet 200
style 200
were 200
3rd 199
gettysburg 199
manhattan 197
1969 196
year 196
government 195
minutes 195
municipality 195
nationwide 195
port 195
retirement 195
bolt 194
reyes 194
e@@ 193
bengo 192
olive 192
uk 192
az 191
biden 191
joe 191
powys 191
soho 191
sumatra 191
williams 191
indonesian 190
brazil 189
colombian 189
09 188
battles 188
meters 188
parent 188
starring 188
alkmaar 187
lippincott 187
philippine 187
1928 186
cumberland 186
now 186
wilkins 186
1930 185
district 185
flowering 185
jarama 185
paracuellos 185
french 184
magdeburg 184
minister 184
prime 184
west 184
cowper 183
hopkins 181
1933 180
added 179
information 179
j 179
abbreviated 178
novel 178
elizabeth 177
systems 177
stadium 176
transactions 176
2 175
pfk 175
significant 175
chancellor 174
used 174
widodo 174
assembly 173
joko 173
owned 173
lars 172
pinhais 172
associazione 171
borman 171
dos 171
100 170
official 170
700 169
icao 169
rasmussen 169
war 169
130 168
737 168
1923 167
curitiba 166
rolando 166
been 165
johns 165
lockheed 165
architectural 164
deceased 164
iii 164
maran 164
mario 164
ícolo 164
blockbuster 163
botta 163
material 163
east 161
town 161
9 160
academy 160
coconut 160
jusuf 160
kalla 160
mason 160
team 160
34 159
asher 159
isabelle 159
massimo 158
richardson 158
tomato 158
but 157
d@@ 157
drago 157
paul 157
21 156
sebastián 156
cake 155
euro 155
languages 155
mumbai 155
base 154
body 154
current 154
es 154
hiv 154
scott 154
sour 154
spaniards 154
tennis 154
division 153
mathematica 153
meat 153
439 152
afit 152
harrietstown 152
hungarica 152
mattarella 152
t@@ 152
viking 152
3500 151
bill 151
his 151
sergio 151
susana 151
based 150
governing 150
javanese 150
ankara 149
construction 149
headquarters 149
taylor 149
36 148
arabic 148
coden 148
editor 148
hilmi 148
kuttikkattoor 148
parliament 148
premier 148
reference 148
1983 147
designer 146
h@@ 146
peanut 146
postgraduate 146
taqaddum 146
i@@ 145
sportpark 145
toekomst 145
valls 145
1966 144
iulia 144
jorge 144
live 144
plant 144
7 143
brussels 142
der 142
k@@ 141
paris 141
traditional 141
transport 141
25 140
duncan 140
feet 140
ing 140
modi 140
ranil 140
s@@ 140
total 140
larcher 139
narendra 139
wickremesinghe 139
4165 138
aus 138
rouleau 138
sandesh 138
sands 138
weymouth 138
bronze 137
education 137
leaf 137
stadio 137
thakur 137
2009 136
grove 136
pacific 136
soldiers 136
1907 135
awards 135
bread 135
founded 135
army 134
ottoman 134
auron 133
belongs 132
inhabitants 132
invasion 132
n@@ 132
ryan 132
secret 132
v 132
02 131
castle 131
christian 131
l@@ 131
panucci 131
a@@ 130
alfred 130
award 129
commerce 129
fallujah 129
gazette 129
gold 129
ahmedabad 128
burbank 128
c@@ 128
garth 128
granola 128
include 128
nix 128
prabhukumar 128
scripture 128
tony 128
belgaum 127
davutoğlu 127
higher 127
; 126
georgia 126
killed 126
108 125
aired 125
canonica 125
haputale 125
massachusetts 125
population 125
anthem 124
director 124
georges 124
leipzig 124
palaeontol 124
pol 124
terrace 124
wiley 124
abhandlungen 123
dem 123
hamburg 123
january 123
jr 123
manuel 123
mathematischen 123
named 123
seminar 123
bucharest 122
humberto 122
infraero 122
superleague 122
88 121
beans 121
kilometres 121
architecture 120
cooked 120
juventus 120
klaus 120
peninsula 120
prokopis 120
valencian 120
2015 119
available 119
broadcasted 119
compete 119
italians 119
solanales 119
16 118
dave 118
halimah 118
jam 118
carroll 117
dc 117
er 117
josé 117
são 117
yacob 117
08 116
aureoles 116
conejo 116
per 116
silvano 116
tan 116
time 116
16000 115
legislature 115
løkke 115
universität 115
04 114
320 114
acf 114
alexis 114
butter 114
commander 114
condensed 114
eggs 114
gazettes 114
globemaster 114
granite 114
marble 114
noodles 114
october 114
1862 113
boeing 113
chute 113
nickname 113
northeast 113
tsipras 113
under 113
17000 112
awarded 112
brown 112
headquarter 112
influenced 112
iohannis 112
june 112
lira 112
mahajan 112
manages 112
nikos 112
pavlopoulos 112
sponge 112
23rd 111
fiorentina 111
köln 111
sumitra 111
universities 111
2001 110
210 110
610 110
reddy 110
voutsis 110
1974 109
luanda 109
placid 109
1959 108
artur 108
challinor 108
g@@ 108
germans 108
rasizade 108
tenants 108
thomas 108
inauguration 107
st@@ 107
water 107
wilson 107
er@@ 106
latin 106
rupee 106
sago 106
start 106
universitas 106
6@@ 105
central 105
church 105
flour 105
asphalt 104
attack 104
franklin 104
george 104
land 104
balder 103
cullins 103
jayawardenepura 103
shrimp 103
taro 103
address 102
buffalo 102
cheese 102
o@@ 102
stern 102
confectionery 101
francisco 101
heinlein 101
kotte 101
madison 101
park 101
religion 101
celery 100
jones 100
w 100
5 99
bundelkhand 99
o 99
suarez 99
uses 99
within 99
asherton 98
china 98
key 98
sambal 98
sesame 98
100305 97
managed 97
sarnie 97
southwest 97
1500 96
became 96
butty 96
ketchup 96
olympic 96
q 96
rodríguez 96
wolf 96
arros 95
barm 95
muffin 95
piece 95
sanger 95
smashed 95
3800 94
978 94
aurakles 94
awadh 94
bütüner 94
center 94
güner 94
hüseyin 94
ia 94
organs 94
poales 94
rasher 94
starred 94
belly 93
chorizo 93
cob 93
cold 93
currently 93
gram 93
gérard 93
luciano 93
serving 93
speak 93
squeezed 93
standard 93
affiliations 92
almonds 92
attended 92
dan 92
istanbul 92
k 92
nation 92
oddie 92
p@@ 92
spalletti 92
given 91
m@@ 91
warm 91
1987 90
45 90
al@@ 90
am 90
fk 90
polish 90
urich 90
usa 90
159 89
april 89
blackwell 89
greek 89
series 89
1976 88
cyril 88
situated 88
tim 88
brooke 87
michael 87
paperback 87
ramaphosa 87
roger 87
sports 87
tomatoes 87
1931 86
3@@ 86
be@@ 86
boston 86
cameron 86
charles 86
commelinids 86
density 86
ernie 86
loughlin 86
monocotyledon 86
raisins 86
seagle 86
visayas 86
2@@ 85
admin 85
ataturk 85
categorised 85
entertainment 85
jalisco 85
many 85
pain 85
patrick 85
worden 85
y 85
1904 84
1980 84
class 84
jakarta 84
mendoza 84
sci 84
solent 84
zamboangans 84
5@@ 83
along 83
districts 83
hot 83
izmir 83
kansas 83
swiss 83
viag 83
ben 82
cuyahoga 82
grand 82
guadalajara 82
hogao 82
jacob 82
kochi 82
labour 82
tudor 82
1913 81
1986 81
911 81
ganges 81
noodle 81
northwest 81
paulo 81
sousa 81
albany 80
b@@ 80
dane 80
edwin 80
oyster 80
ticino 80
whitman 80
10000 79
constructed 79
ellington 79
german 79
inaugurated 79
march 79
margrethe 79
plantain 79
22 78
546 78
anderson 78
da 78
genus 78
harvard 78
in@@ 78
korean 78
maple 78
te 78
two 78
1@@ 77
anbar 77
essex 77
foundation 77
guanciale 77
steven 77
3180 76
32 76
ap@@ 76
arabs 76
arepa 76
cornish 76
countries 76
limerick 76
lufthavn 76
meringue 76
zuma 76
211 75
arabian 75
ate 75
en@@ 75
fish 75
ilocano 75
irish 75
kilometre 75
metropolitan 75
minced 75
tapioca 75
arion 74
christmas 74
enrique 74
february 74
mayor 74
naik 74
nieto 74
operates 74
roberts 74
sv 74
w@@ 74
well 74
went 74
being 73
grenada 73
igorot 73
mission 73
plants 73
river 73
2060 72
anglia 72
boris 72
cape 72
chief 72
clube 72
coaracy 72
compressed 72
davutoglu 72
ealdorman 72
gus 72
inf 72
james 72
kesel 72
lazio 72
maiden 72
mata 72
poyet 72
revival 72
stanford 72
syst 72
trans 72
vila 72
60040714 71
colombia 71
competed 71
december 71
el 71
ers 71
fonseca 71
futebol 71
karl 71
nova 71
wall 71
2008 70
ajo 70
auburn 70
fernando 70
hollande 70
more 70
pallesen 70
postcode 70
spent 70
ithaca 69
rock 69
shredded 69
3528 68
4000 68
70634 68
80002709 68
africans 68
aktieselskab 68
chopped 68
cookie 68
desalegn 68
height 68
ic@@ 68
perth 68
seminary 68
teshome 68
280 67
4@@ 67
9@@ 67
ar 67
doctoral 67
fillings 67
hailemariam 67
person 67
psalm 67
salvador 67
same 67
tinkham 67
ts 67
4253 66
arts 66
asterix 66
astronaut 66
baltic 66
carrol 66
garden 66
graeme 66
j@@ 66
metapan 66
operation 66
politician 66
497 65
94 65
973 65
atlanta 65
bar@@ 65
blanco 65
cost 65
fighting 65
fruits 65
mondelez 65
municipal 65
november 65
patacones 65
pro 65
1998 64
29 64
advisor 64
albuquerque 64
amharic 64
anaheim 64
banyumasan 64
dynamics 64
freshly 64
general 64
lega 64
morcilla 64
oregon 64
sk 64
telangana 64
affair 63
as@@ 63
chicharon 63
dollars 63
falcon 63
galileo 63
helicopter 63
hungar 63
into 63
ion 63
million 63
nearest 63
panama 63
walt 63
20@@ 62
7@@ 62
attached 62
blvd 62
broadcast 62
chosen 62
come 62
condiment 62
freedom 62
knight 62
management 62
marv 62
moldoff 62
neighboring 62
po@@ 62
qiu 62
sequel 62
sheldon 62
shirley 62
specific 62
60 61
antonio 61
beach 61
eagle 61
eaten 61
iata 61
kluwer 61
originated 61
steve 61
wolters 61
2777 60
abh 60
austria 60
dark 60
filipino 60
hambg 60
names 60
physics 60
riverside 60
semin 60
september 60
stars 60
univ 60
wien 60
wolfman 60
2776 59
agr 59
augustus 59
cephalopod 59
ian 59
ink 59
joined 59
pugin 59
r@@ 59
vermicelli 59
xiaolong 59
93645978 58
before 58
federation 58
fruit 58
gene 58
leads 58
lies 58
mols 58
office 58
populous 58
tejano 58
temperature 58
than 58
won 58
z@@ 58
35 57
airman 57
colan 57
colón 57
douglas 57
en 57
jose 57
lauraceae 57
mexican 57
30843 56
31 56
ad@@ 56
boer 56
boldrini 56
built 56
cubanelle 56
desmond 56
dick 56
emanuel 56
grant 56
ho@@ 56
horrigan 56
laura 56
mascot 56
moro 56
rahm 56
sage 56
sao 56
student 56
! 55
adsit 55
adv 55
br@@ 55
chilli 55
donnell 55
ion@@ 55
it@@ 55
no@@ 55
publications 55
re@@ 55
æthelwald 55
15th 54
19238 54
1985 54
448 54
87000823 54
apulensis 54
buscema 54
butuner 54
chili 54
counties 54
di@@ 54
enduring 54
excellence 54
faber 54
governed 54
guner 54
hub 54
huseyin 54
kenny 54
kv 54
lokke 54
mechelen 54
motto 54
nurturing 54
postal 54
richard 54
stockport 54
wrote 54
1981 53
26 53
ak 53
cuttlefish 53
dillin 53
enda 53
estádio 53
jan 53
mit 53
sharif 53
squid 53
th@@ 53
türk 53
writer 53
y@@ 53
39371 52
89646863 52
aarhusiensis 52
amsterdamsche 52
berliner 52
bright 52
carrarese 52
chesterfield 52
craftsman 52
dried 52
elevated 52
gula 52
lengkuas 52
loin 52
lokomotive 52
melaka 52
meride 52
michel 52
sliced 52
soy 52
soya 52
speaking 52
union 52
variations 52
xn 52
1988 51
4349 51
airports 51
ans 51
claude 51
com@@ 51
founder 51
il 51
jackson 51
kenzie 51
lankan 51
paraná 51
putrajaya 51
torino 51
vicenza 51
youth 51
1800 50
33 50
babelsberg 50
bartolone 50
chinatown 50
crafts 50
head 50
including 50
neustadt 50
or@@ 50
previous 50
previously 50
wiener 50
13 49
140000 49
17684 49
57392246 49
anıtı 49
began 49
chicharrón 49
el@@ 49
em 49
graduate 49
jack 49
kirby 49
mulatu 49
olympiacos 49
publication 49
sh@@ 49
şehitleri 49
03380 48
1174 48
17th 48
292 48
30 48
512 48
57059226 48
670 48
ac@@ 48
broth 48
cottage 48
fox 48
françois 48
gregory 48
kailan 48
kuala 48
light 48
lumpur 48
ma 48
movement 48
organization 48
preserves 48
rosaceae 48
rovers 48
salted 48
shallots 48
stv 48
tender 48
1533 47
3990 47
48 47
92550 47
australia 47
bhaji 47
broadcasting 47
ce 47
chairman 47
fought 47
gardner 47
hok 47
hometown 47
local 47
magistrate 47
short 47
tom 47
usaf 47
0002 46
17685 46
1908 46
1909 46
3310 46
69618 46
8392 46
9327 46
alabama 46
among 46
antioch 46
arms 46
au@@ 46
bari 46
brooklyn 46
carles 46
de@@ 46
don 46
fenves 46
hussain 46
lambien 46
le@@ 46
mamnoon 46
menasha 46
palm 46
rutaceae 46
rutland 46
sachsen 46
u@@ 46
0001 45
1820 45
2215 45
2744 45
2nd 45
84 45
ab@@ 45
bajji 45
buildings 45
carpi 45
conservative 45
cre@@ 45
diane 45
gerard 45
king 45
lancashire 45
lo@@ 45
mark 45
paleobiology 45
random 45
se@@ 45
sugar 45
worked 45
1911 44
23900 44
3992 44
50 44
76798317 44
83646315 44
ann 44
apgpac 44
berlin 44
co@@ 44
development 44
duane 44
giles 44
involved 44
jong 44
later 44
paleontology 44
reith 44
rupiah 44
sanderson 44
tamil 44
167 43
1873 43
52 43
brandon 43
deșteaptă 43
duursema 43
had 43
matteo 43
offered 43
once 43
penguin 43
peña 43
pr@@ 43
real 43
renzi 43
române 43
stoger 43
th 43
ur@@ 43
101 42
27th 42
4150 42
5300 42
8@@ 42
abadi 42
admira 42
ally 42
alpharetta 42
am@@ 42
breaz 42
dale 42
daniel 42
fuad 42
haider 42
ir@@ 42
lyle 42
originally 42
puig 42
ric@@ 42
seat 42
steyr 42
ukrop 42
valer 42
wacker 42
ximo 42
900 41
an@@ 41
arnhem 41
ballistic 41
hired 41
houston 41
last 41
mahé 41
origin@@ 41
pastry 41
puigdemont 41
stories 41
str@@ 41
vitesse 41
2900 40
29@@ 40
34@@ 40
3648 40
388 40
46451790 40
7156 40
abu 40
after 40
angeles 40
aniti 40
ant@@ 40
ating 40
baan 40
bolatinsky 40
cohn 40
cook 40
ds 40
ent 40
falls 40
faroese 40
garrett 40
gary 40
goscinny 40
helmut 40
jurisdiction 40
larry 40
le 40
lee 40
masum 40
nawaz 40
pakora 40
paz 40
rector 40
sehitleri 40
shortcrust 40
ujang 40
vala 40
vietnamese 40
zahar 40
000 39
0567 39
7920 39
abdul 39
australian 39
away 39
baduy 39
estadio 39
frangipane 39
h 39
halim 39
iloilo 39
jahn 39
kedah 39
mon@@ 39
often 39
ol@@ 39
philippe 39
pirate 39
residence 39
rosids 39
solanaceae 39
v@@ 39
vajubhai 39
work 39
15@@ 38
2011 38
507 38
alexandria 38
ation 38
august 38
bibbowski 38
carmine 38
coloured 38
fat 38
jill 38
km 38
me@@ 38
min@@ 38
olimpico 38
oraa 38
received 38
sandwiches 38
shilling 38
z 38
18th 37
78771100 37
92 37
ard 37
at@@ 37
ch@@ 37
columbian 37
hook 37
infantino 37
own 37
sebastian 37
sve 37
texan 37
then 37
turk 37
variant 37
1080 36
14@@ 36
26131 36
3000 36
374 36
agremiacao 36
alvinegro 36
baron 36
combat 36
containing 36
geology 36
gowda 36
greenlandic 36
gu@@ 36
hails 36
hal 36
headquartered 36
inkpot 36
inter 36
kempe 36
leinster 36
liga 36
milan 36
mishkin 36
other 36
pe@@ 36
peppers 36
potter 36
pre@@ 36
provincial 36
roy 36
sons 36
uab 36
vegetable 36
works 36
1411 35
500 35
another 35
et@@ 35
events 35
included 35
libya 35
pepper 35
potatoes 35
ton 35
05 34
111484 34
1700 34
1964 34
3360 34
5000 34
air@@ 34
ak@@ 34
armando 34
attica 34
bay 34
bras@@ 34
bury 34
chelsea 34
chilton 34
computing 34
democratic 34
denzil 34
der@@ 34
diaz 34
díaz 34
efxeinoupoli 34
entella 34
examiner 34
feinstein 34
go@@ 34
greeks 34
guardian 34
jinnah 34
koln 34
kupperberg 34
len 34
mahe 34
netherland 34
ou@@ 34
page 34
passed 34
pecorino 34
picchi 34
pickard 34
puerto 34
quay 34
ribbon 34
romano 34
simonson 34
virtus 34
0@@ 33
1121 33
1982 33
476 33
87@@ 33
aka 33
anandiben 33
andrew 33
car@@ 33
dianne 33
filipinos 33
francis 33
herald 33
ne@@ 33
operate 33
owning 33
patel 33
qu@@ 33
representatives 33
williamsburg 33
121 32
13017 32
1732 32
2421 32
42 32
518 32
8805735 32
arrow 32
astérix 32
bird 32
bungalows 32
commonly 32
con@@ 32
drogheda 32
edited 32
four 32
genoa 32
iv@@ 32
ly 32
machinery 32
mer@@ 32
mobility 32
munster 32
par@@ 32
produced 32
protein 32
publishes 32
qarabağ 32
rené 32
rosales 32
slay 32
stan 32
trade 32
up 32
vorwärts 32
wein 32
while 32
world 32
11@@ 31
20th 31
ad 31
ar@@ 31
atalanta 31
bibbo 31
bombing 31
brazilians 31
bu@@ 31
former 31
lin@@ 31
little 31
mödling 31
pes@@ 31
player 31
ron 31
0269 30
0965 30
1473 30
1588 30
2140 30
2632 30
301 30
5571 30
56947 30
83 30
9370 30
acehnese 30
amahe9 30
ana 30
annie 30
ated 30
australians 30
catania 30
chris 30
colwyn 30
cyrus 30
danish 30
dino 30
disney 30
dunne 30
gordon 30
honey 30
kimberly 30
malays 30
manuzzi 30
marsden 30
neighbouring 30
notable 30
odinson 30
orange 30
parana 30
performed 30
romanesque 30
run 30
sch@@ 30
sterling 30
studios 30
study 30
texans 30
vance 30
00@@ 29
120 29
ates 29
become 29
books 29
bs 29
citizen 29
contain 29
deploy 29
deportiva 29
et 29
hearst 29
hercules 29
id 29
monarchy 29
motion 29
origin 29
patten 29
pound 29
typical 29
1558 28
17023 28
1961 28
204770 28
2702 28
2868 28
28th 28
47290 28
50000 28
597 28
68@@ 28
88002539 28
ahn 28
ahri 28
arbor 28
ayaz 28
carrie 28
carriers 28
categorized 28
colon 28
degree 28
eugene 28
finch 28
find 28
geering 28
huiberts 28
jacabian 28
ken@@ 28
lam 28
legislative 28
marc 28
max 28
near 28
netherlands 28
pictures 28
purple 28
raf@@ 28
res@@ 28
robur 28
sardar 28
siena 28
society 28
soup 28
started 28
ten@@ 28
tranmere 28
will 28
you 28
zaragoza 28
19@@ 27
2989 27
3048 27
45644811 27
524 27
53 27
75 27
90 27
av@@ 27
back 27
bentegodi 27
competing 27
creators 27
ct@@ 27
fire 27
is@@ 27
ju@@ 27
ner 27
pallotta 27
raisin 27
ring 27
ro@@ 27
sadiq 27
spata 27
using 27
1046 26
1929 26
1971 26
1995 26
27250 26
3078 26
32024459 26
4100 26
8188 26
aar@@ 26
ambassador 26
anderlecht 26
appearance 26
arlington 26
ben@@ 26
bir@@ 26
brewer 26
castrovillari 26
collin 26
gale 26
georgian 26
graafschap 26
icolo 26
jerry 26
laurales 26
lem@@ 26
ll@@ 26
man@@ 26
moench 26
norway 26
ordway 26
parts 26
pol@@ 26
rb 26
representative 26
represented 26
rochdale 26
shiitake 26
some 26
ter 26
tofu 26
turkmenabat 26
voice 26
architects 25
arr@@ 25
authored 25
ber@@ 25
bo@@ 25
bodley 25
carbohydrate 25
cottingham 25
doug 25
em@@ 25
eng@@ 25
eth@@ 25
ex@@ 25
form 25
foun@@ 25
ft 25
lettuce 25
lewis 25
like 25
mar@@ 25
on@@ 25
schipol 25
scrivener 25
springfield 25
sq 25
tv 25
warton 25
wizards 25
á@@ 25
0443 24
110 24
1360 24
62145 24
6377 24
all@@ 24
although 24
amhaaj 24
atiset 24
behalf 24
bones 24
clancy 24
computer 24
des@@ 24
drake 24
ek 24
fe@@ 24
futbol 24
gates 24
hardwick 24
harry 24
il@@ 24
inted 24
kabi 24
kapitan 24
keystone 24
khalid 24
ma@@ 24
mahmood 24
mat@@ 24
maya 24
ord 24
philip 24
pi@@ 24
program 24
route 24
rovir@@ 24
rudolph 24
sahle 24
sapindales 24
srl 24
ures 24
violet 24
win@@ 24
197@@ 23
733 23
addit@@ 23
alianza 23
ay@@ 23
bed 23
columbia 23
cor@@ 23
cr@@ 23
hartel 23
ically 23
ity 23
jo@@ 23
la@@ 23
latter 23
manual 23
nockalls 23
owns 23
pen@@ 23
rodriguez 23
stevens 23
stu@@ 23
ta 23
tudyk 23
venue 23
ver@@ 23
we@@ 23
zo 23
00 22
0025 22
0633 22
1878 22
360 22
49805501 22
53502 22
5858 22
66 22
7653 22
abe 22
about 22
albert 22
amarillo 22
arrondissement 22
ata 22
aviv 22
ays 22
ba@@ 22
bachelor 22
ban@@ 22
byron 22
calero 22
cept 22
chung 22
condiments 22
curtis 22
democrats 22
dimmit 22
du 22
erected 22
eredivisie 22
factor 22
halton 22
harcourt 22
ie 22
ig@@ 22
impact 22
irlam 22
jamie 22
lalbhai 22
liberal 22
lincoln 22
maccabi 22
nebraska 22
offset 22
opp 22
oregano 22
persea 22
phill@@ 22
properties 22
rapid 22
redefine 22
runcorn 22
samuel 22
shin@@ 22
tel 22
turkmenbashi 22
uderzo 22
udinese 22
use 22
varese 22
30@@ 21
3746 21
8g 21
af@@ 21
aj@@ 21
amazing 21
asociación 21
dumpling 21
dutch 21
francois 21
here 21
icip@@ 21
ies 21
ist@@ 21
oc@@ 21
playing 21
portugal 21
publishers 21
rooms 21
saint 21
serve 21
similar 21
sometimes 21
these 21
tit@@ 21
transportation 21
utc 21
wan@@ 21
10@@ 20
2195 20
51969173 20
55 20
8820 20
aaidbi 20
aboard 20
ado 20
affil@@ 20
ag@@ 20
alongside 20
anwar 20
arifin 20
bas@@ 20
bethesda 20
birthplace 20
blackburn 20
bloomsbury 20
codes 20
considered 20
cookies 20
dalpatbhai 20
distributor 20
eisner 20
german@@ 20
gradu@@ 20
inhabited 20
ist 20
jamali 20
kellamergh 20
lan@@ 20
las@@ 20
limited 20
loc@@ 20
manley 20
mechanics 20
mill@@ 20
mo@@ 20
monroe 20
over 20
post 20
pure 20
radio 20
ranks 20
reci@@ 20
roland 20
rona 20
sbct 20
senators 20
topklasse 20
varied 20
vin 20
wever 20
zaheer 20
zakaria 20
ş 20
33@@ 19
44114 19
4th 19
akihito 19
ant 19
asō 19
berry 19
bi@@ 19
commanded 19
concert 19
desserts 19
employees 19
fer@@ 19
following 19
govern@@ 19
having 19
ively 19
land@@ 19
li@@ 19
lic@@ 19
lives 19
malatu 19
natives 19
ning 19
onion 19
outagamie 19
produc@@ 19
provid@@ 19
qarabag 19
roman@@ 19
sheph@@ 19
stanbulspor 19
tarō 19
ted 19
ul@@ 19
un@@ 19
x 19
0236 18
1480153 18
1818 18
219 18
233 18
318875313 18
5294 18
678 18
67@@ 18
814 18
90640840 18
arapiraca 18
asa 18
benedic@@ 18
benitoite 18
blue 18
bridge 18
capitol 18
citrus 18
class@@ 18
clayton 18
congress 18
del@@ 18
epsth 18
es@@ 18
ethiop@@ 18
ev@@ 18
fairhead 18
gemstone 18
gigante 18
glendower 18
haag 18
head@@ 18
him 18
ine 18
ino 18
klubu 18
link 18
llocano 18
meas@@ 18
ment 18
mindanao 18
mitchell 18
monastery 18
najib 18
picked 18
pl@@ 18
primera 18
project 18
q@@ 18
razak 18
related 18
rou@@ 18
salvadoran 18
serv@@ 18
sho@@ 18
shuv@@ 18
sp 18
sport 18
tor 18
val@@ 18
vigor 18
wh@@ 18
winnebago 18
ws 18
19 17
1936 17
2194 17
4019 17
ace 17
ae 17
afonsa 17
appeared 17
associated 17
batak 17
classed 17
competes 17
concerts 17
conne@@ 17
cov@@ 17
defense 17
destination 17
do@@ 17
eber@@ 17
ethic 17
fir@@ 17
gen@@ 17
hap@@ 17
hard 17
he@@ 17
indians 17
io@@ 17
jepson 17
kolin 17
lamezia 17
librar@@ 17
liter@@ 17
lu@@ 17
mac@@ 17
ney 17
ok 17
oo@@ 17
pal@@ 17
political 17
ran@@ 17
regions 17
sar@@ 17
sham@@ 17
solanum 17
such 17
svg 17
ther 17
ther@@ 17
tourist 17
undergraduate 17
war@@ 17
186@@ 16
226 16
26@@ 16
57@@ 16
73 16
ael 16
bun@@ 16
centr@@ 16
ck@@ 16
cons@@ 16
ding 16
elwald 16
ented 16
hab@@ 16
har@@ 16
id@@ 16
ila 16
ions 16
ior@@ 16
ire@@ 16
ish@@ 16
jam@@ 16
jav@@ 16
ka 16
kl@@ 16
leg@@ 16
ors 16
pat@@ 16
re 16
spring@@ 16
stavson 16
stephen 16
tain 16
tenza 16
third 16
thly 16
too 16
travis 16
triestina 16
tur@@ 16
typ@@ 16
uc@@ 16
uld 16
une 16
unione 16
utalist 16
uthale 16
vica 16
vienna 16
warsaw 16
wayans 16
weber 16
wen 16
westminster 16
yah 16
álaigh 16
í 16
ília 16
íona 16
16@@ 15
17@@ 15
27@@ 15
ab 15
ake 15
apo@@ 15
author@@ 15
champ@@ 15
chichar@@ 15
cl@@ 15
doctor@@ 15
ents 15
ese 15
inhab@@ 15
ite 15
karnat@@ 15
mad@@ 15
manag@@ 15
mu@@ 15
nd 15
nw@@ 15
ob@@ 15
off@@ 15
pu@@ 15
ron@@ 15
sel@@ 15
son 15
stre@@ 15
te@@ 15
ter@@ 15
ture 15
wis@@ 15
wor@@ 15
ş@@ 15
ə@@ 15
&@@ 14
acy 14
ador@@ 14
aman 14
americ@@ 14
amin@@ 14
ature 14
cap@@ 14
carbohydr@@ 14
ent@@ 14
fr@@ 14
ful@@ 14
gr@@ 14
ional 14
ip@@ 14
ished 14
kno@@ 14
kore@@ 14
mal@@ 14
marty@@ 14
out@@ 14
pa 14
ple@@ 14
ri@@ 14
sen@@ 14
she@@ 14
so@@ 14
sou@@ 14
ta@@ 14
ters 14
x@@ 14
é@@ 14
ō 14
196@@ 13
199@@ 13
63 13
aba@@ 13
aktiesel@@ 13
ang@@ 13
ast@@ 13
atten@@ 13
bur@@ 13
die 13
ethn@@ 13
fin@@ 13
fo@@ 13
gh@@ 13
hard@@ 13
inv@@ 13
ish 13
ium 13
lead@@ 13
lon@@ 13
peo@@ 13
plan@@ 13
reg@@ 13
resid@@ 13
rick 13
senat@@ 13
sim@@ 13
sit@@ 13
ste@@ 13
~ 13
39@@ 12
46 12
56@@ 12
70 12
94@@ 12
abi 12
ago@@ 12
alexand@@ 12
alkma@@ 12
ando 12
ao 12
belon@@ 12
californ@@ 12
ces@@ 12
cook@@ 12
corn 12
during 12
eg@@ 12
eu@@ 12
ham@@ 12
ic 12
ific@@ 12
ik 12
ippin@@ 12
isi@@ 12
ke@@ 12
met@@ 12
num@@ 12
od@@ 12
ph@@ 12
ple 12
pri@@ 12
publ@@ 12
que 12
sever@@ 12
ship 12
the@@ 12
tt@@ 12
us@@ 12
vers@@ 12
vi@@ 12
william@@ 12
ón 12
# 11
39 11
ah@@ 11
are@@ 11
ast 11
astern 11
att@@ 11
ca 11
cit@@ 11
cn 11
col@@ 11
conc@@ 11
design@@ 11
doll@@ 11
don@@ 11
flo@@ 11
for@@ 11
formation 11
ide 11
if 11
ira@@ 11
ja@@ 11
joh@@ 11
kilo@@ 11
ling 11
mar 11
nick@@ 11
por@@ 11
pro@@ 11
si@@ 11
sl@@ 11
sp@@ 11
surf@@ 11
tain@@ 11
um 11
ut@@ 11
var@@ 11
vo@@ 11
whe@@ 11
ñ@@ 11
24 10
24@@ 10
28@@ 10
76@@ 10
98@@ 10
ages 10
ald 10
ams 10
ange 10
aw@@ 10
bank 10
can@@ 10
chil@@ 10
clu@@ 10
cont@@ 10
ed@@ 10
ely 10
ens 10
ep@@ 10
ern@@ 10
fam@@ 10
fi@@ 10
ger@@ 10
gh 10
ghlin 10
hel@@ 10
iced 10
ill@@ 10
im@@ 10
kin 10
liv@@ 10
mas@@ 10
ne 10
ora 10
ot@@ 10
ph 10
quel 10
rand@@ 10
run@@ 10
stand@@ 10
ster 10
su@@ 10
vor@@ 10
wick@@ 10
academ@@ 9
act@@ 9
aircraf@@ 9
ary 9
ass@@ 9
ay 9
az@@ 9
charya 9
comm@@ 9
dist@@ 9
est 9
form@@ 9
iet@@ 9
ill 9
les 9
logy 9
lou@@ 9
mus@@ 9
nov@@ 9
ov@@ 9
pan@@ 9
part@@ 9
res 9
ro 9
sand@@ 9
se 9
sep@@ 9
sm@@ 9
und@@ 9
universit@@ 9
+ 8
22@@ 8
25@@ 8
89@@ 8
97@@ 8
alter@@ 8
anese 8
apple@@ 8
bers 8
buil@@ 8
cos 8
dan@@ 8
den@@ 8
ency 8
ene 8
foo@@ 8
fre@@ 8
ians 8
identifi@@ 8
ilo@@ 8
ing@@ 8
ins 8
io 8
ita 8
join@@ 8
klasse 8
mexic@@ 8
ny 8
ore 8
pavlo@@ 8
pe 8
poulos 8
retir@@ 8
riv@@ 8
sa@@ 8
ski 8
so 8
stad@@ 8
ty 8
und 8
wash@@ 8
wer 8
13@@ 7
47@@ 7
800 7
? 7
abbrev@@ 7
adm@@ 7
amat@@ 7
anne 7
annis 7
asociac@@ 7
bak@@ 7
came 7
cho@@ 7
colo@@ 7
cow@@ 7
develo@@ 7
ero 7
est@@ 7
follo@@ 7
gre@@ 7
hal@@ 7
instit@@ 7
iot 7
istanbu@@ 7
ited 7
ked 7
ko 7
larg@@ 7
ley 7
lspor 7
may 7
mil@@ 7
nat@@ 7
one@@ 7
operat@@ 7
orig@@ 7
per@@ 7
plac@@ 7
port@@ 7
potat@@ 7
specif@@ 7
spon@@ 7
stone 7
super@@ 7
up@@ 7
ö@@ 7
131 6
274@@ 6
35@@ 6
37@@ 6
68 6
74 6
aa 6
add@@ 6
age 6
anc@@ 6
ania 6
anton@@ 6
ars 6
ater 6
brazil@@ 6
bro@@ 6
burg 6
ch 6
che@@ 6
citiz@@ 6
count@@ 6
dou@@ 6
ena 6
erba@@ 6
ght 6
grant@@ 6
hu@@ 6
igh 6
ign@@ 6
illo 6
im 6
ings 6
lie 6
log@@ 6
mem@@ 6
memor@@ 6
metre 6
nav@@ 6
neighbo@@ 6
nor@@ 6
ok@@ 6
olymp@@ 6
op@@ 6
organiz@@ 6
post@@ 6
ra 6
rec@@ 6
rom@@ 6
thou@@ 6
to@@ 6
ured 6
usu@@ 6
23@@ 5
49 5
787711@@ 5
` 5
able 5
aceae 5
atio@@ 5
banan@@ 5
bin@@ 5
ble 5
bomb@@ 5
co 5
compe@@ 5
comple@@ 5
develop@@ 5
dumpl@@ 5
eld 5
enc@@ 5
ers@@ 5
fran@@ 5
ge 5
ility 5
ip 5
ipe 5
isham 5
ive 5
lia 5
marr@@ 5
mendris@@ 5
occup@@ 5
ook 5
os 5
ow 5
ry 5
sau@@ 5
speak@@ 5
tech@@ 5
ue 5
usly 5
vin@@ 5
whil@@ 5
wi@@ 5
ú@@ 5
000@@ 4
18@@ 4
58 4
714 4
80@@ 4
ace@@ 4
aen@@ 4
ai 4
airpor@@ 4
alk@@ 4
alle 4
aro@@ 4
aya 4
bal@@ 4
bi 4
bl@@ 4
christ@@ 4
cted 4
dic@@ 4
edit@@ 4
ently 4
euro@@ 4
ff@@ 4
field 4
figh@@ 4
fil@@ 4
galore 4
gar@@ 4
gin@@ 4
hol 4
hop@@ 4
iation 4
ical 4
ident 4
ind@@ 4
ington 4
ins@@ 4
inter@@ 4
ised 4
ital 4
iz@@ 4
kar@@ 4
kh@@ 4
ll 4
lufthav@@ 4
monum@@ 4
ology 4
ord@@ 4
ou 4
popul@@ 4
rev@@ 4
rip@@ 4
rs 4
saw 4
scrip@@ 4
sen 4
sur@@ 4
tis 4
tr@@ 4
tures 4
um@@ 4
vio@@ 4
vir@@ 4
ó@@ 4
_ 3
acc@@ 3
advis@@ 3
akes 3
alcoben@@ 3
alls 3
amatric@@ 3
and@@ 3
andalus@@ 3
antioqu@@ 3
architettur@@ 3
arn@@ 3
ased 3
attoor 3
bake@@ 3
batt@@ 3
bhaj@@ 3
bor@@ 3
brit@@ 3
catalon@@ 3
ces 3
chiev@@ 3
contain@@ 3
dec@@ 3
des 3
dr@@ 3
du@@ 3
ec@@ 3
educ@@ 3
ef@@ 3
ence 3
fu@@ 3
gem@@ 3
ger 3
glaston@@ 3
gro@@ 3
harriet@@ 3
hein@@ 3
home@@ 3
iam 3
iana 3
ica 3
ily 3
involv@@ 3
isco 3
kke 3
lar@@ 3
lat@@ 3
legisl@@ 3
ly@@ 3
men@@ 3
mov@@ 3
of@@ 3
offic@@ 3
ons 3
oper@@ 3
perform@@ 3
ras@@ 3
represent@@ 3
ries 3
rod@@ 3
ru@@ 3
ser@@ 3
sumat@@ 3
sy@@ 3
tar@@ 3
though 3
tion 3
tle 3
ure 3
uring 3
vari@@ 3
ve 3
vic@@ 3
wn 3
ye@@ 3
198@@ 2
238 2
305 2
93@@ 2
aarh@@ 2
abbre@@ 2
accadem@@ 2
ach@@ 2
actor 2
ada 2
advan@@ 2
ae@@ 2
ajo@@ 2
ale 2
alus@@ 2
ance 2
ane 2
appe@@ 2
ash@@ 2
ashed 2
aster 2
bat@@ 2
bc@@ 2
beth@@ 2
bion@@ 2
bol@@ 2
cal@@ 2
carri@@ 2
cast@@ 2
categoriz@@ 2
char@@ 2
ci@@ 2
colle@@ 2
commelin@@ 2
compan@@ 2
confection@@ 2
consin 2
cop@@ 2
cover 2
creat@@ 2
curit@@ 2
da@@ 2
dal@@ 2
dim@@ 2
disci@@ 2
dy@@ 2
eived 2
eland 2
ell@@ 2
emplo@@ 2
enced 2
ered 2
eric@@ 2
establ@@ 2
fair@@ 2
fal@@ 2
fiorent@@ 2
ge@@ 2
georg@@ 2
get@@ 2
gov@@ 2
green@@ 2
ha@@ 2
ham 2
helicop@@ 2
her@@ 2
hun@@ 2
ial 2
iated 2
ico 2
ics 2
ignit 2
ilene 2
ils 2
inclu@@ 2
indi@@ 2
influ@@ 2
infr@@ 2
iott 2
istan 2
itake 2
ives 2
ji 2
kail@@ 2
kimber@@ 2
ks 2
kut@@ 2
leng@@ 2
lev@@ 2
manh@@ 2
math@@ 2
may@@ 2
me 2
med@@ 2
mississ@@ 2
na 2
nal 2
nar@@ 2
nell 2
ns 2
ones@@ 2
organis@@ 2
palaeontolog@@ 2
past@@ 2
pic@@ 2
pilo@@ 2
pin@@ 2
politic@@ 2
prec@@ 2
preced@@ 2
pres@@ 2
projec@@ 2
puig@@ 2
pur@@ 2
rebell@@ 2
redi@@ 2
ried 2
rk 2
sad@@ 2
sal@@ 2
sburg 2
shire 2
short@@ 2
solan@@ 2
sport@@ 2
ss 2
star@@ 2
tay@@ 2
technolog@@ 2
ten 2
them 2
ti@@ 2
ting 2
tor@@ 2
turk@@ 2
uction 2
univers@@ 2
ur 2
use@@ 2
vis@@ 2
visves@@ 2
vout@@ 2
was@@ 2
who@@ 2
wil@@ 2
will@@ 2
yl@@ 2
za 2
zamboang@@ 2
é 2
#@@ 1
06@@ 1
1114@@ 1
130@@ 1
193@@ 1
195@@ 1
43@@ 1
44811 1
53@@ 1
5600@@ 1
5739@@ 1
600@@ 1
843 1
877@@ 1
88@@ 1
97 1
abo@@ 1
ack 1
ack@@ 1
actions 1
addum 1
ade 1
administ@@ 1
aff@@ 1
ago 1
aid@@ 1
ain 1
airlin@@ 1
aki@@ 1
akti@@ 1
akur 1
ala 1
alcatr@@ 1
alder@@ 1
ales 1
alli 1
alon@@ 1
amar@@ 1
amer@@ 1
amie 1
anac 1
ano 1
ants 1
ara 1
arapiraqu@@ 1
arch@@ 1
archit@@ 1
architectur@@ 1
ards 1
arrab@@ 1
arrabbi@@ 1
assaul@@ 1
associ@@ 1
astronau@@ 1
ath@@ 1
ations 1
austr@@ 1
ax 1
ba 1
back@@ 1
bal 1
bat 1
battle@@ 1
bb@@ 1
bel@@ 1
belg@@ 1
ber 1
bh@@ 1
bhai 1
bn 1
boo@@ 1
bor 1
bowski 1
brar@@ 1
bre@@ 1
bri@@ 1
broadcast@@ 1
buchar@@ 1
bundel@@ 1
bus@@ 1
call@@ 1
cam@@ 1
canon@@ 1
carr@@ 1
cat@@ 1
categor@@ 1
ccn 1
chan@@ 1
choy 1
cian 1
cio 1
colo 1
comme@@ 1
cones 1
confec@@ 1
constr@@ 1
coun@@ 1
cru@@ 1
crust 1
cur@@ 1
curr@@ 1
dalpat@@ 1
davuto@@ 1
ded 1
dedic@@ 1
def@@ 1
delaw@@ 1
dem@@ 1
deplo@@ 1
dris@@ 1
eda 1
eiv@@ 1
elev@@ 1
elizab@@ 1
ema 1
emat@@ 1
employe@@ 1
ences 1
ensis 1
enter@@ 1
enza 1
ept 1
epura 1
erbaijan 1
ere 1
erick 1
esh 1
eth 1
ettur@@ 1
exc@@ 1
ez 1
fallu@@ 1
fel@@ 1
fenv@@ 1
fill@@ 1
fon@@ 1
fred@@ 1
fute@@ 1
gal@@ 1
gard@@ 1
garre@@ 1
geno@@ 1
getty@@ 1
gl@@ 1
gran@@ 1
gs 1
guadal@@ 1
guadalaj@@ 1
guar@@ 1
guez 1
gujar@@ 1
gur@@ 1
hailemar@@ 1
haput@@ 1
harri@@ 1
harrietst@@ 1
heed 1
high@@ 1
histor@@ 1
hitl@@ 1
hito 1
hs 1
hungar@@ 1
iacao 1
ianza 1
iaolong 1
iba 1
ich 1
iden@@ 1
ids 1
ight 1
igor@@ 1
ijan 1
iles 1
illed 1
ilo 1
ina 1
inau@@ 1
indones@@ 1
inhabit@@ 1
ini 1
inst@@ 1
int 1
invas@@ 1
ioh@@ 1
ippi 1
ir 1
ishnan 1
isis 1
ital@@ 1
itra 1
iva 1
ivers@@ 1
ja 1
jacab@@ 1
jal@@ 1
jan@@ 1
jay@@ 1
jec@@ 1
jji 1
johns@@ 1
jour@@ 1
jul@@ 1
ken 1
klu@@ 1
kutti@@ 1
kuttikk@@ 1
lah@@ 1
lam@@ 1
lc 1
lic 1
lik@@ 1
lim@@ 1
lin 1
lumezz@@ 1
lun@@ 1
mag@@ 1
magde@@ 1
magistr@@ 1
malay@@ 1
marcol@@ 1
mary@@ 1
medabad 1
mi 1
mi@@ 1
mingham 1
miss@@ 1
monoc@@ 1
mor@@ 1
mum@@ 1
muse@@ 1
na@@ 1
naren@@ 1
nation@@ 1
near@@ 1
negr@@ 1
neider 1
neigh@@ 1
neighbor@@ 1
night 1
no 1
ocado 1
oh@@ 1
ol 1
old 1
olfo 1
om 1
ondack 1
ood 1
ool 1
org@@ 1
otta 1
palle@@ 1
pallo@@ 1
park@@ 1
parli@@ 1
pau@@ 1
penh@@ 1
penns@@ 1
phil@@ 1
philipp@@ 1
philippin@@ 1
polit@@ 1
portu@@ 1
pot 1
prod@@ 1
prov@@ 1
publish@@ 1
pun@@ 1
putraj@@ 1
qbal 1
radhak@@ 1
ram@@ 1
ramapho@@ 1
rat@@ 1
rative 1
regist@@ 1
rel@@ 1
rem@@ 1
repres@@ 1
retire@@ 1
rid 1
rit@@ 1
rodri@@ 1
rut@@ 1
sa 1
sadi@@ 1
salv@@ 1
sbury 1
sc@@ 1
schip@@ 1
sci@@ 1
sed 1
serg@@ 1
set 1
shepar@@ 1
shor@@ 1
side 1
signific@@ 1
sil@@ 1
sing@@ 1
singap@@ 1
sio@@ 1
siz@@ 1
skab 1
spal@@ 1
span@@ 1
spe@@ 1
spo@@ 1
spor 1
squeez@@ 1
stan@@ 1
stat@@ 1
steph@@ 1
stor@@ 1
stud@@ 1
sum@@ 1
sus@@ 1
tch@@ 1
techno@@ 1
telang@@ 1
tes 1
tion@@ 1
tirstr@@ 1
ton@@ 1
tot@@ 1
town@@ 1
tri@@ 1
ts@@ 1
tsip@@ 1
tt 1
turkmen@@ 1
tw@@ 1
ucted 1
uk@@ 1
ulia 1
umb@@ 1
under@@ 1
unds 1
ura 1
ute 1
utes 1
vaju@@ 1
varaya 1
ve@@ 1
veg@@ 1
ville 1
vit@@ 1
volun@@ 1
wald 1
wickrem@@ 1
wid@@ 1
wide 1
win 1
with@@ 1
wn@@ 1
wolf@@ 1
worl@@ 1
ya 1
yet 1
yk 1
ylvania 1
ym 1
