the 290744
, 251723
. 208282
of 149827
in 134768
and 119283
a 102624
is 98495
was 69215
to 60964
as 36797
it 34566
he 34151
by 33378
on 32753
with 28007
for 27995
united 24257
from 24223
an 23925
at 23805
- 23431
states 21852
&quot; 20396
&apos; 19431
s 18825
has 18174
city 17208
) 16184
( 15848
which 15577
his 14943
new 14890
county 14583
&apos;s 14371
airport 14012
are 13507
club 13296
its 12763
that 11740
re@@ 11318
part 11228
country 10877
0 10587
first 10576
name 10381
c 10235
o 9934
were 9747
s@@ 9539
leader 9477
one 9268
i 9163
k@@ 9116
or 8968
also 8883
located 8882
: 8840
place 8595
after 8428
– 8338
/ 8309
university 8281
e 8215
d@@ 8173
born 8110
texas 8091
al 7981
1 7968
who 7861
e@@ 7836
-@@ 7800
state 7714
r 7687
this 7664
d 7641
be 7630
u 7567
t 7534
; 7479
ing 7420
where 7065
3 7054
area 7010
served 6970
group 6893
g@@ 6868
had 6858
football 6827
o@@ 6825
league 6780
m@@ 6749
american 6746
t@@ 6718
they 6696
music 6514
season 6484
known 6376
i@@ 6359
p@@ 6358
n@@ 6305
in@@ 6304
national 6298
er 6273
b 6267
played 6255
school 6232
team 6225
u@@ 6120
n 6109
language 6090
years 6069
member 6052
de 6040
en@@ 5974
es 5948
location 5890
c@@ 5864
band 5860
birth 5806
de@@ 5797
2 5796
international 5751
m 5719
r@@ 5702
asteroid 5680
air 5640
made 5639
b@@ 5565
z@@ 5501
two 5454
war 5452
k 5374
le@@ 5361
f@@ 5360
l 5321
named 5310
h@@ 5274
co@@ 5256
ed 5178
building 5157
but 5113
their 5112
an@@ 5093
associated 5082
y 5044
ethnic 4967
ro@@ 4914
l@@ 4898
y@@ 4880
ar@@ 4871
5 4855
during 4847
year 4778
us 4737
v@@ 4706
g 4690
been 4689
used 4656
time 4632
man 4602
capital 4554
number 4538
al@@ 4532
f 4521
she 4519
ch@@ 4508
4 4476
alan 4440
americans 4428
ti@@ 4378
w 4349
li@@ 4316
town 4311
north 4268
population 4261
st 4261
w@@ 4170
st@@ 4120
j@@ 4086
california 4070
west 4070
party 4065
built 4057
un@@ 4043
fc 4034
8 4026
ers 4004
ted 3991
house 3971
when 3967
all 3964
le 3963
have 3961
be@@ 3944
york 3940
region 3927
square 3916
indiana 3909
am@@ 3890
p 3887
office 3873
based 3839
se@@ 3837
land 3835
became 3794
6 3787
there 3774
into 3773
genre 3737
her 3674
dish 3659
ad@@ 3635
7 3616
english 3615
other 3615
ii 3613
mo@@ 3593
ts 3588
mw-parser-output 3581
published 3535
founded 3532
most 3530
12 3517
er@@ 3512
washington 3497
runway 3487
as@@ 3470
may 3448
main 3443
world 3438
or@@ 3435
me@@ 3431
established 3418
po@@ 3414
plays 3406
at@@ 3405
di@@ 3392
census 3373
called 3370
la@@ 3357
mar@@ 3343
president 3339
11 3336
south 3319
series 3318
led 3313
con@@ 3308
john 3303
college 3302
% 3293
space 3287
ri@@ 3270
launch 3269
is@@ 3268
second 3265
until 3260
while 3248
engine 3243
not 3229
between 3226
station 3224
journal 3223
date 3211
white 3208
later 3186
te@@ 3185
company 3148
ab@@ 3144
lo@@ 3142
aaron 3135
then 3132
rock 3129
serie 3121
force 3104
9 3099
2010 3098
a@@ 3090
bo@@ 3076
ac@@ 3072
district 3068
ne@@ 3068
4@@ 3063
being 3057
° 3057
apollo 3043
pe@@ 3027
miles 3014
ton 3002
ground 2999
including 2997
di 2995
period 2973
x 2969
people 2967
18@@ 2963
ate 2956
under 2938
son 2933
william 2929
character 2919
h 2919
ation 2900
v 2867
discovered 2836
more 2834
musical 2831
ter 2822
before 2807
on@@ 2804
to@@ 2804
artist 2799
el@@ 2796
worked 2794
division 2793
center 2779
institute 2779
three 2767
family 2766
per@@ 2764
age 2761
home 2761
jersey 2748
service 2747
flight 2737
up 2731
gu@@ 2704
10 2702
well 2702
death 2698
ar 2676
ting 2675
march 2673
en 2665
township 2661
length 2655
ho@@ 2645
over 2631
th@@ 2619
level 2606
won 2603
9@@ 2600
july 2596
su@@ 2590
began 2588
out 2586
2@@ 2584
high 2583
bacon 2572
sp@@ 2568
general 2567
pre@@ 2564
les 2560
former 2549
street 2546
georgia 2543
ated 2537
ingredient 2527
only 2522
public 2519
january 2517
found 2508
martin 2497
pilot 2491
5@@ 2488
mexico 2483
si@@ 2476
nasa 2471
members 2469
created 2462
king 2454
6@@ 2444
august 2444
can 2439
2009 2437
following 2436
he@@ 2434
ex@@ 2433
3@@ 2432
car@@ 2431
ra@@ 2428
red 2421
ak@@ 2417
line 2404
lu@@ 2397
title 2396
india 2395
december 2379
italy 2377
technology 2375
da 2369
september 2367
spain 2362
designed 2359
east 2358
7@@ 2357
released 2354
orbit 2351
manager 2343
ag@@ 2342
austin 2330
sauce 2318
largest 2314
june 2310
since 2310
type 2308
ly 2303
both 2301
end 2301
kilometres 2298
bar@@ 2289
album 2285
no@@ 2285
sea 2285
singer 2281
ma@@ 2276
la 2266
au 2263
four 2261
ia 2261
ship 2259
blues 2241
long 2241
el 2240
business 2239
origin 2235
2014 2230
atlantic 2227
play 2226
site 2224
such 2224
pro@@ 2223
way 2217
do@@ 2214
monument 2214
total 2214
april 2213
man@@ 2212
regional 2206
15 2204
central 2199
book 2198
8@@ 2197
anders 2195
died 2195
ni@@ 2182
ds 2177
ge@@ 2175
20 2162
aircraft 2160
&amp; 2159
ur@@ 2142
october 2141
ap@@ 2139
career 2135
above 2132
signed 2130
ke@@ 2127
dis@@ 2125
london 2125
per 2114
bi@@ 2112
november 2111
mc 2097
system 2091
through 2088
metres 2082
17 2080
some 2078
2006 2076
z 2072
18 2069
tr@@ 2066
ingredients 2064
th 2062
road 2061
records 2057
sh@@ 2056
so@@ 2055
many 2047
cor@@ 2043
would 2043
we@@ 2037
mir 2028
0@@ 2025
comics 2024
mi@@ 2021
ic@@ 2018
mon@@ 2018
par@@ 2009
government 1999
side 1998
ter@@ 1993
army 1992
aarhus 1990
san 1986
it@@ 1976
started 1965
tion 1961
2000 1958
day 1955
use 1955
orbital 1953
civil 1946
james 1942
go@@ 1939
operated 1939
1@@ 1934
ver@@ 1930
bu@@ 1927
him 1927
km 1927
du@@ 1926
michigan 1924
ste@@ 1923
indonesia 1917
several 1915
however 1898
se 1897
cu@@ 1896
mer@@ 1895
am 1894
x@@ 1892
vi@@ 1888
os 1879
infantry 1877
formed 1876
2011 1874
hall 1871
crew 1870
pi@@ 1868
february 1857
work 1853
native 1851
body 1849
law 1848
ohio 1845
acharya 1841
ir@@ 1840
der 1835
early 1829
professional 1825
qu@@ 1820
kingdom 1819
ice 1816
ha@@ 1814
left 1814
minister 1813
ally 1812
14 1810
base 1810
debut 1808
association 1806
tu@@ 1801
ley 1800
park 1799
tions 1798
battle 1797
ol@@ 1796
j 1793
ine 1791
back 1790
te 1788
italian 1786
il@@ 1784
see 1780
es@@ 1777
than 1777
record 1775
playing 1772
als 1766
23 1765
sun 1764
17@@ 1760
aston 1757
car 1755
no 1755
rocket 1750
25 1748
27 1748
test 1748
joined 1734
field 1733
river 1733
ch 1732
cup 1731
2015 1729
astronomer 1724
gi@@ 1724
final 1722
har@@ 1717
mu@@ 1716
seat 1716
about 1715
for@@ 1713
width 1702
ans 1701
ph@@ 1700
atlanta 1697
can@@ 1687
2013 1685
science 1678
albert 1677
design 1677
elected 1677
months 1674
top 1671
im@@ 1670
ma 1670
moved 1670
16 1666
anderson 1666
} 1661
sch@@ 1657
inter@@ 1654
spoken 1653
2012 1650
ks 1647
opened 1645
along 1639
2008 1637
alfred 1637
diameter 1636
british 1633
construction 1626
bean 1625
include 1621
2005 1613
took 1613
ru@@ 1611
um 1610
england 1603
virginia 1602
community 1601
{ 1598
em@@ 1597
completed 1595
jones 1594
los 1594
ous 1594
owned 1592
hockey 1590
akeem 1588
abdul 1577
african 1577
ations 1577
hu@@ 1577
stage 1577
us@@ 1577
ko@@ 1576
song 1573
21 1572
military 1572
epoch 1570
min@@ 1568
den@@ 1566
election 1566
﻿ 1566
ating 1564
ce@@ 1562
now 1562
fried 1561
ber@@ 1560
shepard 1560
these 1559
mission 1557
against 1552
currently 1550
included 1550
round 1550
madrid 1541
teams 1540
third 1540
adam 1539
30 1534
produced 1533
development 1524
gh@@ 1523
2007 1522
ford 1522
min-width 1520
received 1520
13 1518
engineering 1516
major 1516
same 1510
popular 1507
footballer 1506
power 1505
style 1500
ist 1498
european 1497
31 1496
22 1494
tri@@ 1493
rice 1486
van 1484
written 1484
aldrin 1480
16@@ 1478
history 1477
social 1477
netherlands 1476
ed@@ 1474
spanish 1472
observatory 1471
version 1470
andrew 1469
according 1466
pennsylvania 1461
connecticut 1459
elliot 1459
ten@@ 1457
selected 1454
alma 1453
once 1453
ters 1453
ings 1452
german 1451
ta@@ 1451
ve 1450
graduated 1449
ard 1447
ing@@ 1447
ana 1445
art 1445
28 1441
ci@@ 1440
due 1438
museum 1438
operating 1438
orbits 1435
mater 1434
union 1433
1634 1431
ment 1431
br@@ 1428
railway 1425
asian 1420
au@@ 1419
do 1419
15@@ 1417
architect 1415
fe@@ 1415
her@@ 1415
able 1414
aid 1413
ke 1413
sen@@ 1413
launched 1412
using 1410
background 1399
class 1395
ary 1393
historic 1393
water 1393
century 1390
ent 1387
ac 1386
buzz 1384
dc 1382
ren@@ 1375
sciences 1375
black 1373
denmark 1369
within 1368
hotel 1365
é@@ 1363
pan@@ 1362
hi@@ 1359
appeared 1358
ps 1355
lake 1353
jo@@ 1350
old 1350
com@@ 1348
sa 1348
ven@@ 1348
serving 1347
project 1346
ded 1345
held 1343
groups 1342
politician 1342
representatives 1341
originally 1340
active 1339
athens 1337
sk@@ 1337
aviation 1335
ribicoff 1327
games 1326
wisconsin 1326
model 1322
eccentricity 1321
attended 1320
pu@@ 1320
adams 1318
head 1317
mendrisio 1316
malaysia 1315
days 1313
label 1313
set 1313
ta 1313
related 1311
and@@ 1306
bal@@ 1304
large 1304
successor 1304
af@@ 1301
ali@@ 1301
greece 1298
men 1298
mor@@ 1296
solo 1296
whose 1294
,@@ 1292
ding 1292
point 1291
lan@@ 1290
belt 1289
form 1289
ons 1287
chicken 1285
local 1284
them 1283
sc 1282
variation 1282
2004 1278
the@@ 1278
ari@@ 1276
includes 1276
men@@ 1275
ve@@ 1275
france 1273
research 1272
beef 1269
den 1269
24 1268
earth 1268
speed 1268
commander 1267
near 1267
like 1257
route 1255
abraham 1253
great 1253
wi@@ 1251
germany 1250
turner 1248
gr@@ 1246
mb@@ 1245
ang@@ 1244
mississippi 1244
each 1240
last 1240
op@@ 1240
tic 1240
mat@@ 1239
centre 1236
students 1233
donnell 1231
small 1229
fi@@ 1222
ban@@ 1221
canada 1221
father 1221
governor 1218
order 1218
03 1217
der@@ 1214
lin@@ 1214
comic 1213
av@@ 1211
so 1208
19 1207
original 1207
added 1206
cleveland 1203
serves 1202
alabama 1200
chicago 1199
cuisine 1197
southern 1197
super@@ 1196
cre@@ 1195
rhythm 1195
# 1193
will 1193
ty 1192
ow@@ 1189
tes 1187
26 1185
1963 1182
tower 1181
retired 1180
′ 1179
sold 1178
novel 1176
ad 1173
sub@@ 1172
calcio 1171
col@@ 1171
louis 1171
metal 1171
philippines 1171
ic 1168
story 1163
ne 1159
2003 1157
ors 1157
developed 1156
player 1156
akron 1155
nationality 1155
single 1153
author 1150
ver 1150
war@@ 1150
late 1147
1955 1146
14@@ 1145
comes 1143
density 1142
ments 1140
ayam 1138
navy 1138
vermont 1135
apoapsis 1134
11th 1133
air@@ 1133
often 1132
str@@ 1132
list 1131
flights 1128
sandwich 1128
own 1127
start 1127
ville 1126
hol@@ 1125
western 1124
premier 1123
size 1123
co 1121
vo@@ 1121
cal@@ 1120
nor@@ 1120
cen@@ 1119
tor 1119
department 1116
ked 1116
sal@@ 1113
turkey 1113
five 1112
senate 1112
game 1111
bre@@ 1110
ai@@ 1107
ben@@ 1107
me 1106
become 1105
atlas 1102
production 1101
1998 1099
program 1098
feet 1097
ju@@ 1097
council 1095
hours 1094
making 1093
anaheim 1092
ves 1092
000 1091
100 1090
assembly 1090
2016 1089
alternative 1089
similar 1089
although 1088
best 1088
mil@@ 1085
coconut 1084
rotation 1083
airlines 1082
elevation 1082
church 1080
avenue 1078
post 1077
v8 1076
40 1074
books 1071
french 1071
albany 1070
fort 1069
province 1069
came 1068
kilometers 1066
dutch 1065
dr@@ 1064
times 1061
conference 1060
ku@@ 1060
youth 1060
approximately 1059
vehicle 1056
village 1055
clubs 1053
organisation 1052
port 1052
returned 1049
ge 1048
another 1047
around 1047
ck 1047
designation 1045
polish 1045
food 1044
mas@@ 1044
accademia 1043
wil@@ 1043
go 1042
ms 1042
sri 1042
07 1041
education 1041
followed 1041
madison 1041
official 1040
aw@@ 1039
ah 1038
auburn 1038
wood 1038
50 1035
ant 1035
indian 1035
tur@@ 1035
abilene 1034
albuquerque 1034
2017 1032
stadium 1032
crisis 1031
ity 1030
ki@@ 1030
meat 1030
singapore 1029
musician 1026
very 1026
buildings 1025
ab 1024
pen@@ 1024
ati@@ 1023
stylistic 1021
architettura 1019
ajax 1018
having 1017
res 1015
akita 1014
went 1014
don 1010
azerbaijan 1009
introduced 1009
20@@ 1008
ran@@ 1008
arena 1002
29 1001
33 1000
fountain 1000
bas@@ 999
row 999
star 999
01 997
ou@@ 997
planet 997
ya 997
″ 997
200 996
angola 996
fin@@ 996
,000 995
periapsis 995
operations 994
academic 993
characters 993
mary 993
bur@@ 992
over@@ 992
every 991
1999 990
works 990
contract 989
ireland 989
ker 989
oregon 988
prime 988
citation 987
00@@ 985
cam@@ 984
id 984
seasons 984
pakistan 983
airline 982
promoted 981
christian 978
win 978
greek 975
ash@@ 974
island 974
alison 972
johnson 972
sur@@ 972
sy@@ 972
make 971
transportation 969
champions 968
democratic 967
alfa 966
battles 965
dallas 965
04 964
distance 964
hop 964
available 963
ak 962
delta 962
ot@@ 962
11@@ 961
robert 961
ul@@ 959
hip 956
ite 956
ina 955
just 955
oil 955
uses 955
george 954
uk 954
current 953
pal@@ 952
life 951
replaced 949
wal@@ 949
ariane 947
ates 947
academy 944
appointed 944
six 944
abel 943
ay@@ 943
aleksandr 941
ang 941
2001 940
control 940
ther@@ 940
parliament 939
25@@ 938
gar@@ 938
houston 936
ca 935
jr 935
position 934
referred 934
sti@@ 934
usually 934
systems 933
tive 931
1,@@ 928
ram@@ 927
romeo 927
10@@ 923
t-@@ 923
ka 921
pl@@ 920
among 918
cas@@ 918
cr@@ 918
taib 917
young 916
addition 915
award 914
por@@ 914
surface 914
13@@ 913
again 913
5px 912
dessert 912
married 912
floor 909
juan 908
ling 908
ace 907
ser@@ 907
che@@ 906
hy@@ 905
ken@@ 905
rs 905
val@@ 904
cooked 903
memorial 903
competition 901
dodge 900
sts 900
big 899
northern 898
moon 897
royal 897
cur@@ 896
thomas 895
press 894
services 894
various 894
sky 892
sports 891
32 890
et@@ 889
ian 889
ry 889
09 888
rayel 888
chinese 887
because 886
gra@@ 886
alex 883
course 883
staff 883
switzerland 882
america 881
creator 881
sv 880
ach@@ 879
constructed 878
nu@@ 878
chief 877
ger@@ 877
trans@@ 877
fire 875
baku 874
david 874
re 874
pr@@ 873
ra 872
bay 871
manufacturer 871
metropolitan 870
re-@@ 870
ah@@ 869
bl@@ 869
did 868
owner 866
pat@@ 866
code 865
fish 865
off 865
nrbq 863
ended 862
39@@ 861
na 861
inhabitants 860
sportiva 860
gen@@ 859
indonesian 859
right 858
complex 857
full 856
inclination 856
society 856
ese 855
winning 855
are@@ 852
mahmud 851
considered 850
turkish 850
bra@@ 849
arem 848
ll@@ 848
penyet 848
1996 847
24@@ 847
ff@@ 847
fighter 847
term 847
0px 846
amsterdam 846
27@@ 845
29@@ 845
announced 845
baked 845
ins 845
ner 843
paisa 843
pudding 843
2019 842
britain 842
director 842
down 841
ical 840
any 839
et 839
promotion 839
ss 838
allen 837
different 837
championship 836
fo@@ 836
gal@@ 836
34 835
romania 834
mis@@ 833
table 833
2018 832
federal 831
kar@@ 831
training 831
board 830
children 829
show 829
ence 828
mark 828
milk 827
35 826
bel@@ 826
situated 826
— 824
bakewell 821
est@@ 821
out@@ 820
places 820
antares 819
million 818
minor 818
passenger 818
fusion 817
ara 815
green 815
commonly 814
d-@@ 814
draft 813
1993 812
astronaut 812
ble 812
counties 812
dy 812
hor@@ 812
railroad 811
1000 810
mal@@ 810
soviet 810
alco 809
pri@@ 809
fre@@ 808
live 808
lanka 807
lee 806
traditional 806
contains 805
take 805
renamed 804
still 804
occupation 803
02 801
coach 801
mass 801
fer@@ 800
key 800
managed 800
moscow 800
summer 800
zealand 800
lar 799
congress 798
downtown 797
gre@@ 797
36 795
authority 795
finished 795
political 795
ten 794
common 793
ga 793
egg 792
ob@@ 792
spent 792
az@@ 791
2002 790
carolina 790
changed 790
ker@@ 790
commercial 789
ders 789
ns 788
cities 787
iraq 787
bri@@ 786
southeast 786
char@@ 785
degree 785
des 785
film 785
ass@@ 783
dr 783
ny 783
succeeded 783
studied 780
103 779
jazz 779
watson 779
killed 778
units 778
illinois 777
low 776
pop 776
height 775
walter 775
1994 774
bionico 773
chi@@ 773
municipality 773
recorded 770
vegetables 769
leading 768
nhl 767
ram 767
34@@ 766
campus 766
1989 765
lar@@ 764
given 763
next 763
discoverer 762
front 762
ger 762
sen 762
1st 761
eastern 761
birmingham 760
ler 760
bank 759
charles 759
ric@@ 759
audi 757
features 757
ham@@ 757
ni 757
support 757
explosion 756
19@@ 755
cl@@ 755
designated 755
mile 755
ath@@ 754
bandeja 754
flint 754
match 754
media 754
ships 754
_ 753
ahmet 753
java 753
vic@@ 753
06 752
26@@ 752
47@@ 752
sweet 752
wife 752
250 751
bor@@ 750
kilometre 750
osborne 750
publisher 749
taken 749
60 748
ba@@ 748
secretary 748
han@@ 747
mp@@ 747
ce 746
ties 746
architecture 745
mean 744
placed 743
asteroids 742
command 742
ars 741
om@@ 741
hel@@ 740
eric 739
fourth 739
binignit 738
less 738
listed 738
tre@@ 738
appleton 737
republic 737
angeles 736
acura 735
barajas 735
1986 734
awarded 734
ft 734
light 734
tor@@ 734
affiliated 733
continued 733
headquarters 733
relegated 730
sil@@ 730
areas 729
satellite 729
bavarian 728
pe 728
mayor 727
run 727
working 727
rm 726
under@@ 726
bs 725
copenhagen 725
ff 725
result 725
argentina 724
gave 724
je@@ 724
q@@ 724
sa@@ 724
addis 723
az 723
craig 723
37@@ 722
captain 722
together 720
mathematics 719
$ 718
ell 718
ise 718
mad@@ 718
peter 718
ade 717
hal@@ 717
ze@@ 717
fought 716
lost 716
bureau 714
hill 714
japan 714
cri@@ 713
san@@ 713
chairman 712
previously 712
stories 712
adolfo 711
star@@ 711
3rd 710
garth 710
points 710
door 709
goal 709
flo@@ 708
din@@ 707
incorporated 707
os@@ 707
á@@ 707
milan 706
roma 706
cap@@ 705
naval 705
originated 705
05 704
could 704
hampshire 703
ori@@ 703
property 703
rome 703
̇ 703
justice 701
mus@@ 701
ridge 701
seven 700
taking 700
ast@@ 699
remained 699
disco 698
ham 697
airbase 696
goals 695
represented 695
castle 694
featured 694
va 694
writer 693
court 691
ela 691
schools 691
1969 690
ababa 690
paul 690
inc 689
ator 688
maryland 688
middle 688
officer 688
register 688
tier 688
alberto 687
master 686
mid 686
status 686
acta 684
28@@ 683
39 683
ano 682
lunar 682
orange 682
1962 681
1974 681
ance 680
what 679
mid@@ 676
austria 674
fu@@ 674
ss@@ 674
hon@@ 673
hospital 673
pacific 673
164 672
dor@@ 672
richard 672
performed 671
you 671
act 670
don@@ 670
up@@ 670
zed 670
08 666
184@@ 666
canadian 666
free 666
practice 666
win@@ 665
management 664
bak@@ 663
ev@@ 663
manufactured 663
millimetres 663
aj@@ 662
living 662
transport 662
agnes 661
jennings 661
amc 660
bread 660
new@@ 660
currency 659
ant@@ 658
means 658
ned 658
becoming 657
delaware 657
much 657
mur@@ 657
range 657
derivative 656
ec@@ 656
ory 656
stone 656
drafted 655
escape 655
lies 655
sel@@ 655
aluna 654
blue 654
brother 654
today 654
wh@@ 654
afc 653
by@@ 653
ly@@ 653
cabinet 652
alaska 651
cheese 651
henry 651
ur 651
cla@@ 650
she@@ 650
frank 649
od@@ 649
all@@ 648
mel@@ 648
ster 648
eng@@ 647
fac@@ 647
prior 647
alpena 646
grounds 646
mother 645
platform 645
44 642
que 642
miller 641
sar@@ 641
’ 641
bridge 640
builder 640
camp 640
costa 640
holloway 640
s-@@ 640
0s 639
fr@@ 639
reached 639
sou@@ 639
36@@ 638
app@@ 638
rebellion 638
southwest 638
1950 637
1987 637
entry 637
tin@@ 637
demonym 636
era 636
il 636
locomotive 636
parts 636
sometimes 636
spacecraft 636
1995 635
abarth 635
atatürk 635
gt 635
regions 635
lam@@ 634
market 634
plan 634
1966 633
covers 633
honda 633
suárez 633
wor@@ 633
electric 632
arts 631
involved 631
ajoblanco 630
pro 630
ü@@ 630
creek 629
liga 629
vis@@ 629
ze 629
ba 628
dre@@ 628
foundation 628
operation 628
ring 628
away 627
cars 627
scored 627
consists 626
kovač 625
teisaire 625
ty@@ 624
ai 622
tal@@ 622
folk 621
sarawak 621
return 620
ying 620
completion 619
kway 619
short 619
beginning 618
dent 617
tru@@ 617
serve 616
asad 614
ington 614
300 613
bat@@ 613
elizabeth 613
eu@@ 613
prudnikov 613
russian 613
summit 613
cake 612
hand@@ 612
mag@@ 612
poland 612
2,@@ 611
ó@@ 611
role 610
sand@@ 610
sin@@ 610
ell@@ 609
songs 609
vice 608
ir 607
regiment 607
senior 607
tro@@ 607
ys 607
deal 606
instrument 606
volunteer 606
1990 605
daniel 605
section 605
entered 604
ili@@ 604
ill 604
junior 604
tly 604
get 603
gn@@ 603
í@@ 603
dri@@ 602
gro@@ 602
lis@@ 602
ran 602
bus 601
dublin 601
ning 601
structure 601
1932 600
few 600
pork 600
alfredo 599
ore 599
1957 598
bangalore 598
blackpool 598
tar@@ 598
ayers 596
dance 596
karnataka 596
magnitude 596
sha@@ 596
williams 596
average 595
hot 595
kong 595
medal 595
moore 595
evil 594
dishes 593
fictional 593
housing 593
nation 593
republican 593
tics 593
uruguay 593
1918 592
bro@@ 592
ici@@ 592
klink 592
sla@@ 592
worth 592
ale 591
leaders 591
marine 591
preceded 591
provided 591
tered 591
ini 590
squadron 590
deer 589
des@@ 589
floors 589
mi 589
powered 589
sav@@ 589
technical 589
1983 588
ki 588
rotterdam 588
speci@@ 588
though 588
apo@@ 587
ston 587
ann 586
category 586
iqbal 586
stony 586
é 586
1988 585
bar 585
branch 585
landing 585
coupé 584
dra@@ 584
garlic 584
gener@@ 584
ertegun 583
person 583
valley 583
throughout 582
anti@@ 581
ces 581
teen 581
allama 580
cle@@ 580
eredivisie 580
modern 580
ale@@ 579
ck@@ 579
hong 579
za 579
gorbach 578
lands 578
sol@@ 578
plant 577
provisional 577
forces 576
highway 576
if 576
initially 576
icebreaker 575
those 575
alfons 574
cro@@ 574
sabin 574
technological 574
ure 574
cruises 573
previous 573
santa 573
scheduled 572
1982 571
33@@ 571
belgium 571
forrest 571
ney 571
starting 571
ants 570
organization 570
successful 570
flying 569
health 569
open 569
cer@@ 568
eventually 568
ised 568
northeast 568
wing 568
even 567
mars 567
188@@ 566
fran@@ 566
ens 565
estimated 565
operator 565
ward 565
shi@@ 564
abner 563
agra 563
via 563
bundesliga 562
loc@@ 562
names 562
barack 561
instead 561
obama 561
studio 561
corps 560
release 560
teow 560
tw@@ 560
issue 559
met 559
sto@@ 559
1997 558
bella 558
del@@ 558
matador 558
two-@@ 558
artists 557
ate@@ 557
dan@@ 557
dic@@ 557
guitar 557
romagnoli 557
55 556
tic@@ 556
derived 555
joseph 555
marvel 555
matches 555
michael 555
assigned 554
count 554
lived 554
poaceae 554
1930 553
83 553
half 553
spaceport 553
administration 552
asilomar 552
europe 552
fron@@ 552
print 552
tt@@ 552
ada 551
alessio 551
daughter 551
lines 551
tan@@ 551
1981 550
aleksandra 550
dark 550
formerly 550
grand 550
impact 550
zitarrosa 550
38 549
46 549
amarillo 549
andra 549
ines 549
spo@@ 548
florida 547
ire 547
mid-@@ 547
off@@ 546
others 546
sugar 546
unit 546
versus 546
all- 545
alvah 545
brown 545
important 545
information 545
let 545
respect 545
stu@@ 545
1959 544
90 544
asam 544
low@@ 544
obtained 544
sive 544
00 543
amp@@ 543
ast 543
ative 543
models 543
originates 543
14th 541
1971 541
bakso 541
88 540
hero 540
stars 540
firm 539
ged 539
room 539
saw 539
ay 538
caballero 538
co-@@ 538
offered 538
committee 537
engineer 537
gs 537
real 537
tional 537
37 535
appearance 535
finland 535
land@@ 535
limited 535
ot 535
private 535
zmir 535
ath 534
ics 534
parent 534
antwerp 533
ón 533
bon@@ 532
sm@@ 532
andrews 531
ino 531
sco@@ 531
submarine 531
101 530
45 530
drive 530
jupiter 530
larger 530
tennessee 530
th-@@ 530
chievo 529
log@@ 529
basketball 528
batchoy 528
coun@@ 528
engines 528
lincoln 528
len 527
massachusetts 527
ness 527
northwest 527
observations 527
verona 527
joe 526
minutes 526
visvesvaraya 526
1972 525
affiliation 525
aids 525
cy@@ 525
dar@@ 525
rosa 525
adi@@ 524
cape 524
facility 524
1985 523
charlie 523
harbor 523
ö@@ 523
500 522
derbyshire 522
e-@@ 522
track 522
1980 521
alcatraz 521
caterpillar 521
&apos;@@ 520
ari 520
manchester 520
baade 519
med 519
pedas 519
rec@@ 519
border 518
cho@@ 518
acy 517
al- 517
main-belt 517
seconds 517
tors 517
velocity 517
ye@@ 517
cul@@ 516
soup 516
eaten 515
ery 515
isbn 515
overall 515
tournament 515
uni@@ 515
44@@ 514
across 514
carried 514
els 514
nasi 514
tlx 514
yo@@ 514
ase 513
observation 513
houses 512
inner 512
success 512
versions 512
cat@@ 511
rou@@ 511
student 511
1927 510
1977 510
35@@ 510
airports 510
albennie 510
alderney 510
ha 510
luna 510
module 510
80 509
passengers 509
boy 508
close 508
raised 508
sion 508
sport 507
1910 506
agent 506
awh 506
gold 505
hun@@ 505
nam@@ 505
sw@@ 505
admitted 504
1992 503
ability 503
pin@@ 503
studies 503
transmission 503
wheel 503
1965 502
boston 502
earned 502
editor 502
astella 501
ata 501
fair@@ 501
107 500
scott 500
1928 499
1979 499
bananaman 499
cli@@ 499
deputy 499
africa 498
gri@@ 498
night 498
acres 497
colmore 497
irish 497
negre 497
oc@@ 497
professor 497
spring 497
stre@@ 497
tt 497
majority 496
und 496
ane 495
super 495
brought 494
francisco 494
ga@@ 494
kant 494
ators 493
cra@@ 493
fl@@ 493
mercury 493
neighborhood 493
rus@@ 493
terminal 493
banana 492
further 492
georgiadis 492
issn 492
little 492
special 492
75 491
77@@ 491
dedicated 491
levy 491
loyal 490
q 490
57@@ 489
iii 489
industry 489
ani@@ 488
ats 488
coordinates 488
radio 488
soto 488
41 487
cooking 487
eight 487
librarians 487
passed 487
zi@@ 487
1923 486
1991 486
adonis 486
grew 486
px 486
ria 486
statistical 486
administrative 485
dancer 485
described 485
performance 485
smith 485
aste@@ 484
fe 484
ky 484
my@@ 484
sh 484
hunt 483
plan@@ 483
spec@@ 483
sta 483
bachelor 482
fifth 482
moving 482
organized 482
origins 482
socialist 482
zz@@ 482
gh 481
hen@@ 481
len@@ 481
closed 480
em 480
lon@@ 480
main@@ 480
1956 479
ber 479
dy@@ 479
ered 479
going 478
m-@@ 478
pp@@ 478
werft 478
1960s 477
present 477
attack 476
fall 476
himself 476
players 476
we 476
ces@@ 475
corporation 475
cream 475
library 475
purchased 475
study 475
tin 475
1976 474
consisting 474
honor 474
metro 474
vil@@ 474
1970s 473
manor 473
mari@@ 473
material 473
adare 472
dro@@ 472
mb 472
pic@@ 472
brothers 471
fiction 471
funk 471
missions 471
mixture 471
municipal 471
participated 471
running 471
sing 471
come 470
coming 470
lancashire 470
oni@@ 470
significant 470
1933 469
1978 469
alaa 469
asser 469
fa@@ 469
merged 469
provide 469
scoring 469
sun@@ 469
turn 469
bhajji 468
candidate 468
martyrs 468
regular 468
upon 468
upper 468
amatriciana 467
clo@@ 467
edward 467
indianapolis 467
ism 467
parker 467
soon 467
wa 467
wrote 467
architectural 466
ashgabat 466
cakes 466
lead 466
pena 466
planned 466
del 465
ecliptic 465
eli@@ 465
cost 464
fle@@ 464
transferred 464
without 464
zahra 464
classified 463
commission 463
discovery 463
here 463
soccer 463
turtles 463
ut 463
events 462
spe@@ 462
survey 462
1958 461
100@@ 460
abubakar 460
acquired 460
antioch 460
coast 460
famous 460
ie 460
operates 460
brussels 459
ele@@ 459
greater 459
human 459
labour 459
ama 458
arlington 458
ches 458
hi 458
outer 458
contr@@ 457
forms 457
magazine 457
maiden 457
mp 457
pol@@ 457
primary 457
run@@ 457
1960 456
1973 456
20px 456
conservative 456
reg@@ 456
tical 456
wizard 456
1964 455
argentine 455
covered 455
scales 455
ses 455
52 454
douglas 454
executive 454
fleet 454
lieutenant 454
série 454
000000 453
action 453
flew 452
guiana 452
leg@@ 452
pos@@ 452
rams 452
tom 452
mir@@ 451
morgan 451
said 451
sions 451
2nd 450
bac@@ 450
dol@@ 450
fav@@ 450
ty-@@ 450
commissioned 449
indie 449
portion 449
kerala 448
manhattan 448
settlement 448
56@@ 447
89@@ 447
founder 447
generation 447
subsequently 447
change 446
edition 446
lega 446
tis 446
variety 446
3,@@ 445
ball 445
eggs 445
mixed 445
nar@@ 445
television 445
vi 445
fa 444
lation 444
vin@@ 444
johann 443
never 443
nie 443
prepared 443
van@@ 443
ess 442
future 442
green@@ 442
ined 442
ministry 442
sam@@ 442
var@@ 442
600 441
ace@@ 441
build 441
ethiopia 441
greenville 441
residents 441
word 441
buenos 440
gil@@ 440
ski 440
beach 439
ever 439
flour 439
fri@@ 439
las 439
lou@@ 439
tv 439
aires 438
ek 438
pages 438
vehicles 438
water@@ 438
grey 437
usa 437
berg 436
fly 436
legislature 436
motors 436
ong 436
oo@@ 436
concept 435
high@@ 435
lower 435
taylor 435
185@@ 434
1961 434
1970 434
appearances 434
frederick 434
lightcurve 434
lin 434
mr 434
ro 434
standard 434
tation 434
batagor 433
comp@@ 433
create 433
finishing 433
ful 433
opening 433
performing 433
ranked 433
recording 433
seats 433
1968 432
reports 432
terms 432
territory 432
1967 431
attica 431
ear@@ 431
farm@@ 431
id@@ 431
ls 431
mike 431
awards 430
ents 430
jack 430
mac 430
afonso 429
cs1-@@ 429
either 429
phillips 429
wit@@ 429
abbreviation 428
core 428
fulton 428
ges 428
naming 428
sent 428
4th 427
att@@ 427
bbc 427
pla@@ 427
ı@@ 427
0-@@ 426
ardmore 426
fortress 426
performs 426
stri@@ 426
tallest 426
thing 426
cru@@ 425
gettysburg 425
pad 425
remaining 425
rest 425
retirement 425
ton@@ 425
carlos 424
spices 424
cher 423
ering 423
stan@@ 423
ts@@ 423
arch@@ 422
asi@@ 422
fied 422
freedom 422
recipe 422
appearing 421
belongs 421
capacity 421
steel 421
train 421
elements 420
montevideo 420
ther 420
wasp 420
y-@@ 420
cesena 419
cit@@ 419
af 418
aida 418
bury 418
columbus 418
romance 418
routemap 418
42 417
85 417
ado 417
colonel 417
daggett 417
meters 417
ol 417
sq 417
nearby 416
sor@@ 416
baths 415
tomato 415
distinguished 414
families 414
helena 414
peninsula 414
facilities 413
independent 413
ov 413
severed 413
brazil 412
cut 412
joining 412
lia 412
mac@@ 412
put 412
xi@@ 412
ain 411
arapiraquense 411
burg 411
seen 411
video 411
cy 410
higher 410
leaf 410
1980s 409
burns 409
mer 409
method 409
roc@@ 409
trance 409
70 408
bass 408
camilla 408
decided 408
ved 408
wo@@ 408
pradesh 407
rail 407
aleksey 406
campaign 406
cruise 406
medical 406
trac@@ 406
45@@ 405
ain@@ 405
arròs 405
lo 405
tour 405
alexander 404
ampara 404
defeated 404
paris 404
ska 404
view 404
vincent 404
1984 403
conflict 403
judge 403
rank 403
arm@@ 402
financial 402
kin@@ 402
ven 402
campeonato 401
chirikov 401
despite 401
ill@@ 401
love 401
rose 401
titles 401
ws 401
1975 400
australia 400
bad@@ 400
beam 400
combined 400
contributing 400
kes 400
pas@@ 400
ris@@ 400
alhambra 399
arbor 399
block 399
four-@@ 399
plans 399
titans 399
187@@ 398
albedo 398
bul@@ 398
jan@@ 398
king@@ 398
alv 397
detroit 397
ght 397
glastonbury 397
gor@@ 397
pon@@ 397
race 397
stra@@ 397
uefa 397
airey 396
composed 396
vol@@ 396
additional 395
dan 395
dead 395
gate 395
help 395
jo 395
mond 395
neave 395
reserve 395
runs 395
universe 395
coo@@ 394
gan 394
highest 394
issues 394
ca@@ 393
featuring 393
fun@@ 393
ja 393
luxury 393
marriott 393
non-@@ 393
thus 393
0000 392
cing 392
cover 392
ko 392
link 392
quarterly 392
49@@ 391
dbs 391
elec@@ 391
founding 391
head@@ 391
kor@@ 391
rap@@ 391
sau@@ 391
shrimp 391
strip 391
65 390
a-@@ 390
julia 390
competed 389
eg@@ 389
ena 389
high-@@ 389
loan 389
numerous 389
om 389
sister 389
syn@@ 389
tama 389
110 388
43 388
agency 388
friend 388
potato 388
suburban 388
amateur 387
dale 387
dru@@ 387
salt 387
wheeler 387
84 386
ages 386
alpharetta 386
euro 386
mes 386
stuart 386
auto@@ 385
bot@@ 385
feature 385
adisham 384
bought 384
kh@@ 384
salle 384
spartak 384
ani 383
ards 383
associazione 383
bil@@ 383
borough 383
districts 383
felipe 383
hit 383
ies 383
kharaitiyat 383
tra@@ 383
custom 382
festival 382
frew 382
good 382
logy 382
mie 382
rad@@ 382
sausage 382
thir@@ 382
backup 381
chili 381
end@@ 381
resi@@ 381
settled 381
30@@ 380
davis 380
eerste 380
far@@ 380
glen 380
hygiea 380
ong@@ 380
pietro 380
spir@@ 380
squ@@ 380
wilson 380
97@@ 379
dean 379
example 379
ok 379
ti 379
wy@@ 379
201 378
aci@@ 378
cornell 378
extended 378
hp 378
ine@@ 378
midfielder 378
punk 378
rio 378
son@@ 378
89 377
ched 377
dales 377
jer@@ 377
malaysian 377
north@@ 377
our 377
allan 376
ced 376
democracy 376
hood 376
lec@@ 376
sting 376
temperature 376
access 375
assistant 375
emb@@ 375
fication 375
iron 375
operate 375
&apos;t 374
agremiação 374
bis@@ 374
compete 374
elections 374
grant 374
itself 374
kal@@ 374
kon@@ 374
move 374
nine 374
sho@@ 374
sn@@ 374
1089 373
changes 373
chosen 373
ep 373
measures 373
try 373
attorney 372
claudiomaccone 372
companies 372
non 372
rear 372
settlers 372
superman 372
48 371
down@@ 371
forced 371
my 371
nat@@ 371
perón 371
police 371
separate 371
wilder 371
abdulsalami 370
blo@@ 370
but@@ 370
notable 370
officially 370
sk 370
che 369
collection 369
decembrie 369
failed 369
noodle 369
pepper 369
soldiers 369
winners 369
-- 368
back@@ 368
bert 368
brightness 368
divisie 368
ically 368
kilograms 368
movement 368
pa 368
qui@@ 368
rights 368
20th 367
aged 367
appears 367
helped 367
ide 367
mit@@ 367
outside 367
residence 367
tan 367
88@@ 366
ero 366
gufa 366
quaid 366
queen 366
tun@@ 366
± 366
countries 365
dun@@ 365
gubbio 365
livorno 365
ph 365
spider- 365
uttar 365
verse 365
zu@@ 365
ala 364
amdavad 364
fiat 364
noodles 364
ocean 364
powys 364
bol@@ 363
mic@@ 363
sir 363
ake 362
gin@@ 362
got 362
orbiting 362
parents 362
parties 362
shows 362
singing 362
traffic 362
55@@ 361
architects 361
beans 361
bremen 361
disney 361
fla@@ 361
aip 360
albums 360
bill 360
franklin 360
sab@@ 360
south@@ 360
uss 360
ø@@ 360
assembled 359
dawson 359
goreng 359
malay 359
stages 359
11264 358
1954 358
chart 358
formation 358
kansas 358
lawyer 358
primarily 358
schiphol 358
types 358
addiction 357
austrian 357
china 357
cross 357
lockheed 357
motor 357
restaurants 357
trade 357
vir@@ 357
est 356
jet 356
mini@@ 356
month 356
occupied 356
post@@ 356
ry@@ 356
aleksandre 355
boeing 355
color 355
hardcover 355
leaves 355
oklahoma 355
plaza 355
sibal 355
sides 355
-2 354
appro@@ 354
friends 354
gemini 354
guruli 354
influenced 354
pris@@ 354
swedish 354
airfield 353
duc@@ 353
shar@@ 353
werder 353
fylde 352
golden 352
latter 352
19th 351
child 351
combination 351
heart 351
lat@@ 351
mental 351
publication 351
skyscraper 351
1949 350
1990s 350
alvis 350
brigade 350
estate 350
forward 350
mann 350
09@@ 349
1929 349
aches 349
bb@@ 349
ef 349
increased 349
leaving 349
ray 349
ving 349
representative 348
wall 348
woman 348
1953 347
ame@@ 347
ica 347
journals 347
py@@ 347
second-@@ 347
supporting 347
ł@@ 347
200@@ 346
alls 346
charter 346
creation 346
especially 346
glass 346
graduate 346
hera 346
interior 346
meyer 346
priestley 346
sted 346
a1 345
cir@@ 345
find 345
hin@@ 345
interest 345
javanese 345
math 345
merger 345
sb 345
shared 345
store 345
turkmenistan 345
ura 345
boiled 344
discipline 344
inten@@ 344
wide 344
writing 344
alexandria 343
buffalo 343
cab@@ 343
carbonaceous 343
crewed 343
grove 343
grozny 343
ig@@ 343
lated 343
mix@@ 343
potter 343
67@@ 342
acts 342
all-@@ 342
assault 342
begins 342
convention 342
cour@@ 342
dated 342
designer 342
japanese 342
paraguay 342
wave 342
anthem 341
fis@@ 341
laid 341
shape 341
smo@@ 341
gen 340
jackson 340
join 340
predecessor 340
producer 340
rather 340
twilight 340
vel@@ 340
1099 339
ag 339
analysis 339
arab@@ 339
bottom 339
ending 339
enti@@ 339
eth@@ 339
fellow 339
hamilton 339
sel 339
sons 339
stan 339
1931 338
barboza 338
comm@@ 338
gulf 338
max 338
process 338
pur 338
required 338
s- 338
sing@@ 338
st-@@ 338
west@@ 338
ä@@ 338
1862 337
86 337
cylinder 337
lot 337
onist 337
suburb 337
torpedo 337
wa@@ 337
advances 336
chrysler 336
divided 336
maine 336
rich 336
109 335
1905 335
agu@@ 335
coalition 335
finals 335
gas 335
ken 335
ll 335
observed 335
sc@@ 335
takes 335
ung 335
consisted 334
die 334
ging 334
give 334
kil@@ 334
koc 334
launches 334
ny@@ 334
oclc 334
99 333
almost 333
baymax 333
blt 333
butter 333
guard 333
interstate 333
lic@@ 333
shuttle 333
stop 333
titled 333
a- 332
auto 332
behind 332
case 332
defined 332
earlier 332
mostly 332
nic@@ 332
ninja 332
cargo 331
cross@@ 331
grantville 331
lydia 331
offices 331
pain@@ 331
peri@@ 331
politics 331
split 331
whom 331
cold 330
does 330
far 330
ish 330
onal 330
ple@@ 330
satellites 330
surrounding 330
transfer 330
variant 330
wan 330
alu@@ 329
arthur 329
ational 329
fit@@ 329
graduating 329
hub 329
jens 329
latin 329
pil@@ 329
ron@@ 329
sd@@ 329
ankara 328
ely 328
fantasy 328
inger 328
medi@@ 328
sey 328
standing 328
aired 327
automobile 327
foot 327
ket 327
reach 327
siomay 327
ways 327
adventures 326
educated 326
grade 326
ini@@ 326
lemon 326
met@@ 326
pad@@ 326
rest@@ 326
sville 326
swit@@ 326
tam@@ 326
tim 326
zo 326
astronauts 325
factor 325
falls 325
gained 325
grap@@ 325
households 325
jwaydan 325
minis@@ 325
ology 325
reference 325
94 324
ach 324
annual 324
exten@@ 324
madin 324
noted 324
secret 324
shor@@ 324
sky@@ 324
urs 324
vac@@ 324
ato 323
ben 323
fifa 323
flown 323
magdeburg 323
nigerian 323
posi@@ 323
russia 323
smaller 323
tery 323
walk 323
winner 323
1945 322
arti@@ 322
carrier 322
caused 322
cham@@ 322
contest 322
hernández 322
ingen 322
particip@@ 322
ç@@ 322
bertone 321
cand@@ 321
garden 321
languages 321
padding 321
antonio 320
initial 320
1907 319
chi 319
full-@@ 319
guitarist 319
independence 319
li 319
oned 319
1947 318
acted 318
adirondack 318
applied 318
cep@@ 318
complete 318
expanded 318
fd 318
girl 318
invasion 318
palermo 318
price 318
text-align 318
three-@@ 318
ut@@ 318
wol@@ 318
ction 317
kin 317
mo 317
ously 317
tenant 317
82 316
avi@@ 316
entertainment 316
ita 316
od 316
tart 316
2-@@ 315
gue 315
losing 315
older 315
one-@@ 315
ption 315
rise 315
senator 315
thre@@ 315
wel@@ 315
bhangra 314
er-@@ 314
growing 314
josé 314
lars 314
roll 314
spon@@ 314
venue 314
yer 314
1936 313
boogaard 313
erasmus 313
hand 313
ick 313
lahore 313
lane 313
lumezzane 313
roy 313
shipyard 313
state@@ 313
ú@@ 313
1948 312
1952 312
4-@@ 312
corner 312
economic 312
fif@@ 312
growth 312
hat@@ 312
mar 312
samaras 312
sweden 312
ads 311
ales 311
arc 311
bay@@ 311
connected 311
filled 311
heavy 311
legends 311
loss 311
object 311
tran@@ 311
ys@@ 311
asia 310
express 310
gun@@ 310
mexican 310
ona 310
ality 309
culture 309
jec@@ 309
junction 309
polonica 309
principal 309
red@@ 309
rooms 309
saranac 309
ssed 309
tintin 309
tte 309
tures 309
wagon 309
wayne 309
ack@@ 308
ap 308
bun@@ 308
chevrolet 308
coupe 308
equipped 308
f-@@ 308
las@@ 308
occasi@@ 308
port@@ 308
ron 308
hard@@ 307
ile 307
palaeontologica 307
pra@@ 307
roman 307
sed 307
ə@@ 307
66@@ 306
an- 306
event 306
figneria 306
form@@ 306
identifier 306
illa 306
kent 306
lccn 306
makes 306
pap@@ 306
reli@@ 306
subsidiary 306
&gt; 305
barny 305
bou@@ 305
falcon 305
mont 305
novels 305
singles 305
some@@ 305
volume 305
wer 305
wolf 305
x-@@ 305
zing 305
57 304
87@@ 304
chancellor 304
empire 304
network 304
plymouth 304
variations 304
410777 303
ack 303
class@@ 303
karl 303
qualified 303
steve 303
15788 302
bertram 302
black@@ 302
brasileiro 302
grand@@ 302
in-@@ 302
lun@@ 302
pping 302
pres@@ 302
sixth 302
veil 302
1941 301
abradab 301
almond 301
establishment 301
kers 301
ola 301
rac@@ 301
intended 300
intersection 300
lord 300
occurred 300
olive 300
pers 300
supported 300
texans 300
54 299
fuel 299
isi@@ 299
jonathan 299
juventus 299
lau@@ 299
least 299
stock 299
tap@@ 299
ˈ@@ 299
conducted 298
dos 298
dou@@ 298
flow@@ 298
grated 298
kat@@ 298
min 298
rockets 298
trav@@ 298
von 298
ae@@ 297
atio 297
ep@@ 297
felicitas 297
ganymed 297
helsinki 297
ished 297
leagues 297
straight 297
ş@@ 297
56 296
collapse 296
covering 296
deep 296
historical 296
nov@@ 296
plane 296
sound 296
stands 296
vote 296
a9@@ 295
affairs 295
bo 295
cd 295
display 295
manuel 295
nes 295
pur@@ 295
subsequent 295
vf 295
week 295
1914 294
1939 294
1950s 294
47 294
booster 294
jun@@ 294
loo@@ 294
mainly 294
neighboring 294
punjab 294
si 294
sum@@ 294
alist 293
approach 293
categorized 293
chumakov 293
doc@@ 293
drawn 293
dried 293
jam@@ 293
lion 293
oldest 293
rele@@ 293
shel@@ 293
tti 293
“ 293
actor 292
antonis 292
article 292
diesel 292
edge 292
haw@@ 292
husband 292
past 292
peanut 292
vor@@ 292
1946 291
hil@@ 291
populous 291
prefecture 291
replace 291
ture 291
06@@ 290
2020 290
86@@ 290
92 290
arizona 290
ays 290
hed 290
ils 290
integrated 290
paste 290
spouse 290
synthpop 290
tall 290
thy 290
87 289
achieved 289
ching 289
heidelberg 289
jefferson 289
provides 289
regu@@ 289
sell 289
simply 289
tele@@ 289
tirstrup 289
titan 289
bud@@ 288
destroyed 288
gam@@ 288
responsible 288
taste 288
189@@ 287
700 287
alkmaar 287
colombian 287
extending 287
olympic 287
poly@@ 287
relegation 287
tion@@ 287
travel@@ 287
1940 286
aek 286
fk 286
leads 286
races 286
sales 286
spicy 286
turned 286
typical 286
victory 286
cad@@ 285
cast@@ 285
chester 285
dimitra 285
hit@@ 285
islands 285
ith 285
newspaper 285
squad 285
vessel 285
1920 284
53 284
collec@@ 284
continu@@ 284
fully 284
indic@@ 284
khor 284
oli@@ 284
photometric 284
ranking 284
seattle 284
sr 284
tain 284
vandenberg 284
combat 283
dal@@ 283
dam@@ 283
dar 283
debuted 283
mount 283
replacing 283
roman@@ 283
urban 283
wat@@ 283
97 282
bru@@ 282
def@@ 282
defender 282
dur@@ 282
entire 282
kan 282
mot@@ 282
mun@@ 282
sambal 282
twice 282
1913 281
ahmad 281
allowed 281
assi@@ 281
bands 281
bir@@ 281
defence 281
efxeinoupolis 281
fighting 281
forest 281
geo@@ 281
gujarat 281
wood@@ 281
zer 281
advanced 280
aenir 280
andalusia 280
battlefield 280
bow@@ 280
catalonia 280
concer@@ 280
contested 280
emplo@@ 280
ere 280
law@@ 280
signing 280
tage 280
women 280
catholic 279
ef@@ 279
fab@@ 279
lewis 279
nickname 279
pped 279
residential 279
sec@@ 279
tarrant 279
-based 278
46@@ 278
aqu@@ 278
hergé 278
jan 278
sedan 278
six@@ 278
sty@@ 278
1036 277
commanded 277
direc@@ 277
identified 277
lives 277
reflec@@ 277
reported 277
soy 277
stand 277
! 276
azal 276
com 276
connection 276
fore@@ 276
giving 276
mathematical 276
offers 276
piece 276
projects 276
prominent 276
reaching 276
recipes 276
refers 276
ros@@ 276
tem@@ 276
tony 276
tracks 276
andy 275
lic 275
non@@ 275
onion 275
shivers 275
tioned 275
tra 275
vin 275
3000 274
4,@@ 274
armin 274
arrived 274
buuren 274
clematis 274
constituency 274
finally 274
finish 274
font-size 274
härtel 274
ids 274
inspired 274
iraqi 274
kg 274
lie 274
ordered 274
quality 274
starring 274
trains 274
1912 273
ago@@ 273
c-@@ 273
defense 273
isidro 273
kam@@ 273
ku 273
mix 273
ontario 273
produc@@ 273
respectively 273
sac@@ 273
sburg 273
seri@@ 273
tian 273
una 273
5th 272
approved 272
better 272
chopped 272
dj 272
emd 272
istanbul 272
longer 272
nearly 272
newly 272
probably 272
schneider 272
stephen 272
strong 272
temple 272
tiv@@ 272
top@@ 272
1919 271
1935 271
ade@@ 271
attached 271
brand 271
fields 271
ri 271
sig@@ 271
arian 270
ax@@ 270
domin@@ 270
ily 270
industrial 270
properties 270
streets 270
1101 269
1938 269
alba 269
already 269
beat 269
claimed 269
democrat 269
gang 269
generally 269
gg@@ 269
gran@@ 269
mon 269
ones 269
too 269
wheelbase 269
ye 269
anim@@ 268
beau@@ 268
cambridge 268
chan@@ 268
daily 268
fruit 268
mul@@ 268
weight 268
” 268
adjacent 267
ich 267
inside 267
recognized 267
serv@@ 267
seven@@ 267
sul@@ 267
theatre 267
án 267
cemetery 266
governing 266
inaugurated 266
nominated 266
ories 266
planning 266
proposed 266
trinidad 266
vit@@ 266
bell 265
classification 265
jorge 265
moder@@ 265
montreal 265
mountain 265
safety 265
sett@@ 265
voice 265
ail@@ 264
arianespace 264
awa 264
background-image 264
rot@@ 264
t- 264
activities 263
c-type 263
comb@@ 263
eni@@ 263
metapán 263
mov 263
peer-reviewed 263
roll@@ 263
shire 263
url 263
uruguayan 263
€ 263
3-@@ 262
ately 262
brazilian 262
expl@@ 262
mall 262
payload 262
philippine 262
plate 262
policy 262
stations 262
terek 262
07@@ 261
alized 261
bin@@ 261
cher@@ 261
communities 261
mill 261
multi@@ 261
pack@@ 261
recently 261
remain 261
review 261
stein 261
bio@@ 260
diagonal 260
finnish 260
jim 260
michele 260
parliamentary 260
pav@@ 260
ro1 260
saf@@ 260
travel 260
130 259
1908 259
5-@@ 259
agustín 259
boys 259
cc@@ 259
commerce 259
dor 259
exclu@@ 259
marce 259
may@@ 259
meeting 259
plat@@ 259
ryan 259
scientific 259
clustering 258
confederate 258
da@@ 258
eigh@@ 258
existing 258
hills 258
home@@ 258
kw4 258
lor 258
na@@ 258
ota 258
pul@@ 258
results 258
routes 258
sche 258
championships 257
constitu@@ 257
hus@@ 257
ink 257
palomar 257
patrick 257
tak@@ 257
val 257
vić 257
whit@@ 257
zation 257
51 256
66063 256
66391 256
birthplace 256
e- 256
je 256
mach@@ 256
nas@@ 256
pass 256
returning 256
salvador 256
voted 256
acting 255
arrabbiata 255
hard 255
immediately 255
med@@ 255
need 255
planets 255
remains 255
ries 255
voc@@ 255
1921 254
acm 254
ancient 254
articles 254
challeng@@ 254
earl 254
ene 254
inte@@ 254
mented 254
mentioned 254
mol@@ 254
monocacy 254
purpose 254
respon@@ 254
sis 254
source 254
struc@@ 254
theory 254
aviator 253
borman 253
chris@@ 253
contra 253
doctor 253
ey 253
fight 253
gar 253
gation 253
ira 253
makeup 253
ner@@ 253
philadelphia 253
posed 253
shot 253
tta 253
66 252
boo@@ 252
bran@@ 252
drum 252
minotaur 252
nature 252
net 252
nfl 252
providing 252
sher@@ 252
stand@@ 252
typically 252
visi@@ 252
1904 251
1924 251
1951 251
alongside 251
applying 251
call 251
corn 251
exchange 251
falcons 251
foreign 251
hl 251
iled 251
impro@@ 251
roads 251
victoria 251
well-@@ 251
acqu@@ 250
ard@@ 250
cia 250
división 250
fol@@ 250
multi-@@ 250
norm@@ 250
passing 250
publishing 250
supreme 250
swi@@ 250
1911 249
ald 249
aya 249
fli@@ 249
launch@@ 249
mason 249
pit@@ 249
puerto 249
saint 249
sl@@ 249
sour 249
superhero 249
towns 249
tr 249
ammann 248
archi@@ 248
columbia 248
cu 248
ora 248
passes 248
radar 248
sas@@ 248
shortly 248
snack 248
stadio 248
zone 248
58 247
break@@ 247
cks 247
compared 247
data 247
focus 247
jes@@ 247
product 247
quest 247
rand@@ 247
recordings 247
roof 247
sci@@ 247
traditionally 247
virage 247
alliance 246
casey 246
expected 246
gui@@ 246
inf@@ 246
kö@@ 246
missile 246
natural 246
onally 246
pir@@ 246
powers 246
pressed 246
spaceflight 246
vel 246
vers 246
vicia 246
workers 246
-1 245
150 245
abbreviated 245
asphalt 245
asunción 245
bes 245
carroll 245
clar@@ 245
ct 245
doctoral 245
francis 245
kie 245
postgraduate 245
sampdoria 245
sumatra 245
teri@@ 245
1942 244
ences 244
fact 244
fox 244
ghts 244
pa@@ 244
resulted 244
termin@@ 244
ths 244
winter 244
yards 244
186@@ 243
brian 243
converted 243
develop 243
knvb 243
lla 243
meaning 243
mythology 243
perth 243
resulting 243
shir@@ 243
soci@@ 243
tel 243
tened 243
towards 243
yet 243
congre@@ 242
congressional 242
dge 242
frit@@ 242
joint 242
kennedy 242
leipzig 242
possible 242
resort 242
semi-@@ 242
sup@@ 242
woo@@ 242
1097 241
1861 241
amount 241
belgian 241
broad@@ 241
cel@@ 241
johns 241
kir@@ 241
marcolini 241
nett 241
pieces 241
show@@ 241
sliced 241
wes@@ 241
alli@@ 240
captured 240
continues 240
dist@@ 240
lev@@ 240
lira 240
selection 240
sto 240
surve@@ 240
teacher 240
thor@@ 240
æ@@ 240
ć 240
12@@ 239
95 239
alligator 239
canaveral 239
farm 239
fenchurch 239
helicopter 239
jam 239
publishes 239
swe@@ 239
tomatoes 239
tyus 239
74 238
appeal 238
aring 238
aur@@ 238
bomb@@ 238
cultural 238
donald 238
fullname 238
gers 238
gruppo 238
mario 238
nations 238
accepted 237
brom 237
camp@@ 237
ella 237
gang@@ 237
jacob 237
lan 237
liberty 237
speaking 237
stati@@ 237
wis@@ 237
adopted 236
agreement 236
auth@@ 236
berlin 236
bolt 236
dia 236
gp@@ 236
harvard 236
kan@@ 236
lay 236
ligh@@ 236
pan 236
roger 236
sale 236
unique 236
vement 236
weeks 236
yor@@ 236
è@@ 236
1909 235
73 235
assumed 235
attempt 235
construc@@ 235
direct 235
ern@@ 235
ist@@ 235
iv 235
mber 235
shore 235
tex@@ 235
then@@ 235
tofu 235
38@@ 234
avocado 234
brow@@ 234
contribu@@ 234
decision 234
dings 234
dly 234
eis@@ 234
granted 234
kalb 234
kings 234
lad@@ 234
margin 234
1944 233
68 233
billy 233
circu@@ 233
containing 233
docu@@ 233
fit 233
hap@@ 233
headquartered 233
hopkins 233
lit@@ 233
olympique 233
rostock 233
49 232
ann@@ 232
ati 232
dave 232
factory 232
gaussia 232
likely 232
registered 232
resigned 232
richardson 232
0,000 231
ae 231
ahl 231
alcobendas 231
ams 231
any@@ 231
dry 231
fernando 231
imperial 231
nwc 231
representing 231
shu@@ 231
1-@@ 230
5,@@ 230
chamber 230
colorado 230
differ@@ 230
fal@@ 230
gad@@ 230
ilo@@ 230
instru@@ 230
mah@@ 230
melodifestivalen 230
parti@@ 230
pick@@ 230
stanley 230
widely 230
yu@@ 230
1926 229
aar@@ 229
asher 229
bobina 229
broth 229
bus@@ 229
cin@@ 229
grasso 229
mayo 229
pes@@ 229
portions 229
potatoes 229
quickly 229
rob@@ 229
roun@@ 229
silver 229
suff@@ 229
supp@@ 229
theater 229
y- 229
ym@@ 229
+ 228
cer 228
cons@@ 228
divisions 228
draw 228
fic@@ 228
filling 228
gio 228
gram 228
liter@@ 228
might 228
monroe 228
portrayed 228
pun@@ 228
rodríguez 228
salem 228
trojan 228
usl 228
vertical-align 228
1001 227
airways 227
casino 227
flemish 227
gas@@ 227
harbour 227
hau@@ 227
isa 227
klasse 227
ottoman 227
roo@@ 227
sunday 227
vd 227
vers@@ 227
ür@@ 227
add 226
dynamo 226
eri 226
fil@@ 226
hab@@ 226
how 226
lis 226
llo 226
mam@@ 226
moyine 226
opposition 226
ots 226
peppers 226
pogson 226
prote@@ 226
ros 226
selling 226
stance 226
stöger 226
unincorporated 226
andre@@ 225
anne 225
below 225
certi@@ 225
christmas 225
iro 225
leton 225
liber@@ 225
musicians 225
proce@@ 225
rahman 225
recent 225
ris 225
samuel 225
security 225
63 224
accident 224
ardo 224
aries 224
basis 224
bel 224
investig@@ 224
leadership 224
lyonnais 224
org@@ 224
preparation 224
pus 224
self-@@ 224
should 224
spaniards 224
tus@@ 224
1925 223
400 223
81 223
care 223
clark 223
ele 223
federation 223
kadhim 223
money 223
nationwide 223
programs 223
revealed 223
tc 223
800 222
ban 222
bi 222
declared 222
du 222
flora 222
ght@@ 222
hessarghatta 222
news 222
radhakrishnan 222
sarvapalli 222
soldevanahalli 222
songwriter 222
spread 222
terrace 222
tobago 222
tune 222
1930s 221
560090 221
alle@@ 221
bag@@ 221
commenced 221
continue 221
directly 221
electr@@ 221
first-@@ 221
ingly 221
landmark 221
mine 221
neptun 221
neu@@ 221
nigeria 221
ony 221
pper 221
ranch 221
stor@@ 221
vk8 221
wabash 221
1850 220
allow 220
arabic 220
assists 220
butler 220
cook 220
curve 220
emer@@ 220
expansion 220
palace 220
plack 220
ques@@ 220
revival 220
suffered 220
actually 219
boulevard 219
deram 219
fts 219
ji 219
kelvins 219
lay@@ 219
meet 219
needed 219
onions 219
psv 219
rit@@ 219
sat@@ 219
sively 219
ston@@ 219
torate 219
1943 218
amateurs 218
capitol 218
chris 218
continental 218
drew 218
gordon 218
hur@@ 218
increase 218
ison 218
kill 218
parti 218
pleasant 218
poli 218
popu@@ 218
presence 218
sign 218
spi@@ 218
successfully 218
wings 218
52@@ 217
antioquia 217
assad 217
aven@@ 217
ball@@ 217
ble@@ 217
clube 217
communications 217
duncan 217
ick@@ 217
lafayette 217
lus 217
que@@ 217
ranks 217
stay 217
universities 217
â@@ 217
131 216
19255 216
ash 216
baron 216
bour@@ 216
cha@@ 216
gives 216
gm 216
holds 216
jano 216
jordan 216
multiple 216
on-@@ 216
provincial 216
shan@@ 216
tennis 216
warsaw 216
á 216
ao 215
bengo 215
coppa 215
cumberland 215
experience 215
iting 215
kel@@ 215
locomotives 215
lt 215
maximum 215
mendoza 215
monthly 215
piazzia 215
presented 215
taught 215
96 214
carry 214
cent 214
energy 214
illustr@@ 214
inherit 214
luf@@ 214
person@@ 214
phot@@ 214
seas@@ 214
são 214
thes@@ 214
tradition 214
transit 214
variants 214
zen@@ 214
aeronautical 213
alling 213
anger 213
arc@@ 213
benjamin 213
burn 213
cast 213
computer 213
constitution 213
cowper 213
defeat 213
ette 213
exp@@ 213
ico 213
initi@@ 213
kn@@ 213
long@@ 213
lyn@@ 213
marsh@@ 213
newport 213
pac@@ 213
parking 213
pastry 213
primera 213
problems 213
radi@@ 213
s-type 213
scho@@ 213
separ@@ 213
thought 213
wild 213
ı 213
chu@@ 212
divisione 212
dra 212
drag@@ 212
format 212
four@@ 212
publications 212
refer@@ 212
shops 212
subscription 212
tie 212
xon 212
98 211
ahead 211
blan@@ 211
boat 211
bumiputera 211
characterized 211
consecutive 211
die@@ 211
domestic 211
equipment 211
highly 211
hull 211
keep 211
none 211
oberliga 211
positions 211
receiving 211
regi@@ 211
removed 211
vegetable 211
160 210
1856 210
applic@@ 210
conven@@ 210
decades 210
diffic@@ 210
economy 210
haven 210
ope@@ 210
opo@@ 210
particularly 210
physics 210
sergio 210
shown 210
steamed 210
strugg@@ 210
traded 210
uring 210
vari@@ 210
1900 209
abbey 209
band@@ 209
batman 209
berry 209
bur 209
cattle 209
celebr@@ 209
eliminated 209
explorer 209
gau@@ 209
kids 209
o-@@ 209
pear@@ 209
reyes 209
salad 209
schol@@ 209
sites 209
span 209
teenage 209
vie@@ 209
whole 209
aceae 208
aging 208
connects 208
deceased 208
dit@@ 208
earning 208
fiorentina 208
gary 208
ide@@ 208
iling 208
introduction 208
nan 208
powerful 208
produce 208
ras@@ 208
rated 208
requi@@ 208
rer 208
slightly 208
teenth 208
twin 208
white@@ 208
wine 208
alexandra 207
bob 207
breakfast 207
brooklyn 207
cho 207
eagle 207
genoa 207
hosted 207
lippincott 207
oxford 207
prince 207
sure 207
tle 207
trading 207
ues 207
zes 207
1916 206
always 206
botta 206
campbell 206
chin@@ 206
eindhoven 206
follows 206
heritage 206
ille 206
jud@@ 206
jur@@ 206
meal 206
mechan@@ 206
progre@@ 206
promo@@ 206
rutte 206
taining 206
appear 205
cell@@ 205
climate 205
colonial 205
compris@@ 205
concert 205
cut@@ 205
dition 205
ee 205
equ@@ 205
func@@ 205
guards 205
medicine 205
motive 205
ore@@ 205
playoffs 205
runways 205
sor 205
supply 205
tackles 205
terminus 205
towers 205
va@@ 205
walker 205
78 204
bishop 204
charged 204
covery 204
erie 204
hou@@ 204
how@@ 204
köln 204
loaned 204
palm 204
pot 204
ques 204
semi@@ 204
seventh 204
shopping 204
slo@@ 204
specific 204
uri@@ 204
volkswagen 204
wilkins 204
believed 203
colour 203
composition 203
conn@@ 203
flowering 203
foun@@ 203
gl@@ 203
intere@@ 203
ket@@ 203
ky@@ 203
leave 203
logical 203
mutant 203
studios 203
tim@@ 203
voting 203
yment 203
18th 202
1937 202
ali 202
audi@@ 202
bc 202
charlo@@ 202
credited 202
dock 202
encoun@@ 202
liquid 202
marble 202
mumbai 202
nal 202
ous@@ 202
quali@@ 202
resemb@@ 202
shares 202
shumai 202
tax@@ 202
tol@@ 202
3800 201
6th 201
ambassador 201
bet 201
città 201
commit@@ 201
contro@@ 201
discover@@ 201
kad@@ 201
observ@@ 201
oper@@ 201
owners 201
p-@@ 201
pair 201
pi 201
pursu@@ 201
resonance 201
sses 201
tenants 201
turbo@@ 201
v6 201
whi@@ 201
with@@ 201
00000 200
adding 200
apped 200
coup 200
cris@@ 200
dates 200
dynamics 200
east@@ 200
ently 200
influence 200
mber@@ 200
mm 200
mouth 200
nav@@ 200
officers 200
ols 200
personnel 200
pontiac 200
sponge 200
springs 200
striker 200
suit 200
twelve 200
vicenza 200
ail 199
akhigbe 199
aus@@ 199
buick 199
comme@@ 199
connecting 199
every@@ 199
existence 199
extre@@ 199
govern@@ 199
harrietstown 199
idea 199
indexed 199
kl@@ 199
levels 199
originating 199
page 199
pay@@ 199
phi@@ 199
ras 199
sam 199
space@@ 199
thu@@ 199
tland 199
uk@@ 199
unknown 199
ures 199
1917 198
77 198
bronze 198
done 198
enaire 198
face 198
ills 198
long-@@ 198
maccabi 198
marketed 198
pale@@ 198
personal 198
restaurant 198
shop 198
spar@@ 198
trou@@ 198
vienna 198
al-@@ 197
alists 197
arezzo 197
armed 197
ases 197
axle 197
caf@@ 197
care@@ 197
clin@@ 197
cover@@ 197
deli@@ 197
duke 197
female 197
greg@@ 197
icao 197
k-@@ 197
kre@@ 197
mendelsohn 197
navi@@ 197
naz@@ 197
oliver 197
plante 197
producing 197
sat 197
scotland 197
slices 197
threshold 197
17068 196
6-@@ 196
76 196
boro 196
contained 196
fresh 196
gabri@@ 196
headed 196
let@@ 196
luc@@ 196
missouri 196
mund 196
rules 196
strips 196
tou@@ 196
trophy 196
villain 196
1934 195
60@@ 195
associate 195
boris 195
enn@@ 195
failure 195
leo 195
lock 195
moldo@@ 195
operational 195
po 195
read 195
read@@ 195
steuben 195
suc@@ 195
surrounded 195
thrust 195
ves@@ 195
vision 195
1901 194
alone 194
burlington 194
channel 194
crater 194
markets 194
not@@ 194
pho@@ 194
rey 194
stock@@ 194
submarines 194
transactions 194
vocalist 194
aca 193
astronomers 193
behalf 193
buried 193
cros@@ 193
crossing 193
crow@@ 193
duo 193
emperor 193
euro@@ 193
eurovision 193
goes 193
inches 193
israeli 193
job 193
jose 193
largely 193
mani@@ 193
of@@ 193
protec@@ 193
replacement 193
roberts 193
seasoned 193
shaped 193
tre 193
wildweeds 193
26th 192
address 192
aerospace 192
chron@@ 192
courthouse 192
dropped 192
edwin 192
fell 192
gur@@ 192
jal@@ 192
kni@@ 192
lawrence 192
luanda 192
metho@@ 192
plot 192
reviews 192
simp@@ 192
soho 192
swiss 192
toronto 192
72 191
ahmedabad 191
ander 191
beano 191
bowl 191
brad@@ 191
brigadier 191
businessman 191
canal 191
craft 191
cs1-lock-@@ 191
defensive 191
descen@@ 191
dt 191
germans 191
goalkeeper 191
gy@@ 191
hai 191
handle 191
hold 191
improved 191
pfk 191
popularity 191
stream 191
tha 191
tively 191
correspon@@ 190
elled 190
inhabited 190
kol@@ 190
logi@@ 190
min-height 190
partner 190
permanent 190
pesaka 190
psycho@@ 190
registration 190
seafood 190
youthclub 190
zar@@ 190
üner 190
27th 189
6,@@ 189
arran@@ 189
bach 189
bai@@ 189
chap@@ 189
characteris@@ 189
command@@ 189
concrete 189
dough 189
jarama 189
martin@@ 189
mph 189
norman 189
rein@@ 189
stown 189
strength 189
structures 189
tit@@ 189
vements 189
yellow 189
120 188
737 188
atlan@@ 188
azi@@ 188
biden 188
cause 188
centr@@ 188
colo@@ 188
faculty 188
fir@@ 188
individuals 188
lang@@ 188
manages 188
pittsburgh 188
scor@@ 188
shield 188
tau@@ 188
tio 188
vene@@ 188
ë@@ 188
acu@@ 187
ago 187
aleksander 187
banks 187
christ@@ 187
dragon 187
dykes 187
evans 187
fans 187
friedrichshafen 187
gru@@ 187
hing 187
kes@@ 187
mem@@ 187
paracuellos 187
racing 187
regarded 187
sic@@ 187
sized 187
wolfsburg 187
17th 186
1906 186
abstr@@ 186
aco 186
ar-@@ 186
bruins 186
brun@@ 186
chil@@ 186
consider@@ 186
conver@@ 186
counter@@ 186
detec@@ 186
fitted 186
guar@@ 186
hometown 186
horsepower 186
ila 186
kle@@ 186
lack 186
lor@@ 186
nashville 186
ome@@ 186
pre-@@ 186
rus 186
tail 186
well@@ 186
writers 186
ía 186
59@@ 185
advan@@ 185
ater 185
broke 185
capable 185
concentr@@ 185
entering 185
essen@@ 185
ez 185
feyenoord 185
key@@ 185
kuching 185
non-family 185
nur@@ 185
paper 185
percent 185
prin@@ 185
purple 185
sands 185
say@@ 185
scen@@ 185
thor 185
valencian 185
wi 185
yn@@ 185
93@@ 184
becomes 184
bit 184
classic 184
conf@@ 184
cow@@ 184
expe@@ 184
fan 184
lio 184
minnesota 184
occup@@ 184
opor 184
pak@@ 184
ppe@@ 184
priv@@ 184
rapper 184
shredded 184
sis@@ 184
speaker 184
theastern 184
troops 184
tz 184
adi 183
allowing 183
alty 183
awar@@ 183
cement 183
controlled 183
dd@@ 183
dh@@ 183
dimen@@ 183
entitled 183
fruits 183
glen@@ 183
hartford 183
has@@ 183
institution 183
pick 183
romanian 183
sof@@ 183
vá@@ 183
ater@@ 182
chur@@ 182
competing 182
crime 182
dic 182
diego 182
double 182
enough 182
erson 182
fast 182
grande 182
hang@@ 182
iced 182
instruc@@ 182
jor@@ 182
kh 182
lem 182
letter 182
manufacturing 182
nicknamed 182
qualifying 182
tag@@ 182
aa 181
attrac@@ 181
bersatu 181
cle 181
couple 181
danish 181
domain 181
fon@@ 181
foods 181
gol@@ 181
hamburg 181
heads 181
index 181
iss 181
kind 181
metro@@ 181
oration 181
pool 181
prize 181
proper 181
resignation 181
sixma 181
ste 181
torino 181
vancouver 181
warren 181
weal@@ 181
welfare 181
abandoned 180
ably 180
amo@@ 180
anna 180
boar@@ 180
brick 180
comprises 180
crociere 180
figure 180
flu@@ 180
hosts 180
jac@@ 180
mitchell 180
partnership 180
pes 180
petersburg 180
premi@@ 180
propulsion 180
rasmussen 180
residing 180
scientist 180
sim@@ 180
veinticinco 180
wall@@ 180
yev 180
acre 179
billboard 179
creating 179
emp@@ 179
ferry 179
g- 179
igh@@ 179
issued 179
jected 179
liner 179
ners 179
option 179
quarter@@ 179
rural 179
ruth 179
saturn 179
ship@@ 179
speak 179
tal 179
1922 178
aff@@ 178
bed 178
break 178
briefly 178
certain 178
colombia 178
consul@@ 178
dal 178
elev@@ 178
entrance 178
error 178
establish 178
horse 178
iti 178
mesa 178
mm@@ 178
must 178
nam 178
oak@@ 178
onists 178
patri@@ 178
petrotrin 178
piano 178
pm 178
renov@@ 178
session 178
share 178
starred 178
taqaddum 178
trained 178
tulsa 178
web@@ 178
absolute 177
automatic 177
barkov 177
bmw 177
bright 177
confirmed 177
defeating 177
derives 177
jacksonville 177
legal 177
mit 177
nia 177
pag@@ 177
reduc@@ 177
retail 177
rop 177
sibility 177
single-@@ 177
tech 177
unlike 177
unsuccessful 177
villains 177
adventure 176
asted 176
at-@@ 176
cha 176
clear 176
comparable 176
curitiba 176
economics 176
heroes 176
humans 176
ming 176
nell 176
pinhais 176
plu@@ 176
poet 176
steven 176
tea 176
tennant 176
thi@@ 176
townships 176
yton 176
zam@@ 176
1920s 175
69@@ 175
accoun@@ 175
alb@@ 175
an-@@ 175
anth@@ 175
bab@@ 175
civic 175
claim 175
dered 175
direction 175
earth@@ 175
exterior 175
file 175
gus 175
hart 175
incorpor@@ 175
isis 175
ito 175
killing 175
miri 175
monarch 175
mounted 175
rule 175
scri@@ 175
shipping 175
sidcup 175
stant 175
substitute 175
texture 175
viet@@ 175
zi 175
asing 174
astr@@ 174
bren@@ 174
charge 174
contemporary 174
efforts 174
fallujah 174
fame 174
fur@@ 174
georges 174
hai@@ 174
join@@ 174
mbered 174
minute 174
orial 174
performer 174
playoff 174
portland 174
prepar@@ 174
r-@@ 174
rup@@ 174
sian 174
trail 174
ue 174
vich 174
viking 174
viol@@ 174
zen 174
aer@@ 173
alla 173
blockbuster 173
decor@@ 173
discontinued 173
elli@@ 173
emi@@ 173
explo@@ 173
floating 173
frame 173
hiv 173
holding 173
inter 173
jakarta 173
kap@@ 173
kaz@@ 173
lotus 173
lux@@ 173
manual 173
performances 173
pression 173
qatar 173
rick 173
rub@@ 173
sandwiches 173
secondary 173
task 173
unione 173
ß@@ 173
1873 172
adult 172
begin 172
bra 172
champion 172
dag@@ 172
defin@@ 172
engaged 172
finance 172
freight 172
giant 172
jar@@ 172
korean 172
lights 172
looking 172
low-@@ 172
measu@@ 172
ninth 172
onia 172
platted 172
printed 172
prison 172
pub@@ 172
relationship 172
scale 172
spice 172
staf@@ 172
ster@@ 172
survi@@ 172
tains 172
tunnel 172
8-@@ 171
australian 171
boosters 171
consumed 171
depicted 171
fen@@ 171
hired 171
lazio 171
massimo 171
mathematica 171
modified 171
occul@@ 171
presen@@ 171
religion 171
response 171
robin 171
sequel 171
shi 171
solution 171
transi@@ 171
walt 171
wed 171
wise 171
affiliate 170
arr@@ 170
beyond 170
ciano 170
collaboration 170
designs 170
duty 170
eri@@ 170
hear@@ 170
hes@@ 170
howard 170
installed 170
itor 170
knight 170
numbers 170
ods 170
ole@@ 170
peñarol 170
phil@@ 170
play@@ 170
sportpark 170
treas@@ 170
un 170
anthony 169
arrival 169
attending 169
biggest 169
bird 169
bring 169
busiest 169
cou@@ 169
educational 169
eighth 169
ferenc@@ 169
genus 169
gian 169
glo@@ 169
headquarter 169
hunter 169
look 169
luis 169
maintenance 169
nap@@ 169
nr 169
oni 169
ored 169
owski 169
rolando 169
species 169
stal@@ 169
suspension 169
thin 169
third-@@ 169
tour@@ 169
words 169
ym 169
ö 169
ō 169
š@@ 169
adap@@ 168
aded 168
blu@@ 168
courses 168
filipino 168
humphrys 168
lai 168
leon@@ 168
line@@ 168
maran 168
maria 168
quarter 168
rab@@ 168
sap@@ 168
sign@@ 168
sley 168
stores 168
tant 168
tations 168
tuna 168
twenty-@@ 168
weymouth 168
yard 168
yed 168
31st 167
artillery 167
attention 167
bodies 167
cession 167
chassis 167
conse@@ 167
eas@@ 167
flat 167
fted 167
god 167
incar@@ 167
ish@@ 167
ishing 167
italians 167
mathemati@@ 167
minimum 167
mrs 167
pressure 167
protag@@ 167
trust 167
v12 167
vo 167
wounded 167
wr@@ 167
ɪ@@ 167
1896 166
23rd 166
7th 166
alf@@ 166
appointment 166
aver@@ 166
chose 166
citizens 166
contain 166
cuyahoga 166
dash 166
decade 166
delegate 166
dge@@ 166
drummer 166
earliest 166
eries 166
hec@@ 166
injury 166
kit@@ 166
lady 166
maple 166
olo 166
pie 166
relatively 166
simon 166
wichita 166
yes 166
ícolo 166
abad 165
accompanied 165
anni@@ 165
broadcast 165
cathedral 165
celestial 165
cs1-registration 165
custom@@ 165
ddr- 165
dwi@@ 165
elongated 165
episode 165
fes@@ 165
hoo@@ 165
ich@@ 165
layout 165
lots 165
pierce 165
princess 165
revolution 165
rod@@ 165
sag@@ 165
sp 165
statue 165
stra 165
tank 165
wheat 165
ː@@ 165
196@@ 164
atic 164
axis 164
caa 164
celery 164
christopher 164
circuit 164
delivered 164
deployed 164
destroy@@ 164
electronic 164
enburg 164
enemy 164
examples 164
gall@@ 164
gardens 164
granite 164
isabelle 164
ka@@ 164
locations 164
mad 164
nau@@ 164
nine@@ 164
plus 164
quite 164
repor@@ 164
tial 164
tically 164
value 164
15th 163
bet@@ 163
brandon 163
clu@@ 163
collected 163
croma 163
cs@@ 163
dressing 163
ech@@ 163
edited 163
elling 163
ends 163
extension 163
juice 163
lef@@ 163
litre 163
lled 163
lough@@ 163
maintained 163
mand@@ 163
peaked 163
purchase 163
report 163
separated 163
thick 163
topped 163
-3 162
antly 162
arms 162
bloom@@ 162
bras@@ 162
carrying 162
eleven 162
foc@@ 162
futebol 162
galicia 162
organis@@ 162
phase 162
pioneer 162
shaft 162
skin 162
spor@@ 162
stroke 162
winger 162
8th 161
99@@ 161
ange 161
angle 161
arri@@ 161
battalion 161
bla@@ 161
boundary 161
cancel@@ 161
continuing 161
flavor 161
gazette 161
gest 161
goddess 161
heal@@ 161
homes 161
hungary 161
i-@@ 161
invol@@ 161
kal 161
lancia 161
liberal 161
quar@@ 161
revolutionary 161
seaso 161
sebastián 161
signific@@ 161
spot 161
sylvia 161
tube 161
ug@@ 161
wich 161
agre@@ 160
alter@@ 160
carto@@ 160
cky 160
clerk 160
composer 160
developing 160
difference 160
drago 160
electoral 160
enter 160
experimental 160
gan@@ 160
hardtop 160
heim 160
jas@@ 160
kins 160
knowledge 160
kuttikkattoor 160
lati@@ 160
limits 160
marked 160
midd@@ 160
nu 160
nuclear 160
ograph@@ 160
ok@@ 160
otkrytiye 160
philoso@@ 160
phy 160
plants 160
rain 160
reality 160
runners-up 160
sex 160
stated 160
teen@@ 160
tho@@ 160
uri 160
villa@@ 160
williamson 160
1865 159
1903 159
320 159
aboard 159
ante 159
ault 159
ax 159
bing 159
canadi@@ 159
engle 159
ented 159
even@@ 159
gets 159
governor@@ 159
inv@@ 159
jackets 159
legend 159
literature 159
micro@@ 159
parkersburg 159
payloads 159
rap 159
styles 159
tas@@ 159
thr@@ 159
wag@@ 159
work@@ 159
59 158
ames 158
behavi@@ 158
cameron 158
cincinnati 158
dem 158
depending 158
desi@@ 158
duce 158
eld 158
fel@@ 158
fresh@@ 158
gel 158
gerald 158
gib@@ 158
heat 158
ja@@ 158
klaus 158
laboratory 158
landed 158
legislative 158
litres 158
mass@@ 158
meant 158
modi@@ 158
namesake 158
o- 158
oldsmobile 158
posse@@ 158
saab 158
sections 158
semin@@ 158
things 158
trad@@ 158
tyrol 158
yn 158
í 158
ă@@ 158
adol@@ 157
after@@ 157
ame 157
astro@@ 157
basic 157
boundaries 157
c2 157
choice 157
cousin 157
depar@@ 157
deputies 157
describes 157
diff@@ 157
essex 157
excell@@ 157
forming 157
fro@@ 157
group@@ 157
hamburger 157
maj@@ 157
mates 157
mid- 157
mono@@ 157
nep@@ 157
newark 157
nie@@ 157
parma 157
products 157
relocated 157
rouleau 157
scar@@ 157
secre@@ 157
sever@@ 157
slow 157
symb@@ 157
temporary 157
time@@ 157
tine 157
tori@@ 157
unds 157
urich 157
vinegar 157
108 156
1863 156
1898 156
bordered 156
cav@@ 156
cel 156
commuter 156
consisten@@ 156
editor-in-chief 156
except 156
garage 156
gren@@ 156
harrison 156
historically 156
hotels 156
hour 156
hungarica 156
iber@@ 156
ican 156
iulia 156
ltd 156
mak@@ 156
mtu 156
note 156
offer 156
quebec 156
rel@@ 156
reve@@ 156
sago 156
scene 156
scre@@ 156
ser 156
set@@ 156
som 156
67 155
abilities 155
achi@@ 155
amar 155
b-@@ 155
businesses 155
cm 155
colle@@ 155
demonstr@@ 155
else@@ 155
enlisted 155
jen@@ 155
objects 155
ograp@@ 155
petro@@ 155
prima 155
prototype 155
refer 155
sets 155
shoot@@ 155
side@@ 155
signature 155
six-@@ 155
spectrum 155
susana 155
than@@ 155
tilla 155
town@@ 155
under-@@ 155
usual 155
vessels 155
votes 155
wald 155
wrapped 155
978 154
afit 154
agriculture 154
ares 154
aspects 154
atmosp@@ 154
bern@@ 154
civilian 154
coastal 154
crimin@@ 154
dela@@ 154
demolished 154
esp@@ 154
exist 154
fill 154
fy 154
get@@ 154
gram@@ 154
hellenic 154
italia 154
kollam 154
lands@@ 154
materials 154
mattarella 154
minced 154
mitted 154
ose 154
ows 154
religious 154
stood 154
thakur 154
toekomst 154
way@@ 154
wri@@ 154
younger 154
180 153
80@@ 153
ato@@ 153
avoid 153
completing 153
determined 153
five-@@ 153
flags 153
focused 153
grass 153
intelligence 153
ists 153
itu@@ 153
kno@@ 153
missi@@ 153
pier@@ 153
railroads 153
showed 153
siena 153
spending 153
sus 153
tch 153
tell@@ 153
tern@@ 153
trim 153
uncle 153
0000@@ 152
1857 152
3500 152
3px 152
439 152
activity 152
ambi@@ 152
ane@@ 152
asa 152
assum@@ 152
bucharest 152
ceased 152
chapel 152
components 152
controllers 152
degrees 152
elle 152
err@@ 152
europa 152
faced 152
fat 152
gardner 152
gi 152
icebreak@@ 152
ician 152
indicate 152
ji@@ 152
kun@@ 152
loy@@ 152
mtx 152
partners 152
process@@ 152
rapid 152
respec@@ 152
rico 152
royce 152
solar 152
tbody 152
-85 151
bon 151
burbank 151
cancelled 151
caus@@ 151
ches@@ 151
cies 151
demo@@ 151
employed 151
exhibition 151
faversham 151
ferr@@ 151
grenadier 151
harry 151
hid@@ 151
im 151
institutions 151
marriage 151
mountains 151
nautical 151
onary 151
ova 151
pengu@@ 151
perform 151
represent 151
rison 151
sain@@ 151
say 151
ter-@@ 151
testing 151
top-@@ 151
turing 151
warm 151
weather 151
&#@@ 150
1864 150
201@@ 150
b- 150
bles 150
centuries 150
condiment 150
dating 150
eller 150
ets 150
graduation 150
historian 150
innov@@ 150
jk 150
kid 150
kirby 150
lam 150
lum 150
nati@@ 150
nation@@ 150
phys@@ 150
physical 150
pilots 150
plains 150
rag@@ 150
rem@@ 150
talent 150
tamarind 150
tax 150
teaching 150
therefore 150
tourist 150
ń@@ 150
accrington 149
ajo 149
attempts 149
background-position 149
background-repeat 149
background-size 149
border-@@ 149
centers 149
clyde 149
colours 149
come@@ 149
cun@@ 149
dges 149
dog 149
ds@@ 149
evidence 149
ft@@ 149
global 149
gon@@ 149
hilmi 149
iata 149
investigation 149
kalla 149
life@@ 149
mate 149
minated 149
nab@@ 149
no-repeat 149
poor 149
reading 149
seyin 149
sisters 149
stat@@ 149
stayed 149
stellendam 149
tender 149
turning 149
ukra@@ 149
utc 149
valls 149
ă 149
ō@@ 149
ž@@ 149
83@@ 148
advis@@ 148
agreed 148
ams@@ 148
atives 148
bankruptcy 148
belie@@ 148
bility 148
bun 148
coden 148
connec@@ 148
cs 148
electrical 148
eugene 148
expendable 148
facing 148
gee 148
gir@@ 148
isaac 148
jusuf 148
mbe 148
mean@@ 148
miami 148
opport@@ 148
oring 148
paperback 148
pau@@ 148
philip 148
propellan@@ 148
pt 148
rangers 148
rcb- 148
rell 148
rich@@ 148
setting 148
simil@@ 148
staten 148
stry 148
sw 148
tac@@ 148
til@@ 148
told 148
utrecht 148
views 148
wanted 148
whilst 148
wiley 148
1500 147
1891 147
actions 147
aus 147
candidates 147
carl 147
cdp 147
chec@@ 147
chichar@@ 147
contributed 147
crash 147
crimean 147
directed 147
effect 147
fillings 147
giu@@ 147
half@@ 147
harris 147
infraero 147
kee@@ 147
kos 147
ks@@ 147
lantern 147
logan 147
manufac@@ 147
narr@@ 147
nix 147
ou 147
presidential 147
selec@@ 147
ual 147
ud 147
wind 147
windows 147
wright 147
acker 146
armstrong 146
art@@ 146
blin@@ 146
citiz@@ 146
corn@@ 146
eds 146
ek@@ 146
gone 146
gos 146
grad@@ 146
integr@@ 146
iras 146
jets 146
lu 146
nomin@@ 146
post-@@ 146
proved 146
robot 146
self 146
soul 146
sport@@ 146
stap@@ 146
themselves 146
universal 146
upgrad@@ 146
ury 146
visited 146
wards 146
washtenaw 146
wolf@@ 146
ș@@ 146
1940s 145
8,@@ 145
bos@@ 145
bound 145
crown 145
displacement 145
dispu@@ 145
dome 145
elite 145
elli 145
engineers 145
erected 145
fire@@ 145
golf 145
gy 145
identity 145
infin@@ 145
inst@@ 145
jet@@ 145
kaiser 145
lac@@ 145
lime 145
magic 145
notably 145
organiz@@ 145
phoenix 145
reduced 145
rement 145
renaissance 145
ross 145
sell@@ 145
singer-songwriter 145
vis 145
whig 145
ér@@ 145
aco@@ 144
aling 144
auckland 144
bers 144
brand@@ 144
chiefs 144
competitions 144
depic@@ 144
emil@@ 144
encompass@@ 144
gali@@ 144
gazettes 144
igh 144
infrared 144
ingham 144
journalist 144
kept 144
mati@@ 144
oxygen 144
parish 144
plo@@ 144
portu@@ 144
racial 144
rebuilt 144
retained 144
rober@@ 144
shal@@ 144
solid 144
spell 144
tia 144
vised 144
vocals 144
vv 144
where@@ 144
yale 144
93 143
admiral 143
aka 143
arn@@ 143
blackwell 143
bologna 143
calcu@@ 143
cc 143
cd@@ 143
classes 143
content 143
deci@@ 143
det@@ 143
disbanded 143
ei@@ 143
eth 143
exhi@@ 143
extensive 143
fee 143
fications 143
finan@@ 143
fred 143
gain 143
hudson 143
kham 143
lakes 143
leg 143
modi 143
mont@@ 143
nelson 143
our@@ 143
papers 143
pol 143
presi@@ 143
psychiat@@ 143
ruled 143
syl@@ 143
tom@@ 143
transpor@@ 143
underground 143
uts 143
venture 143
weapons 143
weekly 143
ä 143
000@@ 142
12th 142
1em 142
august@@ 142
ava 142
caribbean 142
cock@@ 142
collins 142
copies 142
crust 142
dau@@ 142
edit@@ 142
ffee 142
friendly 142
guest 142
h-@@ 142
host 142
ining 142
ises 142
joko 142
jus@@ 142
le-@@ 142
magdalene 142
neil 142
nt 142
oce@@ 142
ole 142
pasta 142
peachtree 142
quen@@ 142
rival 142
stam@@ 142
wells 142
widodo 142
ün@@ 142
1892 141
ached 141
achie@@ 141
affec@@ 141
anbar 141
banner 141
compact 141
completely 141
compu@@ 141
conten@@ 141
cop@@ 141
cotton 141
dill@@ 141
discus@@ 141
etta 141
falk@@ 141
fer 141
free@@ 141
haputale 141
hes 141
household 141
larcher 141
lations 141
lim 141
loko@@ 141
nova 141
particular 141
pot@@ 141
riverside 141
sage 141
salvadoran 141
suppor@@ 141
vau@@ 141
vens 141
year-old 141
1876 140
210 140
29075 140
advance 140
belgaum 140
boy@@ 140
closely 140
commissioner 140
consoli@@ 140
coron@@ 140
dissolved 140
eled 140
ense 140
este@@ 140
experim@@ 140
fate 140
helping 140
human@@ 140
influ@@ 140
invented 140
io 140
meets 140
mills 140
more@@ 140
narendra 140
nomination 140
oakland 140
qualify 140
ranil 140
rescue 140
resides 140
resumed 140
rix 140
rs-@@ 140
sources 140
stab@@ 140
sts-@@ 140
superleague 140
tech@@ 140
wars 140
wickremesinghe 140
x- 140
194 139
202 139
additionally 139
ager 139
almonds 139
anti-@@ 139
c1 139
chal@@ 139
childhood 139
collabor@@ 139
commun@@ 139
condensed 139
dec@@ 139
depor@@ 139
dis 139
dothan 139
governed 139
install@@ 139
lab 139
leiden 139
lift 139
manned 139
marysville 139
municipalities 139
oak 139
panthers 139
pine 139
pis 139
seminar 139
sit@@ 139
tempor@@ 139
tina 139
touring 139
tura 139
ultimately 139
worl@@ 139
yi@@ 139
yl@@ 139
10th 138
4165 138
61 138
9000 138
allows 138
ami 138
amkar 138
animated 138
atalanta 138
athena 138
avia 138
benton 138
boun@@ 138
bourne 138
carri@@ 138
categor@@ 138
chr@@ 138
chronic@@ 138
conserv@@ 138
defen@@ 138
din 138
effec@@ 138
enjo@@ 138
hoofdklasse 138
kem@@ 138
landmarks 138
measurements 138
online 138
ote 138
real@@ 138
rie 138
road@@ 138
roots 138
scout 138
seem@@ 138
ssing 138
stadt 138
trail@@ 138
trilogy 138
tural 138
zy@@ 138
à 138
ñ@@ 138
1879 137
1915 137
524 137
7-@@ 137
anded 137
aro 137
canyon 137
deb@@ 137
destinations 137
digital 137
eligibility 137
fly@@ 137
han 137
haz@@ 137
housed 137
isco 137
lal 137
less@@ 137
nasi@@ 137
neowise 137
nish 137
ority 137
practic@@ 137
pus@@ 137
reasons 137
river@@ 137
rock@@ 137
ske@@ 137
stern 137
storyline 137
tec 137
tone 137
unable 137
website 137
wish 137
zhi@@ 137
zia 137
abo@@ 136
adop@@ 136
bapti@@ 136
brigh@@ 136
carnival 136
cht 136
cr 136
dick 136
doris 136
edi@@ 136
effort 136
eo 136
fine 136
illing 136
individual 136
kshire 136
lists 136
lomb@@ 136
mak 136
managing 136
mansion 136
marin@@ 136
necess@@ 136
negoti@@ 136
nikos 136
ological 136
orb@@ 136
pel@@ 136
platforms 136
semi-finals 136
shallots 136
spangled 136
subject 136
tenure 136
tico 136
tur 136
tyler 136
windsor 136
zo@@ 136
125@@ 135
140 135
1860 135
abe@@ 135
anda 135
angk@@ 135
apartment 135
arese 135
bad 135
biology 135
carter 135
conditions 135
decline 135
denton 135
dest@@ 135
environment 135
formally 135
foster 135
graz 135
grown 135
göttingen 135
had@@ 135
heavily 135
imple@@ 135
inauguration 135
incorporates 135
inven@@ 135
islam@@ 135
itali@@ 135
john@@ 135
kub 135
labor 135
lli 135
lock@@ 135
lé@@ 135
pain 135
paulo 135
perm 135
repe@@ 135
santi@@ 135
sia 135
text 135
trus@@ 135
ums 135
vey 135
1868 134
1872 134
airbus 134
arctech 134
canonica 134
cat 134
cruis@@ 134
dresden 134
dynam@@ 134
emerged 134
environ@@ 134
esa 134
farmer 134
franchise 134
georgian 134
imst 134
institu@@ 134
invited 134
justicialist 134
line-height 134
measuring 134
mosque 134
promote 134
reason 134
speciali@@ 134
spr@@ 134
sta@@ 134
tes@@ 134
there@@ 134
was@@ 134
339@@ 133
360 133
activ@@ 133
alexis 133
altitude 133
amaz@@ 133
ander@@ 133
arly 133
auron 133
baltic 133
cess@@ 133
clay 133
coal 133
corporate 133
dam 133
develop@@ 133
enjoyed 133
federations 133
frequently 133
fu 133
good@@ 133
goth@@ 133
granola 133
hero@@ 133
hurst 133
inch 133
kur@@ 133
leng@@ 133
les@@ 133
lett 133
mee 133
og@@ 133
ops 133
paso 133
peak 133
plain 133
professi@@ 133
rece@@ 133
save 133
sheriff 133
short-@@ 133
starts 133
tab@@ 133
thro@@ 133
touch@@ 133
underwent 133
vine 133
warner 133
wn 133
168 132
69 132
7,@@ 132
aching 132
adapted 132
adenan 132
bene@@ 132
burned 132
conclu@@ 132
conduc@@ 132
critical 132
doors 132
eff@@ 132
existed 132
gates 132
gg 132
hu 132
incre@@ 132
jay@@ 132
juli@@ 132
kenny 132
ketchup 132
know 132
lates 132
linear-gradient 132
linked 132
mechanical 132
near- 132
ownership 132
planes 132
put@@ 132
returns 132
rev@@ 132
saloon 132
team@@ 132
tells 132
tives 132
tram 132
treaty 132
visit 132
voridis 132
1890 131
5,000 131
9th 131
accord 131
acf 131
advisor 131
ahn 131
atory 131
brit@@ 131
carr@@ 131
chance 131
chemical 131
commen@@ 131
converti@@ 131
damage 131
dat@@ 131
dio 131
distinct 131
dol 131
effective 131
enza 131
erton 131
ever@@ 131
gallery 131
glu@@ 131
grandfather 131
icient 131
internation@@ 131
ip@@ 131
itable 131
johan 131
lansing 131
makis 131
miner@@ 131
mou@@ 131
obasanjo 131
panucci 131
pay 131
peoples 131
powder 131
prince@@ 131
rak@@ 131
ren 131
sad@@ 131
scripture 131
sit 131
situ@@ 131
storey 131
tially 131
tonnes 131
tree 131
undrafted 131
usaf 131
253260 130
9-@@ 130
allied 130
alternate 130
ance@@ 130
anch@@ 130
astronomical 130
baby 130
broadcast@@ 130
catal@@ 130
cb 130
consum@@ 130
contact 130
counted 130
damaged 130
dd 130
deplo@@ 130
ensis 130
fix@@ 130
funding 130
guad@@ 130
ination 130
jerry 130
kay@@ 130
maker 130
mathematischen 130
mming 130
nag@@ 130
nes@@ 130
ography 130
oldendorf 130
oners 130
pall@@ 130
pass@@ 130
placid 130
recru@@ 130
sandy 130
secure 130
see@@ 130
target 130
tionary 130
tish 130
tract 130
är@@ 130
ín 130
110@@ 129
13th 129
1881 129
abhandlungen 129
ancy 129
apartments 129
attacking 129
barcelona 129
bassist 129
bau@@ 129
breaking 129
brook 129
cus@@ 129
dem@@ 129
dig@@ 129
dougherty 129
ethiopian 129
eve 129
experienced 129
g-@@ 129
gho@@ 129
gloom 129
hc 129
hei@@ 129
hierarchical 129
hop@@ 129
importance 129
int 129
keeping 129
liverpool 129
nearest 129
neg@@ 129
ordin@@ 129
pier 129
postal 129
provin@@ 129
raisins 129
rising 129
satem 129
spic@@ 129
spring@@ 129
ssman 129
stanford 129
studying 129
styling 129
toy@@ 129
tton 129
yp@@ 129
04@@ 128
12-@@ 128
1889 128
62 128
achieve 128
affair 128
agen@@ 128
arez 128
aria 128
assist 128
belonging 128
boom 128
chorizo 128
colony 128
competi@@ 128
dents 128
dist 128
got@@ 128
gym@@ 128
ices 128
illo 128
itation 128
jovian 128
lasted 128
light@@ 128
lineup 128
mail 128
movie 128
palo 128
pat 128
peace 128
ponent 128
prabhukumar 128
restored 128
restric@@ 128
reti@@ 128
rett 128
ridge@@ 128
rotational 128
scand@@ 128
siege 128
solanales 128
soun@@ 128
stor 128
th-century 128
tholen 128
thunderbird 128
tons 128
toured 128
tum@@ 128
utili@@ 128
varieties 128
vladi@@ 128
wild@@ 128
ław 128
1899 127
acoustic 127
afric@@ 127
alo@@ 127
anci@@ 127
ased 127
asked 127
bb 127
bush 127
charleston 127
coloni@@ 127
davutoğlu 127
day@@ 127
departure 127
diplo@@ 127
eaters 127
enter@@ 127
expensive 127
exper@@ 127
ffin 127
figures 127
folded 127
frankfurt 127
hawks 127
immigrants 127
magi@@ 127
mihajlović 127
organizations 127
owns 127
parallel 127
present-day 127
railways 127
saturday 127
sax@@ 127
search 127
shad@@ 127
sible 127
soft 127
sson 127
suspended 127
td 127
thompson 127
tot@@ 127
tsipras 127
u-@@ 127
vegas 127
vely 127
waters 127
wonder 127
woods 127
yuzhnoye 127
1888 126
1902 126
71 126
accommodate 126
alco@@ 126
ando 126
authors 126
beating 126
bures 126
clutch 126
colum@@ 126
compar@@ 126
con 126
dani@@ 126
declined 126
defenceman 126
defending 126
dence 126
employees 126
epi@@ 126
fashi@@ 126
films 126
fredericksburg 126
gina 126
giuseppe 126
greatest 126
gw@@ 126
hispan@@ 126
jeff 126
kecap 126
marion 126
opera 126
orion 126
padding-@@ 126
past@@ 126
ped 126
pizza 126
placing 126
populated 126
promis@@ 126
propos@@ 126
rai@@ 126
regar@@ 126
relations 126
rez 126
smashed 126
steph@@ 126
tong 126
tweede 126
å@@ 126
1895 125
50@@ 125
acht 125
administrator 125
aki 125
americ@@ 125
anis@@ 125
athletic 125
baghdad 125
cavalry 125
condi@@ 125
configuration 125
controll@@ 125
descent 125
devil 125
doing 125
entirely 125
estimate 125
eva 125
foot@@ 125
garn@@ 125
gearbox 125
gene 125
gros@@ 125
holy 125
humberto 125
insurance 125
ion 125
kochi 125
laws 125
lear@@ 125
m2 125
montgomery 125
orleans 125
rd-@@ 125
resources 125
sati@@ 125
sesame 125
stret@@ 125
tbol 125
th-largest 125
tice 125
universität 125
wai@@ 125
yacob 125
æthel@@ 125
16th 124
1855 124
alexandre 124
annex@@ 124
ared 124
attend 124
batter 124
bone 124
cara 124
democrats 124
dep@@ 124
eag@@ 124
eing 124
ement 124
ential 124
fas@@ 124
flash 124
german@@ 124
industries 124
influences 124
journey 124
medium 124
mic 124
onto 124
orders 124
palaeontol 124
reinmuth 124
remainder 124
requ@@ 124
rever@@ 124
rival@@ 124
rivals 124
sandesh 124
scheme 124
sec 124
sergey 124
voyage 124
× 124
00,000 123
1854 123
1878 123
199 123
40@@ 123
475426000 123
5000 123
acci@@ 123
activated 123
aerodrome 123
aw 123
boats 123
bringing 123
carolyn 123
chen 123
details 123
driving 123
edwards 123
ership 123
fm 123
gaining 123
gonzález 123
graham 123
hawk 123
identi@@ 123
imagine 123
indians 123
kel 123
kue 123
milwaukee 123
murder 123
oria 123
ould 123
peters 123
pione@@ 123
planet@@ 123
practiced 123
princi@@ 123
recruited 123
sector 123
siniša 123
stadi@@ 123
static 123
steering 123
telescope 123
tening 123
terran@@ 123
three-year 123
thunder 123
trial 123
vermicelli 123
want 123
weap@@ 123
109@@ 122
305 122
64 122
anza 122
appre@@ 122
aure@@ 122
cadillac 122
cil@@ 122
competes 122
dation 122
dc-@@ 122
discover 122
esis 122
execu@@ 122
fare 122
halimah 122
hic@@ 122
householder 122
intermedi@@ 122
internal 122
interview 122
ited 122
laura 122
marke@@ 122
nic 122
orche@@ 122
parks 122
preserve 122
quez 122
reform 122
revi@@ 122
rn@@ 122
scr@@ 122
spacewatch 122
tioning 122
trojans 122
true 122
vs 122
wick 122
wind@@ 122
yin 122
č@@ 122
1880 121
1894 121
aked 121
aley 121
bounded 121
broken 121
bull@@ 121
cinem@@ 121
closure 121
colleges 121
conclusion 121
crosses 121
cubic 121
cust@@ 121
distinc@@ 121
distributed 121
gather@@ 121
ghan 121
hague 121
hal 121
interchange 121
khan 121
legion 121
lightning 121
moham@@ 121
mper 121
nut 121
pal 121
play-off 121
py 121
queens 121
receive 121
rique 121
sporting 121
tino 121
trenton 121
turin 121
ulam 121
walls 121
whl 121
write 121
610 120
achi 120
ania 120
annu@@ 120
borg 120
cab 120
cave 120
ceremon@@ 120
chancellorsville 120
confi@@ 120
descri@@ 120
dn 120
donated 120
encour@@ 120
exam@@ 120
exhibi@@ 120
faa 120
fam@@ 120
gie 120
girls 120
gran 120
gravy 120
hits 120
indepen@@ 120
infrastructure 120
lex@@ 120
meter 120
neigh@@ 120
one@@ 120
onic 120
oriz@@ 120
oth@@ 120
paid 120
prece@@ 120
presidency 120
protection 120
rolling 120
short@@ 120
sity 120
skyscrapers 120
stewart 120
superheroes 120
tile 120
twenty 120
vere@@ 120
vitesse 120
weigh@@ 120
-class 119
alan@@ 119
aman 119
ana@@ 119
announ@@ 119
appe@@ 119
attempted 119
benoit 119
borders 119
bow 119
broadcasted 119
changing 119
cis@@ 119
contin@@ 119
cooper 119
cue 119
demand 119
donia 119
electro@@ 119
eric@@ 119
extra 119
gni@@ 119
hapoel 119
ilocano 119
iohannis 119
items 119
kid@@ 119
limerick 119
lviv 119
mini 119
neighbo@@ 119
neighborhoods 119
north-@@ 119
oba 119
popov 119
prise 119
pursue 119
ranging 119
ray@@ 119
rham 119
rian 119
rim 119
rovers 119
rud@@ 119
seasoning 119
sei@@ 119
sex@@ 119
tries 119
tual 119
ó 119
167 118
22nd 118
91 118
ais@@ 118
ajaya 118
angelo 118
associates 118
atk 118
autonomous 118
ave 118
avengers 118
borussia 118
bot 118
bryan 118
col 118
commons 118
cos 118
decre@@ 118
dell 118
destination 118
ements 118
escap@@ 118
fan@@ 118
funds 118
gado 118
groun@@ 118
guardian 118
imag@@ 118
indigenous 118
jay 118
jon@@ 118
jonny 118
lance 118
løkke 118
modu@@ 118
mort@@ 118
motorway 118
munich 118
nice 118
officials 118
omia 118
onics 118
oning 118
open@@ 118
ort 118
prosecu@@ 118
refu@@ 118
reign 118
rolled 118
tapioca 118
taro 118
tat@@ 118
tell 118
tory 118
tus 118
ua 118
vary 118
whe@@ 118
yl 118
zie 118
21st 117
acceler@@ 117
actu@@ 117
alge@@ 117
ature 117
badoi 117
bergheau 117
bia 117
ble-@@ 117
ception 117
chile 117
chilli 117
chute 117
clinton 117
collaborated 117
colomb@@ 117
concerts 117
coup@@ 117
cze@@ 117
dayton 117
deep@@ 117
dennis 117
desig@@ 117
desp@@ 117
dorf 117
equivalent 117
flori@@ 117
freshman 117
gene@@ 117
geneva 117
georgetown 117
gin 117
globemaster 117
handling 117
hay@@ 117
heights 117
iden@@ 117
involving 117
konstantinos 117
kovac 117
lions 117
lish 117
ml@@ 117
morning 117
moun@@ 117
oured 117
oyster 117
participate 117
proximity 117
remo@@ 117
roughly 117
sfield 117
shr@@ 117
somewhat 117
squeezed 117
sugge@@ 117
suggested 117
temp@@ 117
territorial 117
thur@@ 117
to-@@ 117
tosun 117
turn@@ 117
vec@@ 117
vesta 117
đ@@ 117
1885 116
2000s 116
9px 116
anglo- 116
anti- 116
arre@@ 116
artur 116
assass@@ 116
bari 116
bits 116
brooke 116
buil@@ 116
connect 116
dolphins 116
exception 116
gn 116
gott@@ 116
ho 116
jason 116
lyric@@ 116
niko@@ 116
offering 116
pou@@ 116
ral@@ 116
randall 116
regularly 116
ric 116
rol 116
sie 116
superior 116
tab 116
tron 116
vik@@ 116
volumes 116
16000 115
1866 115
195 115
ables 115
ades 115
afterwards 115
aled 115
att 115
authorities 115
bandung 115
bankrup@@ 115
barry 115
belly 115
cian 115
coached 115
cob 115
cruz 115
deon 115
diver@@ 115
excel@@ 115
gate@@ 115
giovan@@ 115
goal@@ 115
guil@@ 115
hein@@ 115
heinlein 115
id-lock-@@ 115
income 115
mbs 115
n-@@ 115
oppos@@ 115
organ 115
phili@@ 115
pura 115
ref@@ 115
refur@@ 115
ror 115
seas 115
sely 115
società 115
soyuz 115
sparta 115
succeeding 115
swee@@ 115
tail@@ 115
taxi 115
terdam@@ 115
vington 115
volunte@@ 115
wär@@ 115
ño 115
üt@@ 115
198 114
722 114
adver@@ 114
ales@@ 114
bam@@ 114
capsu@@ 114
centimetres 114
closest 114
co-ownership 114
correc@@ 114
dane 114
dena 114
elementary 114
fair 114
hern@@ 114
hum@@ 114
investment 114
izmir 114
kali@@ 114
karpaty 114
latino 114
lit 114
manit@@ 114
marcos 114
motion 114
neli@@ 114
nuts 114
pavlopoulos 114
plas@@ 114
prepare 114
preservation 114
progressive 114
prokopis 114
propel@@ 114
seco 114
seeds 114
senators 114
stew 114
stro 114
theme 114
thin@@ 114
visitors 114
wet@@ 114
wide-@@ 114
worn 114
youngest 114
1632 113
academical 113
ache 113
aero@@ 113
ampa 113
apart 113
aviv 113
barbe@@ 113
berkeley 113
bibb@@ 113
capture 113
cau@@ 113
crashed 113
cycle 113
cyril 113
element 113
evan@@ 113
flavour 113
gab@@ 113
grilled 113
hays 113
ig 113
improve 113
inn 113
iring 113
jean 113
labor@@ 113
learning 113
losses 113
mentation 113
migr@@ 113
mitsotakis 113
outbreak 113
plate@@ 113
prob@@ 113
prospec@@ 113
robinson 113
sanc@@ 113
tella 113
tress 113
tudor 113
yam@@ 113
-up 112
17000 112
abu@@ 112
alpha 112
baker 112
barm 112
bee@@ 112
belong@@ 112
brus@@ 112
cabin 112
chy 112
claims 112
communication 112
cs1-kern-wl-@@ 112
dant 112
developer 112
entreprene@@ 112
español 112
heli@@ 112
images 112
kav@@ 112
leon 112
mahajan 112
marietta 112
marry 112
mel 112
memb@@ 112
michel 112
missed 112
nacional 112
needs 112
nijmegen 112
piłsudski 112
por 112
profes@@ 112
psychede@@ 112
public@@ 112
recei@@ 112
region@@ 112
richmond 112
rivers 112
rosi 112
scot@@ 112
secured 112
seek 112
sters 112
sumitra 112
tek 112
thema 112
tica 112
tories 112
um@@ 112
veteran 112
voutsis 112
whar@@ 112
yan@@ 112
900 111
agricultural 111
aia 111
akh@@ 111
attacks 111
bbed 111
bhp 111
bian 111
bit@@ 111
box 111
bull 111
carriers 111
cology 111
cumb@@ 111
curry 111
curves 111
dark@@ 111
evolved 111
expen@@ 111
fas 111
flagship 111
frying 111
fun 111
greymachine 111
heard 111
isted 111
johnny 111
letters 111
luke 111
lying 111
md 111
merchant 111
ois 111
olph 111
olusegun 111
part@@ 111
pee 111
research@@ 111
rises 111
scorer 111
sle@@ 111
storm 111
survived 111
taur@@ 111
tel@@ 111
tokyo 111
tu 111
twen@@ 111
victor 111
wer@@ 111
window 111
íne@@ 111
-story 110
1848 110
1874 110
abdul@@ 110
acad@@ 110
aggre@@ 110
ballistic 110
begun 110
blocks 110
brig@@ 110
bsg 110
buc@@ 110
buses 110
capit@@ 110
caps 110
caravan 110
celebrity 110
charts 110
chelsea 110
comple@@ 110
dare@@ 110
deri@@ 110
distribution 110
drawing 110
emergency 110
ento 110
ford@@ 110
freeway 110
ghter 110
gradu@@ 110
gus@@ 110
ij@@ 110
increasing 110
invest@@ 110
knoc@@ 110
learned 110
leeds 110
lie@@ 110
magn@@ 110
max@@ 110
mersin 110
oberhelman 110
osim 110
oth 110
rah 110
reddy 110
representation 110
rid 110
rox@@ 110
sauces 110
schedu@@ 110
shadow 110
soldier 110
spinach 110
sprinkled 110
stable 110
stockholm 110
stuffed 110
surviving 110
sus-@@ 110
tales 110
tang@@ 110
tawa 110
tees 110
tests 110
toward 110
trans 110
tuc@@ 110
wan@@ 110
wicz 110
worldwide 110
121 109
absorb@@ 109
alties 109
amplitude 109
attracted 109
batt@@ 109
bernalillo 109
cap 109
carpen@@ 109
cherokee 109
cheshire 109
chic@@ 109
cucu@@ 109
curring 109
dinamo 109
dl 109
editors 109
establis@@ 109
esville 109
flames 109
gö@@ 109
hill@@ 109
honey 109
hurric@@ 109
jamaica 109
joh@@ 109
leased 109
license 109
lob@@ 109
maritime 109
oles 109
ortho@@ 109
recognition 109
rel 109
row@@ 109
seconda 109
segunda 109
sio 109
sounds 109
trees 109
trip 109
unity 109
1853 108
306 108
= 108
acle 108
adh 108
alism 108
andez 108
aro@@ 108
beaten 108
bell@@ 108
bend 108
bure@@ 108
cass@@ 108
catania 108
challinor 108
chapter 108
chee 108
collaborative 108
conceived 108
copa 108
cottage 108
davi@@ 108
destruc@@ 108
diplomat 108
easily 108
fed 108
follow 108
gain@@ 108
god@@ 108
gray 108
halton 108
jimmy 108
juries 108
kare@@ 108
kou@@ 108
lecce 108
mei@@ 108
mete@@ 108
olympia 108
olympiacos 108
oma 108
pet 108
picked 108
polis 108
programme 108
publishers 108
raf 108
rasizade 108
serge@@ 108
seth 108
sole 108
tern 108
umb@@ 108
universitas 108
urer 108
yan 108
-to-@@ 107
139 107
159 107
account 107
affili@@ 107
angel 107
arriving 107
ayan 107
burgh 107
collis@@ 107
compani@@ 107
compe@@ 107
cone@@ 107
congresses 107
drome 107
eding 107
experiences 107
felt 107
finds 107
holiday 107
honour 107
ii@@ 107
ink@@ 107
itz 107
legi@@ 107
lets 107
licen@@ 107
lina 107
louisiana 107
militia 107
mind 107
mining 107
monterey 107
muffin 107
nationals 107
neuro@@ 107
plantain 107
program@@ 107
protect 107
public-use 107
rashid 107
refused 107
scal@@ 107
sculp@@ 107
sendic 107
shoemaker 107
silvano 107
simeiz 107
simul@@ 107
soyuz@@ 107
steak 107
strategic 107
technique 107
thousands 107
tings 107
tow@@ 107
ware 107
zag@@ 107
ña 107
achieving 106
auguste 106
aves 106
bal 106
bber@@ 106
brief 106
bundelkhand 106
caught 106
confec@@ 106
croati@@ 106
crus@@ 106
db@@ 106
deco 106
disneyland 106
enrolled 106
expand 106
fail@@ 106
fically 106
fting 106
hercu@@ 106
hundred 106
illu@@ 106
incident 106
indi@@ 106
ital 106
kotte 106
lied 106
line-@@ 106
linn 106
llins 106
load 106
logist 106
lov@@ 106
margare@@ 106
milli@@ 106
mmy 106
nad@@ 106
nai@@ 106
nick 106
occu@@ 106
opposed 106
penalty 106
potential 106
puebl@@ 106
quattro 106
quick 106
rate 106
relative 106
renovation 106
segment 106
sert 106
sored 106
spirou 106
tad@@ 106
tahu 106
tained 106
teo 106
tole@@ 106
topo@@ 106
tried 106
trinity 106
tured 106
undergraduate 106
vila 106
wheels 106
your 106
zy 106
accommo@@ 105
atten@@ 105
augu@@ 105
huntington 105
icks 105
injured 105
inline-@@ 105
islanders 105
ith@@ 105
jani 105
jaya 105
jong 105
kas@@ 105
kis@@ 105
krist@@ 105
krupuk 105
lubbock 105
mart@@ 105
matic 105
metry 105
nis@@ 105
nottingham 105
of-@@ 105
ographic 105
olu@@ 105
onis 105
organs 105
owed 105
painted 105
pate@@ 105
path@@ 105
ping 105
possibly 105
prevent 105
proble@@ 105
purposes 105
quer@@ 105
rad 105
rah@@ 105
rais@@ 105
rasher 105
reputation 105
rho@@ 105
rojas 105
seagle 105
sid@@ 105
sm-liiga 105
spaces 105
trio 105
ultimate 105
unveiled 105
valencia 105
virtus 105
visiting 105
week@@ 105
westminster 105
ön@@ 105
ğ@@ 105
dad 104
figh@@ 104
isra@@ 104
khar@@ 104
mobile 104
onto@@ 104
opped 104
ready 104
tig@@ 104
án@@ 104
accep@@ 103
bakar 103
beng@@ 103
deleg@@ 103
dest 103
fru@@ 103
ful@@ 103
gla@@ 103
haj@@ 103
io@@ 103
iri@@ 103
onso 103
reci@@ 103
shap@@ 103
stro@@ 103
tee 103
urn@@ 103
wheel@@ 103
alia 102
amed 102
azerbai@@ 102
clau@@ 102
ea 102
paragu@@ 102
sman 102
spin@@ 102
tric 102
cott 101
inci@@ 101
net@@ 101
ord 101
athle@@ 100
commissi@@ 100
conte@@ 100
curren@@ 100
dro 100
ental 100
heav@@ 100
mercur@@ 100
reco@@ 100
sche@@ 100
ult 100
alv@@ 99
atat@@ 99
cs1-kern-@@ 99
cylin@@ 99
design@@ 99
island@@ 99
output 99
pow@@ 99
spectr@@ 99
valen@@ 99
£ 99
aba 98
das 98
divisi@@ 98
rou 98
ses@@ 98
thom@@ 98
ario 97
attac@@ 97
brook@@ 97
cept 97
colo 97
divi@@ 97
fec@@ 97
gence 97
histori@@ 97
lim@@ 97
lined 97
mans 97
oms 97
poin@@ 97
rence 97
ances 96
argen@@ 96
bob@@ 96
dian 96
educ@@ 96
ency 96
jack@@ 96
oli 96
poli@@ 96
power@@ 96
ve-@@ 96
22@@ 95
discipl@@ 95
europe@@ 95
experi@@ 95
scienti@@ 95
stru@@ 95
subsidi@@ 95
aeron@@ 94
alem 94
amar@@ 94
civ@@ 94
compon@@ 94
follow@@ 94
friend@@ 94
hali@@ 94
image 94
industri@@ 94
kets 94
kot@@ 94
map@@ 94
merch@@ 94
techno@@ 94
cio 93
eded 93
ein@@ 93
introduc@@ 93
leag@@ 93
magaz@@ 93
pilo@@ 93
prac@@ 93
roy@@ 93
w-@@ 93
colou@@ 92
ener@@ 92
lers 92
male 92
nis 92
ports 92
stration 92
won@@ 92
youn@@ 92
ão 92
ğ 92
airs 91
aissance 91
cont@@ 91
icity 91
ilian 91
partments 91
watch 91
-use 90
blanco 90
braz@@ 90
bron@@ 90
citt@@ 90
facil@@ 90
fili@@ 90
footb@@ 90
in-chief 90
inc@@ 90
indu@@ 90
kar 90
recogni@@ 90
shred@@ 90
tren@@ 90
abil@@ 89
ague 89
astronom@@ 89
campai@@ 89
confeder@@ 89
dicated 89
establish@@ 89
ital@@ 89
keeper 89
kop@@ 89
monte@@ 89
muse@@ 89
occupi@@ 89
oner 89
samp@@ 89
techni@@ 89
admir@@ 88
alber@@ 88
aters 88
broo@@ 88
dall@@ 88
helicop@@ 88
inaugur@@ 88
inher@@ 88
mus 88
nick@@ 88
subur@@ 88
william@@ 88
199@@ 87
aire 87
aths 87
cuis@@ 87
cus 87
episo@@ 87
ing-@@ 87
oly@@ 87
pean@@ 87
sg 87
success@@ 87
tribu@@ 87
distribu@@ 86
imp@@ 86
ira@@ 86
mate@@ 86
scu@@ 86
substitu@@ 86
sud@@ 86
tro 86
‘ 86
cott@@ 85
gaz@@ 85
heidel@@ 85
hoc@@ 85
lah@@ 85
lip@@ 85
marks 85
mentary 85
rebel@@ 85
squad@@ 85
strate@@ 85
tik@@ 85
titude 85
unt 85
asunci@@ 84
editor@@ 84
journ@@ 84
motor@@ 84
nr@@ 84
phal@@ 84
promin@@ 84
redi@@ 84
rements 84
stic 84
tain@@ 84
thology 84
− 84
associ@@ 83
borne 83
chair@@ 83
coali@@ 83
dson 83
dum 83
festiv@@ 83
hosp@@ 83
stead 83
tary 83
uro 83
vance 83
192@@ 82
dav@@ 82
eclip@@ 82
kenne@@ 82
origin@@ 82
outh 82
samu@@ 82
sional 82
thou@@ 82
ucc@@ 82
uti@@ 82
aller 81
birth@@ 81
mashed 81
mex@@ 81
offs 81
ox@@ 81
treat@@ 81
ś@@ 81
ə 81
alli 80
cele@@ 80
common@@ 80
consi@@ 80
coordin@@ 80
flav@@ 80
own@@ 80
sden 80
veter@@ 80
fig@@ 79
flag@@ 79
metap@@ 79
nether@@ 79
nin@@ 79
promot@@ 79
represen@@ 79
sebas@@ 79
summ@@ 79
techn@@ 79
them@@ 79
titu@@ 79
velo@@ 79
wash@@ 79
ô@@ 79
color@@ 78
cone 78
dding 78
dress 78
itude 78
lass 78
ld 78
lez 78
seg@@ 78
settle@@ 78
vic 78
xed 78
? 77
akis 77
alder@@ 77
econom@@ 77
ere@@ 77
gonz@@ 77
hamp@@ 77
mbers 77
vand@@ 77
ę@@ 77
ț@@ 77
alled 76
angel@@ 76
cath@@ 76
confer@@ 76
guez 76
scope 76
tale 76
wiz@@ 76
ù 76
abar@@ 75
assemb@@ 75
bhaj@@ 75
brou@@ 75
burger 75
chief@@ 75
develo@@ 75
engine@@ 75
feder@@ 75
ott 75
reme@@ 75
tradi@@ 75
vide@@ 75
wido@@ 75
daw@@ 74
dies 74
distingu@@ 74
dying 74
expec@@ 74
hig@@ 74
kilome@@ 74
mas 74
oi 74
prefec@@ 74
rior 74
tack@@ 74
alities 73
apolis 73
athan 73
cali@@ 73
claim@@ 73
davuto@@ 73
feli@@ 73
phr@@ 73
poten@@ 73
psy@@ 73
sus@@ 73
vian 73
wick@@ 73
anese 72
big@@ 72
cate@@ 72
commer@@ 72
miche@@ 72
rd 72
scul@@ 72
secur@@ 72
veget@@ 72
vent 72
ürk 72
chev@@ 71
inde@@ 71
iron@@ 71
ister 71
mpia 71
negr@@ 71
newsp@@ 71
rail@@ 71
stic@@ 71
thunder@@ 71
tionally 71
yel@@ 71
anal@@ 70
chel@@ 70
demon@@ 70
fic 70
ice@@ 70
manu@@ 70
pleas@@ 70
ire@@ 69
jama@@ 69
lest 69
medic@@ 69
ow 69
pose 69
ppa 69
revie@@ 69
tun 69
vy 69
apers 68
ego 68
full@@ 68
gun 68
itiba 68
kke 68
nel 68
ood 68
philipp@@ 68
salv@@ 68
willi@@ 68
buted 67
colon@@ 67
cous@@ 67
eligi@@ 67
evi@@ 67
hic 67
jects 67
kry@@ 67
nei@@ 67
peñ@@ 67
stric@@ 67
ā@@ 67
165 66
accor@@ 66
bav@@ 66
deric@@ 66
ind 66
infan@@ 66
l-@@ 66
lli@@ 66
maxi@@ 66
pep@@ 66
rely 66
stoc@@ 66
turkmen@@ 66
å 66
ż@@ 66
accom@@ 65
califor@@ 65
deta@@ 65
famili@@ 65
illed 65
inity 65
kore@@ 65
lips 65
nec@@ 65
pture 65
rescu@@ 65
sib@@ 65
sort 65
unities 65
wid@@ 65
xim@@ 65
ü 65
ake@@ 64
avo@@ 64
busines@@ 64
gra 64
iss@@ 64
mmer 64
peter@@ 64
ple 64
rom 64
turk@@ 64
conce@@ 63
endam 63
fant@@ 63
fern@@ 63
fiel@@ 63
hol 63
ingu@@ 63
intro@@ 63
ite@@ 63
itors 63
liiga 63
map 63
movi@@ 63
orized 63
play-@@ 63
temper@@ 63
yland 63
achu@@ 62
ange@@ 62
distri@@ 62
eno@@ 62
ferred 62
ghe@@ 62
gt@@ 62
hungar@@ 62
jeff@@ 62
kara 62
legen@@ 62
minu@@ 62
ond 62
perman@@ 62
quot@@ 62
stell@@ 62
thouse 62
tici@@ 62
univer@@ 62
uru@@ 62
buri@@ 61
decisi@@ 61
franc@@ 61
ilities 61
meas@@ 61
pie@@ 61
rant 61
sie@@ 61
succe@@ 61
bn 60
frank@@ 60
guit@@ 60
itary 60
monu@@ 60
politan 60
sep@@ 60
sequ@@ 60
soli@@ 60
song@@ 60
ʊ@@ 60
&@@ 59
categ@@ 59
compos@@ 59
depen@@ 59
friedr@@ 59
horse@@ 59
house@@ 59
nel@@ 59
subscri@@ 59
ticip@@ 59
trilo@@ 59
twel@@ 59
universi@@ 59
² 59
commu@@ 58
estim@@ 58
georgi@@ 58
hus 58
politici@@ 58
portr@@ 58
provi@@ 58
ups 58
you@@ 58
ê@@ 58
akarta 57
evo 57
olfo 57
para 57
statistic@@ 57
tamar@@ 57
wee@@ 57
ween 57
260 56
administr@@ 56
amo 56
arch 56
diction 56
lead@@ 56
malay@@ 56
occur@@ 56
oreg@@ 56
pers@@ 56
⋅ 56
ador 55
akes 55
appoin@@ 55
bor 55
coast@@ 55
communic@@ 55
dary 55
employe@@ 55
eventu@@ 55
fl 55
hael 55
iff 55
iso@@ 55
jas 55
semb@@ 55
tec@@ 55
wis 55
year-@@ 55
aband@@ 54
autonom@@ 54
clas@@ 54
destin@@ 54
dom 54
nate 54
octo@@ 54
omic 54
onna@@ 54
tford 54
tournam@@ 54
wic@@ 54
zzo 54
ador@@ 53
banan@@ 53
dens 53
juni@@ 53
samar@@ 53
spac@@ 53
ş 53
addi@@ 52
agle 52
aska 52
border@@ 52
describ@@ 52
figu@@ 52
jury 52
sug@@ 52
vals 52
vb 52
zah@@ 52
193@@ 51
194@@ 51
analy@@ 51
conta@@ 51
fantas@@ 51
gency 51
holm 51
immedi@@ 51
intelli@@ 51
itan 51
kla@@ 51
knowle@@ 51
liqu@@ 51
oa 51
ober@@ 51
ometric 51
sour@@ 51
tiva 51
aerod@@ 50
corpor@@ 50
declar@@ 50
emy 50
exe@@ 50
quent 50
saus@@ 50
servation 50
streng@@ 50
ulia 50
ì 50
astronau@@ 49
carol@@ 49
diag@@ 49
eli 49
font-@@ 49
geor@@ 49
itar@@ 49
manag@@ 49
ough 49
revolu@@ 49
tai@@ 49
theat@@ 49
cess 48
commis@@ 48
denti@@ 48
determin@@ 48
dome@@ 48
jim@@ 48
marines 48
oon 48
polon@@ 48
ppe 48
secu@@ 48
susp@@ 48
tay@@ 48
alph@@ 47
arol 47
bank@@ 47
close@@ 47
configur@@ 47
dency 47
eria 47
hire 47
signi@@ 47
tment 47
vins 47
yon 47
198@@ 46
ather 46
aveng@@ 46
bbi@@ 46
candi@@ 46
ceme@@ 46
dable 46
dimit@@ 46
plac@@ 46
quently 46
sas 46
tl@@ 46
toria 46
zz 46
197@@ 45
aen@@ 45
alexand@@ 45
aper 45
cano 45
erly 45
fren@@ 45
frie@@ 45
insu@@ 45
know@@ 45
large@@ 45
mw 45
paci@@ 45
peninsu@@ 45
placement 45
sea@@ 45
vl@@ 45
ń 45
akar@@ 44
enberg 44
españ@@ 44
jav@@ 44
lando 44
mob@@ 44
pical 44
pse 44
raft 44
shutt@@ 44
solved 44
stitu@@ 44
tere@@ 44
unded 44
ural 44
ɛ@@ 44
* 43
deriv@@ 43
feat@@ 43
iana 43
inson 43
kris@@ 43
larly 43
legis@@ 43
lightly 43
mish 43
mud 43
stored 43
surroun@@ 43
tence 43
vehic@@ 43
ú 43
austr@@ 42
avail@@ 42
citi@@ 42
colla@@ 42
melo@@ 42
metric 42
partn@@ 42
pies 42
predecess@@ 42
purch@@ 42
speak@@ 42
sugges@@ 42
zio 42
ł 42
agon 41
ação 41
belle 41
buster 41
champi@@ 41
deliver@@ 41
dez 41
inclu@@ 41
indone@@ 41
juventu@@ 41
mat 41
migrants 41
nd 41
stly 41
territ@@ 41
universit@@ 41
vest@@ 41
20s 40
accompani@@ 40
alban@@ 40
albe@@ 40
arap@@ 40
confir@@ 40
evol@@ 40
ign 40
jah 40
satur@@ 40
sonville 40
sé@@ 40
voy@@ 40
ý 40
š 40
attemp@@ 39
conflic@@ 39
ponti@@ 39
provisi@@ 39
puk 39
reas@@ 39
relation@@ 39
rome@@ 39
usu@@ 39
ät 39
î@@ 39
ɒ@@ 39
cial 38
columb@@ 38
fayette 38
fen 38
fier 38
gare@@ 38
grams 38
him@@ 38
iti@@ 38
onica 38
piaz@@ 38
proper@@ 38
rhyth@@ 38
ried 38
rist@@ 38
story@@ 38
aleksand@@ 37
buff@@ 37
cler@@ 37
colu@@ 37
defe@@ 37
equi@@ 37
mathe@@ 37
pson 37
sylvania 37
ventu@@ 37
vine@@ 37
ández 37
ò 37
195@@ 36
adel@@ 36
agremi@@ 36
aç@@ 36
bill@@ 36
blin 36
carbon@@ 36
crete 36
ece 36
gul@@ 36
ived 36
jour@@ 36
kais@@ 36
locks 36
matt@@ 36
near@@ 36
ppo 36
secon@@ 36
virgin@@ 36
australi@@ 35
efxeinou@@ 35
enced 35
inhab@@ 35
insur@@ 35
itas 35
jap@@ 35
jos@@ 35
kee 35
kilo@@ 35
legislat@@ 35
libr@@ 35
poulos 35
prototy@@ 35
solu@@ 35
sque 35
vac 35
~ 35
ayed 34
flin@@ 34
librari@@ 34
nex@@ 34
numer@@ 34
organi@@ 34
pec@@ 34
studi@@ 34
tomat@@ 34
tsi@@ 34
bico@@ 33
eping 33
kov 33
kut@@ 33
lous 33
mah 33
qat@@ 33
sumed 33
synth@@ 33
trini@@ 33
urugu@@ 33
acade@@ 32
alo 32
arth@@ 32
atric@@ 32
classi@@ 32
democr@@ 32
doug@@ 32
eties 32
gover@@ 32
hist@@ 32
inet 32
jaz@@ 32
kw@@ 32
lyn 32
mihajlo@@ 32
minot@@ 32
olympi@@ 32
palo@@ 32
sm-@@ 32
ë 32
ą@@ 32
abeth 31
ades@@ 31
agen 31
aned 31
aspec@@ 31
bago 31
battle@@ 31
cere@@ 31
champion@@ 31
harri@@ 31
histor@@ 31
icia 31
krish@@ 31
legisl@@ 31
like@@ 31
nij@@ 31
onato 31
progres@@ 31
rhy@@ 31
sin 31
torpe@@ 31
ß 31
54@@ 30
adis 30
alab@@ 30
erec@@ 30
expan@@ 30
holi@@ 30
istan 30
oes 30
recor@@ 30
reviewed 30
stantin@@ 30
traf@@ 30
writ@@ 30
ć@@ 30
backgroun@@ 29
bey 29
bul 29
lington 29
mai 29
neighbor@@ 29
nove@@ 29
nw@@ 29
penn@@ 29
possib@@ 29
stuff@@ 29
through@@ 29
vertic@@ 29
ˌ@@ 29
activi@@ 28
andalu@@ 28
arella 28
aten 28
añ@@ 28
dow 28
encomp@@ 28
individu@@ 28
limi@@ 28
maha@@ 28
olic 28
pard 28
polic@@ 28
shipy@@ 28
shri@@ 28
specially 28
ulty 28
ʒ@@ 28
aining 27
alex@@ 27
antville 27
approxim@@ 27
bolog@@ 27
ety 27
lished 27
paralle@@ 27
releg@@ 27
utt@@ 27
zade 27
ī@@ 27
157@@ 26
\ 26
acher 26
astero@@ 26
cadil@@ 26
cil 26
claudi@@ 26
dho@@ 26
furt 26
inves@@ 26
lub@@ 26
michi@@ 26
orities 26
osi@@ 26
padd@@ 26
regis@@ 26
190@@ 25
achar@@ 25
amate@@ 25
angled 25
bache@@ 25
camer@@ 25
centur@@ 25
clevel@@ 25
eces 25
faye@@ 25
franch@@ 25
gator 25
hind 25
mitch@@ 25
muth 25
swis@@ 25
unci@@ 25
ɑ@@ 25
^ 24
acti@@ 24
architec@@ 24
broadcas@@ 24
decl@@ 24
ee@@ 24
enna 24
humb@@ 24
inclin@@ 24
marri@@ 24
massi@@ 24
nant 24
pality 24
republic@@ 24
strup 24
valent 24
vot@@ 24
· 24
à@@ 24
ariz@@ 23
cinc@@ 23
demol@@ 23
dough@@ 23
gett 23
mw-@@ 23
otto@@ 23
oys@@ 23
partment 23
rese@@ 23
sels 23
seni@@ 23
ę 23
œ@@ 23
ū@@ 23
μ@@ 23
adesh 22
allow@@ 22
dred 22
ettes 22
hunt@@ 22
klas@@ 22
lincol@@ 22
manufactu@@ 22
onio 22
ool 22
peop@@ 22
popular@@ 22
priest@@ 22
repeat 22
repu@@ 22
stad@@ 22
ventures 22
volun@@ 22
wau@@ 22
ð@@ 22
ø 22
θ@@ 22
bour 21
cari@@ 21
character@@ 21
dential 21
done@@ 21
emia 21
lac 21
level@@ 21
lieu@@ 21
mee@@ 21
pue@@ 21
ril 21
roe 21
sprink@@ 21
sumat@@ 21
syste@@ 21
thers 21
thly 21
tir@@ 21
ussia 21
ï@@ 21
‑ 21
… 21
abra@@ 20
alk@@ 20
anno@@ 20
astron@@ 20
characteri@@ 20
eliz@@ 20
enix 20
heed 20
hio 20
isio 20
lc 20
model@@ 20
olf@@ 20
psychi@@ 20
subsi@@ 20
ř@@ 20
ś 20
⁄ 20
391 19
begin@@ 19
desliga 19
epo@@ 19
gaard 19
hid 19
magdal@@ 19
nikov 19
performan@@ 19
scien@@ 19
sic 19
sovi@@ 19
tul@@ 19
ucci 19
wark 19
½ 19
è 19
ğlu 19
ţ@@ 19
ɔ@@ 19
acous@@ 18
atta 18
cash@@ 18
cly@@ 18
detro@@ 18
grow@@ 18
imperi@@ 18
istan@@ 18
moy@@ 18
naci@@ 18
ont@@ 18
pino 18
rc@@ 18
relati@@ 18
rough@@ 18
ū 18
ů@@ 18
-belt 17
arist 17
bec 17
bic 17
disci@@ 17
eras@@ 17
gé 17
hoods 17
id-@@ 17
iden 17
iraq@@ 17
köl@@ 17
langu@@ 17
mezz@@ 17
olym@@ 17
parliam@@ 17
pment 17
reng@@ 17
retur@@ 17
richard@@ 17
wide@@ 17
birm@@ 16
buen@@ 16
dece@@ 16
diame@@ 16
enc@@ 16
hapu@@ 16
iga 16
infra@@ 16
inging 16
ksburg 16
meth@@ 16
no-@@ 16
nott@@ 16
parliamen@@ 16
pov 16
restaur@@ 16
rust 16
sot@@ 16
tely 16
tiy@@ 16
vk@@ 16
volu@@ 16
ʃ@@ 16
075 15
aldr@@ 15
buch@@ 15
depu@@ 15
der- 15
econ@@ 15
forts 15
galore 15
gson 15
his@@ 15
hoofd@@ 15
inhabit@@ 15
inju@@ 15
invi@@ 15
monds 15
nego@@ 15
oper 15
oren@@ 15
piłsud@@ 15
qad@@ 15
tels 15
vancou@@ 15
vil 15
³ 15
ʊ 15
alek@@ 14
austri@@ 14
bagh@@ 14
carav@@ 14
caval@@ 14
centi@@ 14
editor-@@ 14
ethiop@@ 14
fill@@ 14
gujar@@ 14
jenn@@ 14
lo- 14
make@@ 14
mississi@@ 14
offic@@ 14
piz@@ 14
pulsion 14
roule@@ 14
soh@@ 14
supre@@ 14
tended 14
thresh@@ 14
ya@@ 14
â 14
ša 14
ɡ@@ 14
063 13
apos@@ 13
archite@@ 13
ashed 13
ashville 13
assis 13
battali@@ 13
cades 13
chevro@@ 13
choy 13
dner 13
dolph@@ 13
festi@@ 13
gic 13
import@@ 13
indian@@ 13
janu@@ 13
ject 13
lein 13
offici@@ 13
pitts@@ 13
sio@@ 13
uto@@ 13
volk@@ 13
ysville 13
û@@ 13
ě@@ 13
ź 13
α@@ 13
264 12
` 12
acity 12
ajo@@ 12
artic@@ 12
atalan@@ 12
block@@ 12
busin@@ 12
christop@@ 12
entertain@@ 12
erto 12
georg@@ 12
hierarch@@ 12
homa 12
hygi@@ 12
jupi@@ 12
kru@@ 12
logica 12
marty@@ 12
materi@@ 12
mendr@@ 12
miss@@ 12
ought 12
paper@@ 12
poses 12
ppi 12
quat@@ 12
reson@@ 12
sandwic@@ 12
slic@@ 12
sylvan@@ 12
tera 12
uben 12
wart 12
ș 12
κ@@ 12
е@@ 12
​ 12
adis@@ 11
antw@@ 11
bol 11
cincin@@ 11
devan@@ 11
falcon@@ 11
fore 11
gio@@ 11
itage 11
ketch@@ 11
kumar 11
leip@@ 11
loway 11
magde@@ 11
mathematic@@ 11
olden@@ 11
palaeonto@@ 11
pavlo@@ 11
pillar 11
punj@@ 11
replac@@ 11
singer-@@ 11
stering 11
suf 11
superi@@ 11
tles 11
uli 11
univers@@ 11
unti@@ 11
zig 11
zny 11
ê 11
ô 11
þ@@ 11
ā 11
έ@@ 11
ο@@ 11
ς 11
ế 11
@ 10
alfre@@ 10
astern 10
attor@@ 10
barcel@@ 10
brief@@ 10
enoord 10
harv@@ 10
issu@@ 10
kyo 10
laun@@ 10
liver@@ 10
niger@@ 10
quick@@ 10
resp@@ 10
squee@@ 10
tak 10
toge@@ 10
árez 10
η@@ 10
ρ@@ 10
068 9
antwer@@ 9
azione 9
bande@@ 9
belgi@@ 9
bourn@@ 9
cabi 9
campe@@ 9
charle@@ 9
eindho@@ 9
erick 9
erte@@ 9
exis@@ 9
fey@@ 9
justici@@ 9
philo@@ 9
previ@@ 9
saraw@@ 9
unve@@ 9
ő@@ 9
ŵ@@ 9
ʻ@@ 9
ː 9
λ@@ 9
ν@@ 9
τ@@ 9
о@@ 9
с@@ 9
777 8
`@@ 8
aden@@ 8
azer@@ 8
bap@@ 8
boulev@@ 8
busi@@ 8
casi@@ 8
chang@@ 8
charac@@ 8
child@@ 8
cocon@@ 8
copenh@@ 8
disne@@ 8
doria 8
emper@@ 8
ermo 8
gaus@@ 8
inau@@ 8
iop@@ 8
keley 8
lipp@@ 8
marily 8
missis@@ 8
mt@@ 8
mum 8
parker@@ 8
raz 8
sini@@ 8
spacec@@ 8
subse@@ 8
thak@@ 8
toral 8
twee@@ 8
yel 8
youth@@ 8
ɜ@@ 8
ɪ 8
ṭ@@ 8
₹ 8
abdu@@ 7
aceous 7
albu@@ 7
celer@@ 7
erland 7
exist@@ 7
festival@@ 7
friedrich@@ 7
hier@@ 7
ilton 7
konstantin@@ 7
llery 7
midfiel@@ 7
minster 7
mosco@@ 7
passeng@@ 7
resig@@ 7
zeal@@ 7
ʌ@@ 7
ε@@ 7
ι@@ 7
ο 7
р@@ 7
abbrevi@@ 6
absolu@@ 6
agricul@@ 6
ampl@@ 6
antio@@ 6
asion 6
aur 6
barbo@@ 6
consis@@ 6
distric@@ 6
dral 6
ewell 6
featu@@ 6
forman@@ 6
frederic@@ 6
getty@@ 6
globe@@ 6
hers 6
leav@@ 6
lø@@ 6
montre@@ 6
musici@@ 6
naren@@ 6
oca 6
okla@@ 6
orle@@ 6
peach@@ 6
philadel@@ 6
publis@@ 6
raci@@ 6
religi@@ 6
represent@@ 6
satelli@@ 6
sorb@@ 6
ttingen 6
utre@@ 6
wiscons@@ 6
yaho@@ 6
¥ 6
« 6
ð 6
ư@@ 6
ʏ@@ 6
σ@@ 6
υ@@ 6
к@@ 6
ا@@ 6
ა@@ 6
apoel 5
asile@@ 5
banded 5
benjam@@ 5
bey@@ 5
bright@@ 5
chancell@@ 5
chero@@ 5
chill@@ 5
ckland 5
como@@ 5
earli@@ 5
elong@@ 5
entre@@ 5
envir@@ 5
goren@@ 5
harriet@@ 5
helsin@@ 5
infr@@ 5
khand 5
llite 5
mera 5
municip@@ 5
oxy@@ 5
rasi@@ 5
schen 5
segun 5
ser-@@ 5
societ@@ 5
t-day 5
text-@@ 5
yuzh@@ 5
¡ 5
º 5
» 5
ã@@ 5
ñ 5
ý@@ 5
ė@@ 5
ź@@ 5
ʼ@@ 5
а@@ 5
н@@ 5
т@@ 5
ố@@ 5
ớ@@ 5
253@@ 4
adirond@@ 4
agust@@ 4
align 4
appear@@ 4
appl@@ 4
auton@@ 4
bass@@ 4
bound@@ 4
carni@@ 4
cathe@@ 4
celesti@@ 4
chancellor@@ 4
defence@@ 4
ear-@@ 4
eer@@ 4
exteri@@ 4
gear@@ 4
giuse@@ 4
indigen@@ 4
isa@@ 4
kattoor 4
krishnan 4
manh@@ 4
massachu@@ 4
militi@@ 4
oit 4
onnais 4
phia 4
prede@@ 4
ricul@@ 4
salami 4
sebasti@@ 4
selves 4
socc@@ 4
veloc@@ 4
vertical-@@ 4
weeds 4
wro@@ 4
yuzhno@@ 4
õ@@ 4
öger 4
ą 4
ț 4
ʲ@@ 4
δ@@ 4
ε 4
ι 4
ό@@ 4
в@@ 4
и@@ 4
й 4
व@@ 4
დ@@ 4
ი@@ 4
ლ@@ 4
ṛ@@ 4
ừ@@ 4
₨ 4
♭ 4
饘 4
ahmed@@ 3
albuquer@@ 3
ambass@@ 3
arest 3
atmo@@ 3
attan 3
attle 3
bennie 3
bq 3
caball@@ 3
chiri@@ 3
congres@@ 3
connecti@@ 3
degre@@ 3
gges@@ 3
gonzá@@ 3
gras@@ 3
homet@@ 3
ight 3
ingredi@@ 3
inor 3
josep@@ 3
louisi@@ 3
monoc@@ 3
mumb@@ 3
oridis 3
pastr@@ 3
potat@@ 3
prab@@ 3
skys@@ 3
spani@@ 3
spired 3
suspen@@ 3
tenance 3
tennes@@ 3
tesse 3
ultim@@ 3
vap@@ 3
viv 3
world@@ 3
§ 3
´ 3
º@@ 3
ù@@ 3
č 3
ē 3
ė 3
ť 3
ɬ@@ 3
̣ 3
б@@ 3
д@@ 3
т 3
у@@ 3
ч@@ 3
ل@@ 3
› 3
包 3
叉@@ 3
燒@@ 3
米@@ 3
粉 3
abbi@@ 2
adjac@@ 2
again@@ 2
ahalli 2
alkma@@ 2
alphare@@ 2
bbio 2
bicoff 2
bini@@ 2
conden@@ 2
decemb@@ 2
desh 2
dren 2
eccentr@@ 2
fioren@@ 2
gradi@@ 2
hais 2
hambra 2
havi@@ 2
headquar@@ 2
househol@@ 2
illin@@ 2
itra 2
jans 2
karnat@@ 2
ketball 2
listic 2
lock-@@ 2
locomo@@ 2
melodi@@ 2
ministr@@ 2
montgomer@@ 2
names@@ 2
palae@@ 2
parli@@ 2
paylo@@ 2
psyche@@ 2
quired 2
recen@@ 2
resul@@ 2
salvador@@ 2
segun@@ 2
shoe@@ 2
sohn 2
switz@@ 2
tapi@@ 2
typic@@ 2
vano 2
volksw@@ 2
wab@@ 2
ylde 2
ymouth 2
¢ 2
µ 2
ã 2
ç 2
ì@@ 2
ģ@@ 2
ī 2
ņ@@ 2
ň@@ 2
ţ 2
ť@@ 2
ȳ@@ 2
ɕ 2
ɦ@@ 2
ʹ@@ 2
̯ 2
ί@@ 2
β 2
γ 2
γ@@ 2
θ 2
π@@ 2
τ 2
χ@@ 2
ω 2
ω@@ 2
б 2
ж@@ 2
к 2
м@@ 2
п@@ 2
ы@@ 2
ь@@ 2
э@@ 2
ص@@ 2
و@@ 2
क 2
ट 2
ड 2
प@@ 2
़ 2
् 2
க@@ 2
ச@@ 2
ஞ 2
ி 2
் 2
ರ@@ 2
ಸ 2
ಹ@@ 2
ು 2
ೆ@@ 2
್ 2
ක@@ 2
ග@@ 2
ට 2
ත@@ 2
් 2
ු@@ 2
ො@@ 2
ა 2
ე@@ 2
ვ@@ 2
ი 2
შ@@ 2
ჭ@@ 2
ṇ 2
ṣ@@ 2
ẩ@@ 2
ặ@@ 2
ἀ@@ 2
ῆ@@ 2
† 2
• 2
№ 2
™ 2
☉ 2
✦ 2
山@@ 2
峰 2
川@@ 2
秀@@ 2
粽 2
粿 2
糜 2
肉@@ 2
酏 2
鬻 2
410@@ 1
5600@@ 1
accad@@ 1
accone 1
accr@@ 1
acob 1
acos 1
aiss@@ 1
alcoben@@ 1
anish 1
apsis 1
avoc@@ 1
basan@@ 1
becom@@ 1
brasile@@ 1
cater@@ 1
ccn 1
chall@@ 1
chrys@@ 1
croci@@ 1
ddr@@ 1
delaw@@ 1
derby@@ 1
dess 1
entrepre@@ 1
erty 1
felic@@ 1
friedrichsha@@ 1
george@@ 1
gnit 1
helman 1
här@@ 1
iohan@@ 1
kova@@ 1
lenic 1
lubbo@@ 1
lujah 1
makov 1
mendo@@ 1
milwau@@ 1
min-@@ 1
montgo@@ 1
munici@@ 1
nood@@ 1
obasan@@ 1
ongside 1
orizo 1
phrys 1
prokop@@ 1
proxim@@ 1
prud@@ 1
quense 1
rasmus@@ 1
rema@@ 1
rodrí@@ 1
route@@ 1
runners-@@ 1
sate@@ 1
schip@@ 1
septe@@ 1
soldi@@ 1
teis@@ 1
terdam 1
thel@@ 1
throu@@ 1
toor 1
ttura 1
twili@@ 1
uren 1
visves@@ 1
whil@@ 1
zitar@@ 1
® 1
¼ 1
¾ 1
æ 1
ï 1
ò@@ 1
ÿ@@ 1
ē@@ 1
ĕ@@ 1
ň 1
ŋ 1
ő 1
ż 1
ž 1
ǐ@@ 1
ʃ 1
ʒ 1
ʼ 1
ά@@ 1
α 1
β@@ 1
ν 1
φ 1
а 1
л@@ 1
н 1
о 1
ї@@ 1
ب@@ 1
ت@@ 1
ر 1
س@@ 1
ع@@ 1
ف@@ 1
ق 1
ق@@ 1
ل 1
ن 1
ن@@ 1
و 1
ِ 1
پ@@ 1
ښ@@ 1
ی@@ 1
ට@@ 1
ඩ@@ 1
ත 1
ස 1
ḍ@@ 1
ṃ@@ 1
ệ 1
ị@@ 1
ộ 1
ờ@@ 1
ῑ@@ 1
‍ 1
„ 1
⁠ 1
₺ 1
⅔ 1
⑯ 1
★ 1
倉@@ 1
和@@ 1
小@@ 1
庁 1
県@@ 1
蒸@@ 1
調@@ 1
餐@@ 1
） 1
madeupword0000 0
madeupword0001 0
madeupword0002 0
madeupword0003 0
madeupword0004 0
madeupword0005 0
