the 271957
, 225683
. 167818
of 133120
in 127629
and 109845
a 105835
is 85260
was 63003
to 61896
as 36364
it 35953
on 34364
he 32956
by 31185
with 27009
an 26269
for 25933
at 25251
s 23442
from 22886
&quot; 20659
ing 20196
k@@ 19345
s@@ 18553
&apos;s 17700
t@@ 17470
e 17142
&apos; 17122
-@@ 16541
re@@ 16440
d@@ 16395
ed 15141
o 14663
es 14617
- 14472
has 14450
his 14238
i 14148
city 14087
united 13944
n@@ 13867
p@@ 13606
g@@ 13534
m@@ 13065
which 12986
airport 12903
al@@ 12700
l@@ 12671
are 12595
or 12576
b@@ 12489
its 12234
er 12074
t 11928
h@@ 11927
new 11887
states 11885
that 11640
r@@ 11553
e@@ 11543
y@@ 11418
c@@ 11369
i@@ 10878
first 10799
en@@ 10774
w@@ 10507
v@@ 10346
al 10234
o@@ 10040
in@@ 9998
were 9946
f@@ 9786
one 9783
d 9751
county 9665
1 9590
y 9403
ch@@ 9271
club 9096
le@@ 9084
: 9021
st@@ 8933
ro@@ 8926
ar@@ 8882
name 8871
ers 8802
after 8746
an@@ 8420
u@@ 8357
also 8355
c 8355
– 8282
j@@ 8264
located 8165
be 8031
or@@ 7995
er@@ 7862
z@@ 7758
country 7703
sh@@ 7679
this 7647
se@@ 7552
; 7446
r 7383
l 7378
a@@ 7341
el@@ 7314
n 7290
m 7284
ad@@ 7196
leader 7114
university 7099
u 7087
de@@ 7036
at@@ 6997
th@@ 6936
0 6863
on@@ 6845
served 6829
had 6741
un@@ 6726
part 6716
they 6666
it@@ 6558
2 6541
ia 6510
who 6416
con@@ 6414
ly 6348
known 6292
3 6287
ab@@ 6123
b 6093
am@@ 6086
state 6040
mar@@ 6019
ar 6007
) 5977
k 5975
co@@ 5950
is@@ 5888
as@@ 5875
ation 5864
4 5849
season 5771
/ 5768
tr@@ 5766
ic 5758
ac@@ 5753
school 5726
league 5697
( 5641
named 5575
two 5572
international 5539
us 5437
area 5416
born 5374
8 5365
asteroid 5358
made 5331
where 5302
air 5293
played 5281
ate 5279
em@@ 5274
6 5257
american 5196
im@@ 5178
football 5161
national 5149
but 5113
their 5084
en 5027
location 5012
br@@ 4980
th 4956
texas 4947
5@@ 4945
ated 4943
6@@ 4941
9@@ 4926
5 4921
es@@ 4877
used 4860
be@@ 4835
g 4829
member 4815
ag@@ 4808
ted 4782
man 4781
years 4767
ic@@ 4756
been 4744
during 4740
ex@@ 4733
w 4708
di@@ 4701
bo@@ 4696
building 4673
st 4640
7@@ 4635
de 4613
group 4595
il@@ 4581
ts 4566
team 4558
f 4552
ur@@ 4503
per@@ 4482
all 4454
she 4439
land 4434
number 4404
lo@@ 4303
time 4300
ne@@ 4297
language 4264
ds 4222
ol@@ 4219
ion 4173
ma@@ 4156
car@@ 4137
bu@@ 4124
8@@ 4121
gu@@ 4095
p 4059
when 4017
have 4008
id@@ 3977
7 3967
age 3950
year 3949
town 3936
ap@@ 3931
3@@ 3920
main 3914
ian 3903
north 3881
sp@@ 3878
9 3845
el 3840
place 3840
et@@ 3833
became 3825
ed@@ 3825
qu@@ 3824
into 3820
built 3788
ter 3746
dr@@ 3744
pro@@ 3739
ak@@ 3728
region 3696
son 3669
population 3654
other 3653
4@@ 3651
am 3651
au@@ 3644
there 3637
ig@@ 3628
based 3625
gr@@ 3606
most 3597
po@@ 3595
published 3581
her 3579
ent 3571
ent@@ 3566
dish 3551
alan 3548
ton 3529
um@@ 3529
ine 3513
runway 3469
established 3464
war 3432
x 3425
le 3410
su@@ 3406
west 3380
mo@@ 3357
mw-parser-output 3336
h 3329
ul@@ 3311
founded 3304
11 3303
until 3302
not 3299
pe@@ 3297
se 3286
mon@@ 3285
up 3265
to@@ 3252
te@@ 3250
18@@ 3240
av@@ 3233
ber@@ 3228
between 3206
ice 3203
second 3196
pre@@ 3172
then 3164
ks 3162
ence 3157
may 3152
li@@ 3151
2010 3138
dis@@ 3138
later 3125
% 3119
journal 3118
ir@@ 3113
bar@@ 3105
called 3097
york 3083
south 3081
° 3078
census 3075
and@@ 3072
pl@@ 3067
par@@ 3061
being 3052
op@@ 3038
including 3033
2@@ 3025
ions 3014
series 3013
ot@@ 2972
apollo 2967
v 2959
har@@ 2941
z 2939
john 2927
0@@ 2921
ter@@ 2918
led 2917
me@@ 2914
college 2913
ph@@ 2903
ist 2902
miles 2902
serie 2896
world 2888
character 2876
19@@ 2874
man@@ 2864
ang@@ 2854
do@@ 2853
more 2853
ies 2852
om@@ 2849
12 2844
ance 2843
x@@ 2840
ad 2839
over 2828
king 2817
ical 2816
three 2816
before 2813
ut@@ 2813
out 2798
house 2795
family 2793
we@@ 2791
space 2779
ie 2768
ri@@ 2766
di 2745
ast@@ 2728
str@@ 2722
att@@ 2717
ant 2713
well 2708
english 2693
ity 2651
square 2649
10 2635
capital 2626
der 2622
people 2616
ive 2609
1@@ 2590
won 2588
institute 2587
while 2581
du@@ 2577
can 2576
only 2569
ethnic 2559
ment 2551
ations 2547
bacon 2547
ingredient 2543
station 2543
id 2533
able 2520
ground 2517
cr@@ 2516
min@@ 2511
ay@@ 2508
band 2501
created 2492
ah@@ 2487
io 2486
william 2483
district 2482
following 2479
est@@ 2478
center 2477
public 2473
af@@ 2467
end 2441
inter@@ 2435
president 2422
under 2421
home 2418
found 2413
began 2410
service 2409
released 2408
force 2403
20 2398
type 2398
division 2397
company 2396
members 2389
high 2385
ass@@ 2368
january 2364
est 2361
jo@@ 2361
july 2359
ating 2356
ist@@ 2355
sch@@ 2355
az@@ 2349
ings 2349
au 2346
nasa 2345
since 2340
discovered 2338
designed 2333
cl@@ 2331
level 2331
general 2327
cor@@ 2326
ors 2322
15 2321
side 2317
way 2316
ans 2302
ke@@ 2302
orbit 2302
india 2301
ant@@ 2295
col@@ 2288
pilot 2283
ev@@ 2276
ing@@ 2276
os 2273
ay 2266
street 2260
ting 2251
east 2250
la@@ 2249
ou@@ 2244
technology 2243
march 2241
ip@@ 2239
line 2231
sauce 2227
fc 2219
such 2217
september 2216
both 2202
ch 2194
ke 2184
business 2173
monument 2172
flight 2164
pr@@ 2163
he@@ 2159
album 2158
ary 2157
go@@ 2150
us@@ 2150
ho@@ 2149
play 2146
sea 2144
jersey 2140
august 2128
through 2128
ste@@ 2126
als 2118
party 2114
some 2113
pu@@ 2107
would 2101
book 2099
ce 2086
many 2084
17 2073
signed 2068
june 2067
april 2065
california 2059
use 2055
aw@@ 2047
ard 2046
bl@@ 2042
ry 2041
ingredients 2040
2014 2039
four 2034
iz@@ 2034
mir 2033
long 2030
fin@@ 2029
,@@ 2027
length 2026
launch 2011
aircraft 2003
body 1998
former 1998
indonesia 1997
for@@ 1995
no@@ 1995
plays 1995
aarhus 1990
ell@@ 1990
14 1989
october 1986
bor@@ 1980
10@@ 1979
ning 1979
&amp; 1976
et 1971
hol@@ 1960
office 1957
oc@@ 1955
above 1949
war@@ 1949
see 1945
however 1940
all@@ 1936
several 1933
central 1927
ship 1926
ac 1925
early 1920
township 1919
moved 1915
ill@@ 1912
comics 1911
sub@@ 1911
ell 1908
ra@@ 1908
december 1907
november 1905
per 1900
ty 1898
um 1896
ct@@ 1894
than 1892
ten@@ 1886
ford 1885
field 1883
formed 1883
government 1880
16@@ 1879
lu@@ 1876
him 1874
pi@@ 1870
lin@@ 1867
operated 1859
birth 1857
italy 1857
date 1850
17@@ 1847
road 1840
ver@@ 1839
ding 1837
day 1836
professional 1832
2009 1828
acharya 1828
ded 1827
ner 1825
back 1824
ow@@ 1821
iv@@ 1818
metres 1811
left 1809
crew 1808
il 1799
trans@@ 1795
her@@ 1793
ru@@ 1793
if@@ 1790
infantry 1790
ics 1785
cted 1783
ley 1783
hall 1774
february 1771
2011 1770
ess@@ 1769
si@@ 1764
system 1762
joined 1757
18 1755
title 1755
playing 1753
about 1751
music 1751
super@@ 1751
ann@@ 1750
austin 1750
started 1747
no 1743
italian 1737
largest 1737
bean 1736
ct 1732
la 1732
can@@ 1719
sun 1716
ely 1714
own 1713
fre@@ 1706
ight 1706
bur@@ 1705
white 1704
cap@@ 1702
ban@@ 1700
cul@@ 1697
elected 1697
sol@@ 1696
work 1696
career 1695
regional 1695
end@@ 1689
ion@@ 1688
so@@ 1688
opened 1686
fr@@ 1681
23 1680
} 1680
j 1679
law 1679
park 1679
the@@ 1678
ying 1676
san 1675
190@@ 1674
les 1673
astronomer 1671
ii 1670
{ 1669
old 1668
spain 1668
2012 1666
mission 1666
ked 1664
sal@@ 1663
char@@ 1660
ities 1660
along 1655
mer@@ 1646
30 1645
ath@@ 1645
base 1643
com@@ 1638
gen@@ 1629
vi@@ 1629
fl@@ 1623
2008 1621
ery 1613
include 1613
period 1610
﻿ 1610
16 1609
same 1609
sl@@ 1609
completed 1608
nor@@ 1608
pal@@ 1606
ered 1604
den@@ 1603
ction 1600
13 1596
ville 1596
americans 1595
sk@@ 1592
ak 1589
mat@@ 1588
now 1588
against 1587
land@@ 1585
fe@@ 1584
ele@@ 1581
ish 1576
cre@@ 1575
included 1570
science 1568
tur@@ 1568
these 1567
ach@@ 1565
british 1565
top 1563
fried 1561
army 1560
cont@@ 1560
took 1555
2007 1554
association 1554
third 1550
2000 1546
ju@@ 1545
cup 1544
wal@@ 1536
construction 1535
community 1531
cu@@ 1529
ized 1528
received 1528
test 1528
ick 1527
ick@@ 1527
site 1524
shepard 1523
ge@@ 1522
ally 1517
ss@@ 1517
cal@@ 1515
mu@@ 1515
ain 1512
popular 1508
written 1508
sc@@ 1504
according 1498
ale 1496
major 1496
ite 1495
total 1495
wor@@ 1495
ob@@ 1493
2013 1491
observatory 1488
song 1488
madrid 1487
red 1486
produced 1485
wh@@ 1483
eng@@ 1477
like 1475
00 1474
debut 1474
washington 1472
form 1470
gar@@ 1470
ory 1469
lan@@ 1468
currently 1466
15@@ 1465
ile 1464
operating 1464
aldrin 1463
manager 1463
do 1461
mc 1461
selected 1461
cam@@ 1460
anders 1459
social 1458
elliot 1454
hockey 1451
river 1451
them 1451
ates 1450
due 1450
owned 1449
art 1447
ster 1447
bro@@ 1446
é@@ 1446
head 1442
nat@@ 1442
pol@@ 1442
design 1441
ne 1440
pos@@ 1440
air@@ 1439
orbits 1434
using 1434
2015 1433
los 1432
under@@ 1429
1634 1428
atlantic 1424
ited 1424
50 1422
ous 1422
pennsylvania 1420
ins 1417
bi@@ 1415
election 1414
ue 1413
pres@@ 1409
teams 1408
century 1407
ial 1405
vis@@ 1404
21 1400
graduated 1400
round 1400
der@@ 1399
ni@@ 1396
e-@@ 1395
ure 1395
stage 1394
25 1392
den 1391
28 1389
architect 1388
22 1387
buzz 1383
pan@@ 1382
development 1381
eg@@ 1381
appeared 1379
rice 1378
history 1376
engine 1375
dec@@ 1371
mexico 1368
189@@ 1366
european 1366
ino 1364
pen@@ 1363
ah 1361
27 1360
mor@@ 1359
uc@@ 1355
bas@@ 1353
official 1352
ran@@ 1349
da 1347
minister 1347
once 1347
serving 1346
held 1345
sion 1340
final 1337
wil@@ 1336
port@@ 1332
denmark 1331
val@@ 1329
ise 1328
seat 1328
tre@@ 1325
sar@@ 1323
version 1323
art@@ 1321
historic 1321
ana 1318
large 1318
father 1316
low 1316
sciences 1316
engineering 1315
german 1314
ets 1313
186@@ 1311
mendrisio 1310
ple 1309
car 1307
ina 1307
originally 1306
eccentricity 1305
local 1304
2006 1302
ti@@ 1302
port 1301
comp@@ 1295
position 1295
museum 1286
00@@ 1285
london 1282
ker 1281
des@@ 1280
pat@@ 1280
hotel 1277
ment@@ 1277
mus@@ 1275
observation 1274
near 1272
water 1266
ge 1265
hu@@ 1263
ey 1260
192@@ 1254
attended 1253
bal@@ 1248
# 1246
virginia 1245
ives 1244
each 1243
original 1242
beef 1240
within 1237
belt 1236
great 1236
small 1236
0s 1234
,000 1233
ps 1233
chicken 1231
bel@@ 1227
diameter 1226
games 1226
project 1226
added 1225
2005 1224
ash@@ 1223
set 1222
indiana 1220
death 1219
ers@@ 1219
england 1216
ser@@ 1215
ement 1214
ear@@ 1213
died 1210
ically 1210
comic 1208
railway 1208
politician 1207
ents 1205
story 1204
sa 1203
ma 1202
193@@ 1199
last 1197
novel 1196
ov@@ 1196
sur@@ 1196
ci@@ 1195
off 1195
power 1195
plan@@ 1194
ano 1193
comm@@ 1193
cro@@ 1190
serves 1190
ra 1186
often 1183
will 1183
im 1182
km 1182
ce@@ 1180
sold 1180
cent@@ 1179
ohio 1179
′ 1179
aviation 1178
stat@@ 1178
20@@ 1176
fi@@ 1176
tor@@ 1176
ering 1175
leg@@ 1175
188@@ 1173
civil 1173
re 1173
ture 1173
developed 1172
students 1172
coun@@ 1170
ben@@ 1169
ec@@ 1168
ko@@ 1168
so 1168
variation 1168
earth 1166
includes 1166
ur 1165
spoken 1164
point 1162
187@@ 1160
class 1160
southern 1160
sw@@ 1157
te 1157
athens 1156
ham@@ 1156
lake 1156
church 1152
s-@@ 1151
retired 1149
ff@@ 1148
military 1148
went 1148
research 1146
cur@@ 1144
out@@ 1143
í@@ 1143
kingdom 1142
mi@@ 1142
pp@@ 1138
author 1137
ments 1136
part@@ 1135
tw@@ 1135
men 1134
clu@@ 1133
ists 1132
194@@ 1131
five 1130
mississippi 1130
ren@@ 1130
fer@@ 1129
become 1126
cuisine 1126
1963 1125
ind@@ 1124
size 1121
arch@@ 1119
stor@@ 1119
ace 1117
11th 1116
months 1115
model 1114
although 1113
malaysia 1113
order 1113
route 1113
james 1111
aj@@ 1109
ons 1109
union 1108
philippines 1107
western 1107
best 1106
style 1106
gi@@ 1105
press 1105
worked 1105
gre@@ 1104
tro@@ 1103
19 1100
win 1100
ave 1099
making 1099
ail@@ 1098
ib@@ 1098
ta@@ 1098
ger 1097
greece 1096
ships 1096
france 1095
native 1095
2003 1093
reg@@ 1092
single 1092
late 1091
spanish 1091
anc@@ 1089
ards 1089
hal@@ 1087
dc 1086
ble 1084
battle 1083
approximately 1082
around 1082
ayam 1082
ore 1081
2004 1077
24 1077
40 1075
sandwich 1075
list 1072
organisation 1072
turkey 1071
head@@ 1070
post@@ 1068
feet 1067
sm@@ 1066
ide 1065
michigan 1064
act 1063
pt@@ 1062
off@@ 1061
cs1-@@ 1060
kn@@ 1059
produ@@ 1059
ned 1058
pe 1058
returned 1058
dre@@ 1057
came 1055
2017 1053
hor@@ 1053
ang 1051
followed 1051
ef@@ 1050
wisconsin 1050
2016 1049
ba@@ 1049
fac@@ 1049
cru@@ 1048
100 1043
flights 1043
ha@@ 1042
another 1040
comes 1039
tem@@ 1037
accademia 1035
arm@@ 1035
department 1034
coconut 1033
are@@ 1031
game 1031
mil@@ 1030
chicago 1028
def@@ 1028
introduced 1028
sri 1027
bre@@ 1026
new@@ 1025
launched 1024
13@@ 1023
navy 1023
ler 1022
chief 1019
province 1019
trad@@ 1019
singapore 1018
arr@@ 1017
dutch 1017
ese 1017
ric@@ 1015
architettura 1014
″ 1014
akita 1013
conference 1013
indian 1013
hand@@ 1012
ition 1012
hy@@ 1011
player 1011
els 1010
sim@@ 1010
times 1010
log@@ 1009
ional 1008
don@@ 1003
similar 1002
every 1001
hours 1000
ling 999
me 998
del@@ 997
ger@@ 997
tower 997
26 996
academic 995
win@@ 995
having 994
que 994
books 993
cer@@ 990
crisis 988
footballer 988
promoted 987
ator 984
food 984
black 983
just 983
avenue 981
over@@ 981
ata 980
cleveland 980
fun@@ 980
spe@@ 980
azerbaijan 978
ase 977
ass 977
village 977
elevation 976
ss 975
available 974
calcio 974
georgia 974
ica 974
rad@@ 974
row 973
tt@@ 973
ways 973
ire 970
replaced 969
hel@@ 968
ajax 967
program 967
production 966
acc@@ 965
seasons 965
ants 963
contract 963
make 963
meat 963
mary 962
inclination 961
appointed 960
sen@@ 960
gl@@ 959
rotation 959
begins 958
fort 958
pakistan 958
ade 957
stre@@ 957
premier 955
star@@ 955
ington 954
greek 953
mot@@ 953
characters 951
1,@@ 950
ended 950
33 949
ado 949
dem@@ 949
ü@@ 949
our@@ 948
vot@@ 947
200 943
airline 943
ens 943
kilometers 943
planet 943
usually 943
dessert 942
tu@@ 941
acy 940
council 939
current 938
d-@@ 938
incorporated 938
referred 938
don 937
ight@@ 937
14@@ 936
buildings 936
oil 936
but@@ 934
our 934
phil@@ 934
six 934
governor 932
ack 931
pt 931
2001 930
record 929
moun@@ 928
again 926
ain@@ 926
sam@@ 925
em 921
tim@@ 921
continued 920
dallas 920
ret@@ 919
addition 918
ireland 918
185@@ 917
champions 915
re-@@ 915
ced 912
ised 912
listed 912
burg 911
because 909
dy 908
taken 908
mel@@ 907
ta 907
van 907
cooked 905
various 904
cou@@ 902
life 901
ö@@ 901
distance 900
ven@@ 900
ane 899
big 899
ish@@ 899
young 897
clubs 896
t-@@ 895
alist 894
5px 893
ong@@ 893
operations 893
mad@@ 892
constructed 891
airlines 889
27@@ 887
32 886
northern 885
adams 884
sy@@ 883
education 882
loc@@ 881
trav@@ 881
creator 878
did 878
q@@ 877
switzerland 877
fo@@ 875
tt 875
up@@ 874
bs 872
1st 871
floor 871
logy 871
31 870
indonesian 870
07 869
board 869
por@@ 868
width 868
29 866
sen 865
2019 864
tom@@ 864
among 862
atlanta 862
control 862
metropolitan 859
rock 859
announced 858
bat@@ 858
main@@ 858
winning 858
stadium 855
wr@@ 855
riv@@ 854
discovery 853
— 853
é 852
baku 851
ained 850
clo@@ 850
groups 850
kar@@ 850
ms 850
squ@@ 850
60 849
post 849
2018 848
different 848
louis 848
sco@@ 847
academy 845
arem 845
baked 845
bus 845
citation 845
er-@@ 845
ik@@ 845
very 844
moon 843
ces 842
george 842
med@@ 842
polish 842
any 841
johnson 841
sil@@ 841
course 840
rac@@ 840
wood 840
ba 838
mal@@ 838
ures 837
french 835
traditional 835
oun@@ 834
vehicle 833
chinese 832
down 832
oo@@ 832
changed 828
ram@@ 828
youth 827
penyet 826
act@@ 824
considered 824
david 824
go 824
lim@@ 824
services 824
turkish 824
bank 823
gh@@ 823
still 823
children 822
paisa 821
ains 820
minor 820
dro@@ 819
rocket 819
amsterdam 818
ash 818
tri@@ 817
commonly 815
term 815
promotion 814
robert 814
situated 813
ari@@ 812
boo@@ 812
sed 812
dor@@ 811
ines 811
men@@ 811
op 810
35 809
arena 809
ber 809
ns 809
what 809
federal 808
lanka 807
renamed 807
co 805
contains 805
spent 805
prior 804
ake 803
million 803
staff 802
30@@ 801
ending 801
common 798
000 797
cas@@ 797
days 797
romania 797
add@@ 796
places 796
tain 796
cho@@ 795
political 795
memorial 794
star 794
systems 793
1998 792
competition 792
len 792
not@@ 792
y-@@ 791
killed 790
res 790
thomas 790
bionico 789
uk 789
ages 788
binignit 788
passenger 788
society 788
uses 788
ón 788
fighter 787
kl@@ 787
fil@@ 786
fire 786
fu@@ 786
leading 786
prin@@ 784
show 784
director 783
fish 783
records 783
vo@@ 783
commercial 782
á@@ 782
egg 781
pudding 781
90 780
championship 779
ot 779
ational 778
sum@@ 778
1996 777
recorded 777
take 777
akron 776
sky 776
bri@@ 775
surface 775
finished 774
married 774
ver 774
ek@@ 773
enc@@ 773
ker@@ 773
sand@@ 773
mid@@ 772
sweet 772
next 771
ram 771
wi@@ 771
alma 770
centre 770
class@@ 770
ill 770
2002 769
bakewell 769
given 769
successful 769
commun@@ 768
works 768
summer 766
184@@ 765
34 765
green 765
mas@@ 765
milk 765
ny 765
royal 762
asian 761
designated 761
ka 761
sing@@ 761
drafted 760
film 760
ir 760
min-width 760
my@@ 760
39 759
ption 759
right 759
low@@ 758
exp@@ 757
ony 757
southeast 757
amp@@ 755
app@@ 755
cast@@ 755
sive 755
tex@@ 754
itions 753
placed 753
bil@@ 752
eastern 752
mater 752
ys 752
america 751
flint 750
mag@@ 750
degree 749
fourth 749
germany 749
250 748
din@@ 748
ties 748
training 748
even 747
hero 747
01 746
ew@@ 746
stri@@ 746
tal@@ 746
barajas 745
explosion 745
half 745
full 744
gal@@ 744
birmingham 743
dr 743
municipality 743
authority 742
miss@@ 742
relegated 742
roc@@ 742
publisher 741
ctor 740
resul@@ 740
downtown 739
sel@@ 739
na 738
serve 738
adolfo 737
era 737
lost 737
nhl 737
astronaut 736
eric 736
saw 736
background 735
bandeja 735
britain 735
pet@@ 735
vegetables 735
wid@@ 735
inated 734
iss@@ 733
ow 733
36 732
ro 731
working 731
bavarian 730
eff@@ 730
ve 730
features 729
result 729
campus 728
clar@@ 728
support 728
cross@@ 727
gave 727
sup@@ 727
island 726
$ 725
ris@@ 725
bay 724
orbital 724
cy@@ 723
gro@@ 723
ham 723
jac@@ 723
railroad 723
form@@ 722
ku@@ 721
sou@@ 721
together 721
asteroids 720
lands 720
ly@@ 720
ena 719
ini 719
pass@@ 718
3rd 717
could 717
remained 717
th-@@ 717
ip 716
ken@@ 716
za 716
1955 715
loo@@ 714
abilene 713
featured 713
sel 713
java 712
ack@@ 711
addis 711
bak@@ 711
ged 711
singer 710
appleton 708
cities 708
sa@@ 708
sun@@ 708
tar@@ 708
ago 707
award 707
ess 707
parliament 707
ther@@ 707
ative 706
sportiva 706
gran@@ 705
lead 705
mathemat@@ 705
copenhagen 704
ily 703
ison 703
taking 703
vent@@ 703
zealand 703
less 702
1999 701
run 701
seven 701
37 700
ioned 700
match 700
change 699
height 699
tit@@ 699
connecticut 698
mur@@ 698
colle@@ 697
success@@ 697
ya 697
iced 695
sports 695
live 693
continu@@ 692
resid@@ 692
ural 691
goal 690
peter 690
_ 689
ck 689
emp@@ 689
media 689
’ 689
command 688
gor@@ 688
much 688
run@@ 688
ses 688
500 687
headquarters 687
studied 687
wide 687
counties 686
fir@@ 686
09 685
12@@ 685
acta 685
airbase 685
charles 685
ck@@ 685
ively 685
japan 684
met 684
aged 683
cent 683
representatives 683
table 683
1962 681
ich 680
io@@ 680
captain 679
hampshire 679
1969 678
̇ 678
christ@@ 677
cle@@ 677
play@@ 677
activ@@ 676
architecture 676
ababa 675
writer 675
ans@@ 674
colum@@ 673
property 672
bir@@ 671
ern@@ 671
points 671
trac@@ 671
ty@@ 670
ats 669
hum@@ 669
lunar 669
occupation 669
rm 669
seas@@ 669
son@@ 669
bol@@ 668
congress 668
goals 668
mathematics 668
bar 667
dar@@ 667
hom@@ 667
igh@@ 667
free 665
ier 665
ality 664
ency 664
light 664
hi@@ 663
dire@@ 662
reached 662
whose 662
aust@@ 661
naval 661
becoming 660
met@@ 660
arc 659
band@@ 658
justice 658
affiliated 657
ately 657
spr@@ 656
dan 654
nationality 654
vir@@ 654
suárez 653
schools 652
ep@@ 650
paul 650
rol@@ 650
alaska 649
hun@@ 649
plat@@ 649
register 649
sh 649
ama 648
ella 648
bridge 647
bul@@ 645
delaware 645
netherlands 645
prime 645
hon@@ 644
republic 644
bot@@ 643
covers 643
stories 643
ts@@ 643
graduate 642
hard@@ 642
int@@ 642
iraq 642
ona 642
sometimes 642
background-@@ 641
pul@@ 641
ach 640
awarded 640
c-@@ 640
designation 640
lies 640
consists 639
ridge 639
co-@@ 638
master 638
eu@@ 636
practice 636
sc 635
senate 635
you 635
coach 634
equ@@ 634
scored 634
ajoblanco 633
compet@@ 633
conne@@ 633
alpena 632
high@@ 632
1974 631
ni 631
rome 631
tow@@ 631
active 630
afc 630
aining 630
edit@@ 630
previously 630
wife 630
ap 629
today 629
mark 628
sn@@ 628
fa 627
mother 627
african 626
ft 626
present 626
wat@@ 626
aw 625
ership 625
front 625
status 625
hospital 624
ied 624
living 623
complex 622
broad@@ 621
dam@@ 621
termin@@ 621
ve@@ 620
frank 619
liga 619
ab 618
fel@@ 618
short 618
castle 617
ental 617
bac@@ 616
che@@ 616
if 616
atatürk 615
brother 615
miller 615
ney 615
officer 615
regions 615
few 614
court 613
entry 613
300 612
away 612
own@@ 612
pri@@ 612
pro 612
f-@@ 610
kway 610
nation@@ 610
satellite 610
entered 609
cum@@ 608
democratic 608
ital@@ 608
pot@@ 608
range 608
units 608
dan@@ 607
far@@ 607
long@@ 607
1932 606
asad 606
completion 606
fig@@ 606
performed 606
cabinet 605
draft 605
though 605
view 605
85 604
cheese 604
ine@@ 604
role 604
bread 603
mir@@ 603
1957 602
grounds 601
03 600
1918 600
beginning 600
fictional 600
hear@@ 600
rebellion 600
jam@@ 599
coo@@ 598
middle 598
na@@ 598
ness 598
af 597
camp 597
cin@@ 597
evil 597
exten@@ 597
blackpool 596
get 596
operation 596
ph 596
ski 596
southwest 596
ther 596
ria 595
fif@@ 594
return 593
senior 593
throughout 593
cat@@ 592
democr@@ 592
dered 592
ette 592
hill 592
modern 592
ple@@ 592
respect 592
1966 591
areas 591
ecliptic 591
crim@@ 590
eur@@ 590
provided 590
az 589
estimated 589
iqbal 589
action 588
bangalore 588
buted 588
carolina 588
management 588
ong 588
sin@@ 588
code 587
count 587
non-@@ 587
thr@@ 587
van@@ 587
ism 586
previous 586
start 586
ves 586
allama 585
emplo@@ 585
hot 585
ious 585
om 585
pacific 585
px 585
songs 585
tier 585
25@@ 583
cir@@ 583
ock 583
ough 583
spo@@ 583
sumed 583
those 583
24@@ 582
agra 582
forms 582
fran@@ 582
ca 581
lin 581
scheduled 581
0px 580
ever 580
gen 580
spacecraft 580
1988 579
bakso 579
nom@@ 579
stony 579
ara 578
dublin 578
initially 578
kong 578
maryland 578
eded 577
rece@@ 577
come 576
kh@@ 576
ters 576
1983 575
1987 575
antwerp 575
avi@@ 575
canadian 575
medal 575
ten 575
02 574
ater 574
starting 574
angola 573
deal 573
publish@@ 573
ax@@ 572
lock@@ 572
ut 572
cop@@ 571
ek 571
junior 571
platform 571
2,@@ 570
berg 570
pork 570
floors 569
gener@@ 569
eventually 568
foc@@ 568
ful 568
liber@@ 568
ran 568
sv 568
án 568
11@@ 567
ators 567
break@@ 567
div@@ 567
garlic 567
nov@@ 567
recogn@@ 567
stru@@ 567
teow 567
appl@@ 566
hong 566
instead 566
kins 566
rel@@ 566
roma 566
1997 565
commander 565
lat@@ 565
mic@@ 565
technological 565
dav@@ 564
illing 564
boun@@ 563
divis@@ 563
owner 563
chairman 562
graph@@ 562
electr@@ 561
ep 560
grand@@ 560
lar@@ 560
person@@ 560
plan 560
bb@@ 559
sour@@ 559
involved 558
mayor 558
nam@@ 558
town@@ 558
vic@@ 558
ean 557
lam@@ 557
marvel 557
cel@@ 556
flying 556
regiment 556
ry@@ 556
structure 556
volunteer 556
assigned 555
cape 555
ders 555
cts 554
ently 554
ples 554
ctions 553
two-@@ 553
key 552
parts 552
1990 551
dark 551
lived 551
nar@@ 551
pin@@ 551
respon@@ 551
asilomar 550
contin@@ 550
ences 550
mars 550
west@@ 550
56@@ 549
associated 549
ca@@ 549
cen@@ 549
da@@ 549
offered 549
preceded 549
santa 549
1994 548
cit@@ 548
ern 548
private 548
richard 548
sav@@ 548
ó@@ 548
ald 547
important 547
mid-@@ 547
print 547
thir@@ 547
poaceae 546
26@@ 545
by@@ 545
impact 545
issue 545
oned 545
soci@@ 545
1959 544
opped 544
38 543
39@@ 543
alternative 543
dge 543
karnataka 543
rev@@ 543
ris 543
obtained 542
tour@@ 542
cars 541
contr@@ 541
northeast 541
represented 541
44 540
landing 540
she@@ 540
1980 539
larger 539
names 539
scri@@ 539
them@@ 539
door 538
pap@@ 538
1982 537
concer@@ 537
host@@ 537
teen 537
versus 537
zz@@ 537
bella 536
connect@@ 536
ga 536
fri@@ 535
henry 535
ops 535
popul@@ 535
release 535
ury 535
cour@@ 534
ense 534
marine 534
plo@@ 534
appro@@ 533
asam 533
dishes 533
leaders 533
past@@ 533
shar@@ 533
tan@@ 533
well@@ 533
1986 532
mann 531
russian 531
section 531
arts 530
cle 530
forces 530
my 530
secur@@ 530
sugar 530
technical 530
1985 529
mun@@ 529
studio 529
test@@ 529
coordinates 528
delta 528
ł@@ 528
aut@@ 527
ol 527
1989 526
ast 526
illinois 526
organization 526
ough@@ 526
zmir 526
80 525
eredivisie 525
flor@@ 525
q 525
squadron 525
stad@@ 525
alex@@ 524
ctor@@ 524
mem@@ 524
prote@@ 524
45 523
across 523
appearance 523
carried 523
daughter 523
househol@@ 523
mul@@ 523
ye@@ 523
aids 522
category 522
michael 522
eight 521
in-@@ 521
matches 521
scient@@ 521
sig@@ 521
14th 520
1993 520
alcatraz 520
europe 520
fron@@ 520
visvesvaraya 520
arab@@ 519
ches 519
os@@ 519
vermont 519
vel@@ 518
all- 517
alli 517
dun@@ 517
information 517
ished 517
overall 517
ze@@ 517
1977 516
ams 516
ao 516
grand 516
iving 516
market 516
anti@@ 515
assembly 515
close 515
observations 515
ual 515
08 514
36@@ 514
isbn 514
multi@@ 514
andrews 513
ayed 513
bert 513
limited 513
1992 512
eaten 512
ification 512
ilian 512
belgium 511
dest@@ 511
firm 511
bon@@ 510
currency 510
inner 510
let 510
special 510
yed 510
&apos;@@ 509
alderney 509
batchoy 509
collabor@@ 509
dom@@ 509
earned 509
northwest 509
70 508
secretary 508
williams 508
1995 507
bin@@ 507
chievo 507
med 507
shor@@ 507
sor@@ 507
space@@ 507
agre@@ 506
awh 506
brown 506
jupiter 506
pedas 506
prepar@@ 506
prim@@ 506
saf@@ 506
stan@@ 506
success 506
ential 505
indic@@ 505
relat@@ 505
admitted 504
pil@@ 504
means 503
vin@@ 503
cover 502
nel 502
ze 502
1910 501
brought 501
tun@@ 501
joe 500
kor@@ 500
pa@@ 500
bal 499
banana 499
mit@@ 499
others 499
rang@@ 499
stone 499
1930 498
83 498
track 498
verona 498
1991 497
aero@@ 497
bananaman 497
ff 497
hop@@ 497
mig@@ 497
described 496
edition 496
ges 496
ician 496
iel@@ 496
main-belt 496
agu@@ 495
dedicated 495
further 495
iss 495
pad@@ 495
colmore 494
hood 494
iden 494
mi 494
minutes 494
open 494
control@@ 493
ights 493
little 493
oper@@ 493
suff@@ 493
1927 492
blue 492
irish 492
kal@@ 492
loyal 492
moving 492
ability 491
highway 491
ider 491
organized 491
room 491
1965 490
alls 490
artist 490
committee 490
issn 490
ura 490
africa 489
aper 489
bachelor 489
phys@@ 489
valley 489
origin 488
2nd 487
3,@@ 487
adv@@ 487
broo@@ 487
experi@@ 487
north@@ 487
secon@@ 487
upon 487
agent 486
colomb@@ 486
dol@@ 486
editor 486
erg@@ 486
ig 486
magnitude 486
negre 486
administrative 485
airports 485
houses 485
models 485
night 485
onia 485
provisional 485
versions 485
amb@@ 484
fol@@ 484
sul@@ 484
1972 483
engineer 483
farm@@ 483
grew 483
nasi 483
conver@@ 482
flav@@ 482
fur@@ 482
himself 482
ination 482
jects 482
provide 482
purchased 482
via 482
41 481
fifth 481
harbor 481
consisting 480
defen@@ 480
rap@@ 480
running 480
transport 480
1933 479
going 479
gover@@ 479
san@@ 479
thre@@ 479
facility 478
haw@@ 478
ij@@ 478
levy 478
librarians 478
merged 478
pena 478
whit@@ 478
yn 478
ached 477
acres 477
jr 477
managed 477
professor 477
regular 477
vari@@ 477
dancer 476
jan@@ 476
origin@@ 476
ashgabat 475
border 475
cing 475
republican 475
derbyshire 474
derived 474
soon 474
1971 473
ione 473
mut@@ 473
planned 473
primary 473
scoring 473
significant 473
adare 472
boy 472
ko 472
od@@ 472
ron@@ 472
south@@ 472
transferred 472
develop@@ 471
fru@@ 471
houston 471
kil@@ 471
ved 471
without 471
wrote 471
ales 470
euro@@ 470
fair@@ 470
inj@@ 470
tru@@ 470
1976 469
ero@@ 469
famous 469
majority 469
sport@@ 469
unit 469
gold 468
study 468
administration 467
atlas 467
dou@@ 467
incre@@ 467
passengers 467
ues 467
cake 466
ail 465
architectural 465
fa@@ 465
housing 465
ites 465
related 465
voc@@ 465
chi@@ 464
christian 464
nation 464
performance 464
a-@@ 463
acquired 463
asser 463
command@@ 463
elling 463
ign@@ 463
inde@@ 463
parent 463
sau@@ 463
1960 462
cab@@ 462
econom@@ 462
enced 462
hav@@ 462
lower 462
mac@@ 462
manor 462
martin 462
nes@@ 462
plant 462
powered 462
statistical 462
1978 461
amatriciana 461
congre@@ 461
human 461
mass@@ 461
spring 461
1964 460
1973 460
1981 460
covered 460
eds 460
georg@@ 460
influ@@ 460
ston 460
vol@@ 460
wing 460
canada 459
material 459
module 459
soup 459
upper 459
bundesliga 458
classified 458
wizard 458
1960s 457
ays 457
never 457
ai 456
ars 456
commissioned 456
doc@@ 456
grated 456
ident@@ 456
massachusetts 456
outer 456
soviet 456
subsequently 456
tournament 456
twent@@ 456
ari 455
batagor 455
cooking 455
hus@@ 455
lun@@ 455
ole 455
passed 455
1970s 454
heidelberg 454
lead@@ 454
participated 454
radio 454
04 453
flow@@ 453
jan 453
players 453
said 453
75 452
creek 452
operates 452
spon@@ 452
augh@@ 451
crit@@ 451
events 451
flew 451
ium 451
martyrs 451
pa 451
pur@@ 451
closed 450
dynam@@ 450
mile 450
pit@@ 450
present@@ 450
pted 450
requ@@ 450
scott 450
sty@@ 450
ø@@ 450
auth@@ 449
basketball 449
han@@ 449
here 449
parker 449
candidate 448
honor 448
industri@@ 448
inger 448
kets 448
affiliation 447
attack 447
bow@@ 447
cream 447
liv@@ 447
mixed 447
mond 447
prepared 447
summit 447
three-@@ 447
top@@ 447
future 446
joseph 446
neighborhood 446
ring 446
sing 446
29@@ 445
88 445
ians 445
missions 445
video 445
600 444
industry 444
roman@@ 444
48 443
78 443
black@@ 443
cust@@ 443
hur@@ 443
lines 443
mercury 443
ots 443
stu@@ 443
terminal 443
ym@@ 443
ä@@ 443
46 442
character@@ 442
ls 442
redu@@ 442
remaining 442
geo@@ 441
label 441
obama 441
ored 441
pow@@ 441
standard 441
tel 441
tic 441
103 440
ads 440
cost 440
fly 440
ola 440
ood 440
ox@@ 440
tallest 440
1970 439
aar@@ 439
barack 439
fav@@ 439
glo@@ 439
indi@@ 439
mes@@ 439
pic@@ 439
six@@ 439
cover@@ 438
either 438
ardmore 437
civ@@ 437
corps 437
jer@@ 437
portion 437
1961 436
create 436
ind 436
le-@@ 436
meas@@ 436
morgan 436
pain@@ 436
particip@@ 436
ranked 436
soccer 436
al- 435
artists 435
des 435
finishing 435
kerala 435
num@@ 435
progr@@ 435
wind@@ 435
worth 435
engines 434
uk@@ 434
atoes 433
old@@ 433
ood@@ 433
pon@@ 433
1928 432
agon 432
ef 432
nearby 432
pages 432
studies 432
sure 432
1968 431
ices 431
johann 431
person 431
real 431
speed 431
appearing 430
ix 430
ket@@ 430
seen 430
sent 430
serv@@ 430
ethiopia 429
grey 429
série 429
drive 428
fit@@ 428
inte@@ 428
red@@ 428
charlie 427
fully 427
hou@@ 427
let@@ 427
seats 427
cakes 426
coming 426
defeated 426
hond@@ 426
smo@@ 426
defe@@ 425
ids 425
infr@@ 425
revol@@ 425
attle 424
cons@@ 424
flour 424
ik 424
ky 424
mill@@ 424
word 424
0-@@ 423
afonso 423
iii 423
rest 423
variety 423
xim@@ 423
bhajji 422
fortress 422
ita 422
opening 422
06 421
52 421
aker 421
greenville 421
higher 421
turn 421
wa@@ 421
abbreviation 420
manufactur@@ 420
founder 419
ich@@ 419
john@@ 419
settlement 419
super 419
bers 418
decided 418
routemap 418
smith 418
1923 417
84 417
acce@@ 417
anim@@ 417
appearances 417
average 417
bbc 417
fact@@ 417
generation 417
manhattan 417
naming 417
awards 416
eggs 416
ok@@ 416
commission 415
compar@@ 415
del 415
exce@@ 415
grad@@ 415
ived 415
public@@ 415
put 415
wasp 415
1967 414
alabama 414
corn@@ 414
lancashire 414
try 414
univers@@ 414
appe@@ 413
fleet 413
severed 413
strong 413
ñ@@ 413
ć 413
ani 412
composed 412
joining 412
jones 412
plac@@ 412
ada 411
flo@@ 411
hil@@ 411
ises 411
mixture 411
retirement 411
baths 410
comple@@ 410
cut 410
despite 410
vict@@ 410
coast 409
fle@@ 409
medi@@ 409
pav@@ 409
pes 409
arapiraquense 408
forming 408
library 408
metro 408
raised 408
1984 407
ath 407
histor@@ 407
mer 407
rot@@ 407
1975 406
1979 406
ag 406
capacity 406
kol@@ 406
romance 406
terms 406
fk 405
inaugur@@ 405
ionary 405
way@@ 405
andre@@ 404
fal@@ 404
fiction 404
four-@@ 404
magazine 404
ours 404
psy@@ 404
turtles 404
1950 403
desig@@ 403
kö@@ 403
ution 403
villa@@ 403
additional 402
featuring 402
foundation 402
recording 402
1980s 401
contributing 401
distinguished 401
financial 401
formerly 401
paylo@@ 401
sele@@ 401
surv@@ 401
highest 400
ide@@ 400
lear@@ 400
shu@@ 400
tam@@ 400
ampara 399
bom@@ 399
bour@@ 399
build 399
cow@@ 399
ee 399
pradesh 399
thus 399
arròs 398
illa 398
short@@ 398
ster@@ 398
television 398
actions 397
bureau 397
combined 397
independent 397
lo 397
operator 397
quarter@@ 397
ws 397
ras@@ 396
200@@ 395
ali@@ 395
chi 395
exhib@@ 395
ills 395
numerous 395
residents 395
sat@@ 395
cad@@ 394
dead 394
dev@@ 394
vincent 394
ature 393
competed 393
corporation 393
ala 392
frederick 392
lee 392
olymp@@ 392
originates 392
ous@@ 392
pietro 392
quarterly 392
reve@@ 392
show@@ 392
alli@@ 391
amateur 391
campeonato 391
glastonbury 391
kers 391
families 390
fen@@ 390
high-@@ 390
ival@@ 390
jack 390
manu@@ 390
nature 390
nu@@ 390
retur@@ 390
runs 390
sign@@ 390
almost 389
ball 389
belg@@ 389
bought 389
potato 389
we 389
1958 388
89 388
acts 388
ched 388
contri@@ 388
itionally 388
mean@@ 388
ship@@ 388
beach 387
conservative 387
dy@@ 387
poland 387
uefa 387
wit@@ 387
ı@@ 387
42 386
catal@@ 386
constitu@@ 386
cy 386
ett@@ 386
municipal 386
tele@@ 386
var@@ 386
201 385
adop@@ 385
anci@@ 385
astronom@@ 385
daniel 385
density 385
elements 385
fast 385
green@@ 385
institut@@ 385
ire@@ 385
roll 385
settled 385
survey 385
45@@ 384
concept 384
extended 384
good 384
ign 384
lieutenant 384
mov@@ 384
recipe 384
salvad@@ 384
volum@@ 384
05 383
37@@ 383
dary 383
electric 383
ez@@ 383
hoo@@ 383
wn 383
bio@@ 382
bury 382
health 382
malaysian 382
marriott 382
posed 382
aur@@ 381
cath@@ 381
centr@@ 381
colonel 381
founding 381
outside 381
special@@ 381
wheeler 381
&apos;t 380
aver@@ 380
lad@@ 380
method 380
officially 380
oregon 380
tomato 380
cesena 379
emer@@ 379
gil@@ 379
peninsula 379
titles 379
train 379
yo@@ 379
cham@@ 378
edward 378
fall 378
kir@@ 378
ministry 378
rick 378
ect@@ 377
julia 377
nine 377
plans 377
qualif@@ 377
strip 377
aire 376
cast 376
colon@@ 376
direct@@ 376
feature 376
hap@@ 376
lega 376
nan 376
sevent@@ 376
35@@ 375
adisham 375
compete 375
cornell 375
deliv@@ 375
operate 375
spices 375
stuart 375
1956 374
appears 374
campaign 374
differ@@ 374
facilities 374
forced 374
notable 374
ref@@ 374
succe@@ 374
ute 374
wa 374
agremiação 373
apol@@ 373
brussels 373
hit 373
int 373
lay@@ 373
rail 373
ander 372
cher 372
chosen 372
hen@@ 372
ob 372
ota 372
tap@@ 372
vehicles 372
ashed 371
associazione 371
call@@ 371
erson 371
ications 371
midfielder 371
teen@@ 371
-- 370
1954 370
deputy 370
gaz@@ 370
kilometres 370
kru@@ 370
quar@@ 370
salle 370
sausage 370
separ@@ 370
20th 369
business@@ 369
ements 369
glen 369
influenced 369
je@@ 369
move 369
ound 369
roads 369
struct@@ 369
ton@@ 369
whe@@ 369
aus 368
blues 368
cau@@ 368
decembrie 368
ient 368
parents 368
pped 368
presid@@ 368
primarily 368
rank 368
universe 368
arly 367
believ@@ 367
brothers 367
core 367
meters 367
solo 367
specif@@ 367
ball@@ 366
example 366
issues 366
liter@@ 366
sain@@ 366
uttar 366
57@@ 365
agon@@ 365
backup 365
ceased 365
eled 365
gufa 365
image 365
istic 365
nav@@ 365
rich 365
rou@@ 365
trin@@ 365
ward 365
anaheim 364
autical 364
dean 364
elizabeth 364
inhabitants 364
ior 364
phal@@ 364
rian 364
sister 364
tural 364
1929 363
amdavad 363
help 363
helped 363
jo 363
manufactured 363
occupied 363
salt 363
fest@@ 362
friend 362
love 362
manag@@ 362
semi-@@ 362
tv 362
access 361
achiev@@ 361
alco@@ 361
chili 361
wards 361
eks 360
executive 360
florida 360
gg@@ 360
got 360
iron 360
ki 360
medical 360
secut@@ 360
shrimp 360
student 360
tour 360
argentine 359
diff@@ 359
livorno 359
orbiting 359
originated 359
ought 359
palomar 359
reci@@ 359
stev@@ 359
taylor 359
19th 358
4-@@ 358
43 358
adel@@ 358
aip 358
brazil 358
dam 358
elli 358
gubbio 358
investig@@ 358
niger@@ 358
paris 358
particul@@ 358
promot@@ 358
28@@ 357
increased 357
introdu@@ 357
leaf 357
leag@@ 357
ree 357
reserve 357
1949 356
addiction 356
australia 356
failed 356
ident 356
leaving 356
read 356
rid@@ 356
second-@@ 356
shared 356
assistant 355
crewed 355
finals 355
luc@@ 355
mah@@ 355
que@@ 355
supporting 355
ugu@@ 355
ured 355
youn@@ 355
albums 354
aled 354
allow@@ 354
countries 354
ira 354
itself 354
ival 354
lightcurve 354
loan 354
sho@@ 354
siomay 354
vert@@ 354
down@@ 353
francisco 353
hardcover 353
orange 353
shows 353
swedish 353
ty-@@ 353
65 352
behind 352
eigh@@ 352
freedom 352
iga 352
jar@@ 352
pract@@ 352
uni@@ 352
yard 352
47@@ 351
collection 351
join 351
month 351
nis 351
represent@@ 351
rights 351
chem@@ 350
fon@@ 350
ined 350
mart@@ 350
noodles 350
parties 350
powys 350
proved 350
superman 350
districts 349
especially 349
lag@@ 349
laid 349
lawyer 349
michel@@ 349
pas@@ 349
trade 349
1990s 348
arriv@@ 348
compan@@ 348
consisted 348
feder@@ 348
sher@@ 348
writing 348
1931 347
attac@@ 347
carbonaceous 347
changes 347
eerste 347
festival 347
greater 347
ken 347
leaves 347
movement 347
wheel 347
alter@@ 346
attorney 346
awa 346
bad@@ 346
che 346
confeder@@ 346
cred@@ 346
eman 346
folk 346
ize 346
apped 345
cess@@ 345
chall@@ 345
child 345
disney 345
fylde 345
grav@@ 345
gul@@ 345
individ@@ 345
malay 345
observed 345
police 345
portr@@ 345
sequ@@ 345
syn@@ 345
4th 344
anderson 344
beans 344
die 344
elections 344
experim@@ 344
gall@@ 344
ision 344
ocean 344
submarine 344
uss 344
yu@@ 344
± 344
abad 343
boiled 343
color 343
constitut@@ 343
defined 343
discipline 343
nick@@ 343
pepper 343
pris@@ 343
required 343
wilson 343
ades 342
bill 342
boston 342
mac 342
mar 342
porary 342
scor@@ 342
sters 342
uel 342
woman 342
earlier 341
fought 341
logical 341
soldiers 341
spider- 341
thou@@ 341
victor@@ 341
angeles 340
braz@@ 340
ere@@ 340
improv@@ 340
kin@@ 340
lab@@ 340
publication 340
ress 340
spectr@@ 340
stown 340
1862 339
a- 339
ably 339
iting 339
legislature 339
lux@@ 339
mostly 339
ously 339
susp@@ 339
whom 339
atio 338
branch 338
enci@@ 338
enton 338
forward 338
kansas 338
legen@@ 338
registration 338
rout@@ 338
settlers 338
sses 338
vision 338
associ@@ 337
boeing 337
celebr@@ 337
gun@@ 337
how@@ 337
market@@ 337
math 337
noodle 337
purpos@@ 337
takes 337
97 336
amat@@ 336
creation 336
divided 336
ear-@@ 336
gained 336
gemini 336
independ@@ 336
isting 336
lif@@ 336
sis 336
suburb 336
surrounding 336
terr@@ 336
agle 335
chil@@ 335
dance 335
elled 335
rather 335
tin@@ 335
annual 334
assault 334
bun@@ 334
graduating 334
king@@ 334
newsp@@ 334
read@@ 334
relig@@ 334
winners 334
baymax 333
chap@@ 333
companies 333
compu@@ 333
formation 333
lev@@ 333
oclc 333
sab@@ 333
titled 333
water@@ 333
55 332
augu@@ 332
bo 332
china 332
ea 332
eding 332
elev@@ 332
far 332
interest 332
may@@ 332
mix@@ 332
rear 332
representative 332
wel@@ 332
yes 332
ymouth 332
antio@@ 331
combination 331
flown 331
gs 331
merger 331
pur 331
real@@ 331
rise 331
speci@@ 331
standing 331
types 331
ankara 330
asher 330
back@@ 330
caused 330
distin@@ 330
ible 330
inv@@ 330
javanese 330
klasse 330
nic@@ 330
ped@@ 330
progre@@ 330
shape 330
split 330
territory 330
advances 329
bag@@ 329
blt 329
buffalo 329
complete 329
descri@@ 329
dings 329
educated 329
expe@@ 329
lett@@ 329
noted 329
pel@@ 329
secret 329
steel 329
vac@@ 329
ame 328
ann 328
bou@@ 328
give 328
interior 328
jens 328
lit@@ 328
provin@@ 328
smaller 328
transfer 328
86 327
borough 327
ching 327
entr@@ 327
etta 327
ever@@ 327
flag@@ 327
oklahoma 327
ov 327
swit@@ 327
ys@@ 327
butter 326
cruise 326
judge 326
losing 326
pun@@ 326
reach 326
reference 326
sir 326
st-@@ 326
aches 325
ban 325
block 325
demonym 325
elle 325
enza 325
growing 325
ico 325
jet 325
stop 325
1907 324
1945 324
2-@@ 324
47 324
analysis 324
ben 324
eth@@ 324
expanded 324
hp 324
lincoln 324
rese@@ 324
skyscraper 324
tho@@ 324
ually 324
73 323
cut@@ 323
fantasy 323
fellow 323
full-@@ 323
icians 323
ipe 323
one-@@ 323
rest@@ 323
alfred 322
chron@@ 322
explor@@ 322
golden 322
metap@@ 322
motor 322
ones 322
rail@@ 322
rio 322
satur@@ 322
tom 322
1953 321
abil@@ 321
acted 321
convention 321
ille 321
mol@@ 321
sid@@ 321
steph@@ 321
earl 320
estate 320
orb@@ 320
transportation 320
4,@@ 319
attr@@ 319
chart 319
charter 319
clim@@ 319
conf@@ 319
dales 319
decl@@ 319
grantville 319
lic@@ 319
liqu@@ 319
mechan@@ 319
songwriter 319
traffic 319
bish@@ 318
ials 318
madin 318
ren 318
restaurants 318
shire 318
usa 318
albuquerque 317
case 317
ened 317
find 317
ified 317
ipp@@ 317
japanese 317
jor@@ 317
kee@@ 317
kon@@ 317
labour 317
mont@@ 317
turkmenistan 317
56 316
architects 316
discover@@ 316
friends 316
hub 316
icebreak@@ 316
lahore 316
modi@@ 316
peanut 316
thology 316
variant 316
aer@@ 315
distri@@ 315
domin@@ 315
ented 315
establish@@ 315
fore@@ 315
latin 315
ond@@ 315
ras 315
stars 315
store 315
tenant 315
wall 315
-2 314
albedo 314
bill@@ 314
identified 314
illo 314
ki@@ 314
max 314
neg@@ 314
older 314
process 314
schiphol 314
sport 314
49 313
amed 313
bast@@ 313
economic 313
fiel@@ 313
franc@@ 313
jackson 313
journals 313
lemon 313
offic@@ 313
producer 313
walk 313
chan@@ 312
filled 312
identifier 312
install@@ 312
lars 312
manchester 312
milan 312
pursu@@ 312
rated 312
sd@@ 312
ung 312
vi 312
winner 312
adventures 311
brigade 311
matt@@ 311
occas@@ 311
thing 311
enue 310
goal@@ 310
grant 310
grove 310
historical 310
immedi@@ 310
inher@@ 310
past 310
tax@@ 310
ace@@ 309
asted 309
bell 309
growth 309
ida 309
incorpor@@ 309
mexican 309
ord 309
ricul@@ 309
æ@@ 309
intended 308
interstate 308
ninja 308
populous 308
posit@@ 308
provid@@ 308
russ@@ 308
satellites 308
week 308
ai@@ 307
all-@@ 307
auburn 307
bia 307
contest 307
diss@@ 307
dra 307
e- 307
offices 307
power@@ 307
-based 306
-up 306
airfield 306
an- 306
astronauts 306
beng@@ 306
detroit 306
elim@@ 306
hand 306
lock-@@ 306
lot 306
meet@@ 306
ok 306
onto 306
opping 306
plane 306
polonica 306
por 306
principal 306
rul@@ 306
sons 306
vil@@ 306
wolf 306
&gt; 305
barny 305
gest 305
heavy 305
lccn 305
mbl@@ 305
palaeontologica 305
span@@ 305
aeron@@ 304
applied 304
ato 304
commer@@ 304
cting 304
depic@@ 304
ere 304
ez 304
initial 304
olic 304
oor 304
pend@@ 304
reaching 304
sett@@ 304
46@@ 303
accom@@ 303
andy 303
equipped 303
esh@@ 303
imp@@ 303
lou@@ 303
politics 303
qualified 303
aid 302
divisie 302
girl 302
least 302
neu@@ 302
ould 302
sixth 302
teach@@ 302
writ@@ 302
“ 302
anda 301
chevrolet 301
curr@@ 301
dates 301
drawn 301
enna 301
mainly 301
neighboring 301
rob@@ 301
scen@@ 301
separate 301
shap@@ 301
supported 301
actor 300
aqu@@ 300
asing 300
conducted 300
covering 300
does 300
fu 300
lumezzane 300
nickname 300
oldest 300
olive 300
proble@@ 300
tan 300
tot@@ 300
veil 300
cargo 299
enth 299
gate 299
latter 299
rs 299
turned 299
uss@@ 299
1946 298
aked 298
belongs 298
entire 298
franklin 298
invasion 298
ionally 298
link 298
provides 298
rich@@ 298
subsequent 298
tation 298
ç@@ 298
almond 297
arg@@ 297
categorized 297
mr 297
n-@@ 297
pion@@ 297
race 297
responsible 297
reviewed 297
battle@@ 296
dried 296
eng 296
flemish 296
ication 296
punjab 296
stands 296
theat@@ 296
2020 295
87 295
achieved 295
carr@@ 295
deep 295
deplo@@ 295
follow@@ 295
garden 295
near@@ 295
nish 295
ves@@ 295
1947 294
cem@@ 294
cold 294
cylin@@ 294
extending 294
helicop@@ 294
nearly 294
oak@@ 294
paste 294
rist@@ 294
semin@@ 294
tou@@ 294
wol@@ 294
1948 293
1950s 293
63 293
det@@ 293
measures 293
releg@@ 293
b- 292
bes 292
chancellor 292
collap@@ 292
driv@@ 292
refers 292
refle@@ 292
shuttle 292
simply 292
singles 292
99 291
adirondack 291
audi 291
bol 291
claimed 291
clin@@ 291
destroyed 291
entertainment 291
event 291
factor 291
gam@@ 291
glass 291
ially 291
iana 291
isra@@ 291
mo 291
prof@@ 291
rein@@ 291
roman 291
swe@@ 291
adap@@ 290
automob@@ 290
brig@@ 290
edge 290
figh@@ 290
guard 290
light@@ 290
mie 290
rom 290
stages 290
tart 290
variations 290
1935 289
alk@@ 289
batt@@ 289
bay@@ 289
carrier 289
heed 289
novels 289
occurred 289
prefecture 289
queen 289
typical 289
woo@@ 289
yer 289
1920 288
38@@ 288
700 288
acting 288
bru@@ 288
chrysler 288
citiz@@ 288
color@@ 288
dig@@ 288
epis@@ 288
establ@@ 288
grass@@ 288
josé 288
magdeburg 288
org@@ 288
replacing 288
sem@@ 288
senator 288
suggest@@ 288
uel@@ 288
1940 287
agency 287
allowed 287
amoun@@ 287
asia 287
break 287
cav@@ 287
coalition 287
ect 287
gas 287
grade 287
juventus 287
karl 287
kenne@@ 287
locomotive 287
loss 287
og@@ 287
sky@@ 287
wis 287
ão 287
ariz@@ 286
aya 286
instr@@ 286
iraq@@ 286
prov@@ 286
repeat 286
rotter@@ 286
tas@@ 286
tirstrup 286
tured 286
1952 285
20px 285
92 285
compos@@ 285
ired 285
plant@@ 285
som@@ 285
urban 285
brasileiro 284
bron@@ 284
contested 284
harv@@ 284
photometric 284
reli@@ 284
rema@@ 284
sort 284
sound 284
stering 284
subsidi@@ 284
tintin 284
abl@@ 283
fem@@ 283
finally 283
guitar@@ 283
ho 283
intersection 283
iv 283
oured 283
prominent 283
reas@@ 283
residential 283
sk 283
twice 283
women 283
1912 282
94 282
akes 282
antonio 282
cell@@ 282
combat 282
corner 282
douglas 282
fortun@@ 282
fuel 282
hi 282
inspired 282
rish@@ 282
rober@@ 282
sex 282
stand 282
universit@@ 282
advan@@ 281
aenir 281
dimitra 281
entary 281
larg@@ 281
network 281
proper@@ 281
proposed 281
aching 280
agonal 280
already 280
ances 280
andalusia 280
argentina 280
aur 280
dia 280
efxeinoupolis 280
eri 280
fail@@ 280
falcon 280
foot 280
guit@@ 280
hunt@@ 280
isted 280
observ@@ 280
sales 280
tack@@ 280
wy@@ 280
xed 280
1919 279
article 279
battles 279
enn@@ 279
exam@@ 279
foun@@ 279
junction 279
piece 279
pool 279
ranking 279
sands 279
sof@@ 279
subur@@ 279
thy 279
veget@@ 279
0,000 278
advis@@ 278
heroes 278
launches 278
m-@@ 278
non@@ 278
renov@@ 278
reported 278
reports 278
ror 278
sides 278
signing 278
x-@@ 278
aek 277
align 277
ami 277
costa 277
eries 277
ety 277
fullname 277
gettysburg 277
ja 277
lord 277
lots 277
object 277
offers 277
pop 277
rooms 277
shred@@ 277
ssed 277
1939 276
approved 276
arrived 276
bottom 276
emd 276
falls 276
fied 276
ful@@ 276
gir@@ 276
gujarat 276
hungar@@ 276
ink 276
ising 276
nin@@ 276
tim 276
wer 276
” 276
better 275
generally 275
giving 275
hit@@ 275
mb@@ 275
replace 275
set@@ 275
some@@ 275
starring 275
swed@@ 275
tra 275
affairs 274
aired 274
burgh 274
chester 274
fam@@ 274
här@@ 274
invest@@ 274
longer 274
makes 274
probably 274
respectively 274
rises 274
soy 274
spicy 274
taste 274
typ@@ 274
€ 274
artic@@ 273
asse@@ 273
bet@@ 273
hard 273
ishing 273
champion@@ 272
consid@@ 272
pau@@ 272
conce@@ 270
invol@@ 270
las 270
dic@@ 269
nas@@ 269
regist@@ 269
195@@ 268
commiss@@ 268
icul@@ 268
outh 268
rele@@ 268
ron 268
! 267
ific 267
moder@@ 267
philipp@@ 267
ş@@ 267
ae 266
educ@@ 266
sible 266
autom@@ 264
ene 264
joh@@ 264
demon@@ 263
of@@ 263
affili@@ 262
icy 262
organ@@ 261
organiz@@ 261
à 261
orial 259
itude 258
opp@@ 258
vill@@ 258
beg@@ 257
tion 257
grap@@ 255
expl@@ 254
ith 254
jun@@ 254
sist@@ 254
ict@@ 253
parliam@@ 253
ply 253
aff@@ 252
atic 252
devel@@ 252
ems 251
gradu@@ 251
kes 249
spect@@ 249
abbrevi@@ 248
cial 248
sey 248
ased 246
iled 246
ital 246
surroun@@ 246
atory 245
heav@@ 245
ulia 245
yet 245
hot@@ 244
sburg 244
cost@@ 243
east@@ 241
isa 241
review@@ 241
view@@ 241
cla@@ 240
bed 239
bel 238
stand@@ 237
ğ@@ 236
lie 235
gin@@ 234
appoin@@ 233
get@@ 233
langu@@ 233
+ 232
1-@@ 232
erse 232
neigh@@ 231
ri 231
constru@@ 230
oh@@ 230
surve@@ 230
ths 230
aka 229
champ@@ 229
omet@@ 229
pac@@ 229
prec@@ 229
ard@@ 228
inhab@@ 228
rol 228
design@@ 227
illed 227
roun@@ 227
angel@@ 225
proc@@ 225
ester 224
ific@@ 224
issu@@ 224
occup@@ 224
carri@@ 223
olf@@ 223
yl@@ 222
ae@@ 221
ancell@@ 221
foo@@ 221
journ@@ 221
ners 220
gol@@ 219
phot@@ 219
flu@@ 218
refer@@ 218
vers@@ 218
minut@@ 217
orge 217
arch 216
arded 216
bh@@ 216
draw@@ 216
lum@@ 214
tech@@ 214
four@@ 213
cc@@ 212
eric@@ 212
thom@@ 212
wheel@@ 212
gab@@ 211
ome 211
profess@@ 211
aft 210
agen 210
austral@@ 210
stitut@@ 210
with@@ 210
engine@@ 209
inf@@ 208
spl@@ 208
uring 208
init@@ 207
jack@@ 207
belong@@ 206
&@@ 205
restaur@@ 205
inst@@ 204
mont 204
launch@@ 203
ˈ@@ 203
govern@@ 202
inten@@ 202
purch@@ 202
ə@@ 202
aceae 201
tained 201
priv@@ 200
staf@@ 200
è@@ 200
burn 199
curve 199
locomot@@ 199
replac@@ 199
ax 198
pus 198
á 198
just@@ 197
studi@@ 197
advent@@ 196
claim@@ 196
labor@@ 196
tle 196
becom@@ 195
ength 195
face 195
ends 194
legislat@@ 194
ú@@ 194
tak@@ 193
willi@@ 193
hab@@ 192
ames 190
nig@@ 190
ı 189
vers 188
chic@@ 187
usu@@ 187
ped 186
corpor@@ 185
heal@@ 185
o-@@ 185
ür@@ 185
categor@@ 184
metho@@ 184
candi@@ 183
hl 183
ols 183
pay@@ 183
ject@@ 182
syl@@ 182
craft 181
dist@@ 179
earli@@ 179
leton 179
vels 179
aug@@ 178
ei@@ 178
ë@@ 178
gn@@ 177
grou@@ 177
performan@@ 177
stric@@ 176
atlan@@ 175
ican 175
premi@@ 175
coll@@ 174
mitted 174
bran@@ 173
cris@@ 172
lock 172
marri@@ 172
onica 172
â@@ 172
chang@@ 170
ided 170
ported 170
är@@ 170
depart@@ 169
pak@@ 169
chur@@ 168
mon 168
sandw@@ 168
veg@@ 168
aul@@ 167
carol@@ 167
indu@@ 166
perio@@ 166
arian 165
cri@@ 165
defin@@ 165
eter 165
signific@@ 165
ument 165
yland 165
chin@@ 164
harb@@ 163
lers 163
bell@@ 162
import@@ 162
ste 162
mater@@ 161
metr@@ 161
recor@@ 161
estim@@ 158
esh 157
stud@@ 157
ingham 155
metro@@ 155
olym@@ 155
š@@ 155
nex@@ 154
201@@ 153
ji 153
maj@@ 153
regul@@ 153
anta 152
unt@@ 152
#@@ 151
hero@@ 151
qual@@ 151
ym 151
administr@@ 149
minist@@ 149
sci@@ 149
depu@@ 148
fore 148
itu@@ 148
midd@@ 148
ō 148
ault 147
jour@@ 147
polit@@ 147
shr@@ 147
techn@@ 147
anded 146
commit@@ 146
cture 146
ethiop@@ 146
sever@@ 146
erick 145
tch 145
uled 144
buil@@ 143
regim@@ 143
iro 142
degre@@ 141
isco 140
ject 140
con 139
neighbor@@ 139
sage 139
aten 138
gh 138
condu@@ 137
eing 137
loy@@ 137
brit@@ 136
een 136
iva 136
municip@@ 136
sched@@ 136
simil@@ 136
cause 135
milit@@ 135
tast@@ 135
í 135
anton@@ 134
foot@@ 134
nia 134
palaeonto@@ 134
utt@@ 134
care@@ 133
gem@@ 132
ril 132
ovi@@ 131
oms 130
roy@@ 130
ook 129
rie 129
territ@@ 129
americ@@ 128
conserv@@ 128
lig@@ 128
wash@@ 128
peo@@ 127
situ@@ 127
ō@@ 127
accor@@ 126
comb@@ 126
convent@@ 126
ishes 126
ordin@@ 126
chair@@ 125
publ@@ 125
ross 125
scho@@ 125
ket 124
afric@@ 123
groun@@ 123
ority 123
ă 123
aba 122
announ@@ 121
icity 121
ö 121
ž@@ 121
arily 120
engl@@ 120
rid 120
wis@@ 120
ń@@ 120
elli@@ 119
enter@@ 119
heim 119
ato@@ 118
magn@@ 118
modu@@ 118
quot@@ 118
ș@@ 117
respect@@ 116
exper@@ 115
explo@@ 115
spec@@ 115
tries 115
ange 114
å@@ 114
ː@@ 114
fant@@ 113
repe@@ 113
ables 112
aman 112
ein@@ 112
ino@@ 112
isation 112
open@@ 112
volunte@@ 112
iction 111
eur 110
fred@@ 109
ose 109
= 108
anal@@ 108
beh@@ 108
cer 108
iel 108
istan 108
ott 108
soldi@@ 108
ears 107
fred 107
iev@@ 107
ă@@ 107
ɪ@@ 107
skyscr@@ 106
ethn@@ 105
ports 105
wed 105
asy 104
canad@@ 103
ready 103
ó 103
amster@@ 102
ipped 102
occu@@ 102
polis 102
remain@@ 102
thers 102
£ 102
adem@@ 101
azerba@@ 101
onto@@ 101
politan 101
č@@ 101
destroy@@ 100
er- 100
đ@@ 100
ometr@@ 99
× 99
atat@@ 98
atives 98
bang@@ 98
cs@@ 98
lanc@@ 98
mercur@@ 98
was@@ 98
facil@@ 97
insp@@ 97
ew 96
min-@@ 95
poin@@ 95
ice@@ 94
sus 94
techno@@ 94
coal@@ 93
etr@@ 93
prob@@ 93
tura 93
academ@@ 92
europe@@ 92
penn@@ 92
vad@@ 92
idge 91
output 91
tested 90
administ@@ 89
erous 89
hic@@ 89
promin@@ 89
quer@@ 89
stitu@@ 89
ß@@ 89
assist@@ 88
heidel@@ 88
ove 88
blanco 87
ğ 87
199@@ 86
? 86
campa@@ 86
dall@@ 86
eclip@@ 86
model@@ 86
‘ 86
airs 85
aths 85
discipl@@ 85
inaug@@ 85
ira@@ 85
tain@@ 85
danc@@ 84
daugh@@ 84
muse@@ 84
organ 84
execut@@ 83
finan@@ 83
footb@@ 83
magaz@@ 83
ven 83
196@@ 82
cuis@@ 82
diam@@ 81
eccentr@@ 81
pean@@ 81
wiz@@ 81
zer@@ 81
ä 81
cio 80
gt@@ 80
w-@@ 80
aller 79
support@@ 79
ana@@ 78
mex@@ 78
oct@@ 78
ration 78
squad@@ 78
fer 77
turk@@ 77
twork 77
distingu@@ 76
hamp@@ 76
settle@@ 76
hib@@ 75
libr@@ 75
secret@@ 75
hig@@ 74
princi@@ 74
summ@@ 74
nether@@ 73
ô@@ 73
chev@@ 72
icip@@ 72
ś@@ 72
− 72
ferred 71
gest@@ 71
oug@@ 71
abe@@ 70
eiro 70
famil@@ 70
ference 70
ining 70
rez 70
secre@@ 70
syst@@ 70
anese 69
sug@@ 69
ürk 69
event@@ 68
legis@@ 68
lor 68
self 68
bhaj@@ 67
vide@@ 67
hosp@@ 66
idel@@ 66
previ@@ 66
ę@@ 66
evo 65
imes 65
lah@@ 65
ool 65
pep@@ 64
vel 64
cially 63
coordin@@ 63
isio 63
bav@@ 62
jose@@ 62
aware 61
fed@@ 61
leav@@ 61
lie@@ 61
prefe@@ 61
ə 61
desser@@ 60
found@@ 60
igned 60
inste@@ 60
kara 60
resp@@ 60
tir@@ 60
califor@@ 59
hol 59
jav@@ 59
lest 59
sity 59
buting 58
chick@@ 58
house@@ 58
identif@@ 58
rd 58
å 58
oreg@@ 57
ț@@ 57
eliz@@ 56
hus 56
kilomet@@ 56
argent@@ 55
bure@@ 55
colo@@ 55
dom 55
soc@@ 55
song@@ 55
turkmen@@ 55
ü 55
ż@@ 55
stit@@ 54
ā@@ 54
manufac@@ 53
alder@@ 52
jos@@ 52
statist@@ 52
asil@@ 51
aska 51
banan@@ 51
cele@@ 51
ometric 51
committe@@ 50
feat@@ 50
hist@@ 50
ingu@@ 50
most@@ 50
provis@@ 50
⋅ 50
brussel@@ 49
doug@@ 49
hael 49
occurr@@ 49
quarters 49
ê@@ 49
ş 49
ces@@ 48
itional 48
oci@@ 48
tournam@@ 48
ù 48
sovi@@ 47
uary 47
197@@ 46
ife 46
transport@@ 46
² 46
* 45
aen@@ 45
avail@@ 45
astronau@@ 44
fren@@ 44
indones@@ 44
anco 43
rement 43
stry 43
para 42
tay@@ 42
dimit@@ 41
him@@ 41
ones@@ 41
ì 41
aldr@@ 40
aç@@ 40
chancell@@ 40
inclu@@ 40
ocr@@ 40
ń 40
ação 39
isb@@ 39
nd 39
negr@@ 39
octo@@ 39
emap 38
full@@ 38
ried 38
ł 38
ʊ@@ 38
arap@@ 37
brasil@@ 37
hatt@@ 37
peninsul@@ 37
š 37
198@@ 36
agremi@@ 36
juvent@@ 36
princip@@ 36
č 36
buff@@ 35
efxeinou@@ 35
ifor@@ 35
pud@@ 35
~ 35
dedic@@ 34
exec@@ 34
giv@@ 34
redi@@ 34
sylvania 34
virgin@@ 34
î@@ 34
blin 33
carbon@@ 33
insul@@ 33
onso 33
shut@@ 33
somet@@ 33
ý 33
ɛ@@ 33
albe@@ 32
alo 32
draf@@ 32
jap@@ 32
andal@@ 31
grant@@ 31
succ@@ 31
ë 31
ú 31
ɒ@@ 31
brus@@ 30
ockey 30
ò 30
ą@@ 30
approxim@@ 29
asse 29
backgroun@@ 29
ece 29
incl@@ 29
malay@@ 29
sio@@ 29
alab@@ 28
ctr@@ 28
flem@@ 28
achar@@ 27
arians 27
busin@@ 27
semi@@ 27
ć@@ 27
\ 26
abeth 26
cogn@@ 26
espe@@ 26
stem 26
vehic@@ 26
ld 25
pard 25
singap@@ 25
suc@@ 25
univ@@ 25
ß 25
ī@@ 25
architect@@ 24
cil 24
marty@@ 24
^ 23
erly 23
mw-@@ 23
republic@@ 23
zz 23
adesh 22
capac@@ 22
ewell 22
inning 22
strup 22
ð@@ 22
achu@@ 21
μ@@ 21
… 21
apos@@ 20
clevel@@ 20
icut 20
lawy@@ 20
lincol@@ 20
ï@@ 20
ę 20
ˌ@@ 20
⁄ 20
disci@@ 19
fict@@ 19
reti@@ 19
à@@ 19
è 19
ø 19
ř@@ 19
lieuten@@ 18
omar 18
· 18
½ 18
œ@@ 18
ţ@@ 18
ū@@ 18
ɑ@@ 18
ʒ@@ 18
‑ 18
andalus@@ 17
astero@@ 17
detro@@ 17
eredivis@@ 17
grow@@ 17
hout 17
infan@@ 17
iop@@ 17
olfo 17
quart@@ 17
ů@@ 17
-belt 16
austr@@ 16
freed@@ 16
karnat@@ 16
lond@@ 16
sé@@ 16
telev@@ 16
ś 16
birm@@ 15
rebell@@ 15
uten@@ 15
wom@@ 15
ū 15
ɔ@@ 15
azione 14
chry@@ 14
gujar@@ 14
imp 14
spid@@ 14
traff@@ 14
θ@@ 14
` 13
attor@@ 13
bachel@@ 13
cabin@@ 13
choy 13
clip@@ 13
jupit@@ 13
malays@@ 13
chevro@@ 12
entertain@@ 12
fili@@ 12
isham 12
mendr@@ 12
mississ@@ 12
pite 12
â 12
ě@@ 12
ʊ 12
​ 12
antw@@ 11
mississipp@@ 11
pied 11
punj@@ 11
sylvan@@ 11
tles 11
û@@ 11
ź 11
ɡ@@ 11
е@@ 11
ajo@@ 10
klin 10
laun@@ 10
michig@@ 10
orig@@ 10
schip@@ 10
sept@@ 10
toge@@ 10
ʃ@@ 10
α@@ 10
κ@@ 10
@ 9
analys@@ 9
antwer@@ 9
archit@@ 9
cocon@@ 9
raz 9
themat@@ 9
³ 9
ê 9
ő@@ 9
ŵ@@ 9
ș 9
ː 9
έ@@ 9
η@@ 9
ς 9
ế 9
`@@ 8
charact@@ 8
copenh@@ 8
eer@@ 8
erba@@ 8
iq@@ 8
logica 8
magde@@ 8
ô 8
ν@@ 8
ṭ@@ 8
₹ 8
aceous 7
albu@@ 7
assemb@@ 7
aston@@ 7
astron@@ 7
erediv@@ 7
kans@@ 7
lic 7
midfiel@@ 7
passeng@@ 7
riciana 7
sidi@@ 7
zeal@@ 7
þ@@ 7
ā 7
ι@@ 7
λ@@ 7
ο@@ 7
ρ@@ 7
τ@@ 7
с@@ 7
architet@@ 6
bundes@@ 6
categ@@ 6
distric@@ 6
econ@@ 6
getty@@ 6
ijan 6
ocl@@ 6
okla@@ 6
satell@@ 6
sler 6
wiscons@@ 6
¥ 6
« 6
ʻ@@ 6
ε@@ 6
к@@ 6
ا@@ 6
bande@@ 5
ember 5
ezz@@ 5
icop@@ 5
inhabit@@ 5
intro@@ 5
invas@@ 5
perfor@@ 5
ser-@@ 5
¡ 5
´ 5
º 5
» 5
árez 5
ð 5
ą 5
ź@@ 5
ɪ 5
ʌ@@ 5
ο 5
σ@@ 5
о@@ 5
р@@ 5
ố@@ 5
adirond@@ 4
appear@@ 4
massachu@@ 4
querque 4
tween 4
wro@@ 4
ylde 4
ã@@ 4
ñ 4
õ@@ 4
ý@@ 4
ė@@ 4
ư@@ 4
ɜ@@ 4
ε 4
υ@@ 4
а@@ 4
н@@ 4
व@@ 4
₨ 4
饘 4
accadem@@ 3
alcat@@ 3
decem@@ 3
glaston@@ 3
ignit 3
ivid@@ 3
palae@@ 3
throug@@ 3
tint@@ 3
visves@@ 3
§ 3
º@@ 3
ù@@ 3
ē 3
ė 3
ť 3
ț 3
ʏ@@ 3
ʼ@@ 3
δ@@ 3
ι 3
ό@@ 3
д@@ 3
и@@ 3
й 3
т@@ 3
у@@ 3
ل@@ 3
ა@@ 3
ớ@@ 3
ừ@@ 3
› 3
♭ 3
包 3
叉@@ 3
燒@@ 3
米@@ 3
粉 3
abbre@@ 2
adir@@ 2
again@@ 2
bangal@@ 2
bion@@ 2
dren 2
efa 2
ered@@ 2
febr@@ 2
gubb@@ 2
homa 2
illino@@ 2
ingredi@@ 2
ketball 2
manhatt@@ 2
quired 2
skys@@ 2
switzer@@ 2
tress 2
unte@@ 2
¢ 2
µ 2
ã 2
ç 2
ì@@ 2
ģ@@ 2
ī 2
ţ 2
ɬ@@ 2
ʲ@@ 2
ʹ@@ 2
̣ 2
ί@@ 2
β 2
γ 2
θ 2
τ 2
χ@@ 2
ω 2
ω@@ 2
б 2
б@@ 2
в@@ 2
ж@@ 2
м@@ 2
т 2
ч@@ 2
ь@@ 2
ص@@ 2
و@@ 2
क 2
ट 2
ड 2
प@@ 2
़ 2
् 2
க@@ 2
ச@@ 2
ஞ 2
ி 2
் 2
ರ@@ 2
ಸ 2
ಹ@@ 2
ು 2
ೆ@@ 2
್ 2
ක@@ 2
ග@@ 2
ට 2
ත@@ 2
් 2
ු@@ 2
ො@@ 2
დ@@ 2
ი@@ 2
ლ@@ 2
ṛ@@ 2
ṣ@@ 2
ẩ@@ 2
ặ@@ 2
† 2
• 2
№ 2
✦ 2
粿 2
糜 2
酏 2
鬻 2
arapiraqu@@ 1
brie 1
campe@@ 1
ccn 1
derby@@ 1
lumezz@@ 1
nood@@ 1
onato 1
penh@@ 1
pietr@@ 1
subsequ@@ 1
varaya 1
® 1
¼ 1
¾ 1
æ 1
ï 1
ò@@ 1
ÿ@@ 1
ē@@ 1
ĕ@@ 1
ņ@@ 1
ň 1
ň@@ 1
ŋ 1
ő 1
ť@@ 1
ż 1
ž 1
ǐ@@ 1
ȳ@@ 1
ɕ 1
ɦ@@ 1
ʃ 1
ʒ 1
ʼ 1
̯ 1
ά@@ 1
α 1
β@@ 1
γ@@ 1
ν 1
π@@ 1
φ 1
а 1
к 1
л@@ 1
н 1
о 1
п@@ 1
ы@@ 1
э@@ 1
ї@@ 1
ب@@ 1
ت@@ 1
ر 1
س@@ 1
ع@@ 1
ف@@ 1
ق 1
ق@@ 1
ل 1
ن 1
ن@@ 1
و 1
ِ 1
پ@@ 1
ښ@@ 1
ی@@ 1
ට@@ 1
ඩ@@ 1
ත 1
ස 1
ა 1
ე@@ 1
ვ@@ 1
ი 1
შ@@ 1
ჭ@@ 1
ḍ@@ 1
ṃ@@ 1
ṇ 1
ệ 1
ị@@ 1
ộ 1
ờ@@ 1
ἀ@@ 1
ῆ@@ 1
ῑ@@ 1
‍ 1
„ 1
⁠ 1
₺ 1
™ 1
⅔ 1
⑯ 1
★ 1
倉@@ 1
和@@ 1
小@@ 1
山@@ 1
峰 1
川@@ 1
庁 1
県@@ 1
秀@@ 1
粽 1
肉@@ 1
蒸@@ 1
調@@ 1
餐@@ 1
） 1
madeupword0000 0
