the 286149
, 228086
. 159224
of 143427
in 117915
and 110336
a 84054
is 81943
&apos; 71334
to 57122
was 54604
as 36371
it 31187
by 28801
&#93; 28394
&#91; 28325
on 25577
with 23376
he 22694
for 22604
from 21672
&quot; 21050
an 19007
at 18051
city 17909
united 15601
s 15287
&apos;s 14864
states 14198
county 14046
are 13945
which 13748
has 13719
new 12496
its 12447
- 12163
that 11399
club 10260
or 10035
his 10001
airport 9996
were 9888
name 9742
first 9715
country 9378
state 8876
also 8758
i 8752
re@@ 8625
area 8455
one 8316
e 8184
part 8057
located 7779
-@@ 7698
d@@ 7666
university 7663
– 7536
after 7464
o 7402
k@@ 7360
leader 7248
be 7076
s@@ 7056
: 6942
c 6923
football 6846
ing 6829
; 6728
t@@ 6711
) 6686
known 6631
they 6618
this 6511
er 6479
u 6423
had 6361
language 6314
league 6283
n@@ 6146
d 6102
e@@ 6040
g@@ 6013
es 5941
al 5885
in@@ 5878
ed 5757
national 5704
who 5692
population 5687
team 5642
( 5636
their 5633
american 5602
p@@ 5543
served 5440
group 5315
al@@ 5296
international 5289
region 5285
c@@ 5276
1 5209
b@@ 5186
h@@ 5185
t 5180
north 5084
i@@ 5064
two 5060
y@@ 5059
season 5047
location 5023
most 5000
been 4983
m@@ 4968
o@@ 4929
de 4908
l@@ 4874
school 4853
capital 4840
b 4825
r 4789
en@@ 4762
where 4717
r@@ 4691
number 4683
texas 4657
but 4630
0 4612
le@@ 4608
have 4601
during 4588
n 4585
y 4563
born 4558
used 4528
south 4502
w@@ 4500
ers 4486
time 4476
town 4456
z@@ 4455
/ 4398
became 4388
u@@ 4386
world 4373
other 4364
member 4356
music 4347
west 4345
f@@ 4344
census 4310
st@@ 4301
war 4284
v@@ 4247
ch@@ 4188
l 4179
ar@@ 4167
ation 4132
years 4115
president 4111
m 4110
an@@ 4086
founded 4081
se@@ 4048
people 4031
into 3996
played 3995
land 3976
% 3972
air 3960
un@@ 3904
de@@ 3827
k 3817
place 3798
party 3754
st 3749
j@@ 3731
ia 3724
ro@@ 3718
including 3694
made 3679
er@@ 3667
based 3636
there 3625
at@@ 3593
established 3580
3 3579
us 3575
2 3568
york 3563
named 3558
company 3551
am@@ 3513
alan 3502
english 3502
g 3493
year 3459
when 3402
all 3368
century 3363
ad@@ 3313
east 3289
between 3271
f 3234
ts 3234
ate 3226
el@@ 3226
government 3182
runway 3173
or@@ 3156
won 3137
p 3135
second 3133
co@@ 3130
man 3130
may 3127
ethnic 3118
a@@ 3116
not 3108
called 3088
until 3074
district 3071
john 3058
home 3054
river 3052
mar@@ 3045
main 3038
miles 3026
army 3012
ated 3011
sh@@ 3007
since 3003
apollo 2978
under 2976
ar 2974
more 2958
over 2946
such 2942
being 2928
square 2909
tr@@ 2885
house 2884
well 2862
2010 2843
following 2841
as@@ 2837
largest 2795
di 2758
ag@@ 2755
later 2744
division 2743
india 2719
members 2710
ab@@ 2709
three 2705
is@@ 2704
she 2704
ac@@ 2697
w 2695
it@@ 2676
many 2673
general 2647
ne@@ 2645
h 2590
built 2587
age 2584
then 2578
4 2568
con@@ 2560
ly 2552
6 2549
th@@ 2542
pe@@ 2536
en 2533
8 2531
po@@ 2524
force 2522
on@@ 2517
only 2509
minister 2492
early 2488
lo@@ 2488
ic 2482
ic@@ 2482
union 2482
bo@@ 2474
ton 2471
while 2470
ingredient 2468
bacon 2464
son 2464
led 2463
v 2447
le 2444
township 2444
both 2442
cup 2436
william 2415
br@@ 2414
institute 2414
before 2405
italy 2399
18@@ 2398
level 2395
dish 2394
em@@ 2393
es@@ 2386
jersey 2386
sea 2382
5 2381
up 2381
formed 2379
found 2379
british 2377
series 2375
im@@ 2374
center 2368
published 2359
some 2353
band 2350
end 2350
european 2349
rock 2336
12 2334
began 2325
building 2325
created 2322
11 2320
di@@ 2306
central 2302
car@@ 2300
ted 2297
gr@@ 2293
mo@@ 2267
serie 2266
family 2259
public 2256
can 2253
ian 2249
per@@ 2243
college 2242
americans 2241
fc 2223
technology 2217
service 2194
business 2192
3@@ 2188
me@@ 2168
si@@ 2163
be@@ 2158
street 2158
seat 2157
monument 2140
province 2140
5@@ 2138
ak@@ 2135
ap@@ 2128
9@@ 2127
ground 2122
major 2108
gu@@ 2107
san 2092
8@@ 2089
su@@ 2081
li@@ 2080
high 2078
spain 2076
than 2072
long 2067
include 2066
la 2061
ri@@ 2061
2@@ 2057
out 2057
indonesia 2045
4@@ 2044
&amp; 2039
7 2039
length 2039
white 2032
dis@@ 2017
california 2016
former 2015
through 2014
10 2013
man@@ 2011
pilot 2010
6@@ 2009
use 2009
kingdom 2005
bar@@ 2003
spoken 2003
ol@@ 2001
character 1994
italian 1990
four 1987
teams 1983
july 1982
aarhus 1967
term 1953
ii 1951
virginia 1950
ations 1948
ex@@ 1942
election 1939
mw-parser-output 1939
several 1931
pre@@ 1926
lu@@ 1925
system 1923
above 1921
te@@ 1921
washington 1919
space 1917
ma@@ 1913
x@@ 1905
il@@ 1884
ti@@ 1869
qu@@ 1867
book 1860
see 1859
el 1857
regional 1856
june 1853
15 1851
road 1848
birth 1840
history 1836
along 1835
20 1832
her 1826
2014 1825
bu@@ 1824
acharya 1821
17@@ 1819
form 1812
ir@@ 1807
march 1807
9 1805
ds 1804
office 1796
title 1793
side 1792
7@@ 1787
included 1781
madrid 1777
pro@@ 1770
way 1769
january 1753
launch 1752
x 1752
king 1751
elected 1750
ist 1750
these 1749
nasa 1747
island 1746
mc 1745
professional 1743
date 1742
album 1740
would 1732
hall 1728
play 1726
about 1725
ingredients 1725
ine 1723
comics 1721
released 1715
social 1715
work 1715
september 1711
association 1709
metropolitan 1708
england 1705
ie 1702
october 1702
designed 1696
crew 1695
april 1692
republic 1691
ent@@ 1689
line 1683
community 1676
ent 1675
august 1671
journal 1671
december 1669
do@@ 1665
metres 1661
sauce 1661
however 1652
manager 1649
sp@@ 1649
infantry 1646
battle 1645
ur@@ 1641
to@@ 1638
mexico 1630
no 1629
november 1629
northern 1623
head 1621
th 1618
now 1609
development 1605
z 1594
bean 1591
engine 1589
german 1588
he@@ 1588
type 1584
2000 1583
ter@@ 1583
gen 1578
° 1576
inter@@ 1574
austin 1568
held 1567
17 1563
total 1563
cr@@ 1556
park 1556
har@@ 1555
14 1554
spanish 1551
am 1548
cu@@ 1540
ad 1537
her@@ 1537
ber@@ 1535
department 1529
within 1529
great 1528
ford 1527
according 1524
able 1523
mon@@ 1521
com@@ 1519
southern 1516
third 1515
ors 1514
als 1511
left 1511
london 1510
took 1510
civil 1509
produced 1507
top 1507
village 1506
native 1504
shepard 1497
anders 1492
io 1491
lake 1490
law 1487
2009 1484
old 1484
pennsylvania 1484
2011 1483
referred 1483
moved 1482
ice 1481
western 1477
der 1472
aldrin 1470
france 1469
groups 1467
id@@ 1465
joined 1463
popular 1463
often 1459
plays 1458
pl@@ 1454
ver@@ 1454
elliot 1453
although 1448
av@@ 1448
ive 1448
atlantic 1446
for@@ 1440
pu@@ 1440
18 1439
back 1438
ks 1438
due 1434
asteroid 1430
can@@ 1428
late 1427
denmark 1425
1634 1423
mer@@ 1420
ang@@ 1419
sciences 1419
ho@@ 1416
council 1415
du@@ 1412
ting 1412
february 1411
we@@ 1405
written 1403
day 1401
making 1396
against 1394
1@@ 1393
car 1393
23 1390
military 1389
ru@@ 1382
ion 1381
ter 1381
sch@@ 1379
same 1377
times 1375
dr@@ 1374
french 1373
az@@ 1372
period 1372
ph@@ 1366
around 1362
ley 1358
par@@ 1357
station 1355
ant 1354
buzz 1354
eastern 1354
stadium 1352
america 1348
ig@@ 1347
au@@ 1346
ac 1338
mendrisio 1337
sub@@ 1328
ates 1327
municipality 1326
no@@ 1326
16@@ 1322
malaysia 1322
ans 1320
ed@@ 1318
records 1316
ies 1315
large 1315
governor 1314
ohio 1311
aw@@ 1309
developed 1309
operating 1309
indian 1308
centre 1302
ke@@ 1302
2008 1300
includes 1299
started 1298
ating 1297
blues 1297
official 1297
aircraft 1294
become 1293
local 1292
career 1291
george 1291
lee 1285
field 1283
playing 1281
2015 1278
flight 1278
ment 1275
ge@@ 1272
style 1269
politician 1267
record 1267
se 1267
um@@ 1264
political 1262
j 1261
federal 1260
million 1256
operated 1256
ul@@ 1252
0@@ 1250
europe 1250
science 1250
death 1246
mississippi 1246
pr@@ 1244
ally 1240
ance 1240
architect 1238
fe@@ 1236
port 1235
appointed 1232
ireland 1228
championship 1225
ity 1224
cl@@ 1223
da 1222
mu@@ 1222
id 1221
ings 1218
men 1206
red 1204
los 1203
chicago 1200
site 1198
them 1198
five 1197
philippines 1196
small 1196
test 1196
min@@ 1195
30 1192
gar@@ 1192
base 1189
currently 1189
owned 1186
so@@ 1183
art 1181
education 1181
james 1180
historic 1178
cities 1177
serves 1175
2019 1172
final 1168
originally 1168
students 1168
ary 1166
os 1164
est@@ 1160
um 1160
own 1159
ste@@ 1158
position 1157
ra@@ 1151
azerbaijan 1148
pakistan 1147
af@@ 1146
received 1146
13 1142
chief 1142
2012 1141
do 1140
16 1137
among 1133
11th 1132
21 1132
conference 1132
order 1132
best 1130
2007 1129
vi@@ 1129
ay@@ 1128
each 1128
worked 1128
ah@@ 1127
sri 1127
mor@@ 1126
completed 1125
les 1125
10@@ 1121
ous 1120
prime 1120
2013 1119
28 1119
body 1119
champions 1119
turkey 1118
followed 1117
ah 1116
considered 1115
est 1113
power 1113
singapore 1113
populous 1112
ci@@ 1110
ten@@ 1110
bi@@ 1108
ing@@ 1108
water 1108
la@@ 1107
te 1107
ical 1106
organisation 1104
greece 1101
rice 1095
15@@ 1094
black 1094
near 1091
serving 1088
size 1088
hu@@ 1085
avenue 1084
athens 1083
variation 1083
him 1082
like 1082
ana 1081
25 1080
areas 1079
iv@@ 1079
point 1078
ann@@ 1076
church 1074
2017 1072
clubs 1070
games 1069
round 1067
ve@@ 1067
engineering 1065
sk@@ 1065
construction 1061
design 1061
parts 1061
britain 1060
premier 1058
sandwich 1058
ville 1056
last 1055
navy 1055
ty 1055
2006 1054
parliament 1053
forces 1051
came 1049
russian 1049
dutch 1048
act 1047
comes 1047
mission 1047
bal@@ 1045
six 1045
current 1043
robert 1043
á@@ 1043
27 1042
ut@@ 1042
é@@ 1041
pal@@ 1038
air@@ 1037
tu@@ 1037
wisconsin 1037
louis 1035
accademia 1034
democratic 1034
1963 1033
stage 1033
academic 1032
any 1032
opened 1031
2016 1030
press 1030
der@@ 1026
ot@@ 1026
set 1026
books 1025
bre@@ 1025
metal 1025
languages 1024
switzerland 1024
culture 1022
selected 1021
original 1020
calcio 1018
ship 1014
akita 1013
having 1013
production 1013
architettura 1012
sports 1012
over@@ 1008
royal 1006
go@@ 1005
om@@ 1005
den@@ 1003
fr@@ 1003
ke 1000
and@@ 997
— 997
adams 996
ch 995
den 995
ics 995
lan@@ 995
22 994
ce@@ 993
ded 993
georgia 993
ban@@ 992
chinese 987
hol@@ 987
maryland 987
2004 986
cor@@ 986
bl@@ 980
ding 980
2018 978
michigan 977
mary 976
ard 975
majority 975
using 975
retired 974
lin@@ 973
died 968
asian 967
romania 967
countries 966
territory 966
so 964
big 960
str@@ 960
ically 959
research 959
2005 958
modern 957
sur@@ 956
era 955
graduated 955
ions 955
pop 955
ayam 951
beef 951
pen@@ 951
1,@@ 950
ant@@ 950
award 946
ents 946
song 946
fried 945
comic 944
row 944
fort 941
ass@@ 940
nor@@ 940
author 938
coast 937
mir 937
bay 934
mat@@ 933
publisher 933
southeast 932
ev@@ 931
al- 929
van 928
launched 927
sold 926
ano 925
medal 924
per 924
cal@@ 920
ge 920
il 918
km 918
ina 917
museum 917
africa 916
ct@@ 916
lat@@ 916
au 915
ou@@ 915
,000 914
ion@@ 913
ma 912
germany 910
uk 910
because 909
another 908
col@@ 907
model 907
us@@ 905
replaced 903
uefa 903
1996 902
authority 902
win 902
arena 901
sa 901
staff 901
status 900
indiana 899
sal@@ 899
works 899
addition 898
ist@@ 898
op@@ 898
run 898
today 898
various 897
ay 895
bur@@ 895
crisis 894
usually 894
word 894
ca 893
creator 893
pat@@ 893
50 892
introduced 892
command 890
baku 889
debut 888
johnson 888
14@@ 885
commonly 885
end@@ 885
bureau 884
bas@@ 883
ked 883
cleveland 881
﻿ 881
course 880
java 879
pacific 879
200 878
hal@@ 877
japan 877
list 876
counties 874
26 873
orbit 873
ach@@ 870
live 870
24 869
corps 869
common 867
african 866
cabinet 866
plant 865
hotel 864
ta 864
19 862
pan@@ 861
ps 861
dessert 860
elevation 860
2001 858
different 858
father 858
winning 858
ath@@ 857
iraq 857
ang 856
discovered 856
ence 854
situated 854
contains 853
lanka 853
signed 853
et 852
film 851
sy@@ 851
assembly 850
ov@@ 850
ajax 849
class 849
paisa 849
promoted 849
food 847
version 847
important 846
1998 845
secretary 845
war@@ 844
will 844
cre@@ 843
nation 843
ow@@ 843
ju@@ 842
} 841
super@@ 840
trans@@ 840
valley 839
chicken 836
hockey 836
arem 835
competition 834
dallas 834
life 832
mal@@ 832
out@@ 831
still 830
support 829
iz@@ 828
ner 828
did 827
turkish 827
bakewell 826
birmingham 826
middle 826
penyet 824
route 823
1960s 822
control 822
val@@ 822
settlement 821
hong 819
hill 818
bridge 816
renamed 816
fin@@ 815
2003 813
make 812
administrative 810
media 810
ce 809
artists 808
leading 808
mid-@@ 808
forms 807
13@@ 806
added 806
{ 806
borough 803
bor@@ 802
oil 800
e-@@ 799
cap@@ 798
court 797
ct 797
ash@@ 796
pi@@ 796
des@@ 794
empire 794
all@@ 793
ast@@ 792
just 792
inhabitants 791
wh@@ 791
canada 790
ens 790
off 790
bionico 789
binignit 787
ir 787
je@@ 787
terms 787
1970s 786
headquarters 786
ians 786
reg@@ 786
ler 785
living 785
ni@@ 785
traditional 785
confederate 784
moon 784
result 783
charles 782
illinois 782
once 782
recorded 781
tur@@ 781
whose 779
working 779
david 776
ak 775
kong 775
memorial 775
lies 774
promotion 774
1980s 773
az 773
bavarian 773
lost 773
ck 772
commercial 772
returned 770
100 768
hor@@ 768
pol@@ 768
seasons 768
urban 768
ended 767
single 767
campaign 765
the@@ 765
alma 764
right 764
rome 764
ram 763
ram@@ 763
fl@@ 762
academy 761
ons 761
07 759
2002 759
genre 759
ities 759
market 759
mater 759
cars 757
engines 757
fer@@ 757
nationality 757
pri@@ 757
wood 757
chairman 756
jo@@ 756
lower 755
novel 755
barajas 754
complex 754
given 754
ish@@ 754
ial 753
remained 753
went 753
relegated 752
attended 751
gal@@ 751
senate 751
width 751
available 748
becoming 748
project 748
thomas 748
changed 747
program 747
ya 747
char@@ 746
sportiva 746
again 745
degree 745
adolfo 744
stat@@ 744
bandeja 742
border 742
bands 741
incorporated 741
similar 741
statistical 741
beginning 740
executive 740
40 739
awarded 739
che@@ 739
units 739
win@@ 739
divided 738
explosion 737
together 737
akron 736
sky 735
under@@ 735
20@@ 734
lunar 734
eg@@ 733
northwest 733
sen@@ 733
ko@@ 732
titles 731
sw@@ 730
bel@@ 729
ery 729
flint 729
ling 729
places 729
services 729
baked 728
occupation 727
what 727
mil@@ 726
story 726
aviation 725
buildings 725
green 725
ser@@ 725
significant 725
officially 724
pe 723
player 723
tor@@ 723
fighter 722
if@@ 722
gen@@ 721
amsterdam 720
appeared 720
fre@@ 719
eric 718
ger@@ 718
ite 718
much 718
ying 718
regions 717
compete 716
din@@ 716
estimated 716
highest 716
appleton 715
board 715
ff@@ 715
latin 715
co-@@ 714
success 714
00@@ 712
director 712
label 712
ridge 712
ip@@ 711
ments 711
are@@ 710
mayor 710
re-@@ 709
game 708
industry 708
ne 708
ra 707
ben@@ 706
′ 706
1990 705
oc@@ 705
ka 704
players 704
addis 703
ib@@ 702
ber 701
seven 701
soviet 701
brazil 699
dr 699
2,@@ 698
ele@@ 698
fourth 698
sometimes 698
co 697
surface 697
kilometres 696
portion 696
ers@@ 695
earth 694
ham 694
tar@@ 694
jazz 693
campus 689
half 689
na 689
egg 688
pudding 687
cuisine 686
peter 686
34 685
wal@@ 685
approximately 684
et@@ 684
islands 684
systems 684
1990s 683
continued 683
stone 683
successful 683
maj 682
post 682
vis@@ 682
writer 681
01 680
250 680
uses 680
ababa 679
castle 679
northeast 679
ism 678
society 678
lead 677
ster 677
tri@@ 677
za 677
1994 676
days 676
greater 676
affiliated 675
kar@@ 675
ren@@ 675
ise 674
rank 674
27@@ 673
eng@@ 673
months 673
33 672
ide 672
indonesian 672
sel@@ 672
ake 671
congress 671
publishing 671
railway 671
alaska 670
delaware 670
floor 670
ry 670
bank 669
standard 669
vice 669
hy@@ 668
ie@@ 667
low 667
throughout 667
acta 666
alternative 666
connecticut 666
ized 666
less 666
netherlands 666
polish 666
young 666
sion 665
airbase 664
tal@@ 664
fire 662
belgium 661
finished 661
ns 661
peninsula 661
suárez 661
role 660
summer 660
those 660
very 660
guitar 659
ker 659
previously 658
blackpool 657
leaders 657
roman 656
tournament 656
cultural 655
powys 655
representatives 655
songs 655
though 655
youth 655
ore 654
announced 653
bro@@ 653
dan@@ 653
ica 652
low@@ 652
front 651
hampshire 651
ni 651
sound 651
1969 650
density 650
elections 650
variety 650
economic 649
matches 649
0s 648
corporation 647
down 647
abilene 646
antwerp 646
consists 645
don 645
officer 645
range 645
housing 644
ages 643
architecture 643
features 643
que 643
independence 642
up@@ 642
zealand 642
ely 641
land@@ 641
manhattan 641
rebellion 641
full 640
min-width 640
loc@@ 638
footballer 637
sin@@ 637
,@@ 636
ade 636
gi@@ 636
grant 636
ran@@ 636
spe@@ 636
1st 635
alpena 635
ess@@ 635
sam@@ 635
spent 635
60 634
borders 634
des 634
residents 634
ten 634
match 633
afc 632
show 632
1995 631
ill@@ 631
independent 631
1999 630
movement 630
trade 630
29 629
del@@ 629
ob@@ 629
go 628
mel@@ 628
ranked 626
sun@@ 626
ajoblanco 625
associated 625
coach 625
carolina 624
cur@@ 624
feet 624
malay 623
bangalore 622
china 622
cro@@ 622
dublin 622
ku@@ 622
tier 622
committee 621
austria 620
ell 619
ory 619
att@@ 618
derived 618
reached 618
arch@@ 617
southwest 617
basketball 616
listed 616
35 615
deputy 615
ese 615
taken 614
vic@@ 614
administration 613
19th 612
coconut 612
dc 612
asad 611
mi@@ 610
1997 609
awards 609
184@@ 608
31 608
settled 608
$ 607
acquired 607
across 607
brown 607
christian 607
000 606
20th 605
cer@@ 605
module 605
wil@@ 605
bs 604
commander 604
ha@@ 604
karnataka 604
sar@@ 604
14th 603
copenhagen 603
fifa 603
milk 603
few 602
ino 602
mile 602
mad@@ 601
grounds 600
log@@ 600
12@@ 599
angeles 599
organized 599
bbc 598
ines 598
by@@ 597
west@@ 597
bat@@ 596
cas@@ 595
children 595
fo@@ 595
sc 595
tre@@ 595
upper 595
ine@@ 594
ran 594
kh@@ 593
ure 593
32 592
irish 592
atlanta 591
iqbal 591
sen 591
table 591
fu@@ 590
placed 590
romance 590
1918 589
miller 589
operations 589
re 589
ator 588
ional 588
mp@@ 588
″ 588
asia 587
management 587
owner 587
ships 587
chievo 586
downtown 586
greek 586
sa@@ 586
1932 585
bordered 585
del 585
ering 585
allama 584
person 584
railroad 584
serve 584
currency 583
wi@@ 583
ü@@ 583
d-@@ 582
founding 582
short 581
mid@@ 580
next 580
3,@@ 579
cam@@ 579
kway 579
ny 579
19@@ 578
code 578
ham@@ 578
she@@ 578
wor@@ 578
1987 577
paul 577
cast@@ 576
influenced 576
lived 575
í@@ 575
1993 574
combined 574
could 574
ell@@ 574
merger 574
species 574
star 574
1962 573
folk 573
health 572
ton@@ 572
vo@@ 572
ur 571
agra 570
artist 570
bakso 570
observatory 570
originated 570
port@@ 570
dor@@ 569
hun@@ 569
names 569
prior 569
sl@@ 569
300 568
harbor 568
ned 568
vehicle 568
martin 567
merged 567
release 567
take 567
verona 567
jr 565
means 565
creek 564
hand@@ 564
pos@@ 564
sarawak 564
technological 563
# 562
ement 561
frank 561
ists 561
men@@ 561
coalition 560
dance 559
santa 559
188@@ 558
1988 558
attack 558
saw 558
schools 558
aids 557
ms 557
poaceae 557
derbyshire 556
hospital 556
ered 555
represented 555
districts 554
limited 554
tt@@ 554
sweet 553
tower 553
asilomar 552
start 551
teow 551
90 550
republican 550
training 550
25@@ 549
cy@@ 549
distinguished 549
gh@@ 549
killed 549
tw@@ 549
legislature 548
ney 548
ale 546
ick 546
nu@@ 546
tun@@ 546
03 545
ss@@ 545
taking 545
versus 545
ó@@ 545
lands 544
roma 544
1980 543
36 543
active 543
entered 543
if 543
larger 543
nhl 543
q@@ 543
related 543
volunteer 543
free 542
joseph 542
mathematics 542
meat 541
ga 540
ain 539
alcatraz 539
arts 539
gro@@ 539
henry 539
ken@@ 539
t-@@ 539
featured 538
fun@@ 538
1991 537
organization 537
1992 536
bella 536
covers 536
ly@@ 536
section 536
iii 535
nat@@ 535
por@@ 535
tim@@ 535
gl@@ 534
height 534
mis@@ 534
ear@@ 533
elements 533
milan 533
ta@@ 533
ised 532
key 531
others 531
ses 531
higher 530
obama 530
ut 530
1974 529
further 529
houston 529
present 529
ain@@ 528
designated 528
im 528
property 528
cit@@ 527
fish 527
initially 527
1957 526
canadian 526
landing 526
ocean 526
&apos;@@ 525
constructed 525
electric 525
ministry 525
1955 524
a-@@ 524
bill 524
companies 524
neighborhood 524
ways 524
1983 523
defined 523
ian@@ 523
wing 523
185@@ 522
naval 522
visvesvaraya 522
evil 520
ile 520
preceded 520
asam 519
fought 519
isbn 519
previous 519
ward 519
80 518
andrews 518
ey 518
mb@@ 518
vegetables 518
38 517
airlines 517
angola 517
married 517
colmore 516
lines 516
ness 516
ign@@ 515
ada 514
even 514
mars 514
financial 513
flights 513
non-@@ 513
numerous 513
transport 513
winners 513
1966 512
industrial 512
ashgabat 511
grand 511
burg 510
1986 509
ington 509
richard 509
communities 508
economy 508
morgan 508
mur@@ 508
studied 508
30@@ 507
mother 507
performed 507
awh 506
summit 506
astronomer 505
batchoy 505
brother 505
count 505
described 505
michael 505
studio 505
brought 504
ching 504
constitution 504
gold 504
alderney 503
primarily 503
primary 503
australia 502
houses 501
loyal 501
me 501
ss 501
36@@ 500
action 500
acy 500
liga 500
sts 500
ara 499
em 499
ants 498
ash 498
lieutenant 498
two-@@ 498
500 497
bananaman 497
oldest 497
parties 497
pedas 497
vir@@ 497
argentina 496
cooked 496
master 496
24@@ 495
banana 495
branch 495
category 495
gave 495
s-@@ 495
completion 494
punk 494
sburg 494
settlers 494
capacity 493
fall 493
ff 493
ab 492
ative 492
ba 492
son@@ 492
enc@@ 491
ind@@ 491
origin 491
register 491
senior 491
flemish 490
ai 489
defeated 489
negre 489
new@@ 489
without 489
cheese 488
grew 488
nations 488
super 487
turn 486
eight 485
fortress 485
generally 485
ger 485
pena 485
francisco 484
leg@@ 484
mul@@ 484
hop 483
lar@@ 483
librarians 483
stories 483
1989 482
door 482
marvel 482
technical 482
act@@ 481
barack 481
don@@ 481
ave 480
ever 480
pon@@ 480
bul@@ 479
ck@@ 479
san@@ 479
away 478
er-@@ 478
especially 478
meaning 478
adare 477
eventually 477
issn 477
honda 476
jackson 476
tt 476
09 475
kerala 475
mark 475
ning 475
ric@@ 475
sil@@ 475
af 474
cent@@ 474
ich 474
sig@@ 474
stre@@ 474
affiliation 473
def@@ 473
sc@@ 473
close 472
cul@@ 472
heavy 472
ot 472
dancer 471
fi@@ 470
involved 470
little 470
prote@@ 470
ty@@ 470
columbia 469
cri@@ 469
ire 469
radio 469
wife 469
captain 468
every 468
ish 468
star@@ 468
upon 468
buffalo 467
ik@@ 467
light 467
26@@ 466
historical 466
justice 466
sun 466
39@@ 465
ancient 465
ction 465
ctive 465
drive 465
ethiopia 465
formation 465
regular 465
cape 464
managed 464
mas@@ 464
plan 464
els 463
fifth 463
ited 463
platform 463
print 463
via 463
worth 463
39 462
amatriciana 462
charlie 462
musical 462
ong@@ 462
wa 462
wrote 462
ariane 461
passed 461
cat@@ 460
q 460
scottish 460
3rd 459
average 459
hip 459
ol 459
pradesh 459
moscow 458
ag 457
delta 457
lincoln 457
provided 457
sol@@ 457
provinces 456
tru@@ 456
asser 455
ctions 455
establishment 455
our@@ 455
̇ 455
1950s 454
disney 454
hel@@ 454
ious 454
ives 454
ters 454
editor 453
my 453
nam@@ 453
stars 453
11@@ 452
human 452
oregon 452
paris 452
pul@@ 452
sions 452
mostly 451
berg 450
television 450
bri@@ 449
far@@ 449
mag@@ 449
models 449
operation 449
scott 449
ther@@ 448
ö@@ 448
1927 447
conservative 447
emerged 447
expanded 447
martyrs 447
ska 447
’ 447
1910 446
cted 446
600 445
covered 445
mit@@ 445
towns 445
ane 444
bad@@ 444
centuries 444
02 443
cir@@ 443
cornell 443
ill 443
levy 443
manor 443
rights 443
starting 443
vehicles 443
acts 442
dun@@ 442
federation 442
frederick 442
glastonbury 442
ition 442
mac@@ 442
ones 442
open 442
wat@@ 442
1930 441
dy 441
roc@@ 441
styles 441
a- 440
edition 440
mus@@ 440
russia 440
universities 440
entertainment 439
ins 439
ium 439
return 439
astronaut 438
ha 438
ong 438
reserve 438
seen 438
coun@@ 437
originates 437
soldiers 437
taylor 437
writing 437
either 436
events 436
gre@@ 436
honor 436
ve 436
atatürk 435
dar@@ 435
wizard 435
ability 434
ben 434
clo@@ 434
ini 434
manchester 434
parker 434
37 432
afonso 432
dead 432
grey 432
passenger 432
1985 431
2nd 431
marriott 431
plat@@ 431
special 431
squ@@ 431
inhabited 430
notable 430
rocket 430
soul 430
ardmore 429
performance 429
stuart 429
batagor 428
blue 428
consisting 428
dro@@ 428
hours 428
occupied 428
103 427
88 427
abbreviation 427
arrived 427
firm 427
gener@@ 427
57@@ 426
aya 426
cream 426
divisions 426
material 426
ries 426
é 426
1976 425
ality 425
ment@@ 425
sm@@ 425
uruguay 425
29@@ 424
founder 424
marine 424
sav@@ 424
45 423
bhajji 423
catalonia 423
example 423
ón 423
83 422
cin@@ 422
expansion 422
four-@@ 422
hen@@ 422
malaysian 422
our 422
scotland 422
studies 422
ace 421
almost 421
growing 421
severed 421
tion 421
tom@@ 421
vi 421
ators 420
information 420
municipalities 420
ola 420
tro@@ 420
37@@ 419
cle@@ 419
ements 419
ere 419
get 419
historically 419
ze@@ 419
increased 418
punjab 418
running 418
contract 417
oo@@ 417
points 417
prin@@ 417
1967 416
foreign 416
formerly 416
smaller 416
addiction 415
amp@@ 415
bc 415
greenville 415
hero 415
poland 415
res 415
1973 414
battles 414
families 414
japanese 414
separate 414
thus 414
adopted 413
fle@@ 413
minor 413
potato 413
famous 412
you 412
create 411
dre@@ 411
politics 411
transportation 411
arapiraquense 410
bol@@ 410
lahore 410
soci@@ 410
study 410
territories 410
ale@@ 409
carried 409
mexican 409
pietro 409
acc@@ 408
baths 408
colony 408
consisted 408
diameter 408
issue 408
potomac 408
1923 407
aged 407
aj@@ 407
ampara 407
earned 407
gujarat 407
subsequently 407
wasp 407
despite 406
outside 406
rhythm 406
1975 405
belt 405
changes 405
os@@ 405
rest 405
seats 405
sing 405
wall 405
1982 404
4,@@ 404
assault 404
citation 404
han@@ 404
itself 404
remaining 404
stor@@ 404
zmir 404
hot 403
move 403
ties 403
lam@@ 402
rev@@ 402
williams 402
brussels 401
cakes 401
hills 401
jun@@ 401
1959 400
dedicated 400
hon@@ 400
08 399
1981 399
ai@@ 399
ans@@ 399
bass 399
grove 399
annual 398
contr@@ 398
ella 398
euro 398
joe 398
moving 398
pages 398
uttar 398
arròs 397
ax@@ 397
creation 397
ero 397
foundation 397
jan@@ 397
post@@ 397
2020 396
44 396
camp@@ 396
cesena 396
controlled 396
ern@@ 396
funk 396
prince 396
pro 396
45@@ 395
decided 395
hub 395
pt@@ 395
tic 395
track 395
practice 394
satellite 394
spo@@ 394
supported 394
wide 394
competed 393
kin 393
offered 393
soon 393
albums 392
cts 392
goal 392
invasion 392
iv 392
jones 392
julia 392
nov@@ 392
simply 392
1933 391
1979 391
beach 391
dol@@ 391
mountains 390
rise 390
ł@@ 390
1964 389
1968 389
arabic 389
ged 389
trav@@ 389
victory 389
championships 388
fair@@ 388
franklin 388
particularly 388
peoples 388
qualified 388
tin@@ 388
1971 387
bon@@ 387
pres@@ 387
y-@@ 387
ani 386
ase 386
pa 386
pork 386
surrounding 386
widely 386
1984 385
contributing 385
electronic 385
fiat 385
fran@@ 385
sh 385
alist 384
aston 384
ena 384
magazine 384
massachusetts 384
never 384
parent 384
recording 384
teen 384
water@@ 384
48 383
livorno 383
mountain 383
purchased 383
structure 383
swedish 383
tex@@ 383
1972 382
ize 382
leaf 382
singer 382
beans 381
comm@@ 381
cover 381
gained 381
inv@@ 381
ys 381
affairs 380
franchise 380
refers 380
break@@ 379
cake 379
ker@@ 379
od@@ 379
ently 378
instead 378
wards 378
201 377
adisham 377
ched 377
core 377
juan 377
real 377
spacecraft 377
women 377
bun@@ 376
glen 376
governing 376
hardcover 376
mar 376
planned 376
prominent 376
amdavad 375
far 375
not@@ 375
responsible 375
richmond 375
rather 374
1960 373
agremiação 373
elizabeth 373
ids 373
private 373
siomay 373
1965 372
appearance 372
composed 372
goals 372
streets 372
unit 372
colonial 371
detroit 371
ero@@ 371
facility 371
natural 371
nearby 371
view 371
arm@@ 370
fiction 370
josé 370
leaves 370
pt 370
ro 370
vincent 370
1977 369
46 369
5px 369
bak@@ 369
chosen 369
finland 369
ky 369
reference 369
ays 368
decembrie 368
high@@ 368
sugar 368
tte 368
ail@@ 367
candidate 367
generation 367
ier 367
influence 367
lin 367
may@@ 367
operates 367
origins 367
part@@ 367
px 367
share 367
we 367
04 366
assi@@ 366
defense 366
ek 366
ep@@ 366
fylde 366
gubbio 366
met 366
ph 366
quarterly 366
ris@@ 366
0px 365
assistant 365
cross@@ 365
engineer 365
fal@@ 365
gufa 365
wheeler 365
1928 364
1961 364
84 364
bundesliga 364
classified 364
comprises 364
gettysburg 364
liber@@ 364
sport 364
mainly 363
minutes 363
missions 363
obtained 363
retirement 363
ti 363
clu@@ 362
interest 362
issues 362
ology 362
olympic 362
ov 362
associazione 361
brothers 361
mir@@ 361
ancestry 360
cru@@ 360
eu@@ 360
presidential 360
said 360
aip 359
representing 359
runs 359
transferred 359
18th 358
1970 358
change 358
chor@@ 358
eredivisie 358
ita 358
ously 358
race 358
strong 358
sum@@ 358
backup 357
defence 357
feature 357
fif@@ 357
finishing 357
night 357
sent 357
come 356
finals 356
operator 356
queen 356
ster@@ 356
coordinates 355
growth 355
kansas 355
wilson 355
00 354
ado 354
ads 354
alabama 354
bac@@ 354
dodge 354
join 354
latter 354
ranks 354
41 353
austrian 353
bel 353
geo@@ 353
my@@ 353
pas@@ 353
commanded 352
commerce 352
fac@@ 352
joining 352
turkmenistan 352
commission 351
javanese 351
largely 351
raised 351
wood@@ 351
52 350
cing 350
ft 350
losing 350
rad@@ 350
bb@@ 349
discipline 349
ful 349
student 349
earlier 348
kennedy 348
kn@@ 348
met@@ 348
opening 348
th-@@ 348
baymax 347
grav@@ 347
int@@ 347
lancashire 347
producer 347
smith 347
speakers 347
airline 346
c-@@ 346
ces 346
dou@@ 346
blt 345
dan 345
div@@ 345
ep 345
granted 345
kin@@ 345
labour 345
med 345
orange 345
rule 345
tele@@ 345
th-largest 345
typically 345
whom 345
97 344
battlefield 344
global 344
indigenous 344
mot@@ 344
participated 344
ung 344
70 343
bar 343
bo 343
cont@@ 343
ctor 343
designation 343
guard 343
households 343
iraqi 343
lia 343
medical 343
saint 343
tan 343
ath 342
municipal 342
1862 341
_ 341
demonym 341
fly 341
illa 341
logy 341
meters 341
salle 341
boston 340
festival 340
forced 340
garlic 340
police 340
doc@@ 339
heritage 339
kr@@ 339
off@@ 339
post-@@ 339
provide 339
43 338
bus 338
commissioned 338
crewed 338
instruments 338
rap@@ 338
relegation 338
tan@@ 338
35@@ 337
che 337
chrysler 337
gor@@ 337
kor@@ 337
nine 337
senator 337
acting 336
campeonato 336
highway 336
shares 336
ski 336
successor 336
bab@@ 335
clear 335
convention 335
extended 335
fol@@ 335
fruit 335
mes 335
pap@@ 335
sk 335
sup@@ 335
série 335
thy 335
characters 334
daughter 334
enn@@ 334
entire 334
refer 334
ston 334
ven@@ 334
ali@@ 333
down@@ 333
fur@@ 333
headquartered 333
motor 333
ona 333
architectural 332
kilometers 332
musicians 332
nas@@ 332
pp@@ 332
vin@@ 332
42 331
achieved 331
advances 331
citizens 331
dales 331
gun@@ 331
na@@ 331
sweden 331
syn@@ 331
fleet 330
floors 330
good 330
hard@@ 330
oclc 330
put 330
rap 330
remains 330
revolution 330
split 330
arr@@ 329
ata 329
claimed 329
cou@@ 329
exp@@ 329
hab@@ 329
va 329
187@@ 328
ae 328
ained 328
armed 328
dean 328
ished 328
jo 328
math 328
mont 328
policy 328
sed 328
73 327
appearances 327
block 327
bot@@ 327
cruise 327
e- 327
edward 327
od 327
pil@@ 327
populated 327
thing 327
alter@@ 326
chancellor 326
28@@ 325
ball 325
cross 325
judge 325
least 325
pic@@ 325
process 325
boo@@ 324
colle@@ 324
lor@@ 324
madin 324
nic@@ 324
novels 324
standing 324
aceae 323
ational 323
ato 323
ba@@ 323
dam@@ 323
ess 323
ick@@ 323
let 323
sir 323
versions 323
ws 323
ald 322
interior 322
junior 322
manufacturer 322
plan@@ 322
roman@@ 322
sn@@ 322
sumatra 322
alized 321
east@@ 321
orbits 321
winner 321
ats 320
automobile 320
celebr@@ 320
johann 320
vote 320
-speaking 319
bin@@ 319
north@@ 319
sab@@ 319
ys@@ 319
1946 318
flying 318
orbital 318
petersburg 318
sive 318
spring 318
ace@@ 317
dec@@ 317
fighting 317
ital@@ 317
ls 317
ring 317
1950 316
adirondack 316
chamber 316
four@@ 316
francis 316
km2 316
officers 316
past 316
shared 316
case 315
forest 315
launches 315
si 315
tomato 315
garden 314
offices 314
roots 314
separ@@ 314
sett@@ 314
try 314
alliance 313
behind 313
blo@@ 313
grantville 313
high-@@ 313
ization 313
manufacturing 313
succeeded 313
ures 313
beat 312
bought 312
build 312
format 312
hi@@ 312
nickname 312
pin@@ 312
product 312
rm 312
separated 312
shire 312
types 312
acres 311
alba 311
alexander 311
ania 311
continental 311
jens 311
parish 311
que@@ 311
speak 311
65 310
distance 310
ences 310
going 310
tou@@ 310
winter 310
wy@@ 310
ao 309
assigned 309
ball@@ 309
coming 309
graduate 309
hosted 309
rio 309
vol@@ 309
-2 308
admiral 308
atio 308
florida 308
ight 308
kat@@ 308
nav@@ 308
polonica 308
prof@@ 308
recent 308
ret@@ 308
suburb 308
bread 307
failed 307
genres 307
ioned 307
ond@@ 307
palaeontologica 307
ped 307
planet 307
security 307
supreme 307
varieties 307
ye@@ 307
atic 306
edit@@ 306
eds 306
guitarist 306
mov@@ 306
vermont 306
barny 305
cum@@ 305
eaten 305
lccn 305
liberal 305
mic@@ 305
speci@@ 305
twice 305
75 304
host 304
ple 304
ories 303
tem@@ 303
var@@ 303
76 302
antonio 302
catholic 302
dates 302
germans 302
king@@ 302
philippine 302
rich 302
saranac 302
add@@ 301
child 301
colonel 301
declared 301
future 301
gulf 301
hp 301
legal 301
liv@@ 301
nature 301
newly 301
positions 301
rear 301
self-@@ 301
tart 301
ves 301
walk 301
cher 300
dem@@ 300
gri@@ 300
metro 300
produce 300
shore 300
speaker 300
tom 300
wave 300
46@@ 299
56@@ 299
agency 299
bay@@ 299
brand 299
does 299
himself 299
1978 298
bell 298
concer@@ 298
falls 298
izing 298
joint 298
roads 298
source 298
thir@@ 298
veil 298
applied 297
belongs 297
entry 297
finnish 297
flo@@ 297
inf@@ 297
long@@ 297
mand@@ 297
noted 297
opposition 297
principal 297
stu@@ 297
writers 297
1958 296
boeing 296
ches 296
green@@ 296
hungarian 296
jack 296
mercury 296
purpose 296
ranking 296
requ@@ 296
scored 296
são 296
zo 296
1949 295
77 295
ams 295
designer 295
freedom 295
locomotive 295
missouri 295
monocacy 295
nearly 295
older 295
ough@@ 295
portuguese 295
stock 295
sv 295
wheel 295
aires 294
bil@@ 294
fied 294
here 294
mentioned 294
occurred 294
berlin 293
iron 293
madison 293
mol@@ 293
shrimp 293
stri@@ 293
townships 293
anderson 292
ap 292
argentine 292
defeat 292
ders 292
mes@@ 292
mixed 292
network 292
shar@@ 292
tirstrup 292
train 292
asphalt 291
bachelor 291
cut 291
cy 291
douglas 291
impact 291
institutions 291
ising 291
kol@@ 291
library 291
lumezzane 291
ə@@ 291
background 290
characterized 290
manufactured 290
nasi 290
acm 289
additional 289
alfred 289
alongside 289
buenos 289
daniel 289
identifier 289
increase 289
leagues 289
len 289
portions 289
tenant 289
trinidad 289
acqu@@ 288
anti@@ 288
ending 288
kings 288
overall 288
reach 288
room 288
sand@@ 288
schiphol 288
sco@@ 288
studios 288
40@@ 287
allowed 287
art@@ 287
ati 287
clellan 287
deal 287
dishes 287
inspired 287
juventus 287
leipzig 287
lit@@ 287
regiment 287
sted 287
basis 286
concept 286
nation@@ 286
palace 286
tim 286
700 285
aw 285
cylinder 285
ottoman 285
ova 285
parliamentary 285
rus@@ 285
thre@@ 285
zone 285
17th 284
1931 284
1945 284
1948 284
1956 284
autonomous 284
clar@@ 284
dialect 284
earliest 284
featuring 284
friends 284
ility 284
legislative 284
recognized 284
walt 284
alfa 283
andalusia 283
constitutional 283
dimitra 283
domin@@ 283
dos 283
hand 283
hold 283
iber@@ 283
len@@ 283
ora 283
words 283
85 282
barcelona 282
black@@ 282
brasileiro 282
dg@@ 282
dic@@ 282
full-@@ 282
lockheed 282
ples 282
resulting 282
sales 282
sign@@ 282
three-@@ 282
92 281
cost 281
efxeinoupolis 281
ethn@@ 281
ices 281
immigrants 281
mainstream 281
meas@@ 281
sing@@ 281
speed 281
steel 281
tad@@ 281
uk@@ 281
advanced 280
ala 280
charter 280
fir@@ 280
hit 280
identified 280
rail 280
sausage 280
sister 280
sons 280
squadron 280
ured 280
warren 280
abbreviated 279
aenir 279
caused 279
grown 279
hiv 279
ik 279
phil@@ 279
progressive 279
scri@@ 279
tennessee 279
&apos;t 278
1920 278
beau@@ 278
cel@@ 278
fel@@ 278
flor@@ 278
hap@@ 278
leaving 278
neu@@ 278
stru@@ 278
tig@@ 278
almond 277
dist@@ 277
forming 277
fri@@ 277
fullname 277
hard 277
hood 277
las 277
lif@@ 277
roll 277
sides 277
below 276
corner 276
cting 276
härtel 276
percent 276
ron@@ 276
sher@@ 276
transfer 276
-based 275
56 275
aek 275
ced 275
combat 275
form@@ 275
greg@@ 275
kno@@ 275
lingu@@ 275
montevideo 275
news 275
organ@@ 275
races 275
respectively 275
sat@@ 275
starring 275
7,@@ 274
atlas 274
azal 274
equ@@ 274
gas 274
improv@@ 274
kir@@ 274
lega 274
nigeria 274
rivers 274
16th 273
5,@@ 273
awa 273
doctor 273
passengers 273
representative 273
rural 273
subsequent 273
tam@@ 273
vil@@ 273
ach 272
eggs 272
ko 272
lemon 272
mig@@ 272
professor 272
required 272
scientific 272
vent@@ 272
ann 271
asse@@ 271
ble 271
dialects 271
nfl 271
peanut 271
religious 271
s- 271
swe@@ 271
ths 271
1919 270
admitted 270
camp 270
connected 270
dark 270
evolved 270
holding 270
ills 270
spread 270
tree 270
vienna 270
cop@@ 269
cumberland 269
discovery 269
isidro 269
lay@@ 269
makes 269
specific 269
06 268
after@@ 268
boundaries 268
combination 268
drawn 268
eccentricity 268
individuals 268
lawyer 268
lim@@ 268
med@@ 268
oun@@ 268
ria 268
socialist 268
activities 267
bom@@ 267
counter@@ 267
covering 267
genus 267
grad@@ 267
gs 267
iles 267
kel@@ 267
mass 267
ming 267
woo@@ 267
access 266
classical 266
flour 266
grade 266
kal@@ 266
mer 266
paraguay 266
revival 266
strip 266
worldwide 266
ari 265
channel 265
graduating 265
lars 265
lou@@ 265
traffic 265
tribes 265
ş@@ 265
1929 264
47 264
bounded 264
compared 264
cons@@ 264
det@@ 264
directly 264
estate 264
hosts 264
ja 264
ministers 264
49 263
dy@@ 263
farm@@ 263
flowering 263
head@@ 263
holds 263
pain@@ 263
revolutionary 263
sor@@ 263
alism 262
cab@@ 262
cold 262
división 262
elled 262
facilities 262
miss@@ 262
mun@@ 262
newspaper 262
riv@@ 262
v8 262
brit@@ 261
cau@@ 261
distinct 261
euro@@ 261
felipe 261
grasso 261
iting 261
lo 261
mill@@ 261
nominated 261
oh@@ 261
one-@@ 261
sixth 261
steve 261
72 260
ali 260
background-@@ 260
bottom 260
colombian 260
counted 260
helped 260
illo 260
lag@@ 260
neighboring 260
rese@@ 260
rules 260
treaty 260
1907 259
bit@@ 259
contained 259
in-@@ 259
itions 259
marked 259
mi 259
mont@@ 259
mumbai 259
ok@@ 259
0,000 258
1954 258
agu@@ 258
ama 258
aus 258
chart 258
diagonal 258
diesel 258
educated 258
fa 258
genoa 258
hum@@ 258
immigration 258
ith 258
prefecture 258
aid 257
ast 257
banks 257
draft 257
ern 257
leadership 257
racial 257
terminal 257
with@@ 257
authors 256
boy 256
comp@@ 256
dave 256
fans 256
instrument 256
kur@@ 256
laid 256
limits 256
observations 256
performing 256
possible 256
scene 256
tit@@ 256
ș@@ 256
aches 255
amateur 255
complete 255
contemporary 255
corn@@ 255
explor@@ 255
gam@@ 255
hi 255
highly 255
motors 255
net 255
rated 255
ri 255
surrounded 255
sville 255
tol@@ 255
usa 255
1952 254
back@@ 254
bury 254
caribbean 254
conducted 254
constituency 254
coppa 254
creating 254
existence 254
gate 254
jam@@ 254
loss 254
pad 254
quality 254
scale 254
suffered 254
survey 254
theater 254
yer 254
4th 253
acted 253
boundary 253
decades 253
erie 253
fron@@ 253
governed 253
hamilton 253
help 253
ida 253
industries 253
medi@@ 253
michele 253
om 253
producing 253
recordings 253
sac@@ 253
sau@@ 253
stanley 253
tv 253
airports 252
alcobendas 252
arrabbiata 252
ble@@ 252
color 252
competes 252
democrat 252
guiana 252
parents 252
resulted 252
ú@@ 252
6,@@ 251
al-@@ 251
brom 251
consecutive 251
contested 251
finally 251
ip 251
o- 251
response 251
rit@@ 251
thor@@ 251
towards 251
ver 251
whit@@ 251
05 250
1936 250
avocado 250
bronze 250
colon@@ 250
dic 250
establish 250
existing 250
farm 250
intended 250
kad@@ 250
kes 250
longer 250
marcolini 250
mixture 250
mod@@ 250
promot@@ 250
schneider 250
thr@@ 250
tradition 250
94 249
bow@@ 249
dav@@ 249
democracy 249
ela 249
golden 249
ico 249
iran 249
lazio 249
lyrics 249
marce 249
pav@@ 249
polit@@ 249
replace 249
voted 249
ñ@@ 249
1947 248
ahmet 248
andrew 248
approved 248
attorney 248
chili 248
daily 248
dominated 248
draw 248
flew 248
initial 248
ket 248
lt 248
mean 248
nar@@ 248
rasmussen 248
romeo 248
scheduled 248
antioquia 247
bah@@ 247
band@@ 247
blu@@ 247
borman 247
cowper 247
cruises 247
cs1-@@ 247
ented 247
indu@@ 247
isation 247
literature 247
metapán 247
ow 247
piece 247
proposed 247
second-@@ 247
six@@ 247
troops 247
í 247
adjacent 246
agreement 246
ammann 246
giving 246
guar@@ 246
numbers 246
products 246
rotation 246
shortly 246
shumai 246
takes 246
volkswagen 246
aka 245
commonwealth 245
deep 245
domestic 245
kil@@ 245
nes 245
ordered 245
qualifying 245
reli@@ 245
simon 245
8,@@ 244
bis@@ 244
chi 244
columbus 244
fields 244
perón 244
provincial 244
subsidiary 244
4-@@ 243
ales 243
collection 243
luxury 243
main@@ 243
nia 243
plants 243
pun@@ 243
qatar 243
tab@@ 243
whole 243
zz@@ 243
án 243
130 242
actor 242
eli@@ 242
exclu@@ 242
existed 242
heart 242
kon@@ 242
magdeburg 242
minority 242
old@@ 242
olive 242
pes@@ 242
recently 242
results 242
1930s 241
brazilian 241
broad@@ 241
canal 241
care@@ 241
containing 241
cooking 241
develop 241
diplo@@ 241
fast@@ 241
jer@@ 241
page 241
presence 241
presented 241
smo@@ 241
58 240
anaheim 240
anthem 240
asteroids 240
bert 240
dale 240
ee 240
gemini 240
haw@@ 240
mac 240
max 240
nicknamed 240
operate 240
ron 240
stöger 240
5th 239
centr@@ 239
ental 239
hear@@ 239
hem@@ 239
identity 239
inc 239
iro 239
religion 239
third-@@ 239
tour 239
tourist 239
turned 239
well@@ 239
“ 239
ack@@ 238
continu@@ 238
democrats 238
ki 238
lane 238
mem@@ 238
posed 238
pract@@ 238
resigned 238
ruled 238
solo 238
ual 238
! 237
ais@@ 237
ards 237
diverse 237
hil@@ 237
igh@@ 237
ille 237
mah@@ 237
nationwide 237
paulo 237
special@@ 237
titled 237
1908 236
bles 236
cen@@ 236
chris 236
ping 236
pot@@ 236
ry@@ 236
uruguayan 236
vocals 236
wan 236
86 235
carroll 235
chan@@ 235
cia 235
destroyed 235
eagle 235
flown 235
popularity 235
regarded 235
ros@@ 235
sters 235
them@@ 235
ther 235
ard@@ 234
collabor@@ 234
drafted 234
experience 234
fenchurch 234
ises 234
mix 234
reform 234
relat@@ 234
resignation 234
suburban 234
van@@ 234
weymouth 234
0-@@ 233
already 233
headed 233
influences 233
noodles 233
programs 233
shor@@ 233
sic@@ 233
sites 233
south@@ 233
tta 233
yl@@ 233
yo@@ 233
ç@@ 233
176@@ 232
49@@ 232
auto 232
climate 232
direct 232
double 232
exist 232
indians 232
link 232
pass@@ 232
plans 232
stands 232
tribe 232
55 231
charge 231
competing 231
cour@@ 231
davis 231
duke 231
finance 231
mount 231
pad@@ 231
ras@@ 231
run@@ 231
sour 231
tax@@ 231
wed 231
wit@@ 231
1913 230
1940s 230
cav@@ 230
chester 230
cho@@ 230
closed 230
gg@@ 230
ken 230
lewis 230
mix@@ 230
ownership 230
removed 230
stadio 230
supply 230
ye 230
189@@ 229
aar@@ 229
captured 229
communications 229
fact 229
fuel 229
hungary 229
lakes 229
limerick 229
lun@@ 229
projects 229
shows 229
valencian 229
ains 228
defin@@ 228
disco 228
event 228
fa@@ 228
faculty 228
hopkins 228
ide@@ 228
ily 228
indic@@ 228
introduction 228
ites 228
nwc 228
pur 228
serv@@ 228
sid@@ 228
sli@@ 228
tho@@ 228
wolf 228
ˈ@@ 228
-1 227
1861 227
audi 227
care 227
copa 227
docum@@ 227
du 227
ea 227
eerste 227
eigh@@ 227
est-@@ 227
motor@@ 227
rac@@ 227
reyes 227
tran@@ 227
ure@@ 227
viol@@ 227
ă@@ 227
agriculture 226
eth@@ 226
flag 226
give 226
jan 226
o-@@ 226
offers 226
ough 226
philip 226
rut@@ 226
victoria 226
wer@@ 226
1940 225
81 225
ack 225
amount 225
christ@@ 225
finish 225
got 225
ki@@ 225
opo@@ 225
planning 225
rockets 225
spaniards 225
stephen 225
tions 225
ts@@ 225
video 225
wall@@ 225
” 225
amateurs 224
businessman 224
costa 224
cu 224
descent 224
friend 224
gil@@ 224
ix 224
jorge 224
maritime 224
mill 224
min 224
north-@@ 224
powered 224
th-most 224
venture 224
walter 224
1904 223
architects 223
auburn 223
certain 223
crit@@ 223
dar 223
inger 223
jim 223
law@@ 223
minotaur 223
publication 223
reaching 223
residence 223
rooms 223
sloven@@ 223
suff@@ 223
tony 223
wel@@ 223
15th 222
aut@@ 222
bengo 222
competitions 222
decline 222
derives 222
gram@@ 222
hessarghatta 222
makeup 222
notably 222
playoff 222
programme 222
selling 222
under-@@ 222
workers 222
ı@@ 222
560090 221
89 221
99 221
aco 221
feder@@ 221
fon@@ 221
mason 221
radhakrishnan 221
rate 221
repe@@ 221
rig@@ 221
soldevanahalli 221
elli 220
equipment 220
ets 220
focus 220
iya 220
mart@@ 220
midfielder 220
note 220
obje@@ 220
registered 220
runners-up 220
sarvapalli 220
sche 220
è@@ 220
38@@ 219
ately 219
brig 219
capitol 219
cli@@ 219
drawing 219
enaire 219
fav@@ 219
gin@@ 219
hudson 219
inner 219
issued 219
jac@@ 219
lab@@ 219
love 219
relatively 219
residential 219
soho 219
themselves 219
ails 218
butter 218
call@@ 218
closely 218
defeating 218
dj 218
hur@@ 218
johns 218
nigerian 218
permanent 218
seventh 218
should 218
sky@@ 218
swiss 218
98 217
akh@@ 217
astronauts 217
cad@@ 217
chem@@ 217
civic 217
edge 217
except 217
istic 217
neighborhoods 217
pel@@ 217
plack 217
pressed 217
sof@@ 217
sony 217
sto@@ 217
u-@@ 217
viking 217
ably 216
all-@@ 216
better 216
bru@@ 216
chin@@ 216
fellow 216
gall@@ 216
gran@@ 216
ira 216
wayne 216
1953 215
53 215
abl@@ 215
aired 215
attempt 215
coastal 215
find 215
gau@@ 215
institution 215
ok 215
pak@@ 215
patrick 215
pepper 215
southeastern 215
tak@@ 215
too 215
traditionally 215
woman 215
78 214
accoun@@ 214
aff@@ 214
americas 214
bes@@ 214
f-@@ 214
factory 214
fil@@ 214
husband 214
lot 214
meeting 214
red@@ 214
ryan 214
stations 214
sting 214
tennis 214
ña 214
06@@ 213
alkmaar 213
brand@@ 213
comple@@ 213
glo@@ 213
ila 213
individual 213
multi-@@ 213
paper 213
pir@@ 213
squad 213
yet 213
1942 212
anna 212
article 212
asa 212
crown 212
eld 212
eman 212
female 212
manuel 212
py@@ 212
reported 212
rose 212
sands 212
sergio 212
shel@@ 212
swit@@ 212
una 212
address 211
chevrolet 211
donald 211
exchange 211
fact@@ 211
gue 211
marsh@@ 211
non@@ 211
rapid 211
rein@@ 211
richardson 211
silver 211
teen@@ 211
variant 211
wagon 211
1865 210
command@@ 210
comprising 210
drummer 210
emp@@ 210
fox 210
gram 210
jarama 210
labels 210
sou@@ 210
stand@@ 210
albert 209
arlington 209
cd 209
foot 209
melo@@ 209
multiple 209
oni 209
satellites 209
seattle 209
semi-@@ 209
som@@ 209
then@@ 209
turbo@@ 209
vers@@ 209
yan 209
ahmedabad 208
angel@@ 208
cun@@ 208
fell 208
hav@@ 208
income 208
italians 208
lord 208
mam@@ 208
marketed 208
postgraduate 208
predecessor 208
prepared 208
problems 208
reports 208
samuel 208
settlements 208
slo@@ 208
stages 208
tel 208
tered 208
vision 208
vor@@ 208
votes 208
51 207
arrival 207
atory 207
commune 207
credited 207
ink 207
integrated 207
kers 207
lie 207
northeastern 207
playoffs 207
presidency 207
pur@@ 207
ray@@ 207
reasons 207
rock@@ 207
romanian 207
secret 207
vari@@ 207
wars 207
66 206
activ@@ 206
biden 206
bolt 206
dia 206
ems 206
heavily 206
ips 206
ius 206
pass 206
petro@@ 206
stand 206
taining 206
ä@@ 206
1921 205
1926 205
baltimore 205
box 205
cavalry 205
colombia 205
cups 205
describe 205
formally 205
govern@@ 205
hom@@ 205
inten@@ 205
present-day 205
reduced 205
rey 205
stan 205
y- 205
albany 204
bed 204
dur@@ 204
essex 204
exhib@@ 204
grand@@ 204
hau@@ 204
immediately 204
liberty 204
lippincott 204
mario 204
portland 204
replacing 204
rich@@ 204
theatre 204
2000s 203
appears 203
call 203
dried 203
ested 203
medieval 203
oper@@ 203
philadelphia 203
rh@@ 203
ym@@ 203
1900 202
1912 202
abraham 202
african- 202
all- 202
alum@@ 202
ass 202
bec@@ 202
beyond 202
bi 202
cks 202
coupe 202
die 202
indianapolis 202
integr@@ 202
jam 202
malay@@ 202
paperback 202
primera 202
quickly 202
roughly 202
sey 202
slavery 202
sr 202
tap@@ 202
arms 201
boat 201
com 201
cook 201
emplo@@ 201
fernando 201
germanic 201
ilo@@ 201
italia 201
kent 201
palm 201
provides 201
sources 201
venue 201
95 200
chil@@ 200
defender 200
eas@@ 200
frequently 200
gospel 200
le-@@ 200
mouth 200
prepar@@ 200
speaking 200
conn@@ 199
coup 199
crossing 199
curitiba 199
drum 199
duncan 199
ferry 199
fulton 199
israeli 199
mann 199
onic 199
pes 199
soccer 199
un 199
à 199
aqu@@ 198
bol 198
deceased 198
experienced 198
fix@@ 198
hamburg 198
ially 198
iki 198
lack 198
peak 198
roger 198
scor@@ 198
session 198
sty@@ 198
villages 198
abil@@ 197
b- 197
cargo 197
eding 197
energy 197
ga@@ 197
joko 197
journals 197
montreal 197
partner 197
sail@@ 197
wilkins 197
400 196
87 196
ankara 196
aries 196
australian 196
avi@@ 196
bir@@ 196
computer 196
contributed 196
elite 196
fully 196
inclination 196
jor@@ 196
manages 196
mechan@@ 196
pay@@ 196
posit@@ 196
sago 196
salvador 196
teacher 196
thought 196
1938 195
200@@ 195
33@@ 195
54 195
activity 195
conflict 195
continue 195
cut@@ 195
dissolved 195
films 195
gar 195
gy@@ 195
illustr@@ 195
just@@ 195
lady 195
pac@@ 195
porter 195
signing 195
singles 195
trading 195
vac@@ 195
well-@@ 195
â@@ 195
1909 194
1920s 194
1934 194
93 194
adv@@ 194
attached 194
budget 194
collapse 194
colours 194
designs 194
german@@ 194
inaugurated 194
poly@@ 194
receiving 194
rel@@ 194
rotterdam 194
shape 194
tation 194
widodo 194
wiley 194
12th 193
augh@@ 193
ban 193
bin 193
break 193
craf@@ 193
demonstr@@ 193
drew 193
extensive 193
ified 193
piano 193
remain 193
represents 193
spot 193
20px 192
asher 192
baltic 192
botta 192
brooklyn 192
champion 192
dominant 192
importance 192
landed 192
oured 192
songwriter 192
spaceflight 192
surve@@ 192
tary 192
tch 192
text-align 192
tot@@ 192
twelve 192
6th 191
accord 191
agricultural 191
ague 191
alists 191
chap@@ 191
flags 191
gel 191
inside 191
ively 191
lock 191
luanda 191
month 191
mr 191
ny@@ 191
oklahoma 191
paracuellos 191
personal 191
read@@ 191
rem@@ 191
sedan 191
sg 191
success@@ 191
traditions 191
trum@@ 191
anne 190
appro@@ 190
brook 190
ceded 190
celtic 190
diff@@ 190
electoral 190
harrietstown 190
hus@@ 190
lac@@ 190
lives 190
mike 190
noodle 190
pick@@ 190
publications 190
rolling 190
salt 190
spr@@ 190
tic@@ 190
ura 190
91 189
accepted 189
ame 189
cast 189
crow@@ 189
dynamo 189
ells 189
extending 189
fiorentina 189
how@@ 189
interstate 189
jakarta 189
junction 189
lan 189
maiden 189
padding 189
pol 189
pope 189
relocated 189
spar@@ 189
tel@@ 189
victor@@ 189
attacks 188
bm@@ 188
bucharest 188
cos 188
danish 188
data 188
decision 188
gers 188
how 188
ias 188
ili@@ 188
inn@@ 188
mond 188
musician 188
ological 188
plac@@ 188
providing 188
pursu@@ 188
restaurants 188
saf@@ 188
secondary 188
shed 188
strong@@ 188
subject 188
termin@@ 188
ür@@ 188
150 187
9th 187
alone 187
astronom@@ 187
aur@@ 187
ayed 187
bird 187
chair@@ 187
day@@ 187
deb@@ 187
ends 187
iced 187
ich@@ 187
industri@@ 187
li 187
mainland 187
must 187
ole 187
oma 187
ple@@ 187
poun@@ 187
scoring 187
sent@@ 187
variations 187
1939 186
96 186
amer@@ 186
billion 186
cuyahoga 186
dry 186
ka@@ 186
karl 186
orleans 186
proper 186
raj@@ 186
structures 186
submarine 186
top-@@ 186
top@@ 186
tropical 186
under-21 186
volume 186
will@@ 186
á 186
æ@@ 186
63 185
67 185
9,@@ 185
ae@@ 185
appearing 185
colonies 185
czech 185
enton 185
formal 185
harvard 185
influential 185
mo 185
past@@ 185
powers 185
repeat 185
respe@@ 185
transactions 185
visited 185
waters 185
alty 184
arti@@ 184
begin 184
capable 184
centers 184
colum@@ 184
divisie 184
economics 184
eligibility 184
georgian 184
harmon@@ 184
indicate 184
kalla 184
nix 184
sebastián 184
zi 184
ø@@ 184
allow 183
bra 183
chi@@ 183
clark 183
educational 183
ester 183
every@@ 183
fan 183
jewish 183
laws 183
peppers 183
plain 183
quarter 183
sign 183
stra@@ 183
tallest 183
tas@@ 183
tul@@ 183
2-@@ 182
7th 182
ame@@ 182
arab 182
b-@@ 182
carry 182
conclu@@ 182
exten@@ 182
humans 182
iled 182
istanbul 182
itation 182
jefferson 182
markets 182
moore 182
orb@@ 182
ports 182
ray 182
ric 182
sounds 182
south-@@ 182
stay 182
tra@@ 182
tracks 182
travel 182
uring 182
variants 182
vocalist 182
yellow 182
yu@@ 182
1935 181
aero@@ 181
ago@@ 181
christmas 181
decre@@ 181
estimate 181
fictional 181
focused 181
gun 181
long-@@ 181
particular 181
pfk 181
priv@@ 181
psychedelic 181
publishers 181
root 181
spices 181
sub-@@ 181
transmission 181
typical 181
vit@@ 181
1914 180
1924 180
737 180
articles 180
aust@@ 180
auto@@ 180
crime 180
dated 180
draw@@ 180
equipped 180
filipino 180
jes@@ 180
lie@@ 180
marble 180
onion 180
parti@@ 180
residing 180
sax@@ 180
warner 180
actions 179
advisor 179
aerospace 179
believed 179
burbank 179
conditions 179
connection 179
conver@@ 179
encies 179
fantasy 179
gh 179
god@@ 179
iana 179
inter 179
kaz@@ 179
observ@@ 179
payload 179
placid 179
racing 179
taro 179
8th 178
aa 178
bes 178
chron@@ 178
face 178
method 178
modern@@ 178
officials 178
publishes 178
rouleau 178
scen@@ 178
shu@@ 178
stan@@ 178
teaching 178
tes 178
broad 177
cases 177
confederates 177
continues 177
dal@@ 177
ests 177
fight 177
ji 177
lev@@ 177
ltd 177
maran 177
norway 177
oph@@ 177
oth 177
pan 177
pinhais 177
policies 177
powerful 177
prize 177
quarter@@ 177
replacement 177
sit 177
sport@@ 177
stad@@ 177
stein 177
trad@@ 177
treas@@ 177
wid@@ 177
andre@@ 176
athletic 176
aver@@ 176
aviator 176
cultivated 176
cultures 176
decade 176
dem 176
earl 176
forward 176
ident@@ 176
innov@@ 176
jacob 176
ky@@ 176
meade 176
mp 176
of@@ 176
onia 176
opposed 176
price 176
rain 176
routemap 176
safety 176
terrace 176
turn@@ 176
ua 176
ue 176
wings 176
1925 175
appointment 175
arizona 175
artillery 175
burn 175
duc@@ 175
fro@@ 175
isa 175
massimo 175
mattarella 175
norman 175
ols 175
phone 175
purchase 175
represent 175
returning 175
shaped 175
sta 175
successfully 175
tobago 175
wales 175
week 175
wounded 175
aded 174
advance 174
always 174
blockbuster 174
broadcast 174
cent 174
competit@@ 174
cotton 174
dom@@ 174
fit@@ 174
flav@@ 174
guadalajara 174
helicopter 174
ind 174
korean 174
leads 174
mented 174
minist@@ 174
pale@@ 174
rab@@ 174
second-largest 174
tribu@@ 174
vel@@ 174
wheel@@ 174
ym 174
aga 173
bal 173
canton 173
dating 173
diego 173
display 173
hart 173
human@@ 173
iga 173
kit@@ 173
pit@@ 173
pping 173
recipe 173
report 173
rolando 173
rou@@ 173
sambal 173
sov@@ 173
spir@@ 173
superman 173
ultimately 173
vegetable 173
vicenza 173
vie@@ 173
william@@ 173
angle 172
attr@@ 172
boy@@ 172
colleges 172
comedy 172
de-@@ 172
econom@@ 172
elling 172
equivalent 172
erson 172
evidence 172
fe 172
jusuf 172
leon@@ 172
lon@@ 172
nes@@ 172
ots 172
review 172
ro- 172
road@@ 172
stock@@ 172
tains 172
tar 172
territorial 172
universal 172
wer 172
zer 172
1876 171
1944 171
61 171
claim 171
communist 171
cred@@ 171
distributed 171
icao 171
ison 171
jalisco 171
klasse 171
lancia 171
needed 171
provisional 171
random 171
real@@ 171
rece@@ 171
relationship 171
rot@@ 171
sho@@ 171
siege 171
transit 171
ß@@ 171
87@@ 170
acu@@ 170
biggest 170
bloom@@ 170
chen 170
depending 170
driven 170
enter 170
express 170
figures 170
filled 170
fk 170
granite 170
howard 170
kl@@ 170
maccabi 170
meant 170
orders 170
politan 170
sale 170
staf@@ 170
teenth 170
th-century 170
ty-@@ 170
unique 170
ars 169
cer 169
classic 169
conne@@ 169
ctorate 169
dam 169
dissolution 169
er- 169
fallujah 169
got@@ 169
heads 169
inst@@ 169
ione 169
lad@@ 169
leave 169
numbered 169
seas@@ 169
sor 169
strategic 169
sym@@ 169
tai@@ 169
ul 169
web@@ 169
wild 169
+ 168
13th 168
advoc@@ 168
amar@@ 168
amaz@@ 168
brian 168
constitu@@ 168
direction 168
done 168
effects 168
flank 168
ink@@ 168
jar@@ 168
magnitude 168
neighbouring 168
soup 168
ud@@ 168
ues 168
visayas 168
ín 168
1905 167
ago 167
basin 167
brigade 167
bug@@ 167
drums 167
ened 167
idea 167
ides 167
kochi 167
lokomot@@ 167
maria 167
measures 167
plains 167
pre-@@ 167
pression 167
rant 167
ris 167
rol 167
sch 167
shop 167
spider- 167
spl@@ 167
taqaddum 167
tr 167
wick 167
wo@@ 167
zh@@ 167
zu@@ 167
0,@@ 166
3500 166
aft 166
andy 166
bic@@ 166
bologna 166
celery 166
cho 166
cook@@ 166
corre@@ 166
definition 166
developing 166
ency 166
expected 166
fic@@ 166
flat 166
geograph@@ 166
grass 166
inauguration 166
job 166
onto 166
pie@@ 166
probably 166
resources 166
sportpark 166
starred 166
submarines 166
ícolo 166
ó 166
1911 165
ades 165
autom@@ 165
beng@@ 165
carnival 165
contest 165
employees 165
environment 165
ges 165
iulia 165
letter 165
looking 165
metho@@ 165
notes 165
organizations 165
process@@ 165
purposes 165
recognition 165
sion@@ 165
stony 165
store 165
therefore 165
torino 165
voice 165
ze 165
1863 164
1951 164
abandoned 164
atives 164
attention 164
begins 164
blackwell 164
bob 164
but@@ 164
corn 164
drago 164
employed 164
failure 164
fruits 164
governments 164
incumbent 164
ires 164
ista 164
klaus 164
micro@@ 164
penguin 164
populations 164
shif@@ 164
stood 164
sugg@@ 164
taught 164
unesco 164
201@@ 163
ador 163
ames 163
an- 163
benjamin 163
bodies 163
boiled 163
carlos 163
cathedral 163
clear@@ 163
departments 163
first-@@ 163
font-size 163
gir@@ 163
gordon 163
kes@@ 163
monterey 163
northwestern 163
occasions 163
ows 163
passing 163
plate 163
popular@@ 163
profession@@ 163
tes@@ 163
thousands 163
tourism 163
vocal 163
zam@@ 163
1-@@ 162
1941 162
bowl 162
briefly 162
compact 162
da@@ 162
davutoğlu 162
earning 162
haputale 162
horse@@ 162
ican 162
isabelle 162
ligh@@ 162
list@@ 162
money 162
none 162
ose 162
outer 162
premi@@ 162
toekomst 162
urban@@ 162
vd 162
1898 161
1917 161
aba 161
ancest@@ 161
anglo- 161
ares 161
baghdad 161
braz@@ 161
catal@@ 161
colorado 161
content 161
contribu@@ 161
dru@@ 161
join@@ 161
kins 161
likely 161
logical 161
maintained 161
maj@@ 161
nine@@ 161
present@@ 161
rail@@ 161
roberts 161
sas@@ 161
sat 161
saturn 161
sit@@ 161
sporting 161
theory 161
toyota 161
trophy 161
turner 161
urich 161
zen@@ 161
1922 160
albuquerque 160
avia 160
beats 160
belgian 160
cc@@ 160
components 160
concentr@@ 160
db@@ 160
discus@@ 160
duty 160
entitled 160
eries 160
extends 160
glomer@@ 160
holland 160
horn 160
internal 160
loo@@ 160
mathematica 160
middle@@ 160
olo 160
ored 160
patter@@ 160
philosophy 160
qualification 160
rasizade 160
show@@ 160
tomatoes 160
torpedo 160
vessel 160
westminster 160
whe@@ 160
zen 160
any@@ 159
centres 159
compar@@ 159
croat@@ 159
ctively 159
descendants 159
dings 159
hired 159
holy 159
hotels 159
ket@@ 159
main-belt 159
maine 159
meet 159
oxford 159
personnel 159
pot 159
resort 159
robin 159
stown 159
tant 159
ukraine 159
unincorporated 159
wind@@ 159
1864 158
47@@ 158
abdul 158
ador@@ 158
ased 158
bling 158
brun@@ 158
ca@@ 158
foc@@ 158
fresh@@ 158
georges 158
ingly 158
jet 158
kind 158
laur@@ 158
literary 158
locomotives 158
maple 158
nova 158
olympics 158
op 158
originating 158
physics 158
princess 158
rain@@ 158
reading 158
respon@@ 158
sex 158
slightly 158
sz@@ 158
tting 158
underground 158
walker 158
1899 157
administered 157
agent 157
allied 157
approach 157
birds 157
bron@@ 157
categorized 157
cement 157
consequ@@ 157
crossed 157
differ@@ 157
ert 157
fishing 157
garth 157
graphic 157
iel 157
jose 157
kap@@ 157
kept 157
lots 157
lyn@@ 157
ours 157
ous@@ 157
recogn@@ 157
roof 157
setting 157
solan@@ 157
sta@@ 157
susana 157
1854 156
23rd 156
82 156
aaron 156
annexed 156
armstrong 156
bang@@ 156
bio@@ 156
civilian 156
component 156
conserv@@ 156
electr@@ 156
examples 156
gas@@ 156
johnston 156
jurisdiction 156
kuttikkattoor 156
legend 156
milit@@ 156
ody 156
relations 156
sele@@ 156
ssed 156
steven 156
sul@@ 156
tenure 156
urer 156
weeks 156
adam 155
arthur 155
attacked 155
avoid 155
batt@@ 155
big@@ 155
bush 155
cemetery 155
chichar@@ 155
contain 155
ente 155
fications 155
figure 155
foot@@ 155
functions 155
gus 155
harris 155
ice@@ 155
ient 155
illed 155
mid- 155
non- 155
observation 155
oce@@ 155
parks 155
puerto 155
rams 155
routes 155
slavic 155
978 154
adi 154
assumed 154
azerbaijani 154
backs 154
bassist 154
daw@@ 154
deleg@@ 154
eland 154
eling 154
emperor 154
enjoyed 154
falcon 154
five-@@ 154
gain 154
gul@@ 154
hungarica 154
ingu@@ 154
invest@@ 154
isis 154
iu 154
jum@@ 154
jur@@ 154
köln 154
missile 154
montgomery 154
orial 154
ou 154
perform 154
rat@@ 154
renov@@ 154
tone 154
veter@@ 154
warsaw 154
96@@ 153
africans 153
appeal 153
benef@@ 153
conc@@ 153
conf@@ 153
converted 153
cs 153
flu@@ 153
forti@@ 153
grou@@ 153
icity 153
infraero 153
modi 153
poet 153
promis@@ 153
rus 153
shopping 153
springfield 153
taste 153
yers 153
108 152
ady 152
afit 152
aging 152
anti-@@ 152
carrier 152
casualties 152
certi@@ 152
chopped 152
decoration 152
dge@@ 152
ema 152
enburg 152
enne 152
exe@@ 152
haven 152
hydr@@ 152
intelligence 152
lasted 152
lers 152
m-@@ 152
mit 152
oned 152
pieces 152
pris@@ 152
pron@@ 152
rs 152
sden 152
seminar 152
stated 152
succe@@ 152
sure 152
twent@@ 152
wa@@ 152
zed 152
adop@@ 151
bern@@ 151
bound 151
buil@@ 151
charlo@@ 151
concert 151
custom 151
ento 151
filling 151
ful@@ 151
gan 151
i-@@ 151
ingham 151
itude 151
iva 151
mad 151
narendra 151
onist 151
ori@@ 151
poor 151
pressure 151
qualify 151
quar@@ 151
renaissance 151
roy 151
sses 151
thakur 151
trail 151
vest@@ 151
villa 151
1943 150
arabian 150
armies 150
asunción 150
aux@@ 150
civil@@ 150
cover@@ 150
derby 150
distribution 150
efforts 150
ening 150
ential 150
extension 150
frank@@ 150
hardcore 150
hilmi 150
inn 150
levels 150
luis 150
mm 150
nig@@ 150
ome 150
peace 150
public@@ 150
ranging 150
rid 150
scre@@ 150
tain@@ 150
tank 150
439 149
800 149
airfield 149
alls 149
anim@@ 149
attracted 149
cell@@ 149
cep@@ 149
class@@ 149
dge 149
ene 149
gn@@ 149
investig@@ 149
ith@@ 149
izes 149
let@@ 149
miner@@ 149
monarchy 149
naz@@ 149
need 149
performances 149
pictures 149
sia 149
singing 149
span 149
tamil 149
thro@@ 149
ukrainian 149
week@@ 149
án@@ 149
5-@@ 148
80@@ 148
achiev@@ 148
additionally 148
admir@@ 148
aim@@ 148
associ@@ 148
background-image 148
catalan 148
coden 148
convent@@ 148
council@@ 148
destro@@ 148
engl@@ 148
ire@@ 148
mach@@ 148
marion 148
mass@@ 148
mat 148
nie@@ 148
on-@@ 148
or-@@ 148
partnership 148
plus 148
prece@@ 148
read 148
receive 148
referendum 148
sense 148
sian 148
singers 148
uel 148
är@@ 148
120 147
actually 147
administr@@ 147
appear 147
broke 147
brow@@ 147
cause 147
chassis 147
concrete 147
depen@@ 147
effort 147
finan@@ 147
fútbol 147
graph@@ 147
hal 147
hartford 147
lineup 147
longest 147
naming 147
nashville 147
oct@@ 147
similar@@ 147
six-@@ 147
slaves 147
tea 147
url 147
1906 146
74 146
ahead 146
audi@@ 146
author@@ 146
bishop 146
cession 146
changing 146
cid@@ 146
deport@@ 146
discover@@ 146
effect 146
emphas@@ 146
ention 146
gazettes 146
ging 146
hill@@ 146
ied 146
imple@@ 146
ketchup 146
kit 146
lets 146
light@@ 146
persian 146
sage 146
sci@@ 146
shipping 146
slov@@ 146
suburbs 146
temple 146
ticino 146
touring 146
trin@@ 146
warm 146
white@@ 146
younger 146
&gt; 145
21st 145
57 145
allen 145
archipelago 145
ardo 145
ater 145
chute 145
difference 145
eleven 145
flows 145
fore@@ 145
inherit 145
ishes 145
kirby 145
kow@@ 145
liner 145
moun@@ 145
pear@@ 145
phon@@ 145
rag@@ 145
reason 145
rupee 145
sierra 145
stro@@ 145
ticket 145
turning 145
valls 145
voting 145
1860 144
210 144
armen@@ 144
bach 144
ceo 144
chelsea 144
commissioner 144
defensive 144
deriv@@ 144
digital 144
dp 144
ferr@@ 144
gary 144
gazette 144
hin@@ 144
increasing 144
intersection 144
labor 144
operational 144
properties 144
qual@@ 144
rca 144
respect 144
sad@@ 144
shot 144
soy 144
toward 144
1902 143
3-@@ 143
900 143
alleg@@ 143
billboard 143
ceased 143
ceived 143
charged 143
chic@@ 143
collaboration 143
collected 143
confederacy 143
distinction 143
hoo@@ 143
istan 143
ión 143
joh@@ 143
keep 143
lam 143
loan 143
margin 143
might 143
muslim 143
pain 143
printed 143
proce@@ 143
produ@@ 143
romans 143
seaso 143
solent 143
stop 143
streng@@ 143
ug@@ 143
unlike 143
320 142
arn@@ 142
att 142
aves 142
cameron 142
cham@@ 142
consist@@ 142
consul@@ 142
dered 142
directed 142
encour@@ 142
fest@@ 142
ford@@ 142
hispanic 142
islander 142
mutu@@ 142
nett 142
nur@@ 142
pastry 142
pittsburgh 142
rol@@ 142
russell 142
sector 142
stance 142
thom@@ 142
tons 142
approv@@ 141
belonging 141
boulevard 141
capture 141
churches 141
confluence 141
continent 141
coordin@@ 141
coupé 141
dat@@ 141
delivered 141
develop@@ 141
dict@@ 141
disbanded 141
enough 141
entering 141
gang 141
hat@@ 141
ing-@@ 141
itable 141
jack@@ 141
jk 141
ligue 141
linked 141
max@@ 141
ninth 141
panucci 141
pay 141
play-off 141
plaza 141
ranil 141
regu@@ 141
rodríguez 141
shield 141
southwestern 141
tenants 141
universität 141
wald 141
year-@@ 141
1848 140
belgaum 140
boys 140
chin 140
con 140
degrees 140
dropped 140
eighth 140
entirely 140
europa 140
expl@@ 140
fication 140
greenwich 140
igh 140
jim@@ 140
l-@@ 140
lect@@ 140
lef@@ 140
line-@@ 140
low-@@ 140
mitted 140
pier@@ 140
plane 140
ras 140
regul@@ 140
sap@@ 140
shir@@ 140
slav@@ 140
specifically 140
stadt 140
stant 140
sul 140
temperature 140
than@@ 140
tie 140
to-@@ 140
wickremesinghe 140
wol@@ 140
zo@@ 140
-up 139
000@@ 139
1896 139
accompanied 139
alexandria 139
arabs 139
aul@@ 139
c2 139
cc 139
ceremony 139
confirmed 139
eri 139
fab@@ 139
household 139
ij@@ 139
imperial 139
infe@@ 139
larcher 139
legislation 139
lic@@ 139
maneu@@ 139
necess@@ 139
olu@@ 139
pack@@ 139
parma 139
pow@@ 139
reputation 139
sandwiches 139
sought 139
space@@ 139
string 139
supporting 139
titan 139
uni@@ 139
ño 139
4165 138
alco 138
attempts 138
bras@@ 138
bring 138
completely 138
describes 138
follows 138
gem@@ 138
honour 138
imprint 138
inking 138
instru@@ 138
ios 138
k-@@ 138
mine 138
mounted 138
norwegian 138
observed 138
offer 138
pped 138
qatari 138
ranch 138
rangers 138
salv@@ 138
sandesh 138
sovereign 138
tle 138
traced 138
1880 137
acura 137
arriv@@ 137
attending 137
carto@@ 137
cept@@ 137
cm 137
constitut@@ 137
contrast 137
driving 137
eff@@ 137
ethiopian 137
factor 137
fusion 137
gene 137
infrastructure 137
iohannis 137
laun@@ 137
lem 137
medicine 137
nomin@@ 137
pa@@ 137
paid 137
palermo 137
physical 137
plant@@ 137
produces 137
refle@@ 137
retained 137
scr@@ 137
shipyard 137
slc-@@ 137
struct@@ 137
thunderbird 137
trees 137
ture 137
ulysses 137
uss 137
yards 137
yugoslavia 137
zar@@ 137
abad 136
aire 136
aki 136
alexis 136
analysis 136
astr@@ 136
burg@@ 136
challeng@@ 136
characteristics 136
circle 136
classification 136
color@@ 136
destination 136
dire@@ 136
discontinued 136
edwin 136
ef@@ 136
emd 136
esa 136
establishing 136
evans 136
faced 136
fen@@ 136
fortune 136
heights 136
hip@@ 136
in-chief 136
io@@ 136
israel 136
louisiana 136
mediterranean 136
ontario 136
participate 136
po 136
presidents 136
rah@@ 136
rom@@ 136
scu@@ 136
shuttle 136
siena 136
sy 136
til@@ 136
ula 136
v6 136
vin 136
ving 136
wanted 136
62 135
64 135
berry 135
birthplace 135
ches@@ 135
chose 135
cky 135
crimin@@ 135
deci@@ 135
deputies 135
dies 135
donnell 135
egy@@ 135
eing 135
eis@@ 135
ench 135
expensive 135
gan@@ 135
indo- 135
islamic 135
kov 135
nominee 135
oted 135
passes 135
phal@@ 135
refu@@ 135
salem 135
sliced 135
soun@@ 135
stam@@ 135
under-19 135
va@@ 135
wild@@ 135
xon 135
-- 134
1850 134
advis@@ 134
bau@@ 134
bet@@ 134
brandon 134
carrying 134
collins 134
composition 134
dit@@ 134
elevated 134
explorer 134
fashion 134
fat 134
gardens 134
home@@ 134
ible 134
inde@@ 134
initi@@ 134
interests 134
learning 134
leng@@ 134
nacional 134
padd@@ 134
panthers 134
partners 134
paste 134
ption 134
rist@@ 134
rival 134
rivals 134
speech 134
stream 134
subgenre 134
sud@@ 134
tech 134
value 134
vul@@ 134
wes@@ 134
alco@@ 133
animated 133
archae@@ 133
auron 133
ava 133
axis 133
backing 133
bordering 133
burn@@ 133
busiest 133
businesses 133
dynasty 133
farming 133
flagship 133
gdp 133
gives 133
icians 133
les@@ 133
logies 133
look 133
løkke 133
olympiacos 133
opel 133
pugin 133
saloon 133
springs 133
stret@@ 133
tapioca 133
tly 133
tus@@ 133
widespread 133
work@@ 133
199 132
allowing 132
aps 132
ault 132
basic 132
bright 132
cabb@@ 132
chain 132
charts 132
curring 132
dig@@ 132
exped@@ 132
freder@@ 132
function 132
gp@@ 132
granola 132
gren@@ 132
insur@@ 132
must@@ 132
nan 132
owners 132
perth 132
semi-finals 132
sponsored 132
sust@@ 132
temper@@ 132
ute 132
és 132
1500 131
1873 131
aces 131
adding 131
aggregate 131
ailed 131
artur 131
bringing 131
bure@@ 131
carri@@ 131
citizenship 131
combustion 131
copies 131
defending 131
departure 131
dick 131
doctoral 131
dynamics 131
icient 131
journalist 131
kesel 131
lift 131
lights 131
mon 131
nag@@ 131
onian 131
online 131
pine 131
pitch 131
scripture 131
shops 131
sponsorship 131
superior 131
tor 131
vessels 131
victor 131
wine 131
abdul@@ 130
ail 130
anch@@ 130
centered 130
constru@@ 130
declined 130
ek@@ 130
elli@@ 130
engineers 130
expand 130
fut@@ 130
gateway 130
harry 130
hay@@ 130
hind@@ 130
jerry 130
nate 130
night@@ 130
particip@@ 130
rand@@ 130
rav@@ 130
retreat 130
roles 130
sandy 130
seagle 130
ser 130
sim@@ 130
spin@@ 130
trac@@ 130
unsuccessful 130
ā@@ 130
abol@@ 129
aca 129
agon 129
an-@@ 129
bell@@ 129
bers 129
budapest 129
canaveral 129
chair 129
cil@@ 129
conquest 129
declaration 129
dra 129
eccellenza 129
ensis 129
free@@ 129
good@@ 129
harbour 129
hc 129
incorpor@@ 129
int 129
investment 129
isan 129
kevin 129
less@@ 129
links 129
mobile 129
modified 129
nikos 129
non 129
oak 129
prise 129
ribbon 129
scient@@ 129
seven@@ 129
shi@@ 129
steam 129
stern 129
superleague 129
sylvania 129
tang@@ 129
vig@@ 129
vá@@ 129
walls 129
weight 129
2,000 128
79@@ 128
acf 128
affair 128
akes 128
aming 128
appl@@ 128
baron 128
choice 128
conduct 128
critic@@ 128
depic@@ 128
differences 128
elen 128
emi 128
encompasses 128
engaged 128
escape 128
examin@@ 128
fish@@ 128
gath@@ 128
globemaster 128
gone 128
historian 128
humberto 128
hundred 128
igned 128
intelligib@@ 128
knight 128
malays 128
membership 128
oddie 128
peri@@ 128
prabhukumar 128
quite 128
restric@@ 128
rounds 128
scope 128
shad@@ 128
shi 128
sized 128
soto 128
subscription 128
substanti@@ 128
suspended 128
tal 128
town@@ 128
tsipras 128
yor@@ 128
zie 128
zzo 128
£ 128
59 127
abhandlungen 127
achieve 127
argu@@ 127
ation@@ 127
brooke 127
buck@@ 127
commenced 127
communication 127
conquered 127
cs1-kern-@@ 127
cycle 127
eva 127
ez@@ 127
follow 127
fow@@ 127
kenny 127
knowledge 127
mathematischen 127
modi@@ 127
nit@@ 127
overseas 127
refer@@ 127
revenue 127
scandin@@ 127
spaceport 127
springer 127
stal@@ 127
torque 127
valve 127
venues 127
views 127
anda 126
aying 126
bap@@ 126
bent@@ 126
borne 126
canonica 126
col 126
cow@@ 126
cs@@ 126
debuted 126
denton 126
electro 126
employment 126
fountain 126
glass 126
gol@@ 126
horse 126
investigation 126
ivo 126
kets 126
lawrence 126
machine 126
orchestra 126
otes 126
paraná 126
play@@ 126
portr@@ 126
program@@ 126
releases 126
rep@@ 126
sell 126
spon@@ 126
standards 126
themes 126
transition 126
tuscany 126
1901 125
1937 125
ached 125
apple 125
aspects 125
attempted 125
bla@@ 125
borg 125
borneo 125
caf@@ 125
cattle 125
courses 125
cular 125
deliv@@ 125
eco@@ 125
flow@@ 125
grande 125
ici@@ 125
ided 125
iranian 125
jected 125
knvb 125
lithu@@ 125
mental 125
moham@@ 125
nomination 125
ock 125
oria 125
rebuilt 125
secretar@@ 125
sections 125
shown 125
snack 125
solanales 125
solu@@ 125
soyuz 125
spic@@ 125
stric@@ 125
surv@@ 125
tax 125
traces 125
trained 125
ular 125
unification 125
youngest 125
610 124
accident 124
airbus 124
aling 124
alu@@ 124
apart@@ 124
bankruptcy 124
bou@@ 124
brief 124
bull 124
carr@@ 124
coaching 124
coh@@ 124
confederation 124
const@@ 124
dist 124
enter@@ 124
guy@@ 124
inum 124
lio 124
mahajan 124
migration 124
novelist 124
ordin@@ 124
palaeontol 124
person@@ 124
renowned 124
rer 124
revealed 124
rick 124
sam 124
sel 124
sp 124
things 124
tour@@ 124
twin 124
tyrol 124
valu@@ 124
,6@@ 123
,9@@ 123
10th 123
anci@@ 123
bam@@ 123
bruins 123
candidates 123
chile 123
commons 123
condensed 123
connecting 123
critical 123
devil 123
dispu@@ 123
dollars 123
doo@@ 123
enlisted 123
fast 123
friendly 123
giovanni 123
girl 123
grap@@ 123
greatest 123
ician 123
immig@@ 123
ishing 123
iss 123
iz 123
kam@@ 123
landmarks 123
lard 123
materials 123
mills 123
net@@ 123
ord 123
planets 123
portugal 123
prevent 123
responsibility 123
rian 123
roll@@ 123
selection 123
sevent@@ 123
shredded 123
silvano 123
skyscraper 123
syl@@ 123
universe 123
use@@ 123
utrecht 123
von 123
wag@@ 123
welsh 123
å@@ 123
ː@@ 123
agreed 122
arct@@ 122
boom 122
cambridge 122
combines 122
combining 122
consci@@ 122
contact 122
demolished 122
determined 122
encompass@@ 122
exception 122
glen@@ 122
hid@@ 122
icated 122
inos 122
kan@@ 122
kun@@ 122
laura 122
loon 122
lying 122
managing 122
metro@@ 122
mining 122
natur@@ 122
orbiting 122
ort 122
protected 122
pursue 122
rum@@ 122
sabah 122
sach@@ 122
soft 122
styria 122
util@@ 122
wn 122
ú 122
180 121
7-@@ 121
alling 121
attend 121
attribu@@ 121
authorized 121
bb 121
coastline 121
congressional 121
craft 121
displac@@ 121
drug 121
enda 121
fail@@ 121
fair 121
frit@@ 121
funds 121
gabri@@ 121
gand@@ 121
gene@@ 121
gree@@ 121
hometown 121
hour 121
iti 121
jonathan 121
kre@@ 121
latino 121
mel 121
motion 121
object 121
pen 121
plateau 121
pleasant 121
predominantly 121
protection 121
rants 121
regime 121
resident 121
restored 121
significantly 121
strugg@@ 121
styling 121
sumitra 121
under-17 121
vary 121
² 121
1820 120
1878 120
1903 120
acces@@ 120
animation 120
ashed 120
aureoles 120
bever@@ 120
breaking 120
cassava 120
challinor 120
citizen 120
colo@@ 120
conejo 120
corporate 120
d- 120
densely 120
diver@@ 120
eda 120
elle 120
gur@@ 120
halimah 120
heroes 120
householder 120
index 120
ino@@ 120
kee 120
lafayette 120
lak@@ 120
lists 120
locations 120
losses 120
male 120
mathematical 120
medium 120
mund 120
output 120
owns 120
prokopis 120
rapid@@ 120
segment 120
sequel 120
short-@@ 120
ssing 120
steamed 120
stone@@ 120
swing 120
third-largest 120
thousand 120
tile 120
tti 120
wolfman 120
79 119
aer@@ 119
ane@@ 119
arrang@@ 119
associate 119
belar@@ 119
boro 119
broadcasted 119
bur 119
canad@@ 119
carl 119
chill@@ 119
clif@@ 119
coached 119
coal 119
colonists 119
compos@@ 119
destin@@ 119
ello 119
eugene 119
experim@@ 119
ey@@ 119
faction 119
fi 119
frame 119
franco 119
ingen 119
ionary 119
lira 119
mandarin 119
nie 119
no-@@ 119
occasionally 119
ove 119
peninsul@@ 119
pre- 119
promote 119
raf@@ 119
recru@@ 119
refin@@ 119
seeds 119
spelled 119
stic 119
strait 119
suggested 119
voters 119
write 119
76@@ 118
albedo 118
arro@@ 118
augu@@ 118
automobiles 118
branches 118
clinton 118
dell 118
developments 118
dian 118
emergency 118
fame 118
gie 118
grandfather 118
hol 118
ilo 118
lor 118
manitoba 118
mate 118
maximum 118
mean@@ 118
minute 118
ook 118
psycho@@ 118
ral@@ 118
reconstruction 118
rene@@ 118
scholar@@ 118
sponge 118
tac@@ 118
tha 118
tournaments 118
twenty-@@ 118
unione 118
yacob 118
ymous 118
ğ@@ 118
-day 117
-to-@@ 117
accor@@ 117
anbar 117
aug@@ 117
avian 117
bombing 117
brigadier 117
cancell@@ 117
christopher 117
compil@@ 117
defen@@ 117
denver 117
divis@@ 117
emig@@ 117
eur@@ 117
fresh 117
geographical 117
guitars 117
illing 117
increasingly 117
insp@@ 117
institut@@ 117
isa@@ 117
ithaca 117
kov@@ 117
lez 117
ligur@@ 117
mari@@ 117
miami 117
olimp@@ 117
ony 117
open@@ 117
oxygen 117
princip@@ 117
proved 117
recipes 117
registration 117
shal@@ 117
short@@ 117
smallest 117
surrender 117
toured 117
uncle 117
usage 117
ussia 117
1889 116
8-@@ 116
arese 116
baj@@ 116
behalf 116
belly 116
broadcasting 116
broo@@ 116
continuing 116
correspon@@ 116
cran@@ 116
cultiv@@ 116
cyril 116
córdoba 116
desmond 116
eled 116
erected 116
eve 116
foods 116
god 116
hai 116
headquarter 116
it-@@ 116
macmillan 116
magn@@ 116
nis@@ 116
noon 116
potatoes 116
rhythms 116
seafood 116
sect@@ 116
statistics 116
su 116
tall 116
tip 116
topped 116
undergraduate 116
valencia 116
veikkausliiga 116
vised 116
wash@@ 116
16000 115
add 115
adem@@ 115
ahu@@ 115
arab@@ 115
arc 115
bars 115
blan@@ 115
camshaft 115
claims 115
commit@@ 115
dance@@ 115
demand 115
demo@@ 115
dh@@ 115
dor 115
elect@@ 115
experimental 115
exterior 115
flanders 115
handle 115
hem 115
inception 115
internationally 115
ital 115
ivers@@ 115
keyboard 115
lates 115
liquid 115
mie 115
offensive 115
organ 115
payloads 115
psv 115
pé@@ 115
radical 115
recomm@@ 115
reddy 115
reggae 115
spending 115
stanford 115
stitu@@ 115
temporary 115
tokyo 115
translated 115
underwent 115
won@@ 115
ı 115
adult 114
and-@@ 114
arbor 114
beating 114
billy 114
clube 114
cus@@ 114
enemy 114
fas@@ 114
ffs 114
han 114
homes 114
icing 114
iel@@ 114
indie 114
iy@@ 114
judic@@ 114
lang@@ 114
mechanical 114
oriented 114
ported 114
prison 114
prov@@ 114
quebec 114
referring 114
rest@@ 114
restor@@ 114
retail 114
rever@@ 114
royce 114
sberg 114
serge@@ 114
sev@@ 114
sible 114
slow 114
stev@@ 114
td 114
texture 114
thick 114
tian 114
traded 114
trou@@ 114
tunnel 114
tz 114
ually 114
uary 114
yst@@ 114
š@@ 114
,5@@ 113
68 113
acre 113
alam@@ 113
cand@@ 113
cap 113
capita 113
commemor@@ 113
compl@@ 113
cornish 113
coron@@ 113
dense 113
ducing 113
duties 113
electro@@ 113
ener 113
flowers 113
id-@@ 113
kas@@ 113
keeping 113
locally 113
manual 113
mitchell 113
omo 113
photo@@ 113
pper 113
preston 113
purple 113
railroads 113
remainder 113
reserv@@ 113
rul@@ 113
smashed 113
treat@@ 113
trophies 113
vis 113
weather 113
17000 112
adapted 112
alph@@ 112
ante 112
begun 112
brunei 112
burgh 112
chal@@ 112
chorizo 112
cially 112
connects 112
cus 112
dorf 112
entity 112
facing 112
goes 112
helm 112
ift 112
igu@@ 112
image 112
itu@@ 112
jong 112
lankan 112
marietta 112
mentary 112
minced 112
oilers 112
option 112
pavlopoulos 112
polo 112
quot@@ 112
rat 112
raw@@ 112
ros 112
seconds 112
sely 112
serbia 112
shak@@ 112
shoot@@ 112
sle@@ 112
soldier 112
sunday 112
synthesiz@@ 112
tagalog 112
tender 112
tenth 112
teries 112
tu 112
vas@@ 112
volcan@@ 112
writ@@ 112
1881 111
5,000 111
acker 111
anal@@ 111
apers 111
arm 111
ator@@ 111
bakar 111
buried 111
c1 111
carro@@ 111
commer@@ 111
decor@@ 111
disease 111
distinctive 111
ecliptic 111
eu 111
eur 111
explo@@ 111
extent 111
fill 111
furt 111
goo@@ 111
guid@@ 111
iring 111
kotte 111
manufacture 111
michel 111
monum@@ 111
neighbourhood 111
nu 111
offering 111
org@@ 111
p-@@ 111
persons 111
profes@@ 111
prominence 111
ranged 111
rar@@ 111
reed 111
retiring 111
salad 111
self 111
shaft 111
shah@@ 111
sits 111
thirteen 111
trains 111
true 111
universitas 111
yard 111
1849 110
1870 110
affe@@ 110
almonds 110
audience 110
barry 110
bears 110
bon 110
broth 110
colloqu@@ 110
confer@@ 110
constituent 110
cultivars 110
dd 110
determine 110
dill@@ 110
dly 110
dri@@ 110
fam@@ 110
gt 110
hawai@@ 110
holder 110
ia@@ 110
igs 110
interpre@@ 110
isi 110
jayawardenepura 110
jean 110
kilometre 110
landmark 110
letters 110
lex@@ 110
lum 110
machin@@ 110
maintain 110
moz@@ 110
ncaa 110
pecorino 110
preserved 110
school@@ 110
secured 110
see@@ 110
segunda 110
situation 110
som 110
staten 110
strings 110
tie@@ 110
urugu@@ 110
voutsis 110
yland 110
± 110
1916 109
50@@ 109
academ@@ 109
alli@@ 109
believ@@ 109
boer 109
bourg 109
brigh@@ 109
butler 109
composer 109
cs1-lock-@@ 109
dering 109
dum@@ 109
ec@@ 109
emphasis 109
estimates 109
extrem@@ 109
faber 109
hellenic 109
ideas 109
lig@@ 109
longstreet 109
mall 109
ners 109
organs 109
postal 109
proximity 109
rou 109
rovers 109
ruling 109
saxony 109
secu@@ 109
sesame 109
sians 109
squeezed 109
steering 109
thur@@ 109
tofu 109
vancouver 109
vertical-align 109
voc@@ 109
wis@@ 109
,0@@ 108
194 108
ampl@@ 108
applic@@ 108
athlet@@ 108
austral@@ 108
bibb@@ 108
bridges 108
carbon@@ 108
chemical 108
cker 108
cles 108
closest 108
contributions 108
control@@ 108
couple 108
custom@@ 108
dez 108
engle 108
episode 108
favour@@ 108
flavor 108
front@@ 108
gin 108
glu@@ 108
hang@@ 108
improved 108
ionally 108
kan 108
kill 108
labor@@ 108
maur@@ 108
motto 108
owen 108
phil 108
progress 108
raisins 108
recognised 108
riverside 108
scholars 108
senators 108
ship@@ 108
sile@@ 108
ske@@ 108
solid 108
southernmost 108
spartak 108
spect@@ 108
sundanese 108
theat@@ 108
tra 108
turing 108
ved 108
visitors 108
withdrew 108
ɪ@@ 108
00s 107
1866 107
absorbed 107
apart 107
authorities 107
automaker 107
belong 107
cullins 107
customs 107
dete@@ 107
eca 107
edited 107
effe@@ 107
effective 107
electrical 107
emerging 107
eno@@ 107
fit 107
folded 107
gaining 107
gap 107
giu@@ 107
harrison 107
heinlein 107
highlands 107
hit@@ 107
intern@@ 107
kirk@@ 107
landscape 107
meter 107
mid 107
normally 107
oakland 107
ote 107
otherwise 107
parking 107
phoenix 107
por 107
posse@@ 107
preparation 107
prevent@@ 107
prosper@@ 107
prototype 107
rell 107
rober@@ 107
rs-@@ 107
runner-up 107
runways 107
sis 107
surviving 107
turin 107
woods 107
ə 107
1893 106
accommodate 106
anthony 106
ape 106
arianespace 106
aro 106
asing 106
azz@@ 106
berkeley 106
bud@@ 106
chapel 106
commun@@ 106
congre@@ 106
corri@@ 106
culmin@@ 106
delhi 106
distinguish 106
ende 106
ener@@ 106
frequ@@ 106
gangsta 106
gou@@ 106
involving 106
keybo@@ 106
killing 106
kuala 106
lettuce 106
maintenance 106
mendoza 106
merchant 106
monarch 106
monroe 106
naik 106
occas@@ 106
oliv@@ 106
pall@@ 106
peters 106
pioneers 106
potential 106
pson 106
re-elected 106
statue 106
stayed 106
sultanate 106
tamp@@ 106
terry 106
tos 106
trim 106
whether 106
zamboang@@ 106
ía 106
1,000 105
1800 105
1836 105
71 105
ahn 105
bari 105
boris 105
chambers 105
characteristic 105
cit 105
clin@@ 105
cob 105
conqu@@ 105
cooperation 105
dner 105
domain 105
dome@@ 105
drome 105
eligible 105
eliminated 105
expres@@ 105
fairfax 105
favor 105
fiba 105
galileo 105
ification 105
in- 105
instrumentation 105
kalb 105
launcher 105
loan@@ 105
mahar@@ 105
margaret 105
mas 105
mud@@ 105
multi@@ 105
nationals 105
nock 105
oa 105
offs 105
ound 105
pilots 105
pronunciation 105
py 105
ranges 105
rivalry 105
scal@@ 105
second-most 105
shaw 105
shipbuilding 105
somewhat 105
starch 105
superhero 105
turtles 105
varies 105
virtus 105
was@@ 105
yn 105
1869 104
agon@@ 104
ander 104
as- 104
atalanta 104
atmosphere 104
cler@@ 104
colors 104
condiment 104
configur@@ 104
consumed 104
countr@@ 104
dev@@ 104
ech@@ 104
ed-@@ 104
eness 104
enjo@@ 104
enrique 104
estadio 104
eville 104
farmers 104
geographic 104
graduation 104
gros@@ 104
hein@@ 104
hull 104
ight-@@ 104
installed 104
invited 104
ionale 104
jesu@@ 104
jets 104
jut@@ 104
lett@@ 104
movements 104
munich 104
napoli 104
obe 104
ord@@ 104
pah@@ 104
phr@@ 104
pin 104
rout@@ 104
seminary 104
sibilities 104
spalletti 104
subor@@ 104
tag@@ 104
thin 104
to- 104
traction 104
transformed 104
tube 104
vietnamese 104
vitesse 104
* 103
30s 103
43@@ 103
88@@ 103
acoustic 103
adap@@ 103
aho 103
aled 103
amsterdam@@ 103
anding 103
annon 103
asherton 103
ax 103
balder 103
bertelsmann 103
brad@@ 103
burger 103
challenge 103
classes 103
confectionery 103
deplo@@ 103
doing 103
ef 103
exce@@ 103
fillings 103
girls 103
inches 103
isol@@ 103
ito 103
kar 103
mbled 103
mbo 103
ounced 103
owski 103
peru 103
pioneer 103
prair@@ 103
require@@ 103
rix 103
scul@@ 103
shortened 103
soil 103
sumption 103
techniques 103
titude 103
unable 103
usaf 103
wrapped 103
yon 103
zon 103
,7@@ 102
1&apos; 102
1632 102
1885 102
accompl@@ 102
achievement 102
affected 102
affiliations 102
agre@@ 102
ander@@ 102
ashtra 102
aviv 102
bed@@ 102
bourn@@ 102
cay@@ 102
cha 102
conclusion 102
enrolled 102
fortun@@ 102
g-@@ 102
gio 102
graeme 102
hamlet 102
hollywood 102
identify 102
ku 102
luc@@ 102
luciano 102
luxem@@ 102
magna 102
mates 102
mob@@ 102
navig@@ 102
ninja 102
oberliga 102
obl@@ 102
occupying 102
og@@ 102
ois 102
quest@@ 102
rasher 102
rear@@ 102
rico 102
rie 102
rison 102
say 102
send 102
sex@@ 102
something 102
substitute 102
t- 102
teach@@ 102
techn@@ 102
terminus 102
testing 102
throne 102
ton- 102
trial 102
tun 102
vast 102
vene@@ 102
volunte@@ 102
1915 101
69 101
abolished 101
abor@@ 101
absence 101
amed 101
ance@@ 101
bai@@ 101
banking 101
bass@@ 101
bearing 101
bethesda 101
boosters 101
brightness 101
colonization 101
consolidated 101
corruption 101
curr@@ 101
cursor 101
descended 101
directors 101
dow 101
entrepren@@ 101
eo 101
evening 101
extra 101
gradually 101
gy 101
historians 101
horiz@@ 101
hou@@ 101
ider 101
ig 101
inaugural 101
ined 101
inline-@@ 101
kou@@ 101
lance 101
leg 101
lington 101
metropolis 101
nese 101
now@@ 101
oppon@@ 101
oven 101
oyster 101
participating 101
penn@@ 101
periods 101
pian@@ 101
pling 101
pted 101
rust 101
secon@@ 101
shirley 101
steph@@ 101
stones 101
thes@@ 101
tudor 101
tx 101
vila 101
visit 101
whig 101
whilst 101
wolf@@ 101
yale 101
york@@ 101
159 100
1851 100
1874 100
adeg@@ 100
ancy 100
appoin@@ 100
astic 100
augustus 100
becomes 100
biography 100
buc@@ 100
cio 100
dag@@ 100
delegate 100
distribut@@ 100
exerc@@ 100
fire@@ 100
franco@@ 100
fred 100
gear@@ 100
golf 100
heard 100
hot@@ 100
hr@@ 100
inch 100
injury 100
invented 100
ić 100
kingdoms 100
know 100
lab 100
layout 100
lightcurve 100
listic 100
mold@@ 100
mus 100
natives 100
negoti@@ 100
owed 100
own@@ 100
participation 100
phar@@ 100
philli@@ 100
regularly 100
rho@@ 100
rising 100
rolls- 100
saint- 100
sisters 100
sousa 100
studying 100
toclim@@ 100
trip 100
udinese 100
uma 100
usu@@ 100
wien 100
zag@@ 100
195 99
adventures 99
aggre@@ 99
alpha 99
aure@@ 99
bit 99
bundelkhand 99
conven@@ 99
depression 99
descri@@ 99
die@@ 99
ense 99
equal 99
ernie 99
europeans 99
found@@ 99
funding 99
ge-@@ 99
gm 99
heat 99
i- 99
ials 99
isition 99
itz 99
jay 99
lc-@@ 99
libya 99
licen@@ 99
manufacturers 99
migrated 99
mou@@ 99
muffin 99
myst@@ 99
occupies 99
pf 99
polis 99
possibly 99
ppe@@ 99
reduce 99
resid@@ 99
roun@@ 99
schol@@ 99
search 99
season@@ 99
sively 99
soph@@ 99
ste 99
suarez 99
supplies 99
suspension 99
titans 99
umbria 99
varese 99
worden 99
yev 99
1,0@@ 98
167 98
achi 98
apprent@@ 98
arros 98
atlético 98
attend@@ 98
beat@@ 98
best-@@ 98
bish@@ 98
bone 98
booster 98
cabin 98
continuous 98
difficul@@ 98
duchy 98
eline 98
erfield 98
fitted 98
forum 98
ganges 98
gm@@ 98
governors 98
harvey 98
improve 98
kal 98
legends 98
lime 98
mans 98
matic 98
meets 98
museums 98
naj@@ 98
narro@@ 98
newark 98
nichol@@ 98
nick 98
osh@@ 98
panama 98
perugia 98
pillar 98
pole@@ 98
pos 98
pus 98
quay 98
reci@@ 98
regard 98
rpm 98
rí@@ 98
samp@@ 98
shift 98
showed 98
stances 98
tail 98
tam 98
tarrant 98
tempor@@ 98
tin 98
valves 98
verse 98
vf 98
wheels 98
wolters 98
,4@@ 97
100305 97
1853 97
1897 97
199@@ 97
211 97
abbey 97
aber@@ 97
abi 97
account 97
arabia 97
atively 97
attractions 97
awi 97
blocks 97
border-@@ 97
bu 97
cel 97
ceremon@@ 97
colu@@ 97
computing 97
comune 97
concentration 97
convertible 97
cuba 97
deck 97
df@@ 97
doro@@ 97
eag@@ 97
empoli 97
ere@@ 97
excellence 97
except@@ 97
forests 97
graph 97
graphy 97
had@@ 97
hence 97
hybrid 97
indi@@ 97
ipp@@ 97
juli@@ 97
khan 97
kluwer 97
lau@@ 97
luigi 97
maría 97
massive 97
mess@@ 97
mini 97
moss 97
ood 97
park@@ 97
picked 97
plantation 97
ply 97
propulsion 97
sarnie 97
simpl@@ 97
someone 97
spiritu@@ 97
sto 97
supporters 97
tack@@ 97
turk@@ 97
unified 97
vandenberg 97
vietnam 97
way@@ 97
wig@@ 97
yes 97
yor 97
101 96
adelaide 96
albion 96
allows 96
américa 96
arian 96
awadh 96
beta 96
bran@@ 96
breakfast 96
brig@@ 96
bruce 96
butty 96
carved 96
cher@@ 96
coin@@ 96
coll@@ 96
condition 96
conflicts 96
considerable 96
cowboys 96
creative 96
ction@@ 96
deployed 96
difficult 96
eller 96
ellington 96
ensemble 96
expendable 96
facilit@@ 96
fing@@ 96
flow 96
frie@@ 96
front-@@ 96
glu 96
guest 96
haj@@ 96
hancock 96
hooker 96
islam 96
jagu@@ 96
johnny 96
kim@@ 96
leaf@@ 96
legs 96
liter@@ 96
lock@@ 96
lombardy 96
marriage 96
muhammad 96
nal 96
newport 96
ores 96
otto 96
plantain 96
poe@@ 96
positioned 96
producers 96
regarding 96
robinson 96
scar@@ 96
single-@@ 96
stretches 96
tole@@ 96
traveled 96
wick@@ 96
ykkönen 96
1868 95
1894 95
3800 95
aboard 95
ajo 95
allies 95
alps 95
application 95
ardi@@ 95
automot@@ 95
autonom@@ 95
barm 95
bex@@ 95
caucas@@ 95
colón 95
commuter 95
coni 95
cs1-registration 95
denomin@@ 95
dispute 95
editions 95
eme 95
emed 95
experiences 95
geneva 95
hands 95
harper 95
helsinki 95
hussein 95
ights 95
install@@ 95
ira@@ 95
kid@@ 95
kurdish 95
lay 95
license 95
minimum 95
morris 95
nis 95
patt@@ 95
percentage 95
pike 95
pist@@ 95
prohib@@ 95
ready 95
reign 95
resistance 95
sanger 95
santiago 95
shr@@ 95
suppl@@ 95
vice-@@ 95
vlad@@ 95
vocalists 95
za@@ 95
zer@@ 95
1890 94
affili@@ 94
aleksand@@ 94
amo 94
animal 94
aurakles 94
bag@@ 94
battery 94
bhai 94
bour@@ 94
bütüner 94
choo@@ 94
christianity 94
context 94
cousin 94
cros@@ 94
dane 94
death@@ 94
dle 94
elsewhere 94
entrance 94
fem@@ 94
founders 94
fris@@ 94
garrett 94
georgetown 94
graham 94
grow 94
gérard 94
güner 94
hits 94
hüseyin 94
iata 94
icon 94
ify 94
ilian 94
kais@@ 94
liverpool 94
log 94
lovell 94
lumpur 94
lyon 94
matthe@@ 94
millennium 94
neil 94
netherland 94
normal 94
ota 94
plot 94
poales 94
proje@@ 94
radar 94
reforms 94
resolution 94
right-@@ 94
rop 94
ross 94
spanning 94
spice 94
strike 94
theless 94
tsman 94
tus 94
twentie@@ 94
warfare 94
warri@@ 94
website 94
ș 94
,8@@ 93
1895 93
abru@@ 93
abu 93
acht 93
advert@@ 93
ambassador 93
amendment 93
asked 93
atlan@@ 93
bavaria 93
boats 93
brab@@ 93
burned 93
calab@@ 93
carpi 93
categorised 93
chest@@ 93
coined 93
commanding 93
diaspora 93
dual 93
enti@@ 93
episodes 93
eum 93
exper@@ 93
foo@@ 93
goalkeeper 93
hari 93
hatchback 93
hire 93
honor@@ 93
hosa 93
icia 93
initiative 93
juice 93
jupit@@ 93
kath@@ 93
lav@@ 93
marketing 93
matt 93
minnesota 93
moder@@ 93
munster 93
naples 93
nearest 93
ner@@ 93
ones@@ 93
onions 93
paper@@ 93
plex 93
poin@@ 93
rd-@@ 93
sci 93
sessions 93
shores 93
thor 93
ud 93
welfare 93
wich 93
windsor 93
wins 93
1867 92
192 92
advan@@ 92
aeronautical 92
afri@@ 92
alban@@ 92
aten 92
bali 92
bid 92
brus@@ 92
buddh@@ 92
calgary 92
capital@@ 92
capitals 92
cater@@ 92
chiefs 92
compu@@ 92
consider 92
cosmo@@ 92
counterpart 92
delivery 92
dest@@ 92
dges 92
divisione 92
dom 92
dream 92
duo 92
earth@@ 92
easily 92
eisen@@ 92
elect 92
eman@@ 92
erine 92
extreme 92
flames 92
health@@ 92
helping 92
hundreds 92
ilocano 92
incorporates 92
incorporating 92
jamaica 92
ll 92
milwaukee 92
negotiations 92
nr@@ 92
occu@@ 92
of-@@ 92
opportunity 92
outbreak 92
patri@@ 92
peer-reviewed 92
phase 92
photometric 92
pierre 92
pione@@ 92
potter 92
prop@@ 92
proposal 92
publ@@ 92
secure 92
spat@@ 92
sumed 92
tests 92
unknown 92
ury 92
ussr 92
vill@@ 92
visual 92
wait 92
winnipeg 92
yar@@ 92
1879 91
aceous 91
alization 91
amalgam@@ 91
americ@@ 91
amoun@@ 91
ape@@ 91
asted 91
attacking 91
avant-@@ 91
bertone 91
bolivia 91
bos@@ 91
broadcast@@ 91
cathol@@ 91
cha@@ 91
chand@@ 91
cherry 91
clam@@ 91
coar@@ 91
concor@@ 91
confused 91
controversial 91
cooper 91
ddr- 91
donated 91
edonia 91
environmental 91
esi 91
españ@@ 91
fm 91
governor@@ 91
guy 91
heav@@ 91
hosting 91
igor@@ 91
iors 91
isle 91
kent@@ 91
lac 91
legion 91
mak@@ 91
meringue 91
mls 91
monast@@ 91
mythology 91
narr@@ 91
nep@@ 91
penguins 91
phen@@ 91
poel 91
practiced 91
rak@@ 91
rapper 91
rc@@ 91
releasing 91
restaur@@ 91
sbury 91
sebast@@ 91
skir@@ 91
sley 91
spectrum 91
spell 91
straight 91
striker 91
strips 91
sultan 91
temp@@ 91
tested 91
threat@@ 91
towers 91
tried 91
tz@@ 91
vantage 91
ée 91
ō 91
1,7@@ 90
140 90
abad@@ 90
accompan@@ 90
aic 90
alphabet 90
antine 90
arily 90
arrested 90
bakwan 90
banyumasan 90
bath 90
branded 90
broken 90
bumipu@@ 90
cara 90
cath@@ 90
comb@@ 90
committees 90
confusion 90
constitute 90
cottage 90
courthouse 90
craig 90
cruz 90
cylinders 90
deal@@ 90
dubbed 90
error 90
exclusively 90
gonz@@ 90
goreng 90
hailemariam 90
hampton 90
hardy 90
heidel@@ 90
housed 90
icks 90
involvement 90
jav@@ 90
literally 90
load 90
luf@@ 90
magistr@@ 90
mahé 90
mata 90
medals 90
minorities 90
n- 90
navigation 90
ome@@ 90
ond 90
onym 90
opposite 90
organised 90
ost@@ 90
paraguayan 90
peaked 90
pel 90
presi@@ 90
reflecting 90
refused 90
rod@@ 90
rolled 90
ror 90
saints 90
salzburg 90
saturday 90
save 90
saxon 90
schedu@@ 90
simul@@ 90
stradd@@ 90
survived 90
tales 90
techni@@ 90
thereafter 90
thu@@ 90
urus 90
weap@@ 90
44@@ 89
abstr@@ 89
alb@@ 89
alber@@ 89
anthro@@ 89
anti- 89
arsen@@ 89
ases 89
assassin@@ 89
aster 89
asts 89
atat@@ 89
ateful 89
attica 89
bee 89
borro@@ 89
catania 89
categor@@ 89
census-designated 89
centur 89
chancellor@@ 89
chargers 89
clair 89
claude 89
colan 89
colour 89
commelin@@ 89
crust 89
ctural 89
curtis 89
damage 89
driver 89
edible 89
engag@@ 89
fig@@ 89
futebol 89
generations 89
greatly 89
hitleri 89
hogao 89
hop@@ 89
hosp@@ 89
iciency 89
ika 89
inny 89
instrumental 89
ior@@ 89
iso 89
ivals 89
johan 89
kali@@ 89
keys 89
kry@@ 89
kö@@ 89
learned 89
lufth@@ 89
mack@@ 89
matters 89
mead@@ 89
midwest 89
most-@@ 89
mö@@ 89
nottingham 89
pedro 89
popul@@ 89
publish 89
randolph 89
represent@@ 89
roosevelt 89
satis@@ 89
schuster 89
sheriff 89
sib@@ 89
solar 89
steyr 89
stir@@ 89
stores 89
tane@@ 89
tia 89
tied 89
tro 89
vall@@ 89
venez@@ 89
villa@@ 89
vow@@ 89
wr@@ 89
antio@@ 88
belong@@ 88
islam@@ 88
kem@@ 88
kie@@ 88
lloy@@ 88
loughlin 88
luke 88
mic 88
ml@@ 88
monocotyle@@ 88
monthly 88
morning 88
olog@@ 88
oods 88
ops 88
origin@@ 88
outs 88
parallel 88
performers 88
power@@ 88
progress@@ 88
ramap@@ 88
reflect 88
reformed 88
regim@@ 88
reviews 88
revived 88
ruins 88
seater 88
sf@@ 88
sharing 88
simple 88
skin 88
some@@ 88
sparta 88
spot@@ 88
sq 88
struggle 88
swee@@ 88
sworn 88
sworth 88
verein 88
whereas 88
wise 88
x- 88
ë@@ 88
ă 88
camer@@ 87
cht 87
decis@@ 87
drum@@ 87
ever@@ 87
heim 87
number@@ 87
opped 87
resi@@ 87
river@@ 87
syst@@ 87
anese 86
antage 86
aska 86
berto 86
cept 86
commission@@ 86
distingu@@ 86
gon@@ 86
ific@@ 86
magaz@@ 86
onso 86
play-@@ 86
sequ@@ 86
succ@@ 86
ami 85
banan@@ 85
compris@@ 85
depend@@ 85
edi@@ 85
ez 85
iment 85
key@@ 85
larg@@ 85
lum@@ 85
nac@@ 85
ott 85
provis@@ 85
ston@@ 85
strateg@@ 85
ural 85
yed 85
aman 84
ayan 84
bled 84
campa@@ 84
categ@@ 84
cele@@ 84
curve 84
franc@@ 84
know@@ 84
laz@@ 84
modu@@ 84
nom@@ 84
onda 84
oon 84
oy@@ 84
redi@@ 84
sus 84
vers 84
volu@@ 84
= 83
athan 83
divers@@ 83
dynam@@ 83
fern@@ 83
ho 83
intro@@ 83
journ@@ 83
keeper 83
merch@@ 83
oak@@ 83
occur@@ 83
olymp@@ 83
pau@@ 83
ren 83
subje@@ 83
train@@ 83
transl@@ 83
carp@@ 82
desig@@ 82
ech 82
fer 82
invol@@ 82
istr@@ 82
leag@@ 82
lic 82
member@@ 82
metap@@ 82
nin@@ 82
overse@@ 82
pool 82
techno@@ 82
addre@@ 81
anian 81
coal@@ 81
establish@@ 81
gent@@ 81
independ@@ 81
manag@@ 81
oppos@@ 81
propos@@ 81
youn@@ 81
anth@@ 80
aught 80
bankru@@ 80
brook@@ 80
ctor@@ 80
hell@@ 80
ight@@ 80
ired 80
legislat@@ 80
matt@@ 80
min-@@ 80
ped@@ 80
phys@@ 80
tain 80
wiz@@ 80
ana@@ 79
ange 79
boun@@ 79
ces@@ 79
consider@@ 79
dding 79
elev@@ 79
hungar@@ 79
jon@@ 79
lined 79
ques 79
serb@@ 79
text 79
ț@@ 79
? 78
champ@@ 78
corpor@@ 78
entation 78
franch@@ 78
gab@@ 78
hul@@ 78
inste@@ 78
num@@ 78
olympi@@ 78
wich@@ 78
‘ 78
192@@ 77
ando 77
argent@@ 77
blanco 77
ceme@@ 77
direct@@ 77
ee@@ 77
elimin@@ 77
groun@@ 77
immedi@@ 77
inher@@ 77
pleas@@ 77
progre@@ 77
sovere@@ 77
unity 77
vert@@ 77
consolid@@ 76
dad 76
introdu@@ 76
ox@@ 76
shap@@ 76
song@@ 76
worn 76
aked 75
anger 75
design@@ 75
ean 75
gra@@ 75
harv@@ 75
liqu@@ 75
minim@@ 75
nam 75
sever@@ 75
sibility 75
tast@@ 75
tow@@ 75
ö 75
ō@@ 75
bn 74
character@@ 74
chel@@ 74
chie@@ 74
cident 74
emergen@@ 74
ffin 74
gradu@@ 74
influ@@ 74
negr@@ 74
outh 74
reve@@ 74
seg@@ 74
tir@@ 74
airs 73
ances 73
apol@@ 73
austr@@ 73
cip@@ 73
davuto@@ 73
discipl@@ 73
ette 73
europe@@ 73
georg@@ 73
lah@@ 73
marks 73
tional 73
ument 73
ymouth 73
− 73
alo@@ 72
annex@@ 72
appe@@ 72
cali@@ 72
chy 72
contro@@ 72
fant@@ 72
friend@@ 72
gett@@ 72
iden 72
mbian 72
parliam@@ 72
psych@@ 72
rez 72
sity 72
spring@@ 72
€ 72
aur 71
dall@@ 71
dary 71
event@@ 71
follow@@ 71
island@@ 71
istics 71
ld@@ 71
legen@@ 71
occup@@ 71
plo@@ 71
regg@@ 71
turkmen@@ 71
ä 71
bing 70
cle 70
jap@@ 70
kilo@@ 70
medic@@ 70
ool 70
ority 70
poli 70
proble@@ 70
republic@@ 70
rhyth@@ 70
st-@@ 70
ù 70
aining 69
autical 69
business@@ 69
condu@@ 69
ein@@ 69
iss@@ 69
lear@@ 69
lock-@@ 69
lu 69
maker 69
mathemat@@ 69
michel@@ 69
stem 69
tura 69
vide@@ 69
ér@@ 69
antly 68
bast@@ 68
confir@@ 68
coo@@ 68
entary 68
ership 68
filip@@ 68
flan@@ 68
kau@@ 68
pm 68
there@@ 68
claim@@ 67
emer@@ 67
fare 67
figh@@ 67
provid@@ 67
rhy@@ 67
atmosp@@ 66
avo@@ 66
battle@@ 66
clevel@@ 66
eli 66
engine@@ 66
expe@@ 66
icip@@ 66
lok@@ 66
mater@@ 66
mex@@ 66
scand@@ 66
196@@ 65
aissance 65
alities 65
chev@@ 65
demol@@ 65
edu@@ 65
enced 65
fru@@ 65
goal@@ 65
onto@@ 65
redu@@ 65
ums 65
à@@ 65
alexand@@ 64
atl@@ 64
birth@@ 64
cock 64
determin@@ 64
educ@@ 64
experi@@ 64
ite@@ 64
kut@@ 64
near@@ 64
organiz@@ 64
qualif@@ 64
roo@@ 64
signific@@ 64
twel@@ 64
adel@@ 63
alder@@ 63
alth@@ 63
fs 63
hart@@ 63
musli@@ 63
prefe@@ 63
wan@@ 63
ét@@ 63
ć 63
abe@@ 62
alties 62
amat@@ 62
anton@@ 62
bath@@ 62
colleg@@ 62
cust@@ 62
depart@@ 62
descend@@ 62
desser@@ 62
driv@@ 62
expen@@ 62
hispan@@ 62
indones@@ 62
john@@ 62
lom@@ 62
newsp@@ 62
philoso@@ 62
pho@@ 62
resor@@ 62
span@@ 62
spectr@@ 62
× 62
č@@ 62
ś@@ 62
aband@@ 61
akarta 61
anded 61
apolis 61
artic@@ 61
cze@@ 61
facul@@ 61
ferred 61
fu 61
identif@@ 61
inclu@@ 61
opport@@ 61
phas@@ 61
strat@@ 61
tures 61
yel@@ 61
ão 61
ürk 61
aeron@@ 60
awar@@ 60
carol@@ 60
cil 60
eded 60
hig@@ 60
idence 60
lov@@ 60
muham@@ 60
pean@@ 60
predec@@ 60
ree 60
revolu@@ 60
skyscr@@ 60
tech@@ 60
ş 60
20s 59
bhaj@@ 59
champion@@ 59
ile@@ 59
ipped 59
lanc@@ 59
lip@@ 59
model@@ 59
neigh@@ 59
semin@@ 59
surren@@ 59
tay@@ 59
tionary 59
tland 59
tton 59
bago 58
ception 58
dle@@ 58
een 58
exter@@ 58
finn@@ 58
ither 58
nast@@ 58
neo 58
oes 58
oug@@ 58
scription 58
surroun@@ 58
berk@@ 57
califor@@ 57
daugh@@ 57
descen@@ 57
ecc@@ 57
enberg 57
famil@@ 57
instrum@@ 57
issu@@ 57
lead@@ 57
mw@@ 57
ould 57
ration 57
roy@@ 57
soyu@@ 57
thology 57
vand@@ 57
ž@@ 57
accom@@ 56
ather 56
candi@@ 56
commis@@ 56
compan@@ 56
init@@ 56
injur@@ 56
ior 56
ival@@ 56
jama@@ 56
mah 56
nd 56
orchestr@@ 56
rele@@ 56
secur@@ 56
subsidi@@ 56
bill@@ 55
distribu@@ 55
else@@ 55
employe@@ 55
iev@@ 55
oly@@ 55
prev@@ 55
sour@@ 55
synthes@@ 55
190@@ 54
arding 54
aspe@@ 54
august@@ 54
him@@ 54
ipe 54
langu@@ 54
librar@@ 54
partn@@ 54
releg@@ 54
seyin 54
tened 54
tracted 54
ves@@ 54
visit@@ 54
198@@ 53
alli 53
arch 53
chur@@ 53
communic@@ 53
contain@@ 53
cott 53
democr@@ 53
esp@@ 53
evol@@ 53
excell@@ 53
gaz@@ 53
hl 53
ign 53
presents 53
rett 53
amend@@ 52
appoint@@ 52
bank@@ 52
illu@@ 52
incre@@ 52
iter@@ 52
jal@@ 52
loy@@ 52
nik@@ 52
oms 52
purch@@ 52
retur@@ 52
squad@@ 52
tables 52
thernmost 52
tik@@ 52
tis 52
arap@@ 51
cuis@@ 51
doug@@ 51
erous 51
hel 51
helicop@@ 51
idel@@ 51
jose@@ 51
mono@@ 51
quarters 51
supre@@ 51
ulia 51
universit@@ 51
cial 50
classi@@ 50
ewell 50
footb@@ 50
gom@@ 50
great@@ 50
jah 50
oles 50
oreg@@ 50
relation@@ 50
satur@@ 50
secre@@ 50
where@@ 50
yment 50
ê@@ 50
albe@@ 49
cess@@ 49
cogn@@ 49
combin@@ 49
enci@@ 49
eng 49
metric 49
rance 49
superi@@ 49
austri@@ 48
block@@ 48
ego 48
esh 48
jeff@@ 48
lein 48
lew@@ 48
minut@@ 48
ob 48
perman@@ 48
poto@@ 48
quer@@ 48
retre@@ 48
xim@@ 48
ń 48
ʊ@@ 48
197@@ 47
belg@@ 47
cess 47
ciano 47
dson 47
enza 47
inhab@@ 47
monte@@ 47
proper@@ 47
ried 47
sylvan@@ 47
transport@@ 47
ya@@ 47
î@@ 47
ô@@ 47
а@@ 47
auth@@ 46
collap@@ 46
cott@@ 46
forts 46
hak@@ 46
mble 46
offic@@ 46
psychedel@@ 46
ref@@ 46
sultan@@ 46
summ@@ 46
wealth 46
wrap@@ 46
₹ 46
anta 45
archy 45
aç@@ 45
cond@@ 45
eau 45
eping 45
guitar@@ 45
iff 45
insul@@ 45
inte@@ 45
isco 45
jay@@ 45
manu@@ 45
tery 45
thunder@@ 45
tured 45
univers@@ 45
virgin@@ 45
ī@@ 45
ř@@ 45
ɛ@@ 45
ctr@@ 44
exer@@ 44
gang@@ 44
grow@@ 44
lc 44
minot@@ 44
rais@@ 44
rang@@ 44
rodr@@ 44
singap@@ 44
alle@@ 43
clau@@ 43
declar@@ 43
distin@@ 43
espe@@ 43
fill@@ 43
house@@ 43
inhabit@@ 43
km@@ 43
louis@@ 43
marie@@ 43
monter@@ 43
prob@@ 43
scho@@ 43
scrip@@ 43
sper@@ 43
woun@@ 43
aper 42
depar@@ 42
draf@@ 42
fash@@ 42
gujar@@ 42
ledge 42
lombar@@ 42
lond@@ 42
metre 42
omin@@ 42
rica 42
situ@@ 42
solution 42
sus@@ 42
ˌ@@ 42
100@@ 41
adesh 41
alab@@ 41
centur@@ 41
cest@@ 41
cla@@ 41
comun@@ 41
conse@@ 41
ense@@ 41
jew@@ 41
jurisdic@@ 41
klu@@ 41
lag 41
mercur@@ 41
nickn@@ 41
onica 41
paragu@@ 41
sumat@@ 41
trop@@ 41
đ@@ 41
ɔ@@ 41
ο@@ 41
с@@ 41
aza 40
begin@@ 40
bloc@@ 40
bundes@@ 40
contem@@ 40
eclip@@ 40
erton 40
esco 40
guad@@ 40
indian@@ 40
kot@@ 40
lands@@ 40
lux@@ 40
marines 40
ribb@@ 40
vot@@ 40
willi@@ 40
165 39
aching 39
aller 39
beg@@ 39
bor 39
buz@@ 39
consi@@ 39
consol@@ 39
flic@@ 39
foun@@ 39
oil@@ 39
polic@@ 39
sey@@ 39
č 39
ɡ@@ 39
• 39
194@@ 38
accep@@ 38
ature 38
automob@@ 38
avail@@ 38
avar@@ 38
bü@@ 38
cult@@ 38
epis@@ 38
gover@@ 38
internation@@ 38
invas@@ 38
ive-@@ 38
izo 38
kenne@@ 38
perio@@ 38
provin@@ 38
vege@@ 38
velo@@ 38
ń@@ 38
186@@ 37
attemp@@ 37
buff@@ 37
dynast@@ 37
imp@@ 37
juvent@@ 37
maxim@@ 37
pora 37
pub@@ 37
shop@@ 37
susp@@ 37
ğ 37
⁄ 37
agremi@@ 36
alk@@ 36
alo 36
annis 36
condi@@ 36
confeder@@ 36
converti@@ 36
dedic@@ 36
enna 36
feat@@ 36
font-@@ 36
iving 36
laf@@ 36
lieuten@@ 36
lo- 36
metr@@ 36
novel@@ 36
ought 36
presid@@ 36
reas@@ 36
sain@@ 36
tained 36
vehic@@ 36
· 36
ę@@ 36
ate@@ 35
contin@@ 35
crete 35
efxeinou@@ 35
entire@@ 35
eurs 35
grant@@ 35
hist@@ 35
jaz@@ 35
neighbor@@ 35
tural 35
⋅ 35
aring 34
ause 34
bai 34
bust@@ 34
eks 34
hatt@@ 34
hoc@@ 34
ober@@ 34
olf@@ 34
promin@@ 34
repu@@ 34
sio@@ 34
stit@@ 34
stry 34
wark 34
year@@ 34
ò 34
α@@ 34
λ@@ 34
ς 34
τ@@ 34
ا@@ 34
albu@@ 33
alek@@ 33
capac@@ 33
cci 33
environ@@ 33
fiel@@ 33
fl 33
gla@@ 33
histor@@ 33
hoods 33
ival 33
marri@@ 33
offen@@ 33
peter@@ 33
punj@@ 33
rd 33
relig@@ 33
solved 33
spart@@ 33
thly 33
torpe@@ 33
ν@@ 33
apple@@ 32
asso 32
azione 32
coast@@ 32
eper 32
geor@@ 32
hamp@@ 32
hatch@@ 32
heed 32
lyric@@ 32
municip@@ 32
nell 32
nick@@ 32
phy 32
saraw@@ 32
speak@@ 32
suc@@ 32
thur 32
typ@@ 32
vel 32
å 32
ì 32
addic@@ 31
aware 31
bend@@ 31
capit@@ 31
common@@ 31
distri@@ 31
flem@@ 31
individu@@ 31
intellig@@ 31
nex@@ 31
partic@@ 31
pulsion 31
rish@@ 31
volun@@ 31
zburg 31
ɑ@@ 31
analys@@ 30
econ@@ 30
emy 30
erly 30
ett@@ 30
hib@@ 30
ife 30
revie@@ 30
titu@@ 30
ą@@ 30
​ 30
afric@@ 29
asan 29
assemb@@ 29
atal@@ 29
brune@@ 29
carn@@ 29
christian@@ 29
demon@@ 29
eliz@@ 29
marty@@ 29
recor@@ 29
schu@@ 29
subur@@ 29
thers 29
tsi@@ 29
ventures 29
volk@@ 29
yugo@@ 29
ǫ 29
adh 28
beh@@ 28
boliv@@ 28
clim@@ 28
disband@@ 28
esse 28
expan@@ 28
giv@@ 28
istan@@ 28
kop@@ 28
marit@@ 28
ood@@ 28
semi@@ 28
shut@@ 28
sic 28
tent 28
thouse 28
ß 28
ł 28
‎ 28
^ 27
civ@@ 27
debu@@ 27
ease 27
eme@@ 27
hybri@@ 27
ived 27
kumar 27
libr@@ 27
nel 27
nen 27
norweg@@ 27
para 27
shri@@ 27
twer@@ 27
wau@@ 27
world@@ 27
ğlu 27
archite@@ 26
basket@@ 26
bey 26
buster 26
cylin@@ 26
full@@ 26
gare@@ 26
gate@@ 26
ground-@@ 26
inclin@@ 26
issi@@ 26
mai 26
marke@@ 26
meth@@ 26
nash@@ 26
philipp@@ 26
toy@@ 26
tts 26
ulos 26
ü 26
ʃ@@ 26
aig 25
alphabe@@ 25
asy 25
colo 25
develo@@ 25
enth 25
enue 25
inet 25
infra@@ 25
isham 25
ld 25
prototy@@ 25
ricul@@ 25
σ@@ 25
р@@ 25
absorb@@ 24
alla 24
approxim@@ 24
avant@@ 24
bour 24
connect@@ 24
coup@@ 24
espa@@ 24
fior@@ 24
guez 24
hog@@ 24
iet 24
inee 24
lipp@@ 24
liver@@ 24
manufact@@ 24
n-@@ 24
phot@@ 24
psy@@ 24
substitut@@ 24
~ 24
ē@@ 24
&@@ 23
azer@@ 23
bey@@ 23
blin 23
cass@@ 23
corru@@ 23
do- 23
facil@@ 23
inging 23
leipz@@ 23
neighbour@@ 23
olfo 23
predomin@@ 23
progr@@ 23
riet@@ 23
sie@@ 23
t; 23
ukrain@@ 23
yk@@ 23
ð@@ 23
ā 23
ő@@ 23
ε@@ 23
м@@ 23
о@@ 23
َ@@ 23
305 22
abra@@ 22
bul 22
depu@@ 22
edy 22
erra 22
hellen@@ 22
hic@@ 22
import@@ 22
isab@@ 22
lando 22
lins 22
ongs 22
regist@@ 22
rom 22
runn@@ 22
sidi@@ 22
yal 22
ï@@ 22
ʒ@@ 22
π@@ 22
е@@ 22
abo@@ 21
andalu@@ 21
bolog@@ 21
compe@@ 21
compet@@ 21
cture 21
defe@@ 21
ightly 21
mississipp@@ 21
mum@@ 21
octo@@ 21
orig@@ 21
paralle@@ 21
pren@@ 21
scott@@ 21
sional 21
stoc@@ 21
195@@ 20
anni 20
arez 20
assin@@ 20
athle@@ 20
attor@@ 20
balti@@ 20
bria 20
eccent@@ 20
eley 20
enix 20
herit@@ 20
iloc@@ 20
lincol@@ 20
poulos 20
studi@@ 20
ɒ@@ 20
ʊ 20
ل@@ 20
abdu@@ 19
abeth 19
agricul@@ 19
asse 19
close@@ 19
confe@@ 19
extre@@ 19
micha@@ 19
muse@@ 19
niger@@ 19
pard 19
pedr@@ 19
primar@@ 19
rebell@@ 19
rough@@ 19
socc@@ 19
valenci@@ 19
vancou@@ 19
yac@@ 19
zeal@@ 19
š 19
ż@@ 19
ʼ@@ 19
ι@@ 19
у@@ 19
ر@@ 19
193@@ 18
aide 18
aum 18
bec 18
busi@@ 18
controversi@@ 18
dens 18
der-@@ 18
detro@@ 18
encomp@@ 18
flag@@ 18
fore 18
hess@@ 18
isio 18
lik@@ 18
pais@@ 18
paran@@ 18
qat@@ 18
recht 18
½ 18
árez 18
ū@@ 18
́ 18
и@@ 18
ḥ@@ 18
acos 17
amal@@ 17
archipel@@ 17
arian@@ 17
config@@ 17
dum 17
exam@@ 17
iba 17
ipping 17
karnat@@ 17
mariam 17
nott@@ 17
percent@@ 17
puer@@ 17
quick@@ 17
reviewed 17
sibly 17
sponsor@@ 17
sump@@ 17
thou@@ 17
vey 17
§ 17
œ@@ 17
ʿ@@ 17
δ 17
θ@@ 17
а 17
б@@ 17
з@@ 17
к@@ 17
ب@@ 17
ي@@ 17
ṣ@@ 17
acou@@ 16
alkma@@ 16
arella 16
ação 16
busin@@ 16
büt@@ 16
chancell@@ 16
conflic@@ 16
entertain@@ 16
envir@@ 16
exist@@ 16
giov@@ 16
ilton 16
juris@@ 16
kara 16
livor@@ 16
mw-@@ 16
oso@@ 16
philadelph@@ 16
retire@@ 16
rome@@ 16
º 16
κ@@ 16
ρ@@ 16
л@@ 16
н@@ 16
arded 15
bavar@@ 15
berland 15
diale@@ 15
entit@@ 15
imper@@ 15
minor@@ 15
rested 15
roe 15
stud@@ 15
troph@@ 15
ő 15
к 15
ь@@ 15
ع@@ 15
… 15
\ 14
` 14
`@@ 14
alcat@@ 14
allow@@ 14
birm@@ 14
cathedr@@ 14
dred 14
duced 14
hus 14
igen@@ 14
infan@@ 14
iq@@ 14
leav@@ 14
lough@@ 14
make@@ 14
mendr@@ 14
monds 14
nether@@ 14
noo@@ 14
oca 14
portugu@@ 14
purpos@@ 14
raine 14
seaf@@ 14
sels 14
spal@@ 14
specif@@ 14
support@@ 14
territ@@ 14
trinid@@ 14
ì@@ 14
ě@@ 14
ī 14
ŋ@@ 14
ź 14
μ@@ 14
φ@@ 14
ύ@@ 14
ἀ@@ 14
adirond@@ 13
administ@@ 13
ajo@@ 13
assis 13
atta 13
brigad@@ 13
dias@@ 13
hout 13
hü@@ 13
ime 13
kyo 13
lest 13
lywood 13
manit@@ 13
pepp@@ 13
performan@@ 13
pill@@ 13
pura 13
replac@@ 13
sept@@ 13
tradit@@ 13
uten@@ 13
wc 13
yr 13
³ 13
ë 13
ν 13
о 13
addit@@ 12
aggreg@@ 12
ambass@@ 12
ayette 12
caa 12
chang@@ 12
commu@@ 12
ein 12
icut 12
idu@@ 12
indigen@@ 12
lib@@ 12
massi@@ 12
midfiel@@ 12
orle@@ 12
prab@@ 12
quia 12
santi@@ 12
tournam@@ 12
ugu@@ 12
wom@@ 12
« 12
» 12
î 12
ý 12
ē 12
υ@@ 12
г@@ 12
azerbaijan@@ 11
bande@@ 11
bion@@ 11
choy 11
clas@@ 11
cocon@@ 11
ethiop@@ 11
hagen 11
ipel@@ 11
iraq@@ 11
kans@@ 11
monoc@@ 11
pee 11
registr@@ 11
robin@@ 11
sein 11
spani@@ 11
statist@@ 11
ò@@ 11
òs 11
ô 11
ù@@ 11
̨ 11
agle 10
akart@@ 10
artill@@ 10
barcel@@ 10
brasile@@ 10
cipes 10
emper@@ 10
fortre@@ 10
hai@@ 10
igi 10
letti 10
omot@@ 10
panu@@ 10
produc@@ 10
smal@@ 10
sé@@ 10
thous@@ 10
til 10
ã@@ 10
û@@ 10
ý@@ 10
ū 10
ŵ@@ 10
ǫ@@ 10
ʻ@@ 10
ա@@ 10
ِ@@ 10
ṭ@@ 10
abbrevi@@ 9
accommo@@ 9
ahmed@@ 9
astronau@@ 9
bbed 9
buen@@ 9
casu@@ 9
censu@@ 9
chry@@ 9
decem@@ 9
dimit@@ 9
doba 9
equip@@ 9
eval 9
guadal@@ 9
ific 9
isid@@ 9
ln 9
luence 9
magde@@ 9
main-@@ 9
manhatt@@ 9
missou@@ 9
mitch@@ 9
palaeonto@@ 9
prent@@ 9
quart@@ 9
rotter@@ 9
settle@@ 9
tles 9
ultimat@@ 9
è 9
þ@@ 9
ʌ@@ 9
ː 9
ί@@ 9
η@@ 9
т@@ 9
س@@ 9
ن 9
ṃ@@ 9
♭ 9
abs@@ 8
aen@@ 8
agen 8
aldr@@ 8
antwer@@ 8
avoc@@ 8
ayas 8
census-@@ 8
desp@@ 8
ejo 8
estim@@ 8
forman@@ 8
formers 8
khand 8
lawr@@ 8
ontar@@ 8
orge 8
other@@ 8
ourn@@ 8
passeng@@ 8
pavlo@@ 8
pitts@@ 8
qad@@ 8
ril 8
sandwich@@ 8
ses@@ 8
spid@@ 8
unci@@ 8
winni@@ 8
­ 8
â 8
ät 8
ór@@ 8
ȟ@@ 8
ά@@ 8
ц@@ 8
ْ@@ 8
ṅ@@ 8
ṛ@@ 8
ἄ@@ 8
ῆ@@ 8
官@@ 8
&#@@ 7
@ 7
apest 7
attac@@ 7
bagh@@ 7
bankrupt@@ 7
bbio 7
bumi@@ 7
committe@@ 7
disci@@ 7
elin@@ 7
emor@@ 7
essor 7
fax 7
fili@@ 7
gettys@@ 7
hali@@ 7
his@@ 7
igib@@ 7
lyn 7
mee@@ 7
millan 7
mosco@@ 7
oper 7
peo@@ 7
perug@@ 7
proxim@@ 7
richard@@ 7
riciana 7
roule@@ 7
schip@@ 7
stitut@@ 7
subst@@ 7
switzer@@ 7
tagalo@@ 7
thern@@ 7
uto@@ 7
vict@@ 7
volksw@@ 7
wiscons@@ 7
wiss 7
yugoslav@@ 7
ţ@@ 7
ů@@ 7
̪ 7
α 7
ω@@ 7
ό@@ 7
и 7
й 7
н 7
я 7
ف@@ 7
و@@ 7
‑ 7
akur 6
asphal@@ 6
atlét@@ 6
azerbai@@ 6
bent 6
boundar@@ 6
campe@@ 6
cathe@@ 6
charact@@ 6
combust@@ 6
copp@@ 6
devan@@ 6
diagon@@ 6
ember 6
endra 6
ermo 6
estad@@ 6
harriet@@ 6
intell@@ 6
isra@@ 6
logica 6
loqu@@ 6
mezz@@ 6
michig@@ 6
most@@ 6
nai@@ 6
norm@@ 6
odo 6
olph 6
previ@@ 6
ranean 6
segun@@ 6
sibil@@ 6
sough@@ 6
squee@@ 6
tennes@@ 6
tire@@ 6
toge@@ 6
unciation 6
usion 6
vb 6
velt 6
érica 6
ø 6
ÿ@@ 6
ǐ@@ 6
ɜ@@ 6
ɬ@@ 6
ʲ@@ 6
̣ 6
δ@@ 6
ι 6
ъ 6
ح@@ 6
ر 6
ق 6
ّ 6
್ 6
ა 6
ი@@ 6
› 6
alry 5
arin 5
ariz@@ 5
bany@@ 5
brief@@ 5
chevro@@ 5
chiev@@ 5
chrysl@@ 5
citizen@@ 5
clel@@ 5
confection@@ 5
congres@@ 5
dable 5
dget 5
distric@@ 5
earli@@ 5
edel@@ 5
grah@@ 5
illino@@ 5
ivalent 5
ián 5
kattoor 5
kev@@ 5
lineu@@ 5
manufactur@@ 5
mathematis@@ 5
mediter@@ 5
peg 5
resign@@ 5
shred@@ 5
strup 5
sundan@@ 5
timat@@ 5
uly@@ 5
zambo@@ 5
ç 5
ġ@@ 5
ɪ 5
ʼ 5
̀ 5
ή 5
β@@ 5
γ@@ 5
χ@@ 5
ω 5
п@@ 5
ы@@ 5
ә@@ 5
ע@@ 5
ص@@ 5
م@@ 5
ት@@ 5
ኢ@@ 5
ያ 5
ዮ@@ 5
ጵ@@ 5
‡ 5
№ 5
adelph@@ 4
alth 4
amster@@ 4
apoli 4
appear@@ 4
attle 4
bangal@@ 4
banyum@@ 4
brie 4
charest 4
entre@@ 4
establ@@ 4
homet@@ 4
househol@@ 4
incum@@ 4
kke 4
legis@@ 4
lettu@@ 4
margare@@ 4
mathem@@ 4
minnes@@ 4
minster 4
oxy@@ 4
pion@@ 4
primer@@ 4
ricity 4
simil@@ 4
tely 4
text-@@ 4
tusc@@ 4
vap@@ 4
varie@@ 4
visves@@ 4
whil@@ 4
¥ 4
´ 4
¼ 4
õ@@ 4
ś 4
ű@@ 4
ž 4
ț 4
ɟ@@ 4
ʾ 4
ή@@ 4
β 4
η 4
в@@ 4
р 4
х@@ 4
ы 4
ь 4
ј@@ 4
ҹ@@ 4
ն 4
ة 4
ن@@ 4
ܒ@@ 4
ܓ@@ 4
ܕ 4
ܕ@@ 4
व@@ 4
க@@ 4
் 4
ა@@ 4
დ@@ 4
ე@@ 4
ჭ@@ 4
ḍ@@ 4
⁠ 4
塌@@ 4
港 4
菜 4
話 4
话 4
香@@ 4
abbi@@ 3
accadem@@ 3
achar@@ 3
ahalli 3
ajara 3
alcobend@@ 3
architet@@ 3
astero@@ 3
auton@@ 3
betw@@ 3
coty@@ 3
curit@@ 3
derby@@ 3
diame@@ 3
eligib@@ 3
george@@ 3
glaston@@ 3
haile@@ 3
hundre@@ 3
ileo 3
inaugur@@ 3
ingredi@@ 3
involv@@ 3
itra 3
jos@@ 3
larly 3
legisl@@ 3
locomot@@ 3
macc@@ 3
massachuse@@ 3
montgom@@ 3
overe@@ 3
palae@@ 3
particu@@ 3
protot@@ 3
querque 3
runner-@@ 3
ser-@@ 3
soldi@@ 3
tapi@@ 3
tels@@ 3
tenance 3
thern 3
toor 3
vano 3
veik@@ 3
wro@@ 3
yaho@@ 3
ě 3
ů 3
м 3
щ@@ 3
і@@ 3
յ@@ 3
ս@@ 3
տ@@ 3
ב@@ 3
י@@ 3
ן 3
أ@@ 3
ت@@ 3
ق@@ 3
ي 3
ێ@@ 3
र 3
् 3
ಗ@@ 3
ವ@@ 3
ტ@@ 3
ḗ 3
‍ 3
₨ 3
ꦁ@@ 3
ꦗ@@ 3
ꦠ@@ 3
ꦪ@@ 3
ꦮ@@ 3
ꦶ 3
ꦶ@@ 3
abbre@@ 2
adjac@@ 2
alex@@ 2
align 2
astern 2
asunci@@ 2
baraj@@ 2
boulev@@ 2
carib@@ 2
chall@@ 2
conden@@ 2
corino 2
ctoral 2
cór@@ 2
efa 2
ennium 2
episo@@ 2
erste 2
espace 2
ety 2
febr@@ 2
fiorent@@ 2
globe@@ 2
ignit 2
iop@@ 2
jamin 2
ketch@@ 2
lancash@@ 2
limer@@ 2
montre@@ 2
oba 2
opher 2
pastr@@ 2
quartered 2
recent@@ 2
resul@@ 2
rique 2
selves 2
suspen@@ 2
ult 2
vout@@ 2
waukee 2
weg@@ 2
¡ 2
¢ 2
ã 2
ê 2
ñ 2
öger 2
ć@@ 2
ċ@@ 2
ľ@@ 2
ň@@ 2
ŏ@@ 2
ř 2
ţ 2
ų@@ 2
ǁ 2
ǃ@@ 2
ǔ 2
ɐ 2
ɔ 2
ʏ@@ 2
ʲ 2
ʻ 2
ʾ@@ 2
̯ 2
ΐ@@ 2
έ@@ 2
ε 2
ζ@@ 2
ο 2
τ 2
ώ@@ 2
д@@ 2
ж@@ 2
й@@ 2
т 2
у 2
ф 2
ш@@ 2
ъ@@ 2
э@@ 2
є@@ 2
і 2
ү@@ 2
ӏ@@ 2
հ@@ 2
ד@@ 2
צ@@ 2
ר@@ 2
ء 2
ئ@@ 2
ز@@ 2
ش@@ 2
ط@@ 2
غ@@ 2
ى 2
پ@@ 2
ި@@ 2
क 2
ट 2
ड 2
प@@ 2
़ 2
ਗ@@ 2
ਭ@@ 2
ਾ 2
ੜ@@ 2
ੰ@@ 2
இ@@ 2
ங 2
ச@@ 2
ஞ 2
ல@@ 2
ி 2
ை 2
ಯ 2
ಯ@@ 2
ರ@@ 2
ಲ 2
ಲ@@ 2
ಸ 2
ಹ@@ 2
ಾ@@ 2
ಿ@@ 2
ು 2
ು@@ 2
ೆ@@ 2
ං@@ 2
ක@@ 2
ර@@ 2
ල@@ 2
ශ 2
් 2
ා 2
ී 2
ი 2
მ@@ 2
ო@@ 2
რ@@ 2
უ@@ 2
ყ@@ 2
ხ@@ 2
ሪ@@ 2
ቀ@@ 2
ፍ@@ 2
ụ 2
† 2
✦ 2
七@@ 2
嘉@@ 2
月 2
棵@@ 2
楼 2
澳@@ 2
登@@ 2
門 2
饘 2
5600@@ 1
adir@@ 1
again@@ 1
anac 1
arapiraqu@@ 1
argh@@ 1
arrabbi@@ 1
astron@@ 1
bundel@@ 1
ccn 1
cerem@@ 1
compon@@ 1
copen@@ 1
cous@@ 1
degre@@ 1
denepura 1
diffic@@ 1
doms 1
dren 1
fallu@@ 1
fute@@ 1
gest 1
handlun@@ 1
haput@@ 1
icop@@ 1
increas@@ 1
inor 1
ioh@@ 1
kuttik@@ 1
lahoma 1
leip@@ 1
lumezz@@ 1
marcol@@ 1
ministr@@ 1
mississi@@ 1
neider 1
parli@@ 1
peer-@@ 1
publish@@ 1
radhak@@ 1
rasmus@@ 1
referen@@ 1
rishnan 1
roose@@ 1
routem@@ 1
spel 1
tical-@@ 1
traff@@ 1
tsipr@@ 1
varaya 1
versi@@ 1
vertical-@@ 1
vietnam@@ 1
ykkö@@ 1
® 1
¶ 1
¹ 1
ï 1
ð 1
út@@ 1
ĕ@@ 1
ň 1
ŋ 1
ť 1
ź@@ 1
ư@@ 1
ǎ@@ 1
ǭ 1
ɐ@@ 1
ɑ 1
ɡ 1
ɾ@@ 1
ʉ@@ 1
ʷ@@ 1
ʿ 1
˖ 1
˗ 1
̃ 1
̟ 1
̠ 1
μ 1
π 1
ρ 1
ψ@@ 1
ч@@ 1
я@@ 1
ҟ@@ 1
բ 1
զ@@ 1
ի@@ 1
ղ@@ 1
ո@@ 1
պ@@ 1
ր@@ 1
ו@@ 1
ל@@ 1
מ@@ 1
נ@@ 1
ץ 1
ק@@ 1
إ@@ 1
ت 1
ث 1
ج@@ 1
ح 1
خ@@ 1
د 1
ز 1
ك 1
ك@@ 1
ل 1
و 1
ُ@@ 1
ހ@@ 1
ރ@@ 1
އ@@ 1
ވ@@ 1
ދ@@ 1
ޖ@@ 1
ާ@@ 1
ެ 1
ެ@@ 1
ް@@ 1
क@@ 1
र@@ 1
श@@ 1
ा 1
ದ 1
ಬ@@ 1
ರ 1
ಶ 1
ಾ 1
ზ@@ 1
ნ@@ 1
პ@@ 1
ს@@ 1
უ 1
ჯ@@ 1
ር@@ 1
ቃ 1
ኒ 1
ን@@ 1
አ@@ 1
ኣ@@ 1
ካ 1
የ@@ 1
ድ 1
ể 1
ọ 1
ố@@ 1
ộ@@ 1
ờ@@ 1
ữ 1
ὄ@@ 1
ὑ@@ 1
⅔ 1
☐ 1
♥ 1
い@@ 1
さ@@ 1
た@@ 1
ま@@ 1
カ@@ 1
ク@@ 1
ッ@@ 1
ト@@ 1
リ@@ 1
丁@@ 1
全@@ 1
加@@ 1
区 1
奴 1
教@@ 1
新@@ 1
梦@@ 1
楼@@ 1
烏@@ 1
矛 1
糜 1
红@@ 1
茅 1
蛋@@ 1
证 1
酏 1
鬻 1
麵 1
ꞌ@@ 1
madeupword0000 0
madeupword0001 0
