the 296083
, 255873
. 211066
of 152141
in 141627
and 122365
a 113278
is 104371
was 70379
to 63027
as 38593
it 36756
on 35122
he 34603
by 33967
an 29459
with 28805
for 28346
s 27804
at 27677
- 25563
from 24664
united 23952
s@@ 21704
k@@ 21259
states 21174
&quot; 20927
t@@ 20884
re@@ 19938
&apos; 19616
ing 19502
d@@ 18837
e 18478
-@@ 18359
has 18293
ed 17896
&apos;s 17700
o 16756
city 16484
) 16188
( 15847
e@@ 15787
which 15769
i 15266
his 15217
es 14927
g@@ 14585
new 14526
are 14460
n@@ 14311
m@@ 14206
er 14137
its 13901
b@@ 13808
p@@ 13796
county 13745
al 13563
l@@ 13296
h@@ 13164
t 12990
club 12984
i@@ 12947
airport 12852
or 12818
0 12687
c@@ 12399
en@@ 12378
in@@ 12295
f@@ 12234
y@@ 12023
that 12006
r@@ 11986
o@@ 11504
1 11490
c 11446
ro@@ 11437
d 11293
part 11190
w@@ 11162
first 10877
v@@ 10827
country 10810
one 10767
name 10641
y 10588
st@@ 10295
le@@ 10246
al@@ 10227
ch@@ 10057
were 10008
sh@@ 9824
m 9721
l 9594
u 9500
n 9447
ers 9416
leader 9405
u@@ 9375
ar@@ 9234
se@@ 9174
: 9131
3 9126
located 9107
place 9017
also 8997
r 8900
after 8758
or@@ 8743
de@@ 8690
z@@ 8659
2 8602
an@@ 8556
– 8440
as@@ 8388
er@@ 8251
th@@ 8239
be 8193
/ 8177
at@@ 8164
el@@ 8141
born 8118
j@@ 8037
; 8034
ad@@ 8004
university 8000
who 7993
b 7944
state 7935
on@@ 7917
is@@ 7837
texas 7773
this 7757
am@@ 7515
ac@@ 7514
8 7429
con@@ 7400
it@@ 7225
where 7123
me@@ 7061
ation 7050
served 7024
k 6995
4 6990
had 6970
mar@@ 6937
co@@ 6860
ly 6845
they 6756
ted 6743
known 6655
un@@ 6635
6 6625
group 6624
area 6621
american 6593
th 6586
a@@ 6483
ic 6463
5 6449
music 6421
ia 6321
played 6289
de 6273
league 6266
5@@ 6190
ab@@ 6159
football 6100
national 6092
ar 6090
language 6076
band 6055
tr@@ 6055
f 6037
ts 6037
team 6000
member 5986
ate 5950
7 5918
man 5858
ol@@ 5841
location 5838
g 5836
ne@@ 5827
birth 5797
season 5795
9@@ 5745
air 5733
school 5732
st 5715
made 5693
4@@ 5683
two 5644
named 5598
ated 5591
bo@@ 5554
us 5553
pe@@ 5525
years 5499
international 5489
6@@ 5468
asteroid 5468
w 5441
be@@ 5439
di@@ 5367
7@@ 5352
sp@@ 5335
lo@@ 5304
their 5225
but 5220
associated 5095
p 5095
br@@ 5056
mo@@ 5032
used 5010
ethnic 4969
during 4943
9 4884
all 4874
ag@@ 4870
war 4864
been 4820
en 4787
ent 4787
gu@@ 4774
ic@@ 4773
ur@@ 4717
year 4717
ak@@ 4706
building 4676
bu@@ 4669
8@@ 4654
si@@ 4646
car@@ 4621
li@@ 4597
she 4548
le 4538
ds 4534
pro@@ 4531
il@@ 4526
capital 4502
age 4492
3@@ 4458
number 4444
qu@@ 4438
time 4427
alan 4407
americans 4403
el 4397
te@@ 4336
ex@@ 4334
gr@@ 4315
ion 4284
son 4263
built 4244
im@@ 4244
per@@ 4240
ig@@ 4228
ti@@ 4203
based 4188
po@@ 4186
land 4179
ap@@ 4175
population 4168
ter 4164
do@@ 4158
ant 4157
town 4127
x 4110
su@@ 4109
mon@@ 4106
when 4071
ent@@ 4056
have 4056
ine 4049
led 4048
north 4008
x@@ 3987
es@@ 3968
california 3959
12 3948
fc 3940
main 3930
became 3882
v 3856
ri@@ 3855
party 3844
region 3841
into 3832
ter@@ 3800
there 3796
am 3774
west 3762
genre 3733
square 3728
indiana 3722
her 3720
york 3716
other 3703
min@@ 3698
house 3661
av@@ 3654
19@@ 3641
most 3637
office 3615
11 3611
published 3584
0@@ 3571
english 3564
founded 3564
au@@ 3549
space 3544
2@@ 3538
dish 3527
dis@@ 3525
18@@ 3519
ir@@ 3513
ton 3506
ks 3484
and@@ 3481
established 3463
runway 3445
h 3428
called 3423
plays 3420
washington 3414
we@@ 3397
par@@ 3383
pl@@ 3383
ra@@ 3378
1@@ 3374
id@@ 3361
ment 3359
may 3350
ru@@ 3349
ge@@ 3346
ice 3343
mw-parser-output 3336
op@@ 3335
while 3310
second 3307
until 3306
not 3301
king 3300
ii 3290
date 3281
dr@@ 3268
ian 3261
ding 3257
between 3256
ho@@ 3251
to@@ 3247
later 3246
cu@@ 3240
world 3232
he@@ 3230
president 3213
ations 3212
pre@@ 3209
em@@ 3188
bar@@ 3183
ist 3182
launch 3172
per 3171
then 3171
south 3162
cor@@ 3158
ph@@ 3154
2010 3138
being 3121
% 3119
aaron 3119
journal 3119
man@@ 3118
john 3114
up 3114
all@@ 3100
ground 3090
under 3089
° 3078
census 3075
ou@@ 3075
engine 3074
including 3069
om@@ 3065
college 3063
white 3060
rock 3059
du@@ 3040
serie 3034
di 3028
ence 3026
inter@@ 3026
no@@ 3026
se 3014
af@@ 3013
ally 3013
series 3013
ke@@ 3011
ie 3009
col@@ 2998
z 2994
ber@@ 2983
10 2979
apollo 2967
cl@@ 2966
company 2963
ies 2948
ad 2946
more 2946
ot@@ 2935
ting 2933
ical 2925
out 2918
ast@@ 2905
ed@@ 2905
miles 2905
der 2904
lu@@ 2898
period 2879
character 2876
so@@ 2873
ul@@ 2866
people 2856
before 2852
discovered 2852
musical 2841
ang@@ 2840
well 2838
ard 2832
ma@@ 2827
district 2819
20 2818
three 2817
ce@@ 2805
worked 2802
family 2800
william 2798
force 2797
io 2766
station 2764
artist 2753
iz@@ 2753
former 2750
type 2750
flight 2748
den 2723
for@@ 2703
over 2693
death 2691
able 2670
the@@ 2668
can 2660
began 2655
jersey 2649
home 2642
institute 2642
pu@@ 2639
ity 2632
mb@@ 2629
won 2627
length 2616
ant@@ 2586
har@@ 2578
march 2578
only 2578
ut@@ 2572
ance 2564
bacon 2555
division 2554
side 2552
ions 2547
go@@ 2543
ev@@ 2541
als 2538
service 2538
ell@@ 2532
july 2529
end 2526
ingredient 2525
level 2524
ah@@ 2515
found 2507
jo@@ 2507
hu@@ 2505
ded 2503
vi@@ 2501
16@@ 2497
following 2497
created 2495
public 2490
au 2481
az@@ 2477
largest 2477
center 2467
general 2467
ce 2463
2009 2461
play 2461
january 2460
ch 2459
body 2444
ship 2436
georgia 2434
ating 2428
ive 2425
us@@ 2425
194@@ 2423
township 2417
martin 2412
pi@@ 2412
released 2409
ste@@ 2406
members 2398
designed 2391
high 2390
signed 2389
cr@@ 2384
les 2383
ver@@ 2382
15 2380
ans 2372
ay 2359
nasa 2359
since 2350
august 2349
both 2346
india 2331
ning 2330
italy 2329
mexico 2329
,@@ 2327
ings 2325
title 2324
mu@@ 2323
sea 2323
orbit 2318
17 2314
spain 2314
day 2306
line 2304
four 2301
manager 2300
september 2297
pilot 2294
fe@@ 2285
kilometres 2282
way 2282
10@@ 2279
street 2278
17@@ 2276
east 2274
such 2267
ay@@ 2266
december 2264
att@@ 2262
ill@@ 2262
pr@@ 2261
fin@@ 2258
ry 2248
sch@@ 2248
technology 2248
2014 2246
austin 2237
singer 2236
long 2233
site 2232
origin 2231
lin@@ 2225
os 2221
est@@ 2217
died 2214
june 2214
ac 2212
total 2211
ci@@ 2209
field 2207
char@@ 2204
com@@ 2204
blues 2201
tu@@ 2201
anders 2199
monument 2189
me 2179
000 2174
business 2173
ma 2172
id 2170
sauce 2168
&amp; 2167
atlantic 2165
metres 2165
ach@@ 2162
ner 2159
album 2158
above 2138
her@@ 2138
some 2137
14 2136
april 2135
hol@@ 2131
through 2129
regional 2128
tur@@ 2126
bur@@ 2121
central 2118
many 2116
book 2105
would 2101
him 2099
mer@@ 2094
18 2089
2006 2088
ten@@ 2088
air@@ 2083
use 2082
sol@@ 2081
15@@ 2076
career 2076
ors 2076
ke 2073
ics 2066
can@@ 2062
london 2061
ob@@ 2060
work 2055
bi@@ 2048
aircraft 2045
ary 2042
october 2042
november 2039
mir 2037
mat@@ 2032
ingredients 2028
bor@@ 2027
et@@ 2024
la@@ 2022
ty 2020
ab 2008
pos@@ 1999
than 1995
ist@@ 1986
started 1986
sub@@ 1986
da 1985
aarhus 1980
gar@@ 1976
2000 1971
00@@ 1962
bl@@ 1960
ow@@ 1959
operated 1955
records 1951
00 1950
ford 1950
however 1947
20@@ 1946
iv@@ 1941
16 1939
several 1939
mc 1938
orbital 1937
ing@@ 1928
back 1926
base 1923
j 1915
moved 1915
oc@@ 1914
del@@ 1913
der@@ 1913
ip@@ 1912
comics 1911
sal@@ 1910
bel@@ 1908
ight 1908
ial 1906
ely 1905
2011 1903
tt@@ 1898
early 1896
formed 1885
ct@@ 1880
civil 1875
193@@ 1873
ous 1868
indonesia 1866
ish@@ 1866
pol@@ 1865
test 1861
native 1857
lan@@ 1855
do 1854
ley 1853
government 1850
army 1844
bro@@ 1844
professional 1844
san 1844
road 1841
acharya 1839
sion 1838
ju@@ 1837
ins 1836
13 1833
sun 1833
cap@@ 1831
km 1827
war@@ 1824
james 1820
la 1812
crew 1808
system 1808
left 1806
top 1805
italian 1803
ran@@ 1801
30 1798
den@@ 1794
infantry 1791
fr@@ 1789
february 1786
ni@@ 1786
see 1782
192@@ 1780
playing 1780
eng@@ 1778
kingdom 1778
23 1777
art 1775
sk@@ 1775
hall 1771
ric@@ 1768
aston 1764
25 1762
old 1761
27 1760
joined 1757
nor@@ 1756
about 1754
battle 1753
ohio 1751
str@@ 1751
tre@@ 1751
no 1743
michigan 1742
debut 1740
2015 1739
bean 1739
ak 1736
ish 1736
gen@@ 1734
park 1732
final 1727
record 1726
ell 1725
pal@@ 1722
31 1720
cup 1720
car 1716
cul@@ 1714
ace 1713
now 1713
pan@@ 1707
association 1705
cted 1704
2013 1702
21 1699
elected 1697
minister 1697
include 1692
los 1692
ked 1690
opened 1686
law 1685
ying 1685
ville 1684
} 1680
anderson 1672
astronomer 1671
{ 1669
2012 1666
ities 1666
rocket 1666
along 1665
wal@@ 1663
same 1662
ve@@ 1662
wh@@ 1662
atlanta 1654
ered 1654
vis@@ 1654
spoken 1653
election 1650
2008 1649
22 1648
super@@ 1646
took 1643
albert 1641
ates 1640
2005 1639
um 1633
cre@@ 1632
ized 1630
british 1629
own 1629
aid 1628
ty@@ 1628
est 1624
ge 1620
owned 1620
completed 1618
are@@ 1617
alfred 1613
power 1611
﻿ 1610
hel@@ 1607
ster 1606
akeem 1603
eg@@ 1601
included 1595
wil@@ 1593
ko@@ 1591
ina 1588
against 1587
ban@@ 1578
design 1578
these 1578
science 1577
ction 1574
african 1573
ise 1571
epoch 1570
military 1567
ra 1565
sen@@ 1564
fried 1563
currently 1561
abdul 1559
wor@@ 1558
sl@@ 1555
2007 1554
ib@@ 1554
third 1554
ann@@ 1552
jones 1547
produced 1546
shepard 1546
ben@@ 1545
form 1543
ore 1539
construction 1536
received 1536
land@@ 1535
ass@@ 1534
sa 1533
major 1532
adam 1530
plan@@ 1530
popular 1527
observatory 1522
seat 1522
aw@@ 1521
community 1520
ef@@ 1519
,000 1511
men 1511
il 1510
ite 1509
written 1509
pat@@ 1507
19 1506
england 1504
european 1504
et 1503
madrid 1501
red 1501
according 1498
ue 1497
tro@@ 1494
fre@@ 1491
song 1489
é@@ 1487
footballer 1484
like 1484
ham@@ 1475
hockey 1475
virginia 1475
once 1472
ory 1472
ser@@ 1472
ai@@ 1471
act@@ 1469
ick@@ 1468
aldrin 1467
mission 1467
ey 1466
german 1465
round 1465
190@@ 1464
diameter 1464
ment@@ 1463
fo@@ 1462
spanish 1462
ned 1461
selected 1461
ash@@ 1460
ms 1460
social 1458
elliot 1455
due 1454
pp@@ 1454
graduated 1453
28 1451
ator 1451
head 1451
river 1451
alma 1449
andrew 1446
fer@@ 1446
style 1446
using 1441
mor@@ 1436
off@@ 1435
operating 1435
ne 1434
orbits 1434
val@@ 1432
win@@ 1432
1634 1431
mater 1431
so 1430
189@@ 1429
low 1429
under@@ 1429
netherlands 1428
launched 1426
asian 1425
arr@@ 1424
ick 1424
24 1423
pennsylvania 1422
ren@@ 1422
ited 1420
teams 1415
log@@ 1414
ple 1413
background 1412
cam@@ 1411
ives 1410
stage 1409
ure 1408
ana 1407
century 1407
official 1406
stat@@ 1406
engineering 1405
within 1403
connecticut 1399
art@@ 1397
mi@@ 1397
cro@@ 1395
pres@@ 1395
0s 1394
ek 1392
class 1391
development 1391
black 1390
fl@@ 1390
architect 1389
buzz 1386
position 1386
appeared 1382
sar@@ 1381
rice 1380
history 1376
ments 1370
held 1368
ion@@ 1368
cas@@ 1365
fi@@ 1363
ven@@ 1361
originally 1358
serving 1357
cont@@ 1355
aj@@ 1354
mak@@ 1352
rad@@ 1350
active 1348
ss@@ 1348
ition 1347
denmark 1343
dc 1340
ino 1338
bal@@ 1337
ery 1337
pen@@ 1336
re 1336
186@@ 1334
port 1332
arm@@ 1331
ase 1325
attended 1325
ribicoff 1325
size 1325
large 1324
version 1324
historic 1322
ns 1322
q@@ 1321
sciences 1319
nu@@ 1317
related 1317
father 1316
mendrisio 1316
water 1315
ct 1312
dor@@ 1311
them 1311
tion 1310
union 1310
gi@@ 1308
eccentricity 1305
local 1305
adams 1302
includes 1302
politician 1302
athens 1300
groups 1300
que 1300
whose 1300
label 1297
museum 1295
near 1294
set 1293
cent@@ 1291
ly@@ 1291
solo 1291
2004 1286
bre@@ 1286
ons 1286
ah 1285
wisconsin 1284
ants 1282
e-@@ 1280
hotel 1277
successor 1277
te 1276
observation 1274
ain 1273
malaysia 1273
days 1270
representatives 1269
39@@ 1268
hor@@ 1267
50 1266
greece 1266
pe 1266
14@@ 1264
ve 1263
each 1262
games 1259
vic@@ 1257
our@@ 1256
lat@@ 1253
cal@@ 1252
mil@@ 1250
speed 1250
abraham 1247
ers@@ 1247
# 1246
gre@@ 1246
last 1245
ack 1244
original 1244
ger 1243
trans@@ 1241
bas@@ 1240
great 1239
hun@@ 1239
ade 1238
ards 1238
belt 1236
church 1236
small 1236
turner 1236
chicken 1235
ica 1235
ther@@ 1233
model 1232
beef 1231
sc 1231
france 1229
donnell 1226
project 1226
ture 1225
added 1224
comm@@ 1223
mississippi 1222
commander 1221
part@@ 1221
ck 1220
26@@ 1217
tw@@ 1217
03 1216
co 1214
ire 1214
new@@ 1213
lake 1212
fied 1210
point 1210
serves 1210
will 1210
comic 1208
railway 1208
clu@@ 1206
story 1205
187@@ 1201
sur@@ 1199
26 1198
star@@ 1198
novel 1196
sold 1194
students 1193
ps 1191
25@@ 1190
rhythm 1189
earth 1187
ss 1187
if@@ 1186
canada 1185
ff@@ 1185
retired 1185
1963 1184
ur 1184
ear@@ 1183
off 1181
order 1181
ering 1180
aviation 1179
men@@ 1179
often 1179
′ 1179
í@@ 1178
germany 1176
188@@ 1175
pri@@ 1175
van 1174
developed 1173
mag@@ 1172
metal 1172
des@@ 1171
ker 1171
research 1170
1955 1169
boo@@ 1169
coun@@ 1169
res 1167
single 1167
cleveland 1166
went 1166
ath@@ 1164
riv@@ 1162
2003 1160
chicago 1160
main@@ 1160
southern 1160
cou@@ 1157
burg 1156
fu@@ 1155
hal@@ 1155
nationality 1155
185@@ 1153
governor 1153
louis 1153
ler 1152
oun@@ 1152
s-@@ 1152
win 1150
ars 1149
comes 1149
alabama 1147
cur@@ 1144
centre 1143
philippines 1143
ast 1142
stor@@ 1142
ling 1140
11th 1138
akron 1138
author 1137
kar@@ 1136
apoapsis 1134
head@@ 1134
variation 1134
five 1133
13@@ 1129
ano 1129
become 1128
our 1128
cuisine 1127
fac@@ 1126
fort 1126
mas@@ 1122
sive 1120
although 1119
port@@ 1119
ang 1117
sin@@ 1117
2016 1116
ger@@ 1116
go 1116
months 1115
ver 1114
making 1113
route 1113
ail@@ 1112
start 1112
1998 1110
press 1110
ships 1110
western 1107
best 1106
came 1106
player 1106
similar 1104
mel@@ 1103
reg@@ 1103
100 1100
ved 1097
40 1094
é 1093
defen@@ 1087
sted 1087
36 1086
alternative 1086
mal@@ 1086
bri@@ 1085
vermont 1085
sim@@ 1084
turkey 1084
approximately 1083
around 1082
sandwich 1081
anaheim 1079
rotation 1079
vari@@ 1077
elevation 1076
trad@@ 1076
ku@@ 1075
vent@@ 1074
ayam 1073
list 1073
ata 1072
don 1072
mit@@ 1068
feet 1067
lar@@ 1067
another 1066
production 1064
dre@@ 1063
late 1063
sia 1062
07 1060
cs1-@@ 1060
gro@@ 1060
1st 1059
albany 1059
chief 1059
returned 1058
senate 1058
french 1057
navy 1057
atlas 1056
out@@ 1056
pop 1056
dutch 1055
2017 1053
act 1053
followed 1053
polish 1053
ta@@ 1053
acy 1052
assembly 1051
v8 1051
gl@@ 1048
dy 1045
tor@@ 1044
flights 1043
sv 1043
ir 1042
organisation 1042
33 1041
accademia 1041
ents 1040
kn@@ 1038
vo@@ 1038
cit@@ 1036
department 1035
sam@@ 1035
sri 1034
ended 1033
sing@@ 1033
coconut 1031
game 1031
27@@ 1030
albuquerque 1030
sy@@ 1029
abilene 1028
introduced 1028
having 1026
ov@@ 1025
ny 1024
indian 1022
cru@@ 1021
madison 1021
stylistic 1021
province 1020
youth 1020
architettura 1019
auburn 1019
council 1018
musician 1018
singapore 1017
tri@@ 1016
ass 1015
29 1014
akita 1014
conference 1014
times 1014
″ 1014
ö@@ 1013
rs 1012
hand@@ 1011
32 1010
ens 1010
mark 1008
sil@@ 1007
cer@@ 1006
ale 1003
tt 1002
1999 1001
every 1001
hours 1001
post 1001
premier 1001
ways 1000
don@@ 999
dra@@ 997
tar@@ 997
tower 997
200 995
periapsis 995
academic 994
kilometers 994
ol 994
books 993
wi@@ 993
01 991
ave 991
angola 989
ong@@ 989
crisis 988
promoted 987
d-@@ 986
greek 985
make 984
just 983
ü@@ 983
available 982
avenue 982
education 982
over@@ 982
sel@@ 982
arch@@ 981
azerbaijan 980
wood 978
village 977
29@@ 976
calcio 976
row 976
ect@@ 974
fountain 974
food 973
tex@@ 973
11@@ 971
med 971
um@@ 971
arena 970
current 970
replaced 970
ajax 969
alison 969
clubs 969
mary 969
04 968
meat 968
ta 968
program 967
t-@@ 967
ties 966
fle@@ 965
seasons 965
stadium 965
divis@@ 964
ron@@ 964
contract 963
vot@@ 963
sm@@ 962
stre@@ 962
inclination 961
prime 961
six 961
appointed 960
begins 958
battles 957
ight@@ 957
hop 955
sand@@ 954
ile 953
vehicle 953
transportation 952
abel 951
ack@@ 951
characters 951
1,@@ 950
ane 950
ireland 950
ye@@ 949
2001 948
ado 948
fun@@ 948
ken@@ 948
mad@@ 948
planet 948
kh@@ 947
ón 947
johnson 946
oregon 946
usually 946
ble 944
pakistan 944
airline 943
alfa 943
referred 943
sig@@ 942
aleksandr 941
among 940
christian 940
incorporated 938
works 938
buildings 936
moun@@ 935
hi@@ 934
je@@ 934
equ@@ 932
oil 932
á@@ 929
px 927
again 926
democratic 925
comp@@ 924
density 924
champions 921
continued 921
dallas 921
addition 920
married 919
ures 919
09 918
re-@@ 917
ariane 916
anc@@ 914
delta 914
ec@@ 913
post@@ 913
taib 913
board 912
ington 912
listed 912
vir@@ 912
because 911
six@@ 911
hip 910
dessert 909
dic@@ 909
195@@ 908
taken 908
star 907
produc@@ 906
robert 906
th-@@ 906
various 906
cooked 905
rome 905
big 902
bot@@ 902
life 902
airlines 900
ale@@ 900
distance 900
appro@@ 899
bat@@ 898
uk 898
young 897
ck@@ 894
houston 894
rayel 894
ep@@ 893
island 893
operations 893
ari@@ 892
gal@@ 892
uses 892
ys 892
constructed 891
exten@@ 891
ses 889
parliament 888
sou@@ 887
ages 886
ai 886
dodge 886
northern 885
squ@@ 885
mean 884
jac@@ 883
nat@@ 882
3rd 881
did 880
award 879
creator 879
width 878
ail 877
chinese 877
romeo 877
47@@ 875
switzerland 875
alex 873
ese 872
not@@ 872
rac@@ 872
ya 872
enn@@ 871
floor 871
juan 871
60 870
appl@@ 870
zz@@ 869
bil@@ 868
considered 868
ash 867
george 866
hy@@ 866
pur@@ 866
sen 866
trav@@ 865
06 864
2019 864
az 864
im 864
cle@@ 863
full 863
nrbq 863
control 862
ret@@ 862
amp@@ 861
metropolitan 860
1996 859
announced 858
clo@@ 858
gener@@ 858
winning 858
ram@@ 857
sports 857
indonesian 856
manufacturer 856
sat@@ 856
ep 855
discovery 854
sel 854
— 853
39 852
baku 852
cen@@ 852
turkish 851
different 850
mus@@ 850
royal 849
za 849
2018 848
memorial 848
respon@@ 848
sky 848
son@@ 848
34 847
aver@@ 847
baked 847
allen 846
mahmud 846
sw@@ 846
academy 845
arem 845
citation 845
popul@@ 845
very 845
cast@@ 844
down 844
loc@@ 844
any 843
moon 843
staff 843
wr@@ 843
35 840
ically 840
situated 840
inhabitants 839
05 838
nation@@ 837
paisa 837
systems 837
5px 836
88 836
leg@@ 836
ational 834
past@@ 834
tho@@ 834
bridge 832
height 830
britain 829
plo@@ 829
changed 828
owner 828
tom@@ 828
traditional 828
cri@@ 827
still 827
thomas 826
wee@@ 826
alco 825
course 825
david 825
ines 825
minor 825
mir@@ 825
sed 825
bank 824
er-@@ 824
penyet 824
romania 824
services 823
1993 822
66@@ 822
children 822
roc@@ 821
din@@ 820
antares 819
ders 819
por@@ 819
prin@@ 819
contains 818
ained 816
surface 816
term 816
amsterdam 815
what 815
commonly 814
fusion 814
promotion 814
section 814
bakewell 813
take 813
ym@@ 812
ha@@ 810
managed 810
political 810
federal 809
ied 809
vel@@ 809
fighter 808
prior 808
1000 807
lanka 807
live 807
renamed 807
spent 805
24@@ 804
op 804
million 803
code 802
2002 801
77@@ 801
ker@@ 801
pudding 801
101 800
complex 800
finished 800
fri@@ 800
places 800
pic@@ 799
common 798
em 797
ill 797
ily 797
ised 797
fal@@ 795
let 795
occupation 795
ake 794
sor@@ 794
gh@@ 793
mid@@ 793
recorded 793
competition 792
ws 792
america 791
coach 791
moscow 791
rel@@ 791
contin@@ 790
drafted 790
ini 790
killed 790
bay 789
ential 789
passenger 788
up@@ 788
leading 787
fire 786
succeeded 786
1994 785
ro 784
show 784
society 784
studied 784
director 783
draft 783
eli@@ 783
fish 783
given 783
soviet 783
ago 782
commercial 782
key 782
ki 780
ry@@ 780
championship 779
02 778
103 778
jazz 778
184@@ 777
ains 777
alls 777
lands 777
econom@@ 776
ets 776
ites 776
ka 776
dan 775
55 773
bionico 773
change 773
fil@@ 773
1989 772
sa@@ 772
top@@ 772
watson 772
ara 771
christ@@ 771
end@@ 771
my@@ 771
next 771
medi@@ 770
revie@@ 770
che@@ 769
pow@@ 769
successful 769
90 768
sburg 768
ster@@ 768
egg 767
milk 767
ged 766
green 766
ram 766
summer 766
34@@ 765
06@@ 764
cel@@ 764
ft 764
degree 762
ists 762
audi 761
designated 761
mot@@ 761
film 760
min-width 760
fic@@ 759
right 759
zealand 758
illinois 757
discoverer 755
250 754
ahmet 754
congress 754
eastern 754
mond 753
placed 753
southeast 753
ut 753
authority 752
sh 752
sweet 752
even 751
hero 751
but@@ 750
flint 750
iraq 750
kilometre 750
master 750
ain@@ 749
amb@@ 749
fourth 749
training 749
logy 748
saw 748
vegetables 748
andra 747
walter 747
1986 746
bandeja 746
cent 746
dr 746
birmingham 745
ces 745
dent 745
explosion 745
half 745
ively 744
municipality 744
osborne 744
serve 744
stri@@ 744
ham 743
stru@@ 743
relegated 742
working 742
dec@@ 741
publisher 741
ich 740
long@@ 740
resul@@ 740
cover@@ 739
downtown 739
wn 739
37@@ 738
binignit 738
awarded 737
els 737
ership 737
gave 737
lost 737
nhl 737
affiliated 736
astronaut 736
ality 735
features 735
front 735
acura 732
adv@@ 732
appleton 732
37 731
barajas 730
bavarian 730
dem@@ 730
dru@@ 730
result 730
campus 728
support 728
lee 727
together 727
media 726
$ 725
fact@@ 725
fought 725
int@@ 725
ring 725
railroad 723
eric 722
sportiva 722
asteroids 721
cities 721
ters 721
grad@@ 720
could 719
previously 719
table 719
get 718
mis@@ 718
oo@@ 718
ñ@@ 718
contr@@ 717
red@@ 717
remained 717
sc@@ 717
histor@@ 716
carolina 715
featured 715
addis 714
cat@@ 713
craig 713
gor@@ 713
tit@@ 713
ues 713
headquarters 712
java 712
match 712
san@@ 712
ot 711
’ 710
adolfo 709
sun@@ 709
add@@ 708
angeles 708
garth 708
run@@ 708
syn@@ 708
ign 707
tun@@ 707
copenhagen 706
mathemat@@ 706
mayor 706
originated 706
run 706
taking 706
democr@@ 705
represented 705
range 704
1969 703
igh@@ 703
secretary 703
tain 703
argentina 702
ov 701
seven 701
tom 701
ine@@ 699
disco 698
jr 698
colle@@ 697
door 697
ga 697
1974 696
covers 696
cy@@ 696
ness 696
ridge 695
berg 694
bul@@ 694
cc@@ 693
cir@@ 693
counties 693
ten 693
y-@@ 693
ena 692
anti@@ 691
ca 691
chairman 691
low@@ 691
milan 691
peter 691
ural 691
goal 690
ived 690
much 690
roma 690
dar@@ 689
mur@@ 689
command 688
na 688
1962 687
fir@@ 687
gran@@ 687
mass 687
speci@@ 687
wide 687
_ 686
airbase 686
500 685
acta 685
avi@@ 685
charles 685
ending 685
japan 685
tin@@ 685
univers@@ 685
jan@@ 684
republic 684
aged 683
areas 683
hard@@ 683
sum@@ 683
wife 683
status 682
conne@@ 681
ony 681
performed 681
rol@@ 681
08 680
mid 680
captain 679
hampshire 679
kal@@ 679
play@@ 679
bak@@ 678
kets 678
sup@@ 678
100@@ 677
ababa 677
̇ 677
activ@@ 676
architecture 676
fel@@ 676
writer 676
clai@@ 674
sible 674
trac@@ 674
property 673
ves 673
you 673
164 672
ayers 672
ach 671
miss@@ 671
points 671
orange 670
ats 669
lunar 669
maryland 669
mathematics 669
prob@@ 669
rm 669
seas@@ 669
alberto 668
gen 668
goals 668
canadian 667
enc@@ 667
tru@@ 667
amc 666
means 666
28@@ 665
free 665
manufactured 665
ctor 664
dro@@ 664
mic@@ 664
56@@ 663
becoming 663
broad@@ 663
millimetres 663
posed 663
agnes 662
ela 662
ison 662
light 662
reached 662
naval 661
na@@ 659
blue 658
justice 658
1995 657
75 657
cab@@ 657
escape 657
ja 657
lies 657
living 657
achiev@@ 656
eu@@ 656
graduate 656
jennings 656
ound 656
bar 655
currency 655
pon@@ 655
wing 655
aluna 654
arc 654
austria 654
form@@ 654
fran@@ 653
derivative 652
schools 652
rap@@ 651
fa 650
paul 650
sometimes 650
1950 649
33@@ 649
alaska 649
cin@@ 649
plat@@ 649
register 649
stan@@ 649
mac@@ 648
delaware 646
ful 646
hospital 646
phil@@ 646
stories 646
alist 645
chan@@ 645
cour@@ 645
gol@@ 645
involved 645
jam@@ 645
án 645
afc 644
nick@@ 644
ze 644
1987 643
chi@@ 643
count 643
ella 643
alpena 642
away 642
bol@@ 642
consists 642
ax@@ 641
background-@@ 641
des 641
inc 641
pul@@ 641
builder 640
c-@@ 640
designation 640
honda 640
swe@@ 640
pt 639
sco@@ 639
agon@@ 638
allow@@ 638
co-@@ 638
ref@@ 638
sts 638
1966 637
bus 637
person@@ 637
present 637
prote@@ 637
44 636
demonym 636
identi@@ 636
pin@@ 636
practice 636
ama 635
ency 635
holloway 635
abarth 634
scored 634
ional 633
rebellion 633
high@@ 632
ilo@@ 632
tow@@ 631
ajoblanco 630
cross@@ 629
hon@@ 629
itions 629
tel@@ 629
today 629
ping 628
suárez 628
transport 628
lin 627
mother 627
own@@ 627
satellite 626
dan@@ 625
ement 625
eria 625
ni 625
electric 624
ong 624
frank 623
grounds 623
richard 623
sn@@ 623
cho@@ 622
hill 622
2,@@ 621
kor@@ 621
officer 621
pro 621
teisaire 621
termin@@ 621
kovač 620
miller 620
offic@@ 620
castle 619
short 619
ital@@ 618
completion 617
coo@@ 617
ple@@ 617
folk 616
ney 616
role 616
atatürk 615
brother 615
few 615
pass@@ 615
regions 615
resid@@ 615
wol@@ 615
costa 614
russian 614
ably 613
bb@@ 613
court 613
entry 613
rus@@ 613
spo@@ 613
aining 612
ative 612
fig@@ 612
inv@@ 612
liga 612
dered 611
locomotive 611
os@@ 611
prudnikov 611
entered 610
f-@@ 610
jar@@ 610
less 610
wat@@ 610
1990 609
ased 609
beginning 609
ca@@ 609
gt 609
units 609
van@@ 609
iced 608
ond@@ 608
ow 608
que@@ 608
wid@@ 608
1988 607
asad 607
provided 607
1932 606
97 606
bet@@ 606
kway 606
lock@@ 606
ona 606
300 605
cabinet 605
dire@@ 605
foundation 605
though 605
va 605
bread 604
bs 604
ein@@ 604
ski 604
tier 604
1957 603
ze@@ 603
establ@@ 602
mul@@ 602
operation 602
spe@@ 602
1918 601
ches 601
ess 601
southwest 601
brig@@ 600
fictional 600
instrument 600
via 600
36@@ 599
if 599
ph 599
sarawak 599
average 598
cheese 598
middle 598
camp 597
evil 597
summit 597
blackpool 596
full@@ 596
powered 596
senior 596
1983 595
ald 595
emplo@@ 595
era 595
tem@@ 595
jack@@ 594
alfredo 593
modern 593
return 593
throughout 593
nam@@ 592
respect 592
bangalore 591
congre@@ 591
ecliptic 591
preceded 591
klink 590
management 590
decl@@ 589
estimated 589
exist@@ 589
multi@@ 589
previous 589
concer@@ 588
action 587
dam@@ 587
elizabeth 587
non-@@ 587
teen@@ 587
those 587
od@@ 586
songs 586
batt@@ 585
hot 585
karnataka 585
pacific 585
uruguay 585
aching 584
come 584
ough 584
parts 584
rece@@ 584
deer 583
ism 583
sumed 583
ure@@ 583
arts 582
ign@@ 582
iqbal 582
market 582
elect@@ 581
ran 581
scheduled 581
0px 580
dy@@ 580
ess@@ 580
kong 580
medal 580
she@@ 580
spacecraft 580
dublin 579
initially 579
jun@@ 579
republican 579
ston 579
stony 579
1982 578
allama 578
eventually 578
gir@@ 578
nel 578
85 577
pap@@ 577
teen 577
expl@@ 576
gorbach 576
gover@@ 576
leaders 576
pork 576
publish@@ 576
ators 575
electr@@ 575
ertegun 575
moore 575
deal 574
kins 574
alfons 573
anded 573
by@@ 573
cop@@ 573
junior 573
nation 573
provisional 573
sing 573
forrest 572
sabin 572
technical 572
henry 571
lived 571
mobile 571
mun@@ 571
platform 571
poland 571
stra@@ 571
may@@ 570
tal@@ 570
technological 570
volunteer 570
floors 569
ired 569
nar@@ 569
cars 568
coupé 568
derived 568
hong 568
liber@@ 568
open 568
ord 568
regiment 568
ever 567
forms 567
instead 567
recogn@@ 567
starting 567
trance 567
break@@ 566
kel@@ 566
spr@@ 566
tran@@ 566
1997 565
colomb@@ 565
loo@@ 565
aids 564
boun@@ 564
compar@@ 564
flo@@ 564
person 564
daniel 563
illing 563
lam@@ 563
mann 563
stone 563
graph@@ 562
abner 561
barack 561
formerly 561
garlic 561
obama 561
sour@@ 561
town@@ 561
far@@ 560
met 560
plan 560
stu@@ 560
med@@ 559
space@@ 559
well@@ 559
1930 558
alu@@ 558
icebreaker 558
my 558
83 557
agra 557
band@@ 557
branch 557
ental 557
grand@@ 557
marvel 557
teow 557
2nd 556
dark 556
flying 556
structure 556
1981 555
arab@@ 555
assigned 555
glo@@ 555
lit@@ 555
ouse 555
aleksandra 554
def@@ 554
dynam@@ 554
ences 554
poaceae 554
artic@@ 553
romagnoli 553
rotterdam 553
two-@@ 553
vin@@ 553
connect@@ 552
mi 552
ok@@ 552
print 552
tan@@ 552
alessio 551
dol@@ 551
lead@@ 551
mars 551
matador 551
ples 551
46 550
asilomar 550
bundesliga 550
heav@@ 550
bh@@ 549
geo@@ 549
offered 549
santa 549
1971 548
important 548
private 548
zitarrosa 548
ó@@ 548
gau@@ 547
launch@@ 547
mid-@@ 547
shor@@ 547
thir@@ 547
38 546
artists 546
ctions 546
nin@@ 546
operator 546
spaceport 546
tour@@ 546
alvah 545
ann 545
eff@@ 545
impact 545
issue 545
parent 545
ply 545
1959 544
ł@@ 544
ali@@ 543
conver@@ 543
guitar 543
obtained 543
originates 543
ć 543
14th 542
experi@@ 541
manu@@ 541
northeast 541
kl@@ 540
landing 540
names 540
1980 539
agre@@ 539
amarillo 539
appe@@ 539
attem@@ 539
ces@@ 539
cruises 539
dun@@ 539
illed 539
larger 539
mile 539
ious 538
tic 538
versus 538
vice 538
creek 537
sty@@ 537
tte 537
bella 536
caballero 536
comb@@ 536
icy 536
williams 536
97@@ 535
cep@@ 535
ioned 535
marine 535
ough@@ 535
release 535
ached 534
ward 534
ared 533
asam 533
ba@@ 533
foo@@ 533
journ@@ 533
pot@@ 533
bakso 532
batchoy 532
met@@ 532
stand@@ 532
ales 531
ki@@ 531
studio 531
45 530
cle 530
dishes 530
ently 530
forces 530
ising 530
secur@@ 530
1972 529
1985 529
antwerp 529
impro@@ 529
coordinates 528
farm@@ 528
ff 528
fru@@ 528
matches 528
mig@@ 528
var@@ 528
bert@@ 527
roll 527
sau@@ 527
andrews 526
ater 526
organization 526
zmir 526
eredivisie 525
finland 525
florida 525
fol@@ 525
onia 525
squadron 525
visvesvaraya 525
1927 524
flor@@ 524
health 524
magnitude 524
across 523
affiliation 523
appearance 523
carried 523
daughter 523
erson 523
househol@@ 523
plant 523
restaur@@ 523
belgium 522
category 522
michael 522
ther 522
yed 522
alcatraz 521
caterpillar 521
raised 521
rosa 521
scient@@ 521
sugar 521
bir@@ 520
cher 520
europe 520
fron@@ 520
jon@@ 520
real 520
ye 520
alli 519
baade 519
80 518
derbyshire 518
in-@@ 518
information 518
oned 518
overall 518
pun@@ 518
all- 517
drive 517
eaten 517
inst@@ 517
wed 517
1977 516
grand 516
ished 516
&@@ 515
close 515
collabor@@ 515
observations 515
cape 514
firm 514
isbn 514
tennessee 514
velocity 514
worth 514
12@@ 513
44@@ 513
bon@@ 513
carri@@ 513
limited 513
unit 513
1992 512
ayed 512
ette 512
ately 511
euro@@ 511
fully 511
legen@@ 511
special 511
1910 510
1928 510
albennie 510
aw 510
charlie 510
inner 510
inten@@ 510
meas@@ 510
pedas 510
tlx 510
wo@@ 510
&apos;@@ 509
earned 509
joe 509
northwest 509
1965 508
alderney 508
chievo 508
dest@@ 508
mo 508
advent@@ 507
cess 507
cover 507
awh 506
brown 506
ges 506
jupiter 506
lincoln 506
prepar@@ 506
saf@@ 506
success 506
sul@@ 506
35@@ 505
ben 505
iving 505
admitted 504
af 504
luna 504
stars 504
1979 503
rich@@ 503
seconds 503
brought 502
ero 502
ilian 502
joseph 502
yu@@ 502
described 501
är@@ 501
agon 500
ari 500
astella 500
harbor 500
hop@@ 500
massachusetts 500
others 500
psy@@ 500
verona 500
107 499
bananaman 499
aff@@ 498
eight 498
irish 498
ots 498
track 498
1991 497
joh@@ 497
negre 497
ays 496
cts 496
expe@@ 496
further 496
main-belt 496
submarine 496
ts@@ 496
basketball 495
colmore 495
dedicated 495
minutes 495
stad@@ 495
div@@ 494
hood 494
ita 494
pil@@ 494
control@@ 493
himself 493
ich@@ 493
rang@@ 493
suff@@ 493
xi@@ 493
bachelor 492
georgiadis 492
loyal 492
moving 492
produ@@ 492
ability 491
highway 491
oper@@ 491
organized 491
ath 490
committee 490
flow@@ 490
hus@@ 490
little 490
passed 490
phys@@ 490
ship@@ 490
shire 490
1923 489
57@@ 489
africa 489
aper 489
ching 489
ican 489
issn 489
kant 489
valley 489
ko 488
administrative 487
aero@@ 487
upon 487
wheel 487
41 486
agent 486
editor 486
houses 486
jo 486
models 486
provide 486
room 486
1976 485
ip 485
night 485
ops 485
ada 484
dancer 484
kol@@ 484
manchester 484
tel 484
1956 483
adonis 483
engineer 483
grew 483
ids 483
librarians 483
nasi 483
student 483
transmission 483
flav@@ 482
fur@@ 482
jects 482
mer 482
photo@@ 482
purchased 482
rot@@ 482
boston 481
categor@@ 481
consisting 481
dig@@ 481
fifth 481
soon 481
thre@@ 481
tle 481
zed 481
1933 480
going 480
onica 480
running 480
1978 479
bal 479
ig 479
ls 479
merged 479
ä@@ 479
buted 478
cia 478
facility 478
levy 478
majority 478
rou@@ 478
acres 477
airports 477
alb@@ 477
attle 477
ira 477
professor 477
regular 477
ador 476
bad@@ 476
pad@@ 476
rev@@ 476
ton@@ 476
whit@@ 476
banana 475
border 475
cy 475
influ@@ 475
1958 474
deputy 474
origins 474
present@@ 474
primary 474
socialist 474
studies 474
ba 473
francisco 473
gold 473
ights 473
planned 473
scoring 473
significant 473
versions 473
wel@@ 473
acquired 472
adare 472
funk 472
participated 472
soto 472
transferred 472
ban 471
boy 471
develop@@ 471
famous 471
hunt 471
sav@@ 471
west@@ 471
without 471
wrote 471
coming 470
oral 470
vol@@ 470
fair@@ 469
app@@ 468
inte@@ 468
lead 468
study 468
vels 468
werft 468
wheel@@ 468
administration 467
ashgabat 467
dou@@ 467
ga@@ 467
incre@@ 467
passengers 467
alaa 466
bru@@ 466
ero@@ 466
jan 466
martyrs 466
performance 466
architectural 465
bhajji 465
cake 465
housing 465
view 465
classified 464
ern@@ 464
fit@@ 464
pena 464
uni@@ 464
52 463
asser 463
elling 463
gh 463
mol@@ 463
ras@@ 463
1960 462
enced 462
ici@@ 462
manor 462
operates 462
sis 462
statistical 462
ymouth 462
zahra 462
1973 461
amatriciana 461
covered 461
human 461
near@@ 461
spring 461
1964 460
eds 460
emer@@ 460
industri@@ 460
maiden 460
duc@@ 459
material 459
module 459
soup 459
stock 459
upper 459
scales 458
wizard 458
1960s 457
argentine 457
illa 457
never 457
turn 457
a-@@ 456
commissioned 456
ere 456
han@@ 456
here 456
indianapolis 456
ises 456
outer 456
roman@@ 456
subsequently 456
tournament 456
twent@@ 456
we 456
3,@@ 455
arlington 455
cooking 455
cream 455
enton 455
fall 455
grated 455
plant@@ 455
players 455
1970s 454
antioch 454
heidelberg 454
pa 454
q 454
radio 454
sett@@ 454
000000 453
continu@@ 453
greater 453
insp@@ 453
said 453
ø@@ 453
dings 452
flew 452
mp@@ 452
spon@@ 452
augh@@ 451
build 451
events 451
scott 451
attack 450
closed 450
conservative 450
engines 450
guiana 450
indie 450
kon@@ 450
pit@@ 450
ads 449
parker 449
requ@@ 449
salv@@ 449
sport 449
yard 449
abubakar 448
auth@@ 448
candidate 448
honor 448
hou@@ 448
ione 448
rams 448
speak@@ 448
auto@@ 447
convent@@ 447
itas 447
liv@@ 447
mans 447
mes 447
mixed 447
prepared 447
super 447
three-@@ 447
bou@@ 446
da@@ 446
fiction 446
future 446
inger 446
neighborhood 446
missions 445
om 445
particip@@ 445
industry 444
olymp@@ 444
pas@@ 444
try 444
600 443
create 443
haw@@ 443
lines 443
mercury 443
polit@@ 443
terminal 443
aya 442
character@@ 442
crit@@ 442
ood@@ 442
remaining 442
tta 442
class@@ 441
kes 441
ola 441
revol@@ 441
1967 440
1968 440
cost 440
either 440
fav@@ 440
fly 440
greenville 440
ind 440
tallest 440
1970 439
atoes 439
civ@@ 439
gest 439
iel@@ 439
jer@@ 439
nig@@ 439
palaeonto@@ 439
inde@@ 438
scrip@@ 438
200@@ 437
coll@@ 437
corps 437
ingen 437
labour 437
lo 437
neighbor@@ 437
performing 437
portion 437
ranked 437
soccer 437
1961 436
38@@ 436
hur@@ 436
ident@@ 436
morgan 436
pain@@ 436
al- 435
brothers 435
cture 435
ect 435
ethiopia 435
finishing 435
gy 435
kerala 435
ology 435
progr@@ 435
sions 435
stic 435
4th 434
bac@@ 434
finals 434
pages 434
tin 434
brussels 433
direct@@ 433
fant@@ 433
johann 433
nearby 433
ole 433
sent 433
sign@@ 433
89@@ 432
ef 432
ject@@ 432
standard 432
sure 432
buenos 431
grey 431
ves@@ 431
appearing 430
black@@ 430
emp@@ 430
le-@@ 430
seen 430
serv@@ 430
afonso 429
generation 429
hero@@ 429
ians 429
recording 429
série 429
trin@@ 429
ardmore 428
batagor 428
executive 428
hern@@ 428
lower 428
some@@ 428
usa 428
enter@@ 427
exp@@ 427
flour 427
performs 427
respect@@ 427
seats 427
television 427
0-@@ 426
cakes 426
defeated 426
fk 426
higher 426
indic@@ 426
kad@@ 426
lun@@ 426
ored 426
tor 426
42 425
alli@@ 425
asy 425
attica 425
cess@@ 425
defe@@ 425
iver 425
lia 425
repor@@ 425
abbreviation 424
aer@@ 424
blo@@ 424
dav@@ 424
ministry 424
sid@@ 424
word 424
aires 423
phillips 423
placing 423
variety 423
douglas 422
fortress 422
founder 422
hil@@ 422
lieutenant 422
opening 422
ota 422
ams 421
soh@@ 421
con 420
bbc 419
belongs 419
corporation 419
municipal 419
settlement 419
aida 418
anced 418
bow@@ 418
chancell@@ 418
decided 418
put 418
rick 418
routemap 418
smith 418
st-@@ 418
appearances 417
distinguished 417
helena 417
ject 417
manhattan 417
naming 417
read 417
taylor 417
wa 417
awards 416
eggs 416
gettysburg 416
hom@@ 416
pad 416
tram 416
apo@@ 415
chi 415
commission 415
daggett 415
del 415
lancashire 415
ox@@ 415
public@@ 415
wa@@ 415
wasp 415
ene 414
joining 414
repe@@ 414
thing 414
domin@@ 413
fleet 413
iii 413
montevideo 413
pes 413
severed 413
strong 413
bour@@ 412
composed 412
elements 412
gan@@ 412
hen@@ 412
volu@@ 412
mixture 411
retirement 411
67@@ 410
baths 410
comple@@ 410
cut 410
despite 410
ined 410
kers 410
arapiraquense 409
coast 409
ez 409
gs 409
ination 409
inaugur@@ 409
kö@@ 409
sq 409
tast@@ 409
ala 408
dest 408
fa@@ 408
library 408
metro 408
tv 408
1984 407
ball 407
camilla 407
capacity 407
edward 407
frederick 407
ob 407
oms 407
romance 407
stev@@ 407
1975 406
aleksey 406
ipped 406
mike 406
short@@ 406
terms 406
umb@@ 406
way@@ 406
arròs 405
exper@@ 405
magazine 405
mari@@ 405
ours 405
quarter@@ 405
territory 405
45@@ 404
chu@@ 404
four-@@ 404
fulton 404
rist@@ 404
turtles 404
à 404
bury 403
commun@@ 403
featuring 403
legislature 403
residents 403
rest 403
ution 403
villa@@ 403
additional 402
contributing 402
dance 402
ik@@ 402
lab@@ 402
susp@@ 402
1980s 401
financial 401
paylo@@ 401
surv@@ 401
adel@@ 400
brazil 400
columbus 400
highest 400
meters 400
train 400
alhambra 399
burns 399
clar@@ 399
motors 399
thus 399
una 399
aka 398
peri@@ 398
actions 397
alv 397
bureau 397
chirikov 397
combined 397
edition 397
independent 397
vincent 397
ampara 396
ao 396
busin@@ 396
conflict 396
dead 396
numerous 396
tain@@ 396
bass 395
bell 395
chap@@ 395
exhib@@ 395
jack 395
nish 395
pradesh 395
reve@@ 395
airey 394
carlos 394
glastonbury 394
itionally 394
list@@ 394
43 393
aut@@ 393
competed 393
got@@ 393
harr@@ 393
instru@@ 393
mean@@ 393
neave 393
steel 393
0000 392
anton@@ 392
arly 392
dbs 392
ix 392
mr 392
pav@@ 392
quarterly 392
show@@ 392
ute 392
amateur 391
campeonato 391
cesena 391
ched 391
destroy@@ 391
gas 391
ik 391
lad@@ 391
tic@@ 391
beam 390
bought 390
families 390
high-@@ 390
ills 390
ival@@ 390
mill@@ 390
nan 390
nature 390
retur@@ 390
rose 390
sville 390
tenn@@ 390
titans 390
65 389
almost 389
assist@@ 389
cad@@ 389
hoo@@ 389
ide@@ 389
lega 389
mah@@ 389
ria 389
runs 389
vehicles 389
110 388
84 388
beach 388
cruise 388
fen@@ 388
gun@@ 388
lay@@ 388
len 388
lim@@ 388
cell@@ 387
colonel 387
compr@@ 387
constitu@@ 387
cow@@ 387
marriott 387
uefa 387
wit@@ 387
ı@@ 387
astronom@@ 386
autom@@ 386
dary 386
elev@@ 386
entary 386
medical 386
mum 386
si 386
special@@ 386
tap@@ 386
201 385
adop@@ 385
campaign 385
chev@@ 385
fast 385
green@@ 385
hap@@ 385
mad 385
mex@@ 385
ood 385
recipe 385
sain@@ 385
settled 385
subsidi@@ 385
survey 385
tama 385
concept 384
extended 384
good 384
punk 384
relat@@ 384
alpharetta 383
helped 383
hygiea 383
kharaitiyat 383
opped 383
paris 383
ready 383
30@@ 382
adisham 382
founding 382
institut@@ 382
ky 382
malaysian 382
polis 382
suburban 382
uk@@ 382
wheeler 382
ar-@@ 381
centr@@ 381
euro 381
fe 381
felipe 381
frew 381
ival 381
luxury 381
ming 381
officially 381
onis 381
outside 381
peninsula 381
yo@@ 381
&apos;t 380
89 380
anci@@ 380
anim@@ 380
aus 380
inj@@ 380
judge 380
mac 380
method 380
spartak 380
tomato 380
jor@@ 379
nep@@ 379
titles 379
compete 378
conte@@ 378
cornell 378
gil@@ 378
julia 378
pietro 378
vi 378
expen@@ 377
itself 377
kee@@ 377
ket@@ 377
mus 377
nav@@ 377
nine 377
notable 377
operate 377
plans 377
pped 377
rup@@ 377
ska 377
strip 377
stuart 377
angel@@ 376
cast 376
colon@@ 376
failed 376
feature 376
gaz@@ 376
metric 376
mut@@ 376
net@@ 376
ys@@ 376
ín 376
arbor 375
dales 375
int 375
rank 375
separate 375
spices 375
sses 375
tery 375
48 374
agremiação 374
appears 374
bin@@ 374
dal@@ 374
differ@@ 374
eup 374
facilities 374
forced 374
king@@ 374
m-@@ 374
sport@@ 374
1089 373
catal@@ 373
chosen 373
hit 373
lah@@ 373
rail 373
salle 373
temperature 373
20th 372
doct@@ 372
inf@@ 372
influenced 372
let@@ 372
promin@@ 372
stown 372
ashed 371
associazione 371
backup 371
coal@@ 371
manag@@ 371
midfielder 371
seven@@ 371
-- 370
1954 370
australia 370
eled 370
erto 370
glen 370
independ@@ 370
kir@@ 370
placement 370
rear 370
sausage 370
separ@@ 370
victor@@ 370
wind@@ 370
88@@ 369
asil@@ 369
decembrie 369
move 369
ports 369
potato 369
roads 369
water@@ 369
cau@@ 368
claudiomaccone 368
parents 368
universe 368
wilder 368
abdulsalami 367
aur@@ 367
believ@@ 367
core 367
example 367
gri@@ 367
occupied 367
primarily 367
sister 367
ayan 366
gufa 366
issues 366
kin@@ 366
liter@@ 366
ty-@@ 366
allan 365
austrian 365
communic@@ 365
emb@@ 365
kilograms 365
pean@@ 365
1949 364
amdavad 364
autical 364
dean 364
phal@@ 364
sab@@ 364
shrimp 364
tural 364
1929 363
99 363
custom 363
gt@@ 363
help 363
iga 363
quaid 363
salt 363
uttar 363
agency 362
apped 362
chili 362
condu@@ 362
curr@@ 362
fest@@ 362
intro@@ 362
latter 362
love 362
predecess@@ 362
semi-@@ 362
shu@@ 362
access 361
ani 361
cus 361
det@@ 361
friend 361
reci@@ 361
sug@@ 361
wards 361
aip 360
back@@ 360
die@@ 360
got 360
iron 360
ought 360
perón 360
ura 360
airs 359
alle@@ 359
assembled 359
camp@@ 359
diff@@ 359
distri@@ 359
ira@@ 359
laid 359
livorno 359
olympi@@ 359
orbiting 359
palomar 359
princip@@ 359
web@@ 359
11264 358
19th 358
55@@ 358
alexander 358
associ@@ 358
call@@ 358
eigh@@ 358
freedom 358
gubbio 358
hi 358
investig@@ 358
particul@@ 358
promot@@ 358
singing 358
suppor@@ 358
1953 357
aled 357
fiat 357
icians 357
increased 357
leaf 357
leag@@ 357
reserve 357
residence 357
tour 357
addiction 356
bremen 356
ken 356
leaving 356
second-@@ 356
shared 356
steph@@ 356
ured 356
a- 355
alco@@ 355
aleksandre 355
alex@@ 355
assistant 355
braz@@ 355
crewed 355
dawson 355
ivers 355
north@@ 355
provid@@ 355
purpos@@ 355
supporting 355
youn@@ 355
agle 354
albums 354
ane@@ 354
find 354
lightcurve 354
sho@@ 354
athan 353
borough 353
eiro 353
hardcover 353
michel@@ 353
month 353
noodles 353
ped 353
qualif@@ 353
samar@@ 353
shows 353
swedish 353
accep@@ 352
agust@@ 352
alter@@ 352
behind 352
down@@ 352
guruli 352
ide 352
loan 352
pes@@ 352
pract@@ 352
sibal 352
ag 351
collection 351
ific@@ 351
join 351
occurr@@ 351
represent@@ 351
rights 351
wy@@ 351
alvis 350
ando 350
astronau@@ 350
detroit 350
elections 350
feder@@ 350
hav@@ 350
hera 350
lear@@ 350
parties 350
prefe@@ 350
prop@@ 350
superman 350
vision 350
albe@@ 349
districts 349
especially 349
fylde 349
lawyer 349
struct@@ 349
werder 349
1990s 348
compan@@ 348
consisted 348
countries 348
forward 348
powys 348
sher@@ 348
span@@ 348
writing 348
1931 347
angr@@ 347
atic 347
attac@@ 347
carbonaceous 347
changes 347
davis 347
eerste 347
festival 347
javanese 347
leaves 347
movement 347
nomin@@ 347
representative 347
tir@@ 347
video 347
aring 346
attorney 346
bun@@ 346
che 346
confeder@@ 346
cred@@ 346
ices 346
lag@@ 346
lockheed 346
malay 346
ok 346
vocal@@ 346
chall@@ 345
child 345
color 345
constitut@@ 345
disney 345
gary 345
image 345
individu@@ 345
japanese 345
lou@@ 345
observed 345
ould 345
police 345
schiphol 345
sequ@@ 345
titled 345
types 345
ández 345
abad 344
ades 344
aire 344
priestley 344
required 344
songwriter 344
wilson 344
± 344
86 343
boiled 343
clear 343
defined 343
discipline 343
fon@@ 343
gall@@ 343
grozny 343
pepper 343
sb 343
takes 343
awa 342
bill 342
chrysler 342
cross 342
die 342
gg@@ 342
ha 342
progre@@ 342
rand@@ 342
soci@@ 342
temporary 342
anthem 341
earlier 341
how@@ 341
ilton 341
kom@@ 341
logical 341
rather 341
rest@@ 341
scor@@ 341
soldiers 341
spider- 341
1905 340
alexandria 340
ares 340
give 340
hp 340
ire@@ 340
ocean 340
publication 340
relig@@ 340
spectr@@ 340
whom 340
1099 339
70 339
architect@@ 339
bab@@ 339
kansas 339
mostly 339
paraguay 339
potter 339
sir 339
wave 339
zia 339
09@@ 338
1862 338
barboza 338
beans 338
boeing 338
creation 338
enci@@ 338
ka@@ 338
las 338
registration 338
rout@@ 338
settlers 338
sides 338
south@@ 338
atio 337
celebr@@ 337
dor 337
ium 337
math 337
ously 337
trade 337
wall 337
woman 337
designer 336
divided 336
eur@@ 336
franc@@ 336
gained 336
gemini 336
georg@@ 336
jeff@@ 336
portr@@ 336
sist@@ 336
suburb 336
surrounding 336
twilight 336
vand@@ 336
vie@@ 336
ving 336
aa 335
adier 335
assault 335
cath@@ 335
chil@@ 335
langu@@ 335
queen 335
109 334
ace@@ 334
annual 334
birth@@ 334
fellow 334
franklin 334
graduating 334
motor 334
newsp@@ 334
pical 334
read@@ 334
turkmenistan 334
winners 334
4-@@ 333
augu@@ 333
aur 333
baymax 333
companies 333
compu@@ 333
editor@@ 333
flown 333
gulf 333
max 333
nes 333
noodle 333
oclc 333
asher 332
bass@@ 332
far 332
interest 332
ision 332
mix@@ 332
ress 332
standing 332
tus 332
advances 331
ankara 331
asun@@ 331
blt 331
chem@@ 331
cold 331
combination 331
merger 331
meyer 331
nic@@ 331
pa@@ 331
vac@@ 331
wis@@ 331
caused 330
china 330
compe@@ 330
dale 330
distin@@ 330
does 330
fier 330
heart 330
koc 330
noted 330
ober@@ 330
shape 330
sk 330
split 330
torpedo 330
a9@@ 329
buffalo 329
complete 329
educated 329
elle 329
quali@@ 329
real@@ 329
secret 329
sional 329
sit 329
157@@ 328
a1 328
aches 328
ae@@ 328
ame 328
bag@@ 328
eras@@ 328
interior 328
jens 328
jet 328
klasse 328
lydia 328
n-@@ 328
presid@@ 328
provin@@ 328
smaller 328
transfer 328
94 327
ever@@ 327
gaard 327
guitar@@ 327
ionary 327
oklahoma 327
quarter 327
ried 327
swit@@ 327
traff@@ 327
butter 326
cylinder 326
flag@@ 326
gian 326
grantville 326
jos@@ 326
losing 326
one-@@ 326
reach 326
reference 326
yes 326
1907 325
aen@@ 325
block 325
depic@@ 325
dra 325
enza 325
grow@@ 325
growing 325
jwaydan 325
lon@@ 325
stages 325
stop 325
thr@@ 325
1945 324
2-@@ 324
analysis 324
cumb@@ 324
elled 324
expanded 324
friends 324
gru@@ 324
phy 324
rich 324
skyscraper 324
wolf@@ 324
ico 323
lemon 323
measures 323
metap@@ 323
nigerian 323
rated 323
shut@@ 323
woo@@ 323
bert 322
formation 322
iting 322
orb@@ 322
rail@@ 322
abil@@ 321
ven 320
light@@ 319
oh@@ 318
eded 317
competit@@ 316
mp 315
ax 314
ced 314
chr@@ 314
ose 314
satell@@ 314
amed 313
ements 313
fiel@@ 313
fif@@ 313
gab@@ 313
ition@@ 313
od 313
vil@@ 311
incorpor@@ 310
commer@@ 309
ece 309
giv@@ 309
æ@@ 309
dge 308
lev@@ 306
sey 306
stoc@@ 306
success@@ 306
agu@@ 304
ation@@ 304
iss@@ 303
ners 303
sta 303
tot@@ 303
ç@@ 303
aar@@ 302
aft 302
secon@@ 302
spor@@ 302
writ@@ 302
“ 302
ato 301
cust@@ 301
shap@@ 301
amat@@ 300
subsequ@@ 299
syl@@ 299
eric@@ 298
willi@@ 297
follow@@ 296
ury 295
dam 294
fail@@ 294
link 294
organiz@@ 294
sor 294
releg@@ 293
urugu@@ 292
rom 291
terr@@ 291
champion@@ 290
figh@@ 289
bay@@ 288
mont 288
parliam@@ 288
ão 288
veget@@ 287
gun 285
origin@@ 285
sion@@ 285
š@@ 285
aves 284
just@@ 284
ipp@@ 283
nes@@ 283
akes 282
nas@@ 282
proper@@ 281
observ@@ 280
desig@@ 279
exam@@ 279
non@@ 279
pool 279
ae 278
philipp@@ 277
” 276
amar@@ 275
das 275
ances 274
chester 274
fam@@ 274
invest@@ 274
€ 274
acc@@ 273
invol@@ 273
ishing 273
org@@ 273
pau@@ 273
ami 271
ense 271
hig@@ 271
ú@@ 271
occup@@ 270
ron 270
ş@@ 270
regist@@ 269
outh 268
whe@@ 268
! 267
ific 267
moder@@ 267
of@@ 267
rele@@ 267
affili@@ 266
educ@@ 266
ety 266
prof@@ 264
rema@@ 262
ard@@ 261
cept 261
isa 261
orge 261
vill@@ 259
itude 258
pac@@ 258
provi@@ 258
imp@@ 257
recor@@ 257
semb@@ 256
grap@@ 255
rol 255
ames 254
illo 254
ith 254
manufactur@@ 254
devel@@ 252
abbrevi@@ 251
gradu@@ 250
ually 250
ature 249
chest@@ 249
eth@@ 249
ri 249
cial 248
iled 247
surroun@@ 246
yet 246
atory 245
icul@@ 245
ital 244
tch 244
ame@@ 243
demon@@ 243
ems 241
profes@@ 241
tak@@ 239
dist@@ 238
edit@@ 238
stitut@@ 238
hot@@ 237
roy@@ 237
consi@@ 236
ğ@@ 236
adi@@ 235
aster@@ 235
beg@@ 235
ingham 235
cut@@ 233
ician 233
lie 233
wash@@ 233
+ 232
1-@@ 232
kan@@ 232
gin@@ 231
surve@@ 230
ths 230
constru@@ 229
flu@@ 229
mbers 229
neigh@@ 229
agen 228
clas@@ 228
organ@@ 228
inhab@@ 227
legislat@@ 227
roun@@ 227
tech@@ 227
arti@@ 226
erland 226
contribu@@ 225
iana 225
arch 224
cons@@ 224
dece@@ 224
issu@@ 223
john@@ 223
yl@@ 223
ancell@@ 221
antio@@ 221
sci@@ 221
thom@@ 221
è@@ 221
aust@@ 219
lington 219
arded 218
refer@@ 218
andre@@ 217
uring 217
classi@@ 216
commission@@ 216
cutive 215
iti@@ 215
four@@ 214
mber 214
memor@@ 214
appoin@@ 212
scal@@ 212
champ@@ 211
mater@@ 211
vers 210
academ@@ 209
engine@@ 209
aceae 208
spl@@ 208
aleksand@@ 207
dia 207
describ@@ 206
hab@@ 206
ous@@ 205
with@@ 205
ə@@ 205
govern@@ 203
initi@@ 203
â@@ 203
ˈ@@ 203
ends 202
purch@@ 202
sic 201
tained 201
burn 200
clau@@ 200
fred@@ 200
locomot@@ 200
priv@@ 200
staf@@ 200
curve 199
pus 198
á 198
eat@@ 197
kov 196
labor@@ 196
alph@@ 195
becom@@ 195
ength 195
face 195
studi@@ 195
astern 193
ida 193
minut@@ 192
suc@@ 191
xim@@ 191
care@@ 190
austral@@ 189
use@@ 189
ı 189
mon 188
erse 187
usu@@ 187
yor@@ 187
chic@@ 186
gn@@ 186
lers 186
abl@@ 185
cause 185
corpor@@ 185
indi@@ 185
ior 185
yer 185
ür@@ 185
chin@@ 184
craft 184
ea 184
sche@@ 184
ste 184
candi@@ 183
law@@ 183
ols 183
ially 182
o-@@ 182
ji 181
rib@@ 181
accor@@ 180
common@@ 180
earli@@ 179
leton 179
sep@@ 179
ander 178
grou@@ 178
pay@@ 178
succe@@ 178
ë@@ 178
bran@@ 177
isis 177
performan@@ 177
kov@@ 176
plac@@ 175
premi@@ 175
apol@@ 174
discover@@ 173
lock 171
pak@@ 171
gul@@ 170
hond@@ 170
aul@@ 169
beh@@ 169
canad@@ 169
depart@@ 169
marri@@ 169
sandw@@ 169
sian 169
chur@@ 168
yland 168
administr@@ 167
carol@@ 167
duced 167
consist@@ 166
defin@@ 166
spart@@ 166
hl 165
signific@@ 165
contri@@ 164
fore 164
itu@@ 164
metro@@ 164
196@@ 163
exe@@ 163
semi@@ 163
depu@@ 162
mass@@ 162
nia 162
ö 162
doug@@ 161
isco 161
alexand@@ 160
bach 160
dag@@ 160
ß@@ 160
import@@ 159
aven@@ 158
estim@@ 158
forming 158
milit@@ 158
minist@@ 158
heal@@ 156
rey 156
thers 156
vel 156
mitted 155
regul@@ 155
#@@ 154
nex@@ 154
201@@ 153
anta 153
indu@@ 153
aster 152
maj@@ 152
sels 152
bra 151
stud@@ 151
free@@ 150
nell 150
ym 150
ining 149
jour@@ 149
qual@@ 149
deci@@ 148
midd@@ 148
simil@@ 148
ō 148
ake@@ 147
ault 147
bell@@ 147
territ@@ 147
commit@@ 146
degre@@ 146
icebreak@@ 146
sever@@ 146
techn@@ 146
chair@@ 145
erick 145
sus 144
ethiop@@ 143
iro 143
tempor@@ 140
ă@@ 140
dez 139
sage 139
stern 139
ue@@ 139
oce@@ 138
tro 138
utt@@ 138
ș@@ 138
arian 137
fred 137
loy@@ 137
vement 137
municip@@ 136
chang@@ 135
ket 135
ä 135
í 135
eth 134
rian 134
brit@@ 133
elli@@ 133
fus@@ 132
ril 132
foot@@ 130
rie 130
americ@@ 129
tional 129
conserv@@ 128
foun@@ 128
magn@@ 128
ook 128
eing 127
search 127
situ@@ 127
ō@@ 127
ž@@ 127
ishes 126
ordin@@ 126
ross 125
afric@@ 124
engl@@ 124
lomb@@ 124
peo@@ 124
publ@@ 124
ral@@ 124
scho@@ 124
ority 123
ă 123
aman 122
groun@@ 122
announ@@ 121
ful@@ 121
lie@@ 121
ń@@ 120
cs@@ 119
heim 119
modu@@ 119
prece@@ 119
remain@@ 119
ino@@ 118
iva 118
quot@@ 118
desp@@ 117
icity 117
atlant@@ 116
tries 116
alv@@ 115
explo@@ 115
annu@@ 114
ray@@ 114
× 114
å@@ 114
ː@@ 114
atives 112
open@@ 112
volunte@@ 112
ables 111
colum@@ 111
listic 111
was@@ 111
ethn@@ 110
ice@@ 110
alf@@ 109
soldi@@ 109
= 108
buil@@ 108
eur 108
ott 108
rud@@ 108
gur@@ 107
mini 107
oct@@ 107
ɪ@@ 107
skyscr@@ 106
dall@@ 105
schedu@@ 105
isation 104
kilo@@ 104
sio 104
oli 103
ó 103
ales@@ 102
amster@@ 102
iev@@ 102
wer@@ 102
£ 102
azerbai@@ 101
dani@@ 101
č@@ 101
crip@@ 100
lux@@ 100
đ@@ 100
atat@@ 99
metre 99
mercur@@ 98
quar@@ 98
rez 98
bang@@ 97
facil@@ 97
paragu@@ 97
design@@ 96
istan 96
min-@@ 96
onso 96
onto@@ 96
rid 96
ato@@ 95
danc@@ 95
poin@@ 95
crib@@ 94
cylin@@ 94
sert 94
stitu@@ 93
án@@ 93
aving 92
europe@@ 92
khar@@ 92
techno@@ 92
arg@@ 91
discipl@@ 91
output 91
tura 91
dicated 90
er- 90
hic@@ 90
quer@@ 90
administ@@ 89
aly@@ 88
heidel@@ 88
argent@@ 87
bai@@ 87
footb@@ 87
ğ 87
199@@ 86
blanco 86
eclip@@ 86
inau@@ 86
model@@ 86
‘ 86
aths 85
ipe 85
abdul@@ 84
daugh@@ 84
magaz@@ 84
muse@@ 84
nr@@ 84
organ 84
w-@@ 84
ration 83
vid@@ 83
cuis@@ 82
fer 82
penn@@ 82
eccentr@@ 81
romagn@@ 81
wiz@@ 81
jenn@@ 80
subur@@ 80
? 79
aller 79
borne 79
brus@@ 79
cio 79
nether@@ 78
secret@@ 78
squad@@ 78
campa@@ 77
metr@@ 77
alber@@ 76
distingu@@ 76
oug@@ 76
regi@@ 76
settle@@ 76
turk@@ 76
abar@@ 75
bhaj@@ 75
hamp@@ 75
hib@@ 75
summ@@ 75
ana@@ 74
divi@@ 74
pill@@ 74
get@@ 73
mai@@ 73
ô@@ 73
spid@@ 72
ś@@ 72
− 72
aba 71
alder@@ 71
bakar 71
ferred 71
assemb@@ 70
famil@@ 70
ference 70
libr@@ 70
provis@@ 70
ù 70
eliz@@ 69
occu@@ 69
syst@@ 69
ürk 69
event@@ 68
lor 68
secre@@ 68
self 68
vide@@ 68
anese 67
daw@@ 67
iri@@ 67
hosp@@ 66
pep@@ 66
stead 66
univ@@ 66
ę@@ 66
manufac@@ 65
ither 64
temper@@ 64
turkmen@@ 64
califor@@ 63
coordin@@ 63
evo 63
ict 63
isio 63
ool 63
idel@@ 62
map 62
monu@@ 62
aware 61
bav@@ 61
dding 61
ingu@@ 61
ə 61
found@@ 60
resp@@ 60
apolis 59
atlan@@ 59
hol 59
icip@@ 59
kara 59
para 59
redi@@ 59
chick@@ 58
cone 58
house@@ 58
politan 58
rd 58
sity 58
å 58
ange 57
oreg@@ 57
princi@@ 57
ț@@ 57
cele@@ 56
philli@@ 56
bure@@ 55
deriv@@ 55
dom 55
hus 55
ove 55
song@@ 55
ü 55
ż@@ 55
uru@@ 54
zah@@ 54
ā@@ 54
confl@@ 53
oman 53
alab@@ 52
olfo 52
statist@@ 52
aska 51
bor 51
committe@@ 50
feat@@ 50
⋅ 50
abu@@ 49
banan@@ 49
hael 49
quarters 49
ê@@ 49
analy@@ 48
stit@@ 48
tournam@@ 48
ş 48
commis@@ 47
itional 47
uary 47
ween 47
197@@ 46
198@@ 46
fren@@ 46
² 46
* 45
avail@@ 45
monte@@ 45
pie@@ 45
sas 45
abdu@@ 44
erly 44
jav@@ 44
tai@@ 44
rome@@ 43
demo@@ 42
itar@@ 42
malay@@ 42
nd 41
tay@@ 41
ì 41
alban@@ 40
mud 40
ń 40
ação 39
ectr@@ 39
georgi@@ 39
inclu@@ 39
indone@@ 39
isb@@ 39
ú 39
cali@@ 38
grams 38
issi@@ 38
legis@@ 38
negr@@ 38
temap 38
ł 38
ʊ@@ 38
arap@@ 37
him@@ 37
peninsul@@ 37
š 37
agremi@@ 36
aç@@ 35
buff@@ 35
lanc@@ 35
milli@@ 35
numer@@ 35
telev@@ 35
cogn@@ 34
indepen@@ 34
omin@@ 34
rhy@@ 34
virgin@@ 34
~ 34
î@@ 34
carbon@@ 33
insul@@ 33
rhyth@@ 33
sylvania 33
ý 33
ɛ@@ 33
adem@@ 32
blin 32
draf@@ 32
guit@@ 32
jaz@@ 32
mob@@ 32
asse 31
inet 31
jap@@ 31
mathe@@ 31
stadi@@ 31
start@@ 31
yat 31
ë 31
ɒ@@ 31
alo 30
blanc@@ 30
grant@@ 30
torpe@@ 30
ò 30
ą@@ 30
approxim@@ 29
backgroun@@ 29
hist@@ 29
incl@@ 29
specially 29
transport@@ 29
adis 28
finan@@ 28
zz 28
aig 27
arians 27
hatt@@ 27
iction 27
priest@@ 27
stly 27
stry 27
ć@@ 27
\ 26
abeth 26
ld 26
phot@@ 26
stem 26
tl@@ 26
vehic@@ 26
claudi@@ 25
clevel@@ 25
singap@@ 25
ß 25
ī@@ 25
cil 24
ckey 24
pard 24
prud@@ 24
sidi@@ 24
^ 23
mw-@@ 23
olf@@ 23
omar 23
republic@@ 23
achar@@ 22
ades@@ 22
adesh 22
aldr@@ 22
capac@@ 22
olym@@ 22
shri@@ 22
volun@@ 22
ð@@ 22
begin@@ 21
campe@@ 21
indian@@ 21
μ@@ 21
… 21
apos@@ 20
icut 20
lincol@@ 20
pilo@@ 20
sovi@@ 20
ï@@ 20
ę 20
ˌ@@ 20
⁄ 20
coup@@ 19
sé@@ 19
à@@ 19
è 19
ø 19
ř@@ 19
clip@@ 18
desliga 18
lieuten@@ 18
rotter@@ 18
tress 18
· 18
½ 18
œ@@ 18
ţ@@ 18
ū@@ 18
ɑ@@ 18
ʒ@@ 18
‑ 18
astero@@ 17
detro@@ 17
disci@@ 17
eredivis@@ 17
hout 17
quart@@ 17
ů@@ 17
-belt 16
heed 16
ś 16
antry 15
birm@@ 15
distric@@ 15
epo@@ 15
inhabit@@ 15
meth@@ 15
nikov 15
uli 15
uten@@ 15
ū 15
ɔ@@ 15
erian 14
θ@@ 14
attor@@ 13
bachel@@ 13
choy 13
ennie 13
jupit@@ 13
loway 13
mississi@@ 13
rebell@@ 13
retire@@ 13
264 12
abra@@ 12
alek@@ 12
archit@@ 12
buen@@ 12
fili@@ 12
â 12
ě@@ 12
ʊ 12
​ 12
` 11
antw@@ 11
gett 11
lond@@ 11
michig@@ 11
pied 11
ppi 11
sylvan@@ 11
û@@ 11
ź 11
ɡ@@ 11
е@@ 11
belgi@@ 10
klin 10
laun@@ 10
marty@@ 10
orig@@ 10
place@@ 10
primar@@ 10
schip@@ 10
tles 10
toge@@ 10
ʃ@@ 10
α@@ 10
κ@@ 10
@ 9
albu@@ 9
antwer@@ 9
cocon@@ 9
econ@@ 9
erte@@ 9
ocl@@ 9
octob@@ 9
pillar 9
previ@@ 9
raz 9
saraw@@ 9
³ 9
ê 9
ő@@ 9
ŵ@@ 9
ș 9
ː 9
έ@@ 9
η@@ 9
ς 9
ế 9
`@@ 8
ajo@@ 8
aston@@ 8
azer@@ 8
azione 8
charact@@ 8
copenh@@ 8
diame@@ 8
hygi@@ 8
iop@@ 8
tts 8
unti@@ 8
ô 8
ν@@ 8
ṭ@@ 8
₹ 8
aceous 7
erediv@@ 7
isham 7
lic 7
midfiel@@ 7
mosco@@ 7
passeng@@ 7
zeal@@ 7
þ@@ 7
ā 7
ι@@ 7
λ@@ 7
ο@@ 7
ρ@@ 7
τ@@ 7
с@@ 7
alfre@@ 6
astron@@ 6
categ@@ 6
eer@@ 6
indon@@ 6
mendr@@ 6
okla@@ 6
reti@@ 6
riciana 6
wiscons@@ 6
¥ 6
« 6
ʻ@@ 6
ε@@ 6
к@@ 6
ا@@ 6
bande@@ 5
getty@@ 5
perfor@@ 5
rote 5
ser-@@ 5
velo@@ 5
¡ 5
´ 5
º 5
» 5
árez 5
ð 5
ą 5
ź@@ 5
ɪ 5
ʌ@@ 5
ο 5
σ@@ 5
о@@ 5
р@@ 5
ố@@ 5
appear@@ 4
ewell 4
massachuse@@ 4
onato 4
ongs 4
prede@@ 4
querque 4
salami 4
ylde 4
ã@@ 4
ñ 4
õ@@ 4
ý@@ 4
ė@@ 4
ư@@ 4
ɜ@@ 4
ε 4
υ@@ 4
а@@ 4
н@@ 4
व@@ 4
₨ 4
饘 4
barbo@@ 3
bq 3
caball@@ 3
chiri@@ 3
nove@@ 3
palae@@ 3
socc@@ 3
tennes@@ 3
throug@@ 3
twil@@ 3
zny 3
§ 3
º@@ 3
ù@@ 3
č 3
ē 3
ė 3
ť 3
ț 3
ʏ@@ 3
ʼ@@ 3
δ@@ 3
ι 3
ό@@ 3
д@@ 3
и@@ 3
й 3
т@@ 3
у@@ 3
ل@@ 3
ა@@ 3
ớ@@ 3
ừ@@ 3
› 3
♭ 3
包 3
叉@@ 3
燒@@ 3
米@@ 3
粉 3
again@@ 2
aiti@@ 2
alcat@@ 2
alphare@@ 2
bangal@@ 2
decemb@@ 2
dren 2
gubb@@ 2
hambra 2
homa 2
icoff 2
illino@@ 2
ingredi@@ 2
josep@@ 2
karnat@@ 2
ketball 2
parli@@ 2
quired 2
switz@@ 2
¢ 2
µ 2
ã 2
ç 2
ì@@ 2
ģ@@ 2
ī 2
ţ 2
ɬ@@ 2
ʲ@@ 2
ʹ@@ 2
̣ 2
ί@@ 2
β 2
γ 2
θ 2
τ 2
χ@@ 2
ω 2
ω@@ 2
б 2
б@@ 2
в@@ 2
ж@@ 2
м@@ 2
т 2
ч@@ 2
ь@@ 2
ص@@ 2
و@@ 2
क 2
ट 2
ड 2
प@@ 2
़ 2
् 2
க@@ 2
ச@@ 2
ஞ 2
ி 2
் 2
ರ@@ 2
ಸ 2
ಹ@@ 2
ು 2
ೆ@@ 2
್ 2
ක@@ 2
ග@@ 2
ට 2
ත@@ 2
් 2
ු@@ 2
ො@@ 2
დ@@ 2
ი@@ 2
ლ@@ 2
ṛ@@ 2
ṣ@@ 2
ẩ@@ 2
ặ@@ 2
† 2
• 2
№ 2
✦ 2
粿 2
糜 2
酏 2
鬻 2
accadem@@ 1
accone 1
apsis 1
bion@@ 1
cater@@ 1
chrys@@ 1
derby@@ 1
ered@@ 1
ignit 1
iq@@ 1
kova@@ 1
manhatt@@ 1
nood@@ 1
septe@@ 1
teis@@ 1
visves@@ 1
zitar@@ 1
® 1
¼ 1
¾ 1
æ 1
ï 1
ò@@ 1
ÿ@@ 1
ē@@ 1
ĕ@@ 1
ņ@@ 1
ň 1
ň@@ 1
ŋ 1
ő 1
ť@@ 1
ż 1
ž 1
ǐ@@ 1
ȳ@@ 1
ɕ 1
ɦ@@ 1
ʃ 1
ʒ 1
ʼ 1
̯ 1
ά@@ 1
α 1
β@@ 1
γ@@ 1
ν 1
π@@ 1
φ 1
а 1
к 1
л@@ 1
н 1
о 1
п@@ 1
ы@@ 1
э@@ 1
ї@@ 1
ب@@ 1
ت@@ 1
ر 1
س@@ 1
ع@@ 1
ف@@ 1
ق 1
ق@@ 1
ل 1
ن 1
ن@@ 1
و 1
ِ 1
پ@@ 1
ښ@@ 1
ی@@ 1
ට@@ 1
ඩ@@ 1
ත 1
ස 1
ა 1
ე@@ 1
ვ@@ 1
ი 1
შ@@ 1
ჭ@@ 1
ḍ@@ 1
ṃ@@ 1
ṇ 1
ệ 1
ị@@ 1
ộ 1
ờ@@ 1
ἀ@@ 1
ῆ@@ 1
ῑ@@ 1
‍ 1
„ 1
⁠ 1
₺ 1
™ 1
⅔ 1
⑯ 1
★ 1
倉@@ 1
和@@ 1
小@@ 1
山@@ 1
峰 1
川@@ 1
庁 1
県@@ 1
秀@@ 1
粽 1
肉@@ 1
蒸@@ 1
調@@ 1
餐@@ 1
） 1
madeupword0000 0
madeupword0001 0
madeupword0002 0
